{
  "<pad>": 0,
  "<unk>": 1,
  "<bos>": 2,
  "<eos>": 3,
  "!": 4,
  "\"": 5,
  "#": 6,
  "$": 7,
  "%": 8,
  "&": 9,
  "'": 10,
  "(": 11,
  ")": 12,
  "*": 13,
  "+": 14,
  ",": 15,
  "-": 16,
  ".": 17,
  "/": 18,
  "0": 19,
  "1": 20,
  "2": 21,
  "3": 22,
  "4": 23,
  "5": 24,
  "6": 25,
  "7": 26,
  "8": 27,
  "9": 28,
  ":": 29,
  ";": 30,
  "<": 31,
  "=": 32,
  ">": 33,
  "?": 34,
  "@": 35,
  "A": 36,
  "B": 37,
  "C": 38,
  "D": 39,
  "E": 40,
  "F": 41,
  "G": 42,
  "H": 43,
  "I": 44,
  "J": 45,
  "K": 46,
  "L": 47,
  "M": 48,
  "N": 49,
  "O": 50,
  "P": 51,
  "Q": 52,
  "R": 53,
  "S": 54,
  "T": 55,
  "U": 56,
  "V": 57,
  "W": 58,
  "X": 59,
  "Y": 60,
  "Z": 61,
  "[": 62,
  "\\": 63,
  "]": 64,
  "^": 65,
  "_": 66,
  "`": 67,
  "a": 68,
  "b": 69,
  "c": 70,
  "d": 71,
  "e": 72,
  "f": 73,
  "g": 74,
  "h": 75,
  "i": 76,
  "j": 77,
  "k": 78,
  "l": 79,
  "m": 80,
  "n": 81,
  "o": 82,
  "p": 83,
  "q": 84,
  "r": 85,
  "s": 86,
  "t": 87,
  "u": 88,
  "v": 89,
  "w": 90,
  "x": 91,
  "y": 92,
  "z": 93,
  "{": 94,
  "|": 95,
  "}": 96,
  "~": 97,
  "¡": 98,
  "¢": 99,
  "£": 100,
  "¤": 101,
  "¥": 102,
  "¦": 103,
  "§": 104,
  "¨": 105,
  "©": 106,
  "ª": 107,
  "«": 108,
  "¬": 109,
  "®": 110,
  "¯": 111,
  "°": 112,
  "±": 113,
  "²": 114,
  "³": 115,
  "´": 116,
  "µ": 117,
  "¶": 118,
  "·": 119,
  "¸": 120,
  "¹": 121,
  "º": 122,
  "»": 123,
  "¼": 124,
  "½": 125,
  "¾": 126,
  "¿": 127,
  "À": 128,
  "Á": 129,
  "Â": 130,
  "Ã": 131,
  "Ä": 132,
  "Å": 133,
  "Æ": 134,
  "Ç": 135,
  "È": 136,
  "É": 137,
  "Ê": 138,
  "Ë": 139,
  "Ì": 140,
  "Í": 141,
  "Î": 142,
  "Ï": 143,
  "Ð": 144,
  "Ñ": 145,
  "Ò": 146,
  "Ó": 147,
  "Ô": 148,
  "Õ": 149,
  "Ö": 150,
  "×": 151,
  "Ø": 152,
  "Ù": 153,
  "Ú": 154,
  "Û": 155,
  "Ü": 156,
  "Ý": 157,
  "Þ": 158,
  "ß": 159,
  "à": 160,
  "á": 161,
  "â": 162,
  "ã": 163,
  "ä": 164,
  "å": 165,
  "æ": 166,
  "ç": 167,
  "è": 168,
  "é": 169,
  "ê": 170,
  "ë": 171,
  "ì": 172,
  "í": 173,
  "î": 174,
  "ï": 175,
  "ð": 176,
  "ñ": 177,
  "ò": 178,
  "ó": 179,
  "ô": 180,
  "õ": 181,
  "ö": 182,
  "÷": 183,
  "ø": 184,
  "ù": 185,
  "ú": 186,
  "û": 187,
  "ü": 188,
  "ý": 189,
  "þ": 190,
  "ÿ": 191,
  "Ā": 192,
  "ā": 193,
  "Ă": 194,
  "ă": 195,
  "Ą": 196,
  "ą": 197,
  "Ć": 198,
  "ć": 199,
  "Č": 200,
  "č": 201,
  "Ď": 202,
  "ď": 203,
  "Đ": 204,
  "đ": 205,
  "ē": 206,
  "ĕ": 207,
  "Ė": 208,
  "ė": 209,
  "Ę": 210,
  "ę": 211,
  "Ě": 212,
  "ě": 213,
  "ĝ": 214,
  "Ğ": 215,
  "ğ": 216,
  "ġ": 217,
  "ģ": 218,
  "ħ": 219,
  "ĩ": 220,
  "Ī": 221,
  "ī": 222,
  "Į": 223,
  "į": 224,
  "İ": 225,
  "ı": 226,
  "ķ": 227,
  "Ĺ": 228,
  "ĺ": 229,
  "ļ": 230,
  "Ľ": 231,
  "ľ": 232,
  "Ł": 233,
  "ł": 234,
  "Ń": 235,
  "ń": 236,
  "ņ": 237,
  "Ň": 238,
  "ň": 239,
  "Ō": 240,
  "ō": 241,
  "ŏ": 242,
  "Ő": 243,
  "ő": 244,
  "Œ": 245,
  "œ": 246,
  "ŕ": 247,
  "Ř": 248,
  "ř": 249,
  "Ś": 250,
  "ś": 251,
  "Ş": 252,
  "ş": 253,
  "Š": 254,
  "š": 255,
  "Ţ": 256,
  "ţ": 257,
  "ť": 258,
  "Ū": 259,
  "ū": 260,
  "ŭ": 261,
  "Ů": 262,
  "ů": 263,
  "Ű": 264,
  "ű": 265,
  "Ų": 266,
  "ų": 267,
  "Ÿ": 268,
  "ź": 269,
  "Ż": 270,
  "ż": 271,
  "Ž": 272,
  "ž": 273,
  "ſ": 274,
  "ƒ": 275,
  "ơ": 276,
  "ư": 277,
  "ǎ": 278,
  "ǐ": 279,
  "ǔ": 280,
  "ș": 281,
  "ț": 282,
  "ɐ": 283,
  "ɑ": 284,
  "ɔ": 285,
  "ə": 286,
  "ɛ": 287,
  "ɨ": 288,
  "ɪ": 289,
  "ɾ": 290,
  "ʃ": 291,
  "ʒ": 292,
  "ʿ": 293,
  "ˆ": 294,
  "ˈ": 295,
  "ˌ": 296,
  "ː": 297,
  "˙": 298,
  "˚": 299,
  "˛": 300,
  "˜": 301,
  "˝": 302,
  "́": 303,
  "̃": 304,
  "̈": 305,
  "̍": 306,
  "̤": 307,
  "Ά": 308,
  "Α": 309,
  "Β": 310,
  "Γ": 311,
  "Δ": 312,
  "Ε": 313,
  "Η": 314,
  "Θ": 315,
  "Ι": 316,
  "Κ": 317,
  "Λ": 318,
  "Μ": 319,
  "Ν": 320,
  "Ο": 321,
  "Π": 322,
  "Ρ": 323,
  "Σ": 324,
  "Τ": 325,
  "Υ": 326,
  "Φ": 327,
  "Χ": 328,
  "Ω": 329,
  "ά": 330,
  "έ": 331,
  "ή": 332,
  "ί": 333,
  "α": 334,
  "β": 335,
  "γ": 336,
  "δ": 337,
  "ε": 338,
  "ζ": 339,
  "η": 340,
  "θ": 341,
  "ι": 342,
  "κ": 343,
  "λ": 344,
  "μ": 345,
  "ν": 346,
  "ξ": 347,
  "ο": 348,
  "π": 349,
  "ρ": 350,
  "ς": 351,
  "σ": 352,
  "τ": 353,
  "υ": 354,
  "φ": 355,
  "χ": 356,
  "ψ": 357,
  "ω": 358,
  "ϋ": 359,
  "ό": 360,
  "ύ": 361,
  "ώ": 362,
  "Ё": 363,
  "Ђ": 364,
  "Ѓ": 365,
  "Є": 366,
  "І": 367,
  "Ї": 368,
  "Ј": 369,
  "Љ": 370,
  "Њ": 371,
  "Ћ": 372,
  "Ќ": 373,
  "Ў": 374,
  "Џ": 375,
  "А": 376,
  "Б": 377,
  "В": 378,
  "Г": 379,
  "Д": 380,
  "Е": 381,
  "Ж": 382,
  "З": 383,
  "И": 384,
  "Й": 385,
  "К": 386,
  "Л": 387,
  "М": 388,
  "Н": 389,
  "О": 390,
  "П": 391,
  "Р": 392,
  "С": 393,
  "Т": 394,
  "У": 395,
  "Ф": 396,
  "Х": 397,
  "Ц": 398,
  "Ч": 399,
  "Ш": 400,
  "Ы": 401,
  "Ь": 402,
  "Э": 403,
  "Ю": 404,
  "Я": 405,
  "а": 406,
  "б": 407,
  "в": 408,
  "г": 409,
  "д": 410,
  "е": 411,
  "ж": 412,
  "з": 413,
  "и": 414,
  "й": 415,
  "к": 416,
  "л": 417,
  "м": 418,
  "н": 419,
  "о": 420,
  "п": 421,
  "р": 422,
  "с": 423,
  "т": 424,
  "у": 425,
  "ф": 426,
  "х": 427,
  "ц": 428,
  "ч": 429,
  "ш": 430,
  "щ": 431,
  "ъ": 432,
  "ы": 433,
  "ь": 434,
  "э": 435,
  "ю": 436,
  "я": 437,
  "ё": 438,
  "ѓ": 439,
  "є": 440,
  "ѕ": 441,
  "і": 442,
  "ї": 443,
  "ј": 444,
  "љ": 445,
  "њ": 446,
  "ћ": 447,
  "ќ": 448,
  "ў": 449,
  "џ": 450,
  "Ґ": 451,
  "ґ": 452,
  "ғ": 453,
  "қ": 454,
  "ң": 455,
  "ү": 456,
  "ұ": 457,
  "һ": 458,
  "ә": 459,
  "ֳ": 460,
  "ִ": 461,
  "ָ": 462,
  "ּ": 463,
  "ֿ": 464,
  "א": 465,
  "ב": 466,
  "ג": 467,
  "ד": 468,
  "ה": 469,
  "ו": 470,
  "ז": 471,
  "ח": 472,
  "ט": 473,
  "י": 474,
  "כ": 475,
  "ל": 476,
  "ם": 477,
  "מ": 478,
  "ן": 479,
  "נ": 480,
  "ס": 481,
  "ע": 482,
  "פ": 483,
  "צ": 484,
  "ק": 485,
  "ר": 486,
  "ש": 487,
  "ת": 488,
  "،": 489,
  "ء": 490,
  "آ": 491,
  "أ": 492,
  "إ": 493,
  "ا": 494,
  "ب": 495,
  "ة": 496,
  "ت": 497,
  "ث": 498,
  "ج": 499,
  "ح": 500,
  "خ": 501,
  "د": 502,
  "ذ": 503,
  "ر": 504,
  "ز": 505,
  "س": 506,
  "ش": 507,
  "ص": 508,
  "ض": 509,
  "ط": 510,
  "ع": 511,
  "غ": 512,
  "ف": 513,
  "ق": 514,
  "ك": 515,
  "ل": 516,
  "م": 517,
  "ن": 518,
  "ه": 519,
  "و": 520,
  "ى": 521,
  "ي": 522,
  "ً": 523,
  "َ": 524,
  "ُ": 525,
  "ِ": 526,
  "ّ": 527,
  "ْ": 528,
  "پ": 529,
  "ک": 530,
  "ی": 531,
  "۰": 532,
  "۱": 533,
  "۲": 534,
  "۹": 535,
  "क": 536,
  "त": 537,
  "न": 538,
  "प": 539,
  "म": 540,
  "य": 541,
  "र": 542,
  "ल": 543,
  "स": 544,
  "ह": 545,
  "ा": 546,
  "ि": 547,
  "ु": 548,
  "े": 549,
  "्": 550,
  "র": 551,
  "্": 552,
  "்": 553,
  "ก": 554,
  "ข": 555,
  "ค": 556,
  "ง": 557,
  "จ": 558,
  "ช": 559,
  "ณ": 560,
  "ด": 561,
  "ต": 562,
  "ถ": 563,
  "ท": 564,
  "ธ": 565,
  "น": 566,
  "บ": 567,
  "ป": 568,
  "ผ": 569,
  "พ": 570,
  "ม": 571,
  "ย": 572,
  "ร": 573,
  "ล": 574,
  "ว": 575,
  "ศ": 576,
  "ส": 577,
  "ห": 578,
  "อ": 579,
  "ะ": 580,
  "ั": 581,
  "า": 582,
  "ำ": 583,
  "ิ": 584,
  "ี": 585,
  "ึ": 586,
  "ื": 587,
  "ุ": 588,
  "ู": 589,
  "เ": 590,
  "แ": 591,
  "โ": 592,
  "ใ": 593,
  "ไ": 594,
  "ๆ": 595,
  "็": 596,
  "่": 597,
  "้": 598,
  "์": 599,
  "ა": 600,
  "ბ": 601,
  "გ": 602,
  "დ": 603,
  "ე": 604,
  "ვ": 605,
  "ი": 606,
  "ლ": 607,
  "მ": 608,
  "ნ": 609,
  "ო": 610,
  "რ": 611,
  "ს": 612,
  "ტ": 613,
  "შ": 614,
  "ዓ": 615,
  "ḥ": 616,
  "ṭ": 617,
  "ṳ": 618,
  "ạ": 619,
  "ả": 620,
  "ế": 621,
  "ề": 622,
  "ệ": 623,
  "ố": 624,
  "ồ": 625,
  "ộ": 626,
  "ớ": 627,
  "ờ": 628,
  "ữ": 629,
  "‐": 630,
  "‑": 631,
  "–": 632,
  "—": 633,
  "―": 634,
  "‘": 635,
  "’": 636,
  "‚": 637,
  "‛": 638,
  "“": 639,
  "”": 640,
  "„": 641,
  "‟": 642,
  "†": 643,
  "‡": 644,
  "•": 645,
  "…": 646,
  "‰": 647,
  "′": 648,
  "″": 649,
  "‹": 650,
  "›": 651,
  "※": 652,
  "⁄": 653,
  "₂": 654,
  "€": 655,
  "№": 656,
  "™": 657,
  "Ω": 658,
  "←": 659,
  "↑": 660,
  "→": 661,
  "⇒": 662,
  "⇢": 663,
  "−": 664,
  "√": 665,
  "∞": 666,
  "≈": 667,
  "≤": 668,
  "≥": 669,
  "≪": 670,
  "≫": 671,
  "─": 672,
  "│": 673,
  "╚": 674,
  "╩": 675,
  "▒": 676,
  "■": 677,
  "▪": 678,
  "►": 679,
  "◆": 680,
  "◊": 681,
  "○": 682,
  "◎": 683,
  "●": 684,
  "★": 685,
  "☆": 686,
  "♣": 687,
  "♥": 688,
  "♦": 689,
  "♪": 690,
  "、": 691,
  "。": 692,
  "「": 693,
  "」": 694,
  "『": 695,
  "』": 696,
  "【": 697,
  "】": 698,
  "あ": 699,
  "い": 700,
  "う": 701,
  "え": 702,
  "お": 703,
  "か": 704,
  "が": 705,
  "き": 706,
  "く": 707,
  "け": 708,
  "こ": 709,
  "さ": 710,
  "し": 711,
  "じ": 712,
  "す": 713,
  "せ": 714,
  "た": 715,
  "だ": 716,
  "ち": 717,
  "っ": 718,
  "つ": 719,
  "て": 720,
  "で": 721,
  "と": 722,
  "な": 723,
  "に": 724,
  "の": 725,
  "は": 726,
  "ば": 727,
  "ま": 728,
  "み": 729,
  "も": 730,
  "よ": 731,
  "ら": 732,
  "り": 733,
  "る": 734,
  "れ": 735,
  "わ": 736,
  "を": 737,
  "ん": 738,
  "ア": 739,
  "イ": 740,
  "オ": 741,
  "カ": 742,
  "コ": 743,
  "ジ": 744,
  "ス": 745,
  "タ": 746,
  "ッ": 747,
  "テ": 748,
  "ト": 749,
  "ド": 750,
  "ナ": 751,
  "バ": 752,
  "フ": 753,
  "プ": 754,
  "マ": 755,
  "メ": 756,
  "ラ": 757,
  "リ": 758,
  "ル": 759,
  "レ": 760,
  "ン": 761,
  "・": 762,
  "ー": 763,
  "一": 764,
  "三": 765,
  "上": 766,
  "下": 767,
  "不": 768,
  "东": 769,
  "个": 770,
  "中": 771,
  "为": 772,
  "乐": 773,
  "也": 774,
  "了": 775,
  "事": 776,
  "二": 777,
  "五": 778,
  "亚": 779,
  "交": 780,
  "产": 781,
  "京": 782,
  "人": 783,
  "仁": 784,
  "以": 785,
  "会": 786,
  "伦": 787,
  "但": 788,
  "体": 789,
  "元": 790,
  "克": 791,
  "免": 792,
  "入": 793,
  "全": 794,
  "八": 795,
  "公": 796,
  "内": 797,
  "农": 798,
  "出": 799,
  "分": 800,
  "切": 801,
  "刘": 802,
  "到": 803,
  "前": 804,
  "加": 805,
  "动": 806,
  "北": 807,
  "区": 808,
  "匿": 809,
  "十": 810,
  "南": 811,
  "博": 812,
  "厂": 813,
  "原": 814,
  "去": 815,
  "发": 816,
  "取": 817,
  "口": 818,
  "可": 819,
  "台": 820,
  "司": 821,
  "合": 822,
  "吉": 823,
  "名": 824,
  "吗": 825,
  "和": 826,
  "品": 827,
  "啦": 828,
  "四": 829,
  "国": 830,
  "图": 831,
  "國": 832,
  "土": 833,
  "在": 834,
  "地": 835,
  "场": 836,
  "城": 837,
  "增": 838,
  "士": 839,
  "多": 840,
  "大": 841,
  "天": 842,
  "套": 843,
  "女": 844,
  "如": 845,
  "娱": 846,
  "婷": 847,
  "子": 848,
  "字": 849,
  "学": 850,
  "安": 851,
  "定": 852,
  "家": 853,
  "容": 854,
  "寺": 855,
  "寿": 856,
  "小": 857,
  "少": 858,
  "就": 859,
  "山": 860,
  "岛": 861,
  "島": 862,
  "州": 863,
  "工": 864,
  "市": 865,
  "常": 866,
  "平": 867,
  "年": 868,
  "应": 869,
  "式": 870,
  "引": 871,
  "当": 872,
  "影": 873,
  "得": 874,
  "心": 875,
  "思": 876,
  "性": 877,
  "情": 878,
  "成": 879,
  "我": 880,
  "手": 881,
  "持": 882,
  "文": 883,
  "料": 884,
  "新": 885,
  "方": 886,
  "日": 887,
  "明": 888,
  "易": 889,
  "是": 890,
  "更": 891,
  "最": 892,
  "月": 893,
  "有": 894,
  "木": 895,
  "本": 896,
  "机": 897,
  "李": 898,
  "来": 899,
  "杨": 900,
  "東": 901,
  "松": 902,
  "林": 903,
  "枫": 904,
  "核": 905,
  "楽": 906,
  "模": 907,
  "正": 908,
  "武": 909,
  "比": 910,
  "民": 911,
  "水": 912,
  "江": 913,
  "法": 914,
  "洲": 915,
  "海": 916,
  "淫": 917,
  "清": 918,
  "漢": 919,
  "爱": 920,
  "片": 921,
  "物": 922,
  "王": 923,
  "球": 924,
  "理": 925,
  "生": 926,
  "用": 927,
  "田": 928,
  "电": 929,
  "白": 930,
  "的": 931,
  "直": 932,
  "相": 933,
  "知": 934,
  "石": 935,
  "社": 936,
  "神": 937,
  "禅": 938,
  "种": 939,
  "科": 940,
  "空": 941,
  "站": 942,
  "简": 943,
  "管": 944,
  "線": 945,
  "网": 946,
  "美": 947,
  "而": 948,
  "能": 949,
  "自": 950,
  "舞": 951,
  "色": 952,
  "艳": 953,
  "茶": 954,
  "行": 955,
  "西": 956,
  "見": 957,
  "见": 958,
  "言": 959,
  "語": 960,
  "论": 961,
  "语": 962,
  "赌": 963,
  "越": 964,
  "路": 965,
  "载": 966,
  "迅": 967,
  "过": 968,
  "运": 969,
  "这": 970,
  "道": 971,
  "都": 972,
  "酒": 973,
  "里": 974,
  "重": 975,
  "量": 976,
  "金": 977,
  "问": 978,
  "雄": 979,
  "雷": 980,
  "青": 981,
  "面": 982,
  "音": 983,
  "頂": 984,
  "顶": 985,
  "颖": 986,
  "题": 987,
  "風": 988,
  "食": 989,
  "馬": 990,
  "高": 991,
  "국": 992,
  "년": 993,
  "어": 994,
  "이": 995,
  "한": 996,
  "ﬁ": 997,
  "ﬂ": 998,
  "（": 999,
  "）": 1000,
  "，": 1001,
  "－": 1002,
  "：": 1003,
  "о</w>": 1004,
  "3</w>": 1005,
  "e</w>": 1006,
  "ь</w>": 1007,
  "a</w>": 1008,
  "o</w>": 1009,
  "n</w>": 1010,
  "s</w>": 1011,
  "r</w>": 1012,
  "t</w>": 1013,
  "g</w>": 1014,
  "H</w>": 1015,
  "y</w>": 1016,
  "d</w>": 1017,
  "m</w>": 1018,
  "V</w>": 1019,
  "x</w>": 1020,
  "2</w>": 1021,
  "G</w>": 1022,
  "м</w>": 1023,
  "5</w>": 1024,
  "T</w>": 1025,
  "f</w>": 1026,
  "p</w>": 1027,
  "и</w>": 1028,
  "6</w>": 1029,
  "z</w>": 1030,
  "N</w>": 1031,
  "l</w>": 1032,
  "1</w>": 1033,
  "4</w>": 1034,
  "K</w>": 1035,
  "v</w>": 1036,
  "ę</w>": 1037,
  "k</w>": 1038,
  "b</w>": 1039,
  "7</w>": 1040,
  "S</w>": 1041,
  "í</w>": 1042,
  "h</w>": 1043,
  "i</w>": 1044,
  "à</w>": 1045,
  "u</w>": 1046,
  "I</w>": 1047,
  "8</w>": 1048,
  "®</w>": 1049,
  "E</w>": 1050,
  "é</w>": 1051,
  "X</w>": 1052,
  "w</w>": 1053,
  "0</w>": 1054,
  "ß</w>": 1055,
  "R</w>": 1056,
  "O</w>": 1057,
  "ă</w>": 1058,
  "ω</w>": 1059,
  "ي</w>": 1060,
  "L</w>": 1061,
  "W</w>": 1062,
  "е</w>": 1063,
  "й</w>": 1064,
  "P</w>": 1065,
  "ÿ</w>": 1066,
  "η</w>": 1067,
  "U</w>": 1068,
  "F</w>": 1069,
  "j</w>": 1070,
  "к</w>": 1071,
  "а</w>": 1072,
  "с</w>": 1073,
  "D</w>": 1074,
  "M</w>": 1075,
  "B</w>": 1076,
  "ι</w>": 1077,
  "A</w>": 1078,
  "c</w>": 1079,
  "ý</w>": 1080,
  "C</w>": 1081,
  "á</w>": 1082,
  "ř</w>": 1083,
  "♣</w>": 1084,
  "9</w>": 1085,
  "ї</w>": 1086,
  "년</w>": 1087,
  "я</w>": 1088,
  "ç</w>": 1089,
  "ô</w>": 1090,
  "н</w>": 1091,
  "ł</w>": 1092,
  "ć</w>": 1093,
  "Y</w>": 1094,
  "¨</w>": 1095,
  "ö</w>": 1096,
  "Г</w>": 1097,
  "И</w>": 1098,
  "º</w>": 1099,
  "q</w>": 1100,
  "в</w>": 1101,
  "ě</w>": 1102,
  "і</w>": 1103,
  "ر</w>": 1104,
  "у</w>": 1105,
  "ê</w>": 1106,
  "ı</w>": 1107,
  "ą</w>": 1108,
  "Z</w>": 1109,
  "™</w>": 1110,
  "α</w>": 1111,
  "˙</w>": 1112,
  "ó</w>": 1113,
  "š</w>": 1114,
  "ź</w>": 1115,
  "â</w>": 1116,
  "ы</w>": 1117,
  "д</w>": 1118,
  "ò</w>": 1119,
  "©</w>": 1120,
  "х</w>": 1121,
  "Â</w>": 1122,
  "ス</w>": 1123,
  "Ê</w>": 1124,
  "Í</w>": 1125,
  "´</w>": 1126,
  "ๆ</w>": 1127,
  "É</w>": 1128,
  "õ</w>": 1129,
  "ä</w>": 1130,
  "ο</w>": 1131,
  "ш</w>": 1132,
  "î</w>": 1133,
  "т</w>": 1134,
  "¹</w>": 1135,
  "ю</w>": 1136,
  "ό</w>": 1137,
  "č</w>": 1138,
  "د</w>": 1139,
  "å</w>": 1140,
  "С</w>": 1141,
  "²</w>": 1142,
  "Ų</w>": 1143,
  "¸</w>": 1144,
  "л</w>": 1145,
  "ï</w>": 1146,
  "п</w>": 1147,
  "青</w>": 1148,
  "ћ</w>": 1149,
  "р</w>": 1150,
  "œ</w>": 1151,
  "ú</w>": 1152,
  "ã</w>": 1153,
  "Ã</w>": 1154,
  "ك</w>": 1155,
  "ì</w>": 1156,
  "ü</w>": 1157,
  "−</w>": 1158,
  "Ð</w>": 1159,
  "ń</w>": 1160,
  "ة</w>": 1161,
  "ů</w>": 1162,
  "Э</w>": 1163,
  "Ö</w>": 1164,
  "ת</w>": 1165,
  "ű</w>": 1166,
  "ς</w>": 1167,
  "╩</w>": 1168,
  "β</w>": 1169,
  "ő</w>": 1170,
  "J</w>": 1171,
  "ŕ</w>": 1172,
  "°</w>": 1173,
  "ň</w>": 1174,
  "ĺ</w>": 1175,
  "ż</w>": 1176,
  "Д</w>": 1177,
  "Ω</w>": 1178,
  "る</w>": 1179,
  "ら</w>": 1180,
  "Q</w>": 1181,
  "م</w>": 1182,
  "¬</w>": 1183,
  "χ</w>": 1184,
  "だ</w>": 1185,
  "は</w>": 1186,
  "ţ</w>": 1187,
  "Р</w>": 1188,
  "ت</w>": 1189,
  "г</w>": 1190,
  "ù</w>": 1191,
  "な</w>": 1192,
  "ع</w>": 1193,
  "ν</w>": 1194,
  "に</w>": 1195,
  "Ο</w>": 1196,
  "ñ</w>": 1197,
  "ō</w>": 1198,
  "́</w>": 1199,
  "み</w>": 1200,
  "ā</w>": 1201,
  "ύ</w>": 1202,
  "Ü</w>": 1203,
  "υ</w>": 1204,
  "€</w>": 1205,
  "Ι</w>": 1206,
  "ი</w>": 1207,
  "ė</w>": 1208,
  "ή</w>": 1209,
  "Х</w>": 1210,
  "æ</w>": 1211,
  "Ä</w>": 1212,
  "ِ</w>": 1213,
  "ǎ</w>": 1214,
  "ε</w>": 1215,
  "س</w>": 1216,
  "ن</w>": 1217,
  "Ś</w>": 1218,
  "动</w>": 1219,
  "У</w>": 1220,
  "ә</w>": 1221,
  "י</w>": 1222,
  "ב</w>": 1223,
  "≥</w>": 1224,
  "μ</w>": 1225,
  "±</w>": 1226,
  "¤</w>": 1227,
  "İ</w>": 1228,
  "è</w>": 1229,
  "ф</w>": 1230,
  "ו</w>": 1231,
  "³</w>": 1232,
  "Á</w>": 1233,
  "♥</w>": 1234,
  "з</w>": 1235,
  "З</w>": 1236,
  "џ</w>": 1237,
  "ส</w>": 1238,
  "ش</w>": 1239,
  "ī</w>": 1240,
  "ː</w>": 1241,
  "น</w>": 1242,
  "ل</w>": 1243,
  "ś</w>": 1244,
  "£</w>": 1245,
  "Ђ</w>": 1246,
  "Š</w>": 1247,
  "Ç</w>": 1248,
  "ר</w>": 1249,
  "ј</w>": 1250,
  "ť</w>": 1251,
  "ά</w>": 1252,
  "ן</w>": 1253,
  "ď</w>": 1254,
  "ş</w>": 1255,
  "ц</w>": 1256,
  "ž</w>": 1257,
  "ļ</w>": 1258,
  "э</w>": 1259,
  "来</w>": 1260,
  "А</w>": 1261,
  "ľ</w>": 1262,
  "ق</w>": 1263,
  "ч</w>": 1264,
  "þ</w>": 1265,
  "√</w>": 1266,
  "ǐ</w>": 1267,
  "ト</w>": 1268,
  "۱</w>": 1269,
  "ם</w>": 1270,
  "▒</w>": 1271,
  "を</w>": 1272,
  "ə</w>": 1273,
  "（</w>": 1274,
  "名</w>": 1275,
  "≪</w>": 1276,
  "ע</w>": 1277,
  "ى</w>": 1278,
  "σ</w>": 1279,
  "ה</w>": 1280,
  "є</w>": 1281,
  "ー</w>": 1282,
  "Ѓ</w>": 1283,
  "û</w>": 1284,
  "ه</w>": 1285,
  "˝</w>": 1286,
  "ë</w>": 1287,
  "こ</w>": 1288,
  "ʒ</w>": 1289,
  "ל</w>": 1290,
  "ب</w>": 1291,
  "雄</w>": 1292,
  "ف</w>": 1293,
  "ɐ</w>": 1294,
  "ί</w>": 1295,
  "ų</w>": 1296,
  "王</w>": 1297,
  "Ć</w>": 1298,
  "ø</w>": 1299,
  "Α</w>": 1300,
  "۲</w>": 1301,
  "ū</w>": 1302,
  "ง</w>": 1303,
  "的</w>": 1304,
  "ს</w>": 1305,
  "ɾ</w>": 1306,
  "ē</w>": 1307,
  "ŏ</w>": 1308,
  "Ÿ</w>": 1309,
  "Π</w>": 1310,
  "Ú</w>": 1311,
  "ا</w>": 1312,
  "・</w>": 1313,
  "日</w>": 1314,
  "ד</w>": 1315,
  "Ô</w>": 1316,
  "Φ</w>": 1317,
  "µ</w>": 1318,
  "ŭ</w>": 1319,
  "←</w>": 1320,
  "つ</w>": 1321,
  "า</w>": 1322,
  "ल</w>": 1323,
  "ж</w>": 1324,
  "¢</w>": 1325,
  "ќ</w>": 1326,
  "す</w>": 1327,
  "ე</w>": 1328,
  "̤</w>": 1329,
  "禅</w>": 1330,
  "せ</w>": 1331,
  "À</w>": 1332,
  "」</w>": 1333,
  "じ</w>": 1334,
  "ğ</w>": 1335,
  "Ё</w>": 1336,
  "Å</w>": 1337,
  "δ</w>": 1338,
  "⇢</w>": 1339,
  "র</w>": 1340,
  "+</w>": 1341,
  "˛</w>": 1342,
  "‰</w>": 1343,
  "╚</w>": 1344,
  "Е</w>": 1345,
  "В</w>": 1346,
  "ð</w>": 1347,
  "吗</w>": 1348,
  "І</w>": 1349,
  "Ý</w>": 1350,
  "ช</w>": 1351,
  "ĩ</w>": 1352,
  "Ќ</w>": 1353,
  "ล</w>": 1354,
  "М</w>": 1355,
  "მ</w>": 1356,
  "も</w>": 1357,
  "ả</w>": 1358,
  "│</w>": 1359,
  "ッ</w>": 1360,
  "ġ</w>": 1361,
  "地</w>": 1362,
  "ば</w>": 1363,
  "て</w>": 1364,
  "ё</w>": 1365,
  "く</w>": 1366,
  "ء</w>": 1367,
  "越</w>": 1368,
  "त</w>": 1369,
  "क</w>": 1370,
  "Ő</w>": 1371,
  "¼</w>": 1372,
  "ώ</w>": 1373,
  "Я</w>": 1374,
  "ў</w>": 1375,
  "Ґ</w>": 1376,
  "Ò</w>": 1377,
  "đ</w>": 1378,
  "Ė</w>": 1379,
  "ح</w>": 1380,
  "Ì</w>": 1381,
  "/</w>": 1382,
  "π</w>": 1383,
  "ะ</w>": 1384,
  "ט</w>": 1385,
  "メ</w>": 1386,
  "ز</w>": 1387,
  "×</w>": 1388,
  "¦</w>": 1389,
  "女</w>": 1390,
  "Б</w>": 1391,
  "न</w>": 1392,
  "不</w>": 1393,
  "ﬁ</w>": 1394,
  "模</w>": 1395,
  "─</w>": 1396,
  "ǔ</w>": 1397,
  "َ</w>": 1398,
  "一</w>": 1399,
  "Σ</w>": 1400,
  "њ</w>": 1401,
  "و</w>": 1402,
  "П</w>": 1403,
  "Ó</w>": 1404,
  "○</w>": 1405,
  "·</w>": 1406,
  "È</w>": 1407,
  "ด</w>": 1408,
  "ש</w>": 1409,
  "О</w>": 1410,
  "ɔ</w>": 1411,
  "Ф</w>": 1412,
  "~</w>": 1413,
  "重</w>": 1414,
  "ط</w>": 1415,
  "啦</w>": 1416,
  "爱</w>": 1417,
  "★</w>": 1418,
  "切</w>": 1419,
  "ª</w>": 1420,
  "片</w>": 1421,
  "高</w>": 1422,
  "र</w>": 1423,
  "【</w>": 1424,
  "里</w>": 1425,
  "ی</w>": 1426,
  "口</w>": 1427,
  "Æ</w>": 1428,
  "ก</w>": 1429,
  "ס</w>": 1430,
  "の</w>": 1431,
  "ิ</w>": 1432,
  "图</w>": 1433,
  "К</w>": 1434,
  "¶</w>": 1435,
  "ა</w>": 1436,
  "ث</w>": 1437,
  "Õ</w>": 1438,
  "Ń</w>": 1439,
  "ң</w>": 1440,
  "Ν</w>": 1441,
  "Î</w>": 1442,
  "た</w>": 1443,
  "(</w>": 1444,
  "Č</w>": 1445,
  "多</w>": 1446,
  "ル</w>": 1447,
  "ม</w>": 1448,
  "Ю</w>": 1449,
  "Ω</w>": 1450,
  "島</w>": 1451,
  "ा</w>": 1452,
  "Ñ</w>": 1453,
  "½</w>": 1454,
  "市</w>": 1455,
  "Ï</w>": 1456,
  "Ь</w>": 1457,
  "Џ</w>": 1458,
  "ħ</w>": 1459,
  "ラ</w>": 1460,
  "よ</w>": 1461,
  "่</w>": 1462,
  "Ы</w>": 1463,
  "常</w>": 1464,
  "Ž</w>": 1465,
  "Ą</w>": 1466,
  "ン</w>": 1467,
  "į</w>": 1468,
  "บ</w>": 1469,
  "ư</w>": 1470,
  "№</w>": 1471,
  "غ</w>": 1472,
  "¾</w>": 1473,
  "Љ</w>": 1474,
  "言</w>": 1475,
  "ึ</w>": 1476,
  "站</w>": 1477,
  "ѓ</w>": 1478,
  "‹</w>": 1479,
  "א</w>": 1480,
  "ɪ</w>": 1481,
  "Į</w>": 1482,
  "迅</w>": 1483,
  "元</w>": 1484,
  "ี</w>": 1485,
  "ْ</w>": 1486,
  "ζ</w>": 1487,
  "ʿ</w>": 1488,
  "‡</w>": 1489,
  "道</w>": 1490,
  "か</w>": 1491,
  "路</w>": 1492,
  "*</w>": 1493,
  "Ă</w>": 1494,
  "到</w>": 1495,
  "ำ</w>": 1496,
  "安</w>": 1497,
  "ז</w>": 1498,
  "Ц</w>": 1499,
  "※</w>": 1500,
  "έ</w>": 1501,
  "乐</w>": 1502,
  "ſ</w>": 1503,
  "Δ</w>": 1504,
  "ố</w>": 1505,
  "原</w>": 1506,
  "ק</w>": 1507,
  "北</w>": 1508,
  "이</w>": 1509,
  "フ</w>": 1510,
  "Ћ</w>": 1511,
  "Η</w>": 1512,
  "い</w>": 1513,
  "公</w>": 1514,
  "Ű</w>": 1515,
  "カ</w>": 1516,
  "ย</w>": 1517,
  "‚</w>": 1518,
  "γ</w>": 1519,
  "¥</w>": 1520,
  "西</w>": 1521,
  "イ</w>": 1522,
  "で</w>": 1523,
  "新</w>": 1524,
  "@</w>": 1525,
  "■</w>": 1526,
  "き</w>": 1527,
  "吉</w>": 1528,
  "₂</w>": 1529,
  "ѕ</w>": 1530,
  "Ε</w>": 1531,
  "Н</w>": 1532,
  "#</w>": 1533,
  "Μ</w>": 1534,
  "‛</w>": 1535,
  "式</w>": 1536,
  "れ</w>": 1537,
  "赌</w>": 1538,
  "ま</w>": 1539,
  "Û</w>": 1540,
  "λ</w>": 1541,
  "ρ</w>": 1542,
  "′</w>": 1543,
  "生</w>": 1544,
  "运</w>": 1545,
  "б</w>": 1546,
  "と</w>": 1547,
  "˜</w>": 1548,
  "テ</w>": 1549,
  "ț</w>": 1550,
  "就</w>": 1551,
  "ʃ</w>": 1552,
  "φ</w>": 1553,
  "‐</w>": 1554,
  "Ů</w>": 1555,
  "量</w>": 1556,
  "ח</w>": 1557,
  "۰</w>": 1558,
  "ジ</w>": 1559,
  "这</w>": 1560,
  "ア</w>": 1561,
  "–</w>": 1562,
  "音</w>": 1563,
  "が</w>": 1564,
  "้</w>": 1565,
  "어</w>": 1566,
  "ُ</w>": 1567,
  "お</w>": 1568,
  "洲</w>": 1569,
  "Њ</w>": 1570,
  "Ě</w>": 1571,
  "></w>": 1572,
  "Ō</w>": 1573,
  "ん</w>": 1574,
  "京</w>": 1575,
  "『</w>": 1576,
  "品</w>": 1577,
  "線</w>": 1578,
  "网</w>": 1579,
  "李</w>": 1580,
  "う</w>": 1581,
  "¯</w>": 1582,
  "Œ</w>": 1583,
  "ƒ</w>": 1584,
  "щ</w>": 1585,
  "\\</w>": 1586,
  "字</w>": 1587,
  "加</w>": 1588,
  "Χ</w>": 1589,
  "،</w>": 1590,
  "さ</w>": 1591,
  "τ</w>": 1592,
  "—</w>": 1593,
  "म</w>": 1594,
  "Þ</w>": 1595,
  "少</w>": 1596,
  "♦</w>": 1597,
  "Ї</w>": 1598,
  "わ</w>": 1599,
  "手</w>": 1600,
  "►</w>": 1601,
  "正</w>": 1602,
  "个</w>": 1603,
  "枫</w>": 1604,
  "Л</w>": 1605,
  "დ</w>": 1606,
  "ﬂ</w>": 1607,
  "最</w>": 1608,
  "อ</w>": 1609,
  "→</w>": 1610,
  "“</w>": 1611,
  "|</w>": 1612,
  "茶</w>": 1613,
  "Т</w>": 1614,
  "见</w>": 1615,
  "ک</w>": 1616,
  "∞</w>": 1617,
  "頂</w>": 1618,
  "入</w>": 1619,
  "ว</w>": 1620,
  "Ж</w>": 1621,
  "レ</w>": 1622,
  "知</w>": 1623,
  "Ę</w>": 1624,
  "ḥ</w>": 1625,
  "清</w>": 1626,
  "„</w>": 1627,
  "ً</w>": 1628,
  "จ</w>": 1629,
  "≈</w>": 1630,
  "っ</w>": 1631,
  "方</w>": 1632,
  "≤</w>": 1633,
  "但</w>": 1634,
  "Κ</w>": 1635,
  "漢</w>": 1636,
  "影</w>": 1637,
  "出</w>": 1638,
  "得</w>": 1639,
  "=</w>": 1640,
  "场</w>": 1641,
  "白</w>": 1642,
  "ต</w>": 1643,
  "‑</w>": 1644,
  "Ў</w>": 1645,
  "物</w>": 1646,
  "ṭ</w>": 1647,
  "!</w>": 1648,
  "ร</w>": 1649,
  "ֳ</w>": 1650,
  "マ</w>": 1651,
  "Ş</w>": 1652,
  "[</w>": 1653,
  "¡</w>": 1654,
  "ĕ</w>": 1655,
  "明</w>": 1656,
  "ɨ</w>": 1657,
  "ج</w>": 1658,
  "ờ</w>": 1659,
  "Є</w>": 1660,
  "Ł</w>": 1661,
  "情</w>": 1662,
  "ĝ</w>": 1663,
  "ạ</w>": 1664,
  "ъ</w>": 1665,
  "バ</w>": 1666,
  "五</w>": 1667,
  "工</w>": 1668,
  "⇒</w>": 1669,
  "杨</w>": 1670,
  "金</w>": 1671,
  "套</w>": 1672,
  "婷</w>": 1673,
  "』</w>": 1674,
  "神</w>": 1675,
  "פ</w>": 1676,
  "Ρ</w>": 1677,
  "ү</w>": 1678,
  "り</w>": 1679,
  "空</w>": 1680,
  "伦</w>": 1681,
  "楽</w>": 1682,
  "Τ</w>": 1683,
  "◊</w>": 1684,
  "都</w>": 1685,
  "人</w>": 1686,
  "ド</w>": 1687,
  "在</w>": 1688,
  "し</w>": 1689,
  "&</w>": 1690,
  "寿</w>": 1691,
  "リ</w>": 1692,
  "κ</w>": 1693,
  "$</w>": 1694,
  "核</w>": 1695,
  "˚</w>": 1696,
  "Й</w>": 1697,
  "下</w>": 1698,
  "ồ</w>": 1699,
  "ề</w>": 1700,
  "見</w>": 1701,
  "ह</w>": 1702,
  "Ù</w>": 1703,
  "Ë</w>": 1704,
  "ბ</w>": 1705,
  "^</w>": 1706,
  "ナ</w>": 1707,
  "天</w>": 1708,
  "ˆ</w>": 1709,
  "語</w>": 1710,
  "发</w>": 1711,
  "十</w>": 1712,
  "有</w>": 1713,
  "士</w>": 1714,
  "本</w>": 1715,
  "娱</w>": 1716,
  "…</w>": 1717,
  "电</w>": 1718,
  "直</w>": 1719,
  "<</w>": 1720,
  "Ň</w>": 1721,
  "რ</w>": 1722,
  "أ</w>": 1723,
  "்</w>": 1724,
  "分</w>": 1725,
  "Ř</w>": 1726,
  ":</w>": 1727,
  "タ</w>": 1728,
  "松</w>": 1729,
  "ّ</w>": 1730,
  "♪</w>": 1731,
  "四</w>": 1732,
  "ち</w>": 1733,
  "•</w>": 1734,
  "也</w>": 1735,
  "ლ</w>": 1736,
  "ג</w>": 1737,
  "์</w>": 1738,
  "국</w>": 1739,
  "国</w>": 1740,
  "ữ</w>": 1741,
  "Ĺ</w>": 1742,
  "刘</w>": 1743,
  "†</w>": 1744,
  "☆</w>": 1745,
  "コ</w>": 1746,
  "比</w>": 1747,
  "ơ</w>": 1748,
  "增</w>": 1749,
  "区</w>": 1750,
  "プ</w>": 1751,
  "̃</w>": 1752,
  "问</w>": 1753,
  "大</w>": 1754,
  "州</w>": 1755,
  "ธ</w>": 1756,
  "理</w>": 1757,
  "한</w>": 1758,
  "月</w>": 1759,
  "}</w>": 1760,
  "ณ</w>": 1761,
  "ि</w>": 1762,
  "田</w>": 1763,
  "۹</w>": 1764,
  "מ</w>": 1765,
  "§</w>": 1766,
  "农</w>": 1767,
  "上</w>": 1768,
  "ท</w>": 1769,
  ".</w>": 1770,
  "ص</w>": 1771,
  "ु</w>": 1772,
  "ế</w>": 1773,
  "石</w>": 1774,
  "能</w>": 1775,
  "\"</w>": 1776,
  "美</w>": 1777,
  "成</w>": 1778,
  "Ø</w>": 1779,
  "心</w>": 1780,
  "東</w>": 1781,
  "ض</w>": 1782,
  "″</w>": 1783,
  "山</w>": 1784,
  "े</w>": 1785,
  "▪</w>": 1786,
  "Ľ</w>": 1787,
  "ዓ</w>": 1788,
  "ศ</w>": 1789,
  "颖</w>": 1790,
  "免</w>": 1791,
  "容</w>": 1792,
  "⁄</w>": 1793,
  "。</w>": 1794,
  "论</w>": 1795,
  "य</w>": 1796,
  "―</w>": 1797,
  "ș</w>": 1798,
  "面</w>": 1799,
  "ґ</w>": 1800,
  "木</w>": 1801,
  "צ</w>": 1802,
  "思</w>": 1803,
  "机</w>": 1804,
  "國</w>": 1805,
  "ო</w>": 1806,
  "色</w>": 1807,
  "二</w>": 1808,
  "易</w>": 1809,
  "料</w>": 1810,
  "：</w>": 1811,
  "应</w>": 1812,
  "خ</w>": 1813,
  "了</w>": 1814,
  "舞</w>": 1815,
  "‟</w>": 1816,
  "为</w>": 1817,
  "引</w>": 1818,
  "'</w>": 1819,
  "法</w>": 1820,
  "而</w>": 1821,
  "司</w>": 1822,
  "ذ</w>": 1823,
  "体</w>": 1824,
  "载</w>": 1825,
  "是</w>": 1826,
  "】</w>": 1827,
  "和</w>": 1828,
  "Β</w>": 1829,
  "亚</w>": 1830,
  "›</w>": 1831,
  "管</w>": 1832,
  "我</w>": 1833,
  "ɛ</w>": 1834,
  "●</w>": 1835,
  "ნ</w>": 1836,
  "え</w>": 1837,
  ";</w>": 1838,
  "台</w>": 1839,
  "前</w>": 1840,
  "Υ</w>": 1841,
  "，</w>": 1842,
  "↑</w>": 1843,
  "球</w>": 1844,
  "寺</w>": 1845,
  "»</w>": 1846,
  "题</w>": 1847,
  "Ш</w>": 1848,
  "三</w>": 1849,
  "海</w>": 1850,
  "江</w>": 1851,
  "产</w>": 1852,
  "内</w>": 1853,
  "Ч</w>": 1854,
  "家</w>": 1855,
  "取</w>": 1856,
  "Θ</w>": 1857,
  "林</w>": 1858,
  "ψ</w>": 1859,
  "け</w>": 1860,
  "水</w>": 1861,
  "’</w>": 1862,
  "¿</w>": 1863,
  "社</w>": 1864,
  "博</w>": 1865,
  "酒</w>": 1866,
  "用</w>": 1867,
  "武</w>": 1868,
  "あ</w>": 1869,
  "南</w>": 1870,
  "去</w>": 1871,
  "馬</w>": 1872,
  "城</w>": 1873,
  "Λ</w>": 1874,
  "相</w>": 1875,
  "◎</w>": 1876,
  "中</w>": 1877,
  "行</w>": 1878,
  "顶</w>": 1879,
  "%</w>": 1880,
  "”</w>": 1881,
  "̈</w>": 1882,
  "种</w>": 1883,
  "年</w>": 1884,
  "－</w>": 1885,
  "以</w>": 1886,
  "民</w>": 1887,
  "食</w>": 1888,
  "-</w>": 1889,
  "厂</w>": 1890,
  "会</w>": 1891,
  "简</w>": 1892,
  "八</w>": 1893,
  ",</w>": 1894,
  "]</w>": 1895,
  "更</w>": 1896,
  "）</w>": 1897,
  "事</w>": 1898,
  "合</w>": 1899,
  "風</w>": 1900,
  "土</w>": 1901,
  ")</w>": 1902,
  "子</w>": 1903,
  "「</w>": 1904,
  "艳</w>": 1905,
  "‘</w>": 1906,
  "オ</w>": 1907,
  "◆</w>": 1908,
  "可</w>": 1909,
  "?</w>": 1910,
  "_</w>": 1911,
  "当</w>": 1912,
  "÷</w>": 1913,
  "ป</w>": 1914,
  "仁</w>": 1915,
  "小</w>": 1916,
  "学</w>": 1917,
  "{</w>": 1918,
  "«</w>": 1919,
  "、</w>": 1920,
  "Đ</w>": 1921,
  "文</w>": 1922,
  "淫</w>": 1923,
  "ื</w>": 1924,
  "自</w>": 1925,
  "स</w>": 1926,
  "`</w>": 1927,
  "θ</w>": 1928,
  "克</w>": 1929,
  "全</w>": 1930,
  "过</w>": 1931,
  "Γ</w>": 1932,
  "如</w>": 1933,
  "交</w>": 1934,
  "匿</w>": 1935,
  "东</w>": 1936,
  "持</w>": 1937,
  "定</w>": 1938,
  "平</w>": 1939,
  "ɑ</w>": 1940,
  "พ</w>": 1941,
  "科</w>": 1942,
  "语</w>": 1943,
  "ู</w>": 1944,
  "雷</w>": 1945,
  "岛</w>": 1946,
  "性</w>": 1947,
  "en</w>": 1948,
  "er": 1949,
  "in": 1950,
  "th": 1951,
  "ch": 1952,
  "en": 1953,
  "er</w>": 1954,
  "an": 1955,
  "un": 1956,
  "ti": 1957,
  "the</w>": 1958,
  "re": 1959,
  "st": 1960,
  "di": 1961,
  "on</w>": 1962,
  "ar": 1963,
  "on": 1964,
  "li": 1965,
  "or": 1966,
  "ei": 1967,
  "es</w>": 1968,
  "al": 1969,
  "ro": 1970,
  "ch</w>": 1971,
  "si": 1972,
  "in</w>": 1973,
  "el": 1974,
  "es": 1975,
  "der</w>": 1976,
  "is": 1977,
  "and</w>": 1978,
  "au": 1979,
  "of</w>": 1980,
  "at": 1981,
  "wi": 1982,
  "ein": 1983,
  "to</w>": 1984,
  "und</w>": 1985,
  "die</w>": 1986,
  "ed</w>": 1987,
  "is</w>": 1988,
  "om": 1989,
  "as</w>": 1990,
  "ing</w>": 1991,
  "ra": 1992,
  "ou": 1993,
  "den</w>": 1994,
  "ri": 1995,
  "sch": 1996,
  "be": 1997,
  "at</w>": 1998,
  "de": 1999,
  "ge": 2000,
  "an</w>": 2001,
  "ati": 2002,
  "as": 2003,
  "or</w>": 2004,
  "ung</w>": 2005,
  "it": 2006,
  "ur": 2007,
  "ten</w>": 2008,
  "al</w>": 2009,
  "te</w>": 2010,
  "gen</w>": 2011,
  "ol": 2012,
  "ab": 2013,
  "ver": 2014,
  "men": 2015,
  "us": 2016,
  "le": 2017,
  "ter": 2018,
  "le</w>": 2019,
  "it</w>": 2020,
  "der": 2021,
  "te": 2022,
  "sp": 2023,
  "am": 2024,
  "ve</w>": 2025,
  "ts</w>": 2026,
  "ie</w>": 2027,
  "eh": 2028,
  "ac": 2029,
  "fü": 2030,
  "ge</w>": 2031,
  "pro": 2032,
  "Th": 2033,
  "ly</w>": 2034,
  "de</w>": 2035,
  "ec": 2036,
  "vi": 2037,
  "ich": 2038,
  "zu</w>": 2039,
  "no": 2040,
  "that</w>": 2041,
  "chen</w>": 2042,
  "hi": 2043,
  "hr": 2044,
  "for</w>": 2045,
  "ff": 2046,
  "von</w>": 2047,
  "lo": 2048,
  "et": 2049,
  "ation</w>": 2050,
  "th</w>": 2051,
  "po": 2052,
  "ent": 2053,
  "tion</w>": 2054,
  "omm": 2055,
  "su": 2056,
  "con": 2057,
  "la": 2058,
  "ne": 2059,
  "ce</w>": 2060,
  "em": 2061,
  "ist</w>": 2062,
  "wer": 2063,
  "se</w>": 2064,
  "il": 2065,
  "for": 2066,
  "für</w>": 2067,
  "are</w>": 2068,
  "zu": 2069,
  "eine</w>": 2070,
  "rop": 2071,
  "op": 2072,
  "ma": 2073,
  "gen": 2074,
  "ment</w>": 2075,
  "den": 2076,
  "des</w>": 2077,
  "urop": 2078,
  "ha": 2079,
  "ci": 2080,
  "be</w>": 2081,
  "gi": 2082,
  "ta": 2083,
  "st</w>": 2084,
  "mit</w>": 2085,
  "auf</w>": 2086,
  "ein</w>": 2087,
  "ber": 2088,
  "Ver": 2089,
  "da": 2090,
  "eit</w>": 2091,
  "with</w>": 2092,
  "das</w>": 2093,
  "ber</w>": 2094,
  "em</w>": 2095,
  "The</w>": 2096,
  "che</w>": 2097,
  "ul": 2098,
  "Europ": 2099,
  "ell": 2100,
  "ation": 2101,
  "icht</w>": 2102,
  "ex": 2103,
  "im": 2104,
  "ut": 2105,
  "ar</w>": 2106,
  "qu": 2107,
  "ser": 2108,
  "dies": 2109,
  "Un": 2110,
  "ungen</w>": 2111,
  "du": 2112,
  "our</w>": 2113,
  "In": 2114,
  "ru": 2115,
  "com": 2116,
  "so</w>": 2117,
  "ter</w>": 2118,
  "tion": 2119,
  "co": 2120,
  "sion</w>": 2121,
  "fi": 2122,
  "St": 2123,
  "ck": 2124,
  "dem</w>": 2125,
  "lich</w>": 2126,
  "por": 2127,
  "ho": 2128,
  "mo": 2129,
  "this</w>": 2130,
  "ah": 2131,
  "im</w>": 2132,
  "ie": 2133,
  "se": 2134,
  "nen</w>": 2135,
  "and": 2136,
  "ll</w>": 2137,
  "wor": 2138,
  "ag": 2139,
  "An": 2140,
  "af": 2141,
  "ad": 2142,
  "ld</w>": 2143,
  "wh": 2144,
  "Sie</w>": 2145,
  "um</w>": 2146,
  "ass</w>": 2147,
  "wir": 2148,
  "sen</w>": 2149,
  "ou</w>": 2150,
  "wei": 2151,
  "zi": 2152,
  "nicht</w>": 2153,
  "all</w>": 2154,
  "tu": 2155,
  "Re": 2156,
  "än": 2157,
  "by</w>": 2158,
  "not</w>": 2159,
  "ran": 2160,
  "werden</w>": 2161,
  "we</w>": 2162,
  "ind</w>": 2163,
  "ung": 2164,
  "ap": 2165,
  "gh": 2166,
  "ate</w>": 2167,
  "so": 2168,
  "ere</w>": 2169,
  "we": 2170,
  "have</w>": 2171,
  "dass</w>": 2172,
  "sh": 2173,
  "ent</w>": 2174,
  "tra": 2175,
  "ke</w>": 2176,
  "lie": 2177,
  "par": 2178,
  "als</w>": 2179,
  "sich</w>": 2180,
  "whi": 2181,
  "ges": 2182,
  "Die</w>": 2183,
  "per": 2184,
  "you</w>": 2185,
  "me</w>": 2186,
  "ischen</w>": 2187,
  "res": 2188,
  "wir</w>": 2189,
  "bu": 2190,
  "ali": 2191,
  "men</w>": 2192,
  "was</w>": 2193,
  "ould</w>": 2194,
  "will</w>": 2195,
  "ach": 2196,
  "auch</w>": 2197,
  "rom</w>": 2198,
  "all": 2199,
  "to": 2200,
  "which</w>": 2201,
  "ir": 2202,
  "Sch": 2203,
  "ommis": 2204,
  "ich</w>": 2205,
  "um": 2206,
  "ty</w>": 2207,
  "do": 2208,
  "me": 2209,
  "Be": 2210,
  "eb": 2211,
  "ing": 2212,
  "aus": 2213,
  "from</w>": 2214,
  "ach</w>": 2215,
  "Pro": 2216,
  "ers</w>": 2217,
  "Par": 2218,
  "lu": 2219,
  "20": 2220,
  "tz": 2221,
  "hab": 2222,
  "sind</w>": 2223,
  "cht</w>": 2224,
  "ther</w>": 2225,
  "En": 2226,
  "einer</w>": 2227,
  "ds</w>": 2228,
  "sti": 2229,
  "ungs": 2230,
  "wen": 2231,
  "rä": 2232,
  "wird</w>": 2233,
  "bes": 2234,
  "lei": 2235,
  "Au": 2236,
  "über</w>": 2237,
  "hal": 2238,
  "wie</w>": 2239,
  "einen</w>": 2240,
  "fin": 2241,
  "gt</w>": 2242,
  "has</w>": 2243,
  "pl": 2244,
  "ure</w>": 2245,
  "est": 2246,
  "schaf": 2247,
  "ön": 2248,
  "siden": 2249,
  "ts": 2250,
  "out</w>": 2251,
  "ic": 2252,
  "ahr": 2253,
  "ess</w>": 2254,
  "one</w>": 2255,
  "ur</w>": 2256,
  "gan": 2257,
  "tern": 2258,
  "sa": 2259,
  "able</w>": 2260,
  "bei": 2261,
  "ig": 2262,
  "aus</w>": 2263,
  "sten</w>": 2264,
  "oo": 2265,
  "ili": 2266,
  "geb": 2267,
  "ted</w>": 2268,
  "ten": 2269,
  "stell": 2270,
  "form": 2271,
  "gu": 2272,
  "ür": 2273,
  "el</w>": 2274,
  "Ar": 2275,
  "ommission</w>": 2276,
  "sol": 2277,
  "In</w>": 2278,
  "can</w>": 2279,
  "ver</w>": 2280,
  "tel</w>": 2281,
  "ean</w>": 2282,
  "Ber": 2283,
  "oder</w>": 2284,
  "Ho": 2285,
  "ir</w>": 2286,
  "ert</w>": 2287,
  "our": 2288,
  "Di": 2289,
  "gra": 2290,
  "etz": 2291,
  "vor": 2292,
  "bei</w>": 2293,
  "Er": 2294,
  "hat</w>": 2295,
  "comp": 2296,
  "us</w>": 2297,
  "et</w>": 2298,
  "ann</w>": 2299,
  "poli": 2300,
  "dur": 2301,
  "ehr</w>": 2302,
  "haben</w>": 2303,
  "wel": 2304,
  "Her": 2305,
  "also</w>": 2306,
  "ak": 2307,
  "lich": 2308,
  "any</w>": 2309,
  "European</w>": 2310,
  "ally</w>": 2311,
  "är": 2312,
  "tri": 2313,
  "200": 2314,
  "ust</w>": 2315,
  "Aus": 2316,
  "eren</w>": 2317,
  "ion</w>": 2318,
  "rec": 2319,
  "eu": 2320,
  "ern</w>": 2321,
  "sel": 2322,
  "gr": 2323,
  "ine</w>": 2324,
  "lichen</w>": 2325,
  "gel": 2326,
  "schen</w>": 2327,
  "am</w>": 2328,
  "ated</w>": 2329,
  "sen": 2330,
  "ity</w>": 2331,
  "ant</w>": 2332,
  "kön": 2333,
  "tic": 2334,
  "auf": 2335,
  "ments</w>": 2336,
  "sie</w>": 2337,
  "wa": 2338,
  "je": 2339,
  "mö": 2340,
  "ey</w>": 2341,
  "len</w>": 2342,
  "ore</w>": 2343,
  "ep": 2344,
  "sident</w>": 2345,
  "its</w>": 2346,
  "tions</w>": 2347,
  "ese</w>": 2348,
  "und": 2349,
  "ark": 2350,
  "oh": 2351,
  "pe": 2352,
  "zur</w>": 2353,
  "tet</w>": 2354,
  "mm": 2355,
  "gro": 2356,
  "min": 2357,
  "Mit": 2358,
  "vo": 2359,
  "dar": 2360,
  "tr": 2361,
  "ght</w>": 2362,
  "sta": 2363,
  "dern</w>": 2364,
  "duc": 2365,
  "port</w>": 2366,
  "ger": 2367,
  "einem</w>": 2368,
  "Union</w>": 2369,
  "Al": 2370,
  "Das</w>": 2371,
  "coun": 2372,
  "ates</w>": 2373,
  "ations</w>": 2374,
  "Ein": 2375,
  "wur": 2376,
  "end</w>": 2377,
  "ft</w>": 2378,
  "yst": 2379,
  "war": 2380,
  "unser": 2381,
  "tive</w>": 2382,
  "sion": 2383,
  "ün": 2384,
  "your</w>": 2385,
  "res</w>": 2386,
  "ding</w>": 2387,
  "ting</w>": 2388,
  "very</w>": 2389,
  "Pre": 2390,
  "Ab": 2391,
  "fre": 2392,
  "king</w>": 2393,
  "tung</w>": 2394,
  "pos": 2395,
  "age</w>": 2396,
  "off": 2397,
  "erung</w>": 2398,
  "aten</w>": 2399,
  "tel": 2400,
  "ob": 2401,
  "est</w>": 2402,
  "Ich</w>": 2403,
  "ken</w>": 2404,
  "ische</w>": 2405,
  "Ma": 2406,
  "bet": 2407,
  "können</w>": 2408,
  "ck</w>": 2409,
  "liche</w>": 2410,
  "ces</w>": 2411,
  "chn": 2412,
  "pre": 2413,
  "but</w>": 2414,
  "kt</w>": 2415,
  "more</w>": 2416,
  "ann": 2417,
  "up</w>": 2418,
  "keit</w>": 2419,
  "We</w>": 2420,
  "ary</w>": 2421,
  "fol": 2422,
  "ess": 2423,
  "ance</w>": 2424,
  "inc": 2425,
  "Vor": 2426,
  "bo": 2427,
  "ast</w>": 2428,
  "geh": 2429,
  "Fra": 2430,
  "str": 2431,
  "ander": 2432,
  "19": 2433,
  "zei": 2434,
  "pres": 2435,
  "00</w>": 2436,
  "br": 2437,
  "pri": 2438,
  "ties</w>": 2439,
  "ous</w>": 2440,
  "chti": 2441,
  "vel": 2442,
  "mer</w>": 2443,
  "fer": 2444,
  "eir</w>": 2445,
  "chte</w>": 2446,
  "ven</w>": 2447,
  "would</w>": 2448,
  "inter": 2449,
  "Sp": 2450,
  "ger</w>": 2451,
  "mit": 2452,
  "ör": 2453,
  "ihr": 2454,
  "their</w>": 2455,
  "son": 2456,
  "gh</w>": 2457,
  "gn": 2458,
  "führ": 2459,
  "pu": 2460,
  "cy</w>": 2461,
  "lan": 2462,
  "pp": 2463,
  "Ent": 2464,
  "ari": 2465,
  "durch</w>": 2466,
  "nach</w>": 2467,
  "her": 2468,
  "ssen</w>": 2469,
  "been</w>": 2470,
  "ste</w>": 2471,
  "gre": 2472,
  "ehen</w>": 2473,
  "Europä": 2474,
  "tei": 2475,
  "zum</w>": 2476,
  "uns</w>": 2477,
  "This</w>": 2478,
  "stri": 2479,
  "go": 2480,
  "tre": 2481,
  "hin": 2482,
  "diese</w>": 2483,
  "comm": 2484,
  "Wir</w>": 2485,
  "It</w>": 2486,
  "wn</w>": 2487,
  "man</w>": 2488,
  "über": 2489,
  "EU</w>": 2490,
  "pr": 2491,
  "nur</w>": 2492,
  "Ges": 2493,
  "fac": 2494,
  "other</w>": 2495,
  "ne</w>": 2496,
  "spec": 2497,
  "vor</w>": 2498,
  "Mr</w>": 2499,
  "he": 2500,
  "ble</w>": 2501,
  "ase</w>": 2502,
  "ad</w>": 2503,
  "iel": 2504,
  "eg": 2505,
  "vol": 2506,
  "Kon": 2507,
  "bli": 2508,
  "port": 2509,
  "mp": 2510,
  "ih": 2511,
  "ommen</w>": 2512,
  "should</w>": 2513,
  "ben</w>": 2514,
  "neu": 2515,
  "kann</w>": 2516,
  "do</w>": 2517,
  "tro": 2518,
  "ame</w>": 2519,
  "lin": 2520,
  "ded</w>": 2521,
  "stru": 2522,
  "are": 2523,
  "bt</w>": 2524,
  "Der</w>": 2525,
  "fen</w>": 2526,
  "unter": 2527,
  "sc": 2528,
  "ic</w>": 2529,
  "ble": 2530,
  "mü": 2531,
  "tw": 2532,
  "ye": 2533,
  "ks</w>": 2534,
  "eiten</w>": 2535,
  "he</w>": 2536,
  "sich": 2537,
  "ence</w>": 2538,
  "Gr": 2539,
  "schaft</w>": 2540,
  "ember</w>": 2541,
  "av": 2542,
  "dieser</w>": 2543,
  "acc": 2544,
  "ord": 2545,
  "noch</w>": 2546,
  "kon": 2547,
  "fu": 2548,
  "mu": 2549,
  "Commission</w>": 2550,
  "ist": 2551,
  "ven": 2552,
  "Prä": 2553,
  "bi": 2554,
  "sec": 2555,
  "som": 2556,
  "ard</w>": 2557,
  "ort</w>": 2558,
  "wä": 2559,
  "mon": 2560,
  "Es</w>": 2561,
  "time</w>": 2562,
  "fe": 2563,
  "must</w>": 2564,
  "Co": 2565,
  "uss</w>": 2566,
  "ise</w>": 2567,
  "Ge": 2568,
  "daß</w>": 2569,
  "ational</w>": 2570,
  "sche</w>": 2571,
  "ück": 2572,
  "day</w>": 2573,
  "ben": 2574,
  "tä": 2575,
  "eri": 2576,
  "heit</w>": 2577,
  "ass": 2578,
  "ves</w>": 2579,
  "Kommission</w>": 2580,
  "mark": 2581,
  "ale</w>": 2582,
  "syst": 2583,
  "they</w>": 2584,
  "lä": 2585,
  "man": 2586,
  "there</w>": 2587,
  "lt</w>": 2588,
  "new</w>": 2589,
  "Po": 2590,
  "war</w>": 2591,
  "olo": 2592,
  "cial</w>": 2593,
  "now</w>": 2594,
  "ori": 2595,
  "kl": 2596,
  "ms</w>": 2597,
  "nah": 2598,
  "gung</w>": 2599,
  "like</w>": 2600,
  "only</w>": 2601,
  "wurde</w>": 2602,
  "stat": 2603,
  "lung</w>": 2604,
  "ings</w>": 2605,
  "gesch": 2606,
  "eff": 2607,
  "Hotel</w>": 2608,
  "jec": 2609,
  "President</w>": 2610,
  "utz": 2611,
  "inn": 2612,
  "aber</w>": 2613,
  "Sta": 2614,
  "wick": 2615,
  "tran": 2616,
  "tn": 2617,
  "For": 2618,
  "land</w>": 2619,
  "about</w>": 2620,
  "alen</w>": 2621,
  "produc": 2622,
  "elt</w>": 2623,
  "mi": 2624,
  "work</w>": 2625,
  "ant": 2626,
  "ens": 2627,
  "sein</w>": 2628,
  "gem": 2629,
  "Herr</w>": 2630,
  "wenn</w>": 2631,
  "fir": 2632,
  "fo": 2633,
  "ys</w>": 2634,
  "Ih": 2635,
  "ens</w>": 2636,
  "rit": 2637,
  "ehmen</w>": 2638,
  "immer</w>": 2639,
  "cu": 2640,
  "sehr</w>": 2641,
  "ehr": 2642,
  "ong</w>": 2643,
  "ment": 2644,
  "dung</w>": 2645,
  "müssen</w>": 2646,
  "intern": 2647,
  "De": 2648,
  "ws</w>": 2649,
  "ütz": 2650,
  "ars</w>": 2651,
  "leg": 2652,
  "conc": 2653,
  "det</w>": 2654,
  "alle</w>": 2655,
  "way</w>": 2656,
  "Mitg": 2657,
  "eines</w>": 2658,
  "Auf": 2659,
  "ely</w>": 2660,
  "Parla": 2661,
  "qui": 2662,
  "ace</w>": 2663,
  "lia": 2664,
  "spe": 2665,
  "these</w>": 2666,
  "ral</w>": 2667,
  "ba": 2668,
  "ans</w>": 2669,
  "tho": 2670,
  "lar</w>": 2671,
  "ern": 2672,
  "Zu": 2673,
  "Jahr": 2674,
  "who</w>": 2675,
  "ause</w>": 2676,
  "fahr": 2677,
  "amp": 2678,
  "no</w>": 2679,
  "chan": 2680,
  "mehr</w>": 2681,
  "usam": 2682,
  "fore</w>": 2683,
  "berei": 2684,
  "red</w>": 2685,
  "So": 2686,
  "with": 2687,
  "onder": 2688,
  "ple": 2689,
  "if</w>": 2690,
  "ors</w>": 2691,
  "ved</w>": 2692,
  "net</w>": 2693,
  "diesem</w>": 2694,
  "sup": 2695,
  "regi": 2696,
  "devel": 2697,
  "zw": 2698,
  "ative</w>": 2699,
  "tes</w>": 2700,
  "ople</w>": 2701,
  "Mitglie": 2702,
  "re</w>": 2703,
  "Men": 2704,
  "servi": 2705,
  "mer": 2706,
  "aff": 2707,
  "most</w>": 2708,
  "weiter": 2709,
  "posi": 2710,
  "Ihr": 2711,
  "dies</w>": 2712,
  "Regi": 2713,
  "ther": 2714,
  "ility</w>": 2715,
  "ood</w>": 2716,
  "cre": 2717,
  "10</w>": 2718,
  "many</w>": 2719,
  "provi": 2720,
  "Um": 2721,
  "reich": 2722,
  "isch": 2723,
  "tur": 2724,
  "fra": 2725,
  "fun": 2726,
  "rel": 2727,
  "kommen</w>": 2728,
  "dr": 2729,
  "setz": 2730,
  "ßen</w>": 2731,
  "des": 2732,
  "id</w>": 2733,
  "Ch": 2734,
  "Europäischen</w>": 2735,
  "mög": 2736,
  "inform": 2737,
  "hei": 2738,
  "enden</w>": 2739,
  "liament</w>": 2740,
  "Bu": 2741,
  "stitu": 2742,
  "cont": 2743,
  "Mo": 2744,
  "import": 2745,
  "da</w>": 2746,
  "were</w>": 2747,
  "ron": 2748,
  "vie": 2749,
  "steh": 2750,
  "kte</w>": 2751,
  "Bes": 2752,
  "Europe</w>": 2753,
  "fe</w>": 2754,
  "glei": 2755,
  "reg": 2756,
  "ges</w>": 2757,
  "under": 2758,
  "her</w>": 2759,
  "tim": 2760,
  "come</w>": 2761,
  "use</w>": 2762,
  "Parliament</w>": 2763,
  "cri": 2764,
  "into</w>": 2765,
  "wis": 2766,
  "sk": 2767,
  "people</w>": 2768,
  "such</w>": 2769,
  "onom": 2770,
  "elle</w>": 2771,
  "loc": 2772,
  "ating</w>": 2773,
  "hand": 2774,
  "soll": 2775,
  "gkeit</w>": 2776,
  "oper": 2777,
  "rou": 2778,
  "arbei": 2779,
  "ving</w>": 2780,
  "proc": 2781,
  "las": 2782,
  "well</w>": 2783,
  "bis</w>": 2784,
  "lau": 2785,
  "il</w>": 2786,
  "my</w>": 2787,
  "emp": 2788,
  "schie": 2789,
  "Con": 2790,
  "ationen</w>": 2791,
  "what</w>": 2792,
  "politi": 2793,
  "äl": 2794,
  "sible</w>": 2795,
  "ni": 2796,
  "europ": 2797,
  "publi": 2798,
  "Unter": 2799,
  "develop": 2800,
  "hel": 2801,
  "sub": 2802,
  "möchte</w>": 2803,
  "rech": 2804,
  "ement</w>": 2805,
  "stän": 2806,
  "rie": 2807,
  "ction</w>": 2808,
  "Me": 2809,
  "ful</w>": 2810,
  "techn": 2811,
  "pa": 2812,
  "Ger": 2813,
  "diff": 2814,
  "tigen</w>": 2815,
  "ini": 2816,
  "Inter": 2817,
  "doch</w>": 2818,
  "cent": 2819,
  "States</w>": 2820,
  "viel": 2821,
  "unter</w>": 2822,
  "zen</w>": 2823,
  "lic": 2824,
  "fa": 2825,
  "tries</w>": 2826,
  "halten</w>": 2827,
  "usammen": 2828,
  "speci": 2829,
  "dam": 2830,
  "ite</w>": 2831,
  "Coun": 2832,
  "art</w>": 2833,
  "than</w>": 2834,
  "report</w>": 2835,
  "stütz": 2836,
  "Member</w>": 2837,
  "mat": 2838,
  "inclu": 2839,
  "tig</w>": 2840,
  "wichti": 2841,
  "stellen</w>": 2842,
  "No": 2843,
  "illi": 2844,
  "enn": 2845,
  "countries</w>": 2846,
  "sch</w>": 2847,
  "ser</w>": 2848,
  "tor</w>": 2849,
  "bec": 2850,
  "cle": 2851,
  "vom</w>": 2852,
  "his</w>": 2853,
  "when</w>": 2854,
  "uni": 2855,
  "ory</w>": 2856,
  "aga": 2857,
  "europä": 2858,
  "tionen</w>": 2859,
  "need</w>": 2860,
  "ank</w>": 2861,
  "gibt</w>": 2862,
  "Mitglied": 2863,
  "woh": 2864,
  "poin": 2865,
  "cil</w>": 2866,
  "lar": 2867,
  "Über": 2868,
  "rei": 2869,
  "ihre</w>": 2870,
  "first</w>": 2871,
  "bre": 2872,
  "ellen</w>": 2873,
  "some</w>": 2874,
  "bie": 2875,
  "Präsident</w>": 2876,
  "Su": 2877,
  "lat": 2878,
  "Bei": 2879,
  "om</w>": 2880,
  "Council</w>": 2881,
  "peri": 2882,
  "ende</w>": 2883,
  "ste": 2884,
  "denen</w>": 2885,
  "sowie</w>": 2886,
  "les</w>": 2887,
  "gram": 2888,
  "econom": 2889,
  "geben</w>": 2890,
  "stand": 2891,
  "hotel</w>": 2892,
  "sis</w>": 2893,
  "sign": 2894,
  "direc": 2895,
  "ze</w>": 2896,
  "ast": 2897,
  "inu": 2898,
  "kti": 2899,
  "get</w>": 2900,
  "Or": 2901,
  "tical</w>": 2902,
  "ph": 2903,
  "wer</w>": 2904,
  "Li": 2905,
  "schlie": 2906,
  "etzt</w>": 2907,
  "dieses</w>": 2908,
  "make</w>": 2909,
  "col": 2910,
  "them</w>": 2911,
  "ween</w>": 2912,
  "Comm": 2913,
  "agre": 2914,
  "ghts</w>": 2915,
  "amen</w>": 2916,
  "deut": 2917,
  "zwischen</w>": 2918,
  "app": 2919,
  "ele": 2920,
  "besonder": 2921,
  "stellt</w>": 2922,
  "form</w>": 2923,
  "ins</w>": 2924,
  "ateg": 2925,
  "cc": 2926,
  "important</w>": 2927,
  "thing</w>": 2928,
  "between</w>": 2929,
  "ell</w>": 2930,
  "system</w>": 2931,
  "here</w>": 2932,
  "ful": 2933,
  "vern": 2934,
  "ien</w>": 2935,
  "Qu": 2936,
  "eing</w>": 2937,
  "ack</w>": 2938,
  "beit</w>": 2939,
  "ack": 2940,
  "take</w>": 2941,
  "eng": 2942,
  "halb</w>": 2943,
  "timm": 2944,
  "over</w>": 2945,
  "tschaf": 2946,
  "rati": 2947,
  "jo": 2948,
  "sho": 2949,
  "propos": 2950,
  "Entwick": 2951,
  "exc": 2952,
  "dis": 2953,
  "ality</w>": 2954,
  "hier</w>": 2955,
  "chten</w>": 2956,
  "gy</w>": 2957,
  "because</w>": 2958,
  "ler</w>": 2959,
  "Mitgliedsta": 2960,
  "rü": 2961,
  "tät</w>": 2962,
  "forder": 2963,
  "exp": 2964,
  "bin": 2965,
  "iel</w>": 2966,
  "bar": 2967,
  "where</w>": 2968,
  "Per": 2969,
  "yp": 2970,
  "Arbei": 2971,
  "same</w>": 2972,
  "Se": 2973,
  "ster</w>": 2974,
  "bar</w>": 2975,
  "ener": 2976,
  "ide": 2977,
  "äu": 2978,
  "ko": 2979,
  "199": 2980,
  "muss</w>": 2981,
  "hen</w>": 2982,
  "kom": 2983,
  "Bericht</w>": 2984,
  "nat": 2985,
  "ture</w>": 2986,
  "mis": 2987,
  "finan": 2988,
  "nec": 2989,
  "wal": 2990,
  "ies</w>": 2991,
  "proble": 2992,
  "spon": 2993,
  "eben</w>": 2994,
  "ses</w>": 2995,
  "wie": 2996,
  "ps</w>": 2997,
  "enn</w>": 2998,
  "sions</w>": 2999,
  "Hau": 3000,
  "sts</w>": 3001,
  "unsere</w>": 3002,
  "fic": 3003,
  "wür": 3004,
  "gegen</w>": 3005,
  "cul": 3006,
  "Parlament</w>": 3007,
  "made</w>": 3008,
  "keine</w>": 3009,
  "just</w>": 3010,
  "zah": 3011,
  "medi": 3012,
  "indi": 3013,
  "Jah": 3014,
  "reas": 3015,
  "Ro": 3016,
  "information</w>": 3017,
  "ons</w>": 3018,
  "äch": 3019,
  "arly</w>": 3020,
  "line</w>": 3021,
  "ße</w>": 3022,
  "ying</w>": 3023,
  "Berei": 3024,
  "organ": 3025,
  "two</w>": 3026,
  "Ko": 3027,
  "xt</w>": 3028,
  "Fin": 3029,
  "Ihnen</w>": 3030,
  "Ex": 3031,
  "ren": 3032,
  "order</w>": 3033,
  "tlich</w>": 3034,
  "unden</w>": 3035,
  "shi": 3036,
  "ail": 3037,
  "had</w>": 3038,
  "Ser": 3039,
  "Mon": 3040,
  "ktion</w>": 3041,
  "öff": 3042,
  "years</w>": 3043,
  "Mitgliedstaaten</w>": 3044,
  "ige</w>": 3045,
  "throu": 3046,
  "zeu": 3047,
  "sm": 3048,
  "ed": 3049,
  "sat": 3050,
  "finden</w>": 3051,
  "support</w>": 3052,
  "ris": 3053,
  "pf": 3054,
  "Gesch": 3055,
  "sive</w>": 3056,
  "anderen</w>": 3057,
  "eute</w>": 3058,
  "can": 3059,
  "If</w>": 3060,
  "Län": 3061,
  "Inform": 3062,
  "world</w>": 3063,
  "enti": 3064,
  "right</w>": 3065,
  "issu": 3066,
  "Produ": 3067,
  "ok": 3068,
  "Fre": 3069,
  "those</w>": 3070,
  "ausge": 3071,
  "num": 3072,
  "län": 3073,
  "respon": 3074,
  "ätz": 3075,
  "steht</w>": 3076,
  "erte</w>": 3077,
  "Europa</w>": 3078,
  "read": 3079,
  "itä": 3080,
  "la</w>": 3081,
  "low</w>": 3082,
  "ften</w>": 3083,
  "wirk": 3084,
  "Zusammen": 3085,
  "tain</w>": 3086,
  "letz": 3087,
  "schließ": 3088,
  "Proble": 3089,
  "site</w>": 3090,
  "liti": 3091,
  "währ": 3092,
  "weise</w>": 3093,
  "Mar": 3094,
  "wever</w>": 3095,
  "tional</w>": 3096,
  "fri": 3097,
  "try</w>": 3098,
  "20</w>": 3099,
  "lichkeit</w>": 3100,
  "being</w>": 3101,
  "keiten</w>": 3102,
  "trag</w>": 3103,
  "Wir": 3104,
  "ff</w>": 3105,
  "unity</w>": 3106,
  "tige</w>": 3107,
  "rau": 3108,
  "Wenn</w>": 3109,
  "nung</w>": 3110,
  "beg": 3111,
  "oms</w>": 3112,
  "erk": 3113,
  "policy</w>": 3114,
  "dann</w>": 3115,
  "appro": 3116,
  "cal</w>": 3117,
  "Vorsch": 3118,
  "ange": 3119,
  "val": 3120,
  "partic": 3121,
  "Wei": 3122,
  "consi": 3123,
  "pen": 3124,
  "ga": 3125,
  "schei": 3126,
  "gs</w>": 3127,
  "Ne": 3128,
  "belie": 3129,
  "ang</w>": 3130,
  "pla": 3131,
  "ice</w>": 3132,
  "mal</w>": 3133,
  "Te": 3134,
  "Bet": 3135,
  "ater</w>": 3136,
  "ke": 3137,
  "gement</w>": 3138,
  "nach": 3139,
  "fall": 3140,
  "ently</w>": 3141,
  "stehen</w>": 3142,
  "vel</w>": 3143,
  "diesen</w>": 3144,
  "gab": 3145,
  "äf": 3146,
  "Im</w>": 3147,
  "may</w>": 3148,
  "nahmen</w>": 3149,
  "damit</w>": 3150,
  "place</w>": 3151,
  "ems</w>": 3152,
  "differ": 3153,
  "tee</w>": 3154,
  "part</w>": 3155,
  "dat": 3156,
  "ßer": 3157,
  "even</w>": 3158,
  "Nach": 3159,
  "see</w>": 3160,
  "deci": 3161,
  "ters</w>": 3162,
  "wurden</w>": 3163,
  "clo": 3164,
  "situ": 3165,
  "sur": 3166,
  "Bo": 3167,
  "demo": 3168,
  "year</w>": 3169,
  "un</w>": 3170,
  "lob": 3171,
  "view</w>": 3172,
  "Gro": 3173,
  "sed</w>": 3174,
  "gemein": 3175,
  "efore</w>": 3176,
  "tt": 3177,
  "ures</w>": 3178,
  "cer": 3179,
  "room</w>": 3180,
  "used</w>": 3181,
  "lage</w>": 3182,
  "hum": 3183,
  "cur": 3184,
  "good</w>": 3185,
  "dan": 3186,
  "wing</w>": 3187,
  "possible</w>": 3188,
  "stra": 3189,
  "Frau</w>": 3190,
  "stan": 3191,
  "ress</w>": 3192,
  "then</w>": 3193,
  "Tei": 3194,
  "cour": 3195,
  "stand</w>": 3196,
  "uri": 3197,
  "loo": 3198,
  "Diese</w>": 3199,
  "ll": 3200,
  "Zeit</w>": 3201,
  "esti": 3202,
  "area</w>": 3203,
  "bil": 3204,
  "äh": 3205,
  "stau": 3206,
  "ect</w>": 3207,
  "ased</w>": 3208,
  "unkt</w>": 3209,
  "Bür": 3210,
  "Kol": 3211,
  "ough</w>": 3212,
  "inv": 3213,
  "We": 3214,
  "ject</w>": 3215,
  "nis": 3216,
  "how</w>": 3217,
  "Geb": 3218,
  "ution</w>": 3219,
  "end": 3220,
  "public</w>": 3221,
  "own</w>": 3222,
  "wär": 3223,
  "tungen</w>": 3224,
  "act</w>": 3225,
  "unserer</w>": 3226,
  "wohl</w>": 3227,
  "gener": 3228,
  "Herr": 3229,
  "old</w>": 3230,
  "spo": 3231,
  "sei": 3232,
  "tain": 3233,
  "comple": 3234,
  "Sich": 3235,
  "fur": 3236,
  "ques": 3237,
  "ffen</w>": 3238,
  "ähr": 3239,
  "Ihre</w>": 3240,
  "besch": 3241,
  "per</w>": 3242,
  "Gem": 3243,
  "os</w>": 3244,
  "char": 3245,
  "habe</w>": 3246,
  "fas": 3247,
  "Untern": 3248,
  "Rich": 3249,
  "market</w>": 3250,
  "resu": 3251,
  "prote": 3252,
  "usin": 3253,
  "ia</w>": 3254,
  "genen</w>": 3255,
  "sondern</w>": 3256,
  "ier": 3257,
  "car": 3258,
  "au</w>": 3259,
  "fil": 3260,
  "del</w>": 3261,
  "through</w>": 3262,
  "Ta": 3263,
  "spiel": 3264,
  "seine</w>": 3265,
  "You</w>": 3266,
  "tly</w>": 3267,
  "after</w>": 3268,
  "ouse</w>": 3269,
  "gri": 3270,
  "jedoch</w>": 3271,
  "dra": 3272,
  "Min": 3273,
  "legen</w>": 3274,
  "Europäische</w>": 3275,
  "50</w>": 3276,
  "ince</w>": 3277,
  "cor": 3278,
  "sto": 3279,
  "fam": 3280,
  "ster": 3281,
  "indu": 3282,
  "cip": 3283,
  "ink</w>": 3284,
  "Syst": 3285,
  "gar": 3286,
  "enen</w>": 3287,
  "tlichen</w>": 3288,
  "000</w>": 3289,
  "political</w>": 3290,
  "self</w>": 3291,
  "wn": 3292,
  "Fü": 3293,
  "Mark": 3294,
  "igen</w>": 3295,
  "neue</w>": 3296,
  "pra": 3297,
  "que</w>": 3298,
  "ety</w>": 3299,
  "stu": 3300,
  "eln</w>": 3301,
  "economic</w>": 3302,
  "As</w>": 3303,
  "heute</w>": 3304,
  "Menschen</w>": 3305,
  "Bil": 3306,
  "gent": 3307,
  "kun": 3308,
  "hö": 3309,
  "ett": 3310,
  "Fran": 3311,
  "under</w>": 3312,
  "ages</w>": 3313,
  "ue</w>": 3314,
  "sor": 3315,
  "ständi": 3316,
  "gele": 3317,
  "Än": 3318,
  "gegen": 3319,
  "ical</w>": 3320,
  "side</w>": 3321,
  "brau": 3322,
  "stauran": 3323,
  "There</w>": 3324,
  "enz</w>": 3325,
  "star": 3326,
  "could</w>": 3327,
  "son</w>": 3328,
  "development</w>": 3329,
  "Kom": 3330,
  "ommission": 3331,
  "ingen</w>": 3332,
  "fahren</w>": 3333,
  "bek": 3334,
  "har": 3335,
  "disc": 3336,
  "air": 3337,
  "rights</w>": 3338,
  "within</w>": 3339,
  "struc": 3340,
  "30</w>": 3341,
  "Rei": 3342,
  "alle": 3343,
  "want</w>": 3344,
  "deb": 3345,
  "inst</w>": 3346,
  "ös": 3347,
  "Wor": 3348,
  "ready</w>": 3349,
  "led</w>": 3350,
  "mend": 3351,
  "cli": 3352,
  "sib": 3353,
  "selb": 3354,
  "tern</w>": 3355,
  "Jahr</w>": 3356,
  "onen</w>": 3357,
  "cher</w>": 3358,
  "transp": 3359,
  "europäischen</w>": 3360,
  "Änder": 3361,
  "schn": 3362,
  "nt</w>": 3363,
  "besser": 3364,
  "eld</w>": 3365,
  "For</w>": 3366,
  "bereits</w>": 3367,
  "gehen</w>": 3368,
  "bed": 3369,
  "wei</w>": 3370,
  "avail": 3371,
  "person": 3372,
  "Lei": 3373,
  "hist": 3374,
  "buil": 3375,
  "ous": 3376,
  "Dat": 3377,
  "prin": 3378,
  "rich": 3379,
  "ßnahmen</w>": 3380,
  "To": 3381,
  "Grund": 3382,
  "Sicher": 3383,
  "unterstütz": 3384,
  "against</w>": 3385,
  "geht</w>": 3386,
  "set</w>": 3387,
  "both</w>": 3388,
  "öl": 3389,
  "esen</w>": 3390,
  "fl": 3391,
  "sh</w>": 3392,
  "thre": 3393,
  "lassen</w>": 3394,
  "wol": 3395,
  "mich</w>": 3396,
  "ability</w>": 3397,
  "US": 3398,
  "much</w>": 3399,
  "country</w>": 3400,
  "eti": 3401,
  "find</w>": 3402,
  "cap": 3403,
  "therefore</w>": 3404,
  "up": 3405,
  "mittel": 3406,
  "ihrer</w>": 3407,
  "point</w>": 3408,
  "ohne</w>": 3409,
  "govern": 3410,
  "Gemein": 3411,
  "international</w>": 3412,
  "tlin": 3413,
  "trans": 3414,
  "bur": 3415,
  "neuen</w>": 3416,
  "go</w>": 3417,
  "sollte</w>": 3418,
  "Lo": 3419,
  "ct</w>": 3420,
  "erten</w>": 3421,
  "bers</w>": 3422,
  "ss</w>": 3423,
  "fort": 3424,
  "pi": 3425,
  "enth": 3426,
  "tom": 3427,
  "els</w>": 3428,
  "führt</w>": 3429,
  "viron": 3430,
  "Jahren</w>": 3431,
  "gew": 3432,
  "Mö": 3433,
  "high</w>": 3434,
  "tliche</w>": 3435,
  "Lu": 3436,
  "ins": 3437,
  "service</w>": 3438,
  "does</w>": 3439,
  "verschie": 3440,
  "stre": 3441,
  "enz": 3442,
  "ents</w>": 3443,
  "vari": 3444,
  "ktion": 3445,
  "andere</w>": 3446,
  "hol": 3447,
  "lag</w>": 3448,
  "licher</w>": 3449,
  "Rat</w>": 3450,
  "Sit": 3451,
  "liegt</w>": 3452,
  "hän": 3453,
  "Zei": 3454,
  "glich</w>": 3455,
  "free</w>": 3456,
  "Pri": 3457,
  "öffent": 3458,
  "Ri": 3459,
  "dri": 3460,
  "continu": 3461,
  "grö": 3462,
  "soci": 3463,
  "fle": 3464,
  "tial</w>": 3465,
  "Tra": 3466,
  "quality</w>": 3467,
  "without</w>": 3468,
  "ittee</w>": 3469,
  "durch": 3470,
  "ationalen</w>": 3471,
  "zwei</w>": 3472,
  "dre": 3473,
  "Besch": 3474,
  "ganz</w>": 3475,
  "clear</w>": 3476,
  "ve": 3477,
  "land": 3478,
  "machen</w>": 3479,
  "meas": 3480,
  "ards</w>": 3481,
  "Entwicklung</w>": 3482,
  "isti": 3483,
  "stellung</w>": 3484,
  "institu": 3485,
  "ited</w>": 3486,
  "nee": 3487,
  "litik</w>": 3488,
  "ome</w>": 3489,
  "services</w>": 3490,
  "Frage</w>": 3491,
  "Finan": 3492,
  "Rech": 3493,
  "mental</w>": 3494,
  "number</w>": 3495,
  "great</w>": 3496,
  "last</w>": 3497,
  "reichen</w>": 3498,
  "ders</w>": 3499,
  "wirtschaf": 3500,
  "ker</w>": 3501,
  "sollten</w>": 3502,
  "bel": 3503,
  "allen</w>": 3504,
  "operation</w>": 3505,
  "bietet</w>": 3506,
  "Str": 3507,
  "bewer": 3508,
  "Stad": 3509,
  "Berich": 3510,
  "usiness</w>": 3511,
  "iz": 3512,
  "kt": 3513,
  "Chin": 3514,
  "alo": 3515,
  "fest": 3516,
  "kten</w>": 3517,
  "still</w>": 3518,
  "antwor": 3519,
  "ways</w>": 3520,
  "dru": 3521,
  "dem": 3522,
  "tem": 3523,
  "ftw": 3524,
  "out": 3525,
  "kno": 3526,
  "long</w>": 3527,
  "ftware</w>": 3528,
  "dy</w>": 3529,
  "innen</w>": 3530,
  "available</w>": 3531,
  "social</w>": 3532,
  "fact</w>": 3533,
  "say</w>": 3534,
  "15</w>": 3535,
  "nte</w>": 3536,
  "requi": 3537,
  "fut": 3538,
  "ced</w>": 3539,
  "kre": 3540,
  "rooms</w>": 3541,
  "assi": 3542,
  "kes</w>": 3543,
  "leist": 3544,
  "different</w>": 3545,
  "sehen</w>": 3546,
  "boo": 3547,
  "tschaft</w>": 3548,
  "change</w>": 3549,
  "12</w>": 3550,
  "rupp": 3551,
  "know</w>": 3552,
  "atte</w>": 3553,
  "besondere</w>": 3554,
  "zus": 3555,
  "Ein</w>": 3556,
  "Dur": 3557,
  "Go": 3558,
  "arch</w>": 3559,
  "city</w>": 3560,
  "bri": 3561,
  "elec": 3562,
  "zur": 3563,
  "ular</w>": 3564,
  "ev": 3565,
  "satz</w>": 3566,
  "Mit</w>": 3567,
  "less</w>": 3568,
  "findet</w>": 3569,
  "stal": 3570,
  "lungen</w>": 3571,
  "führen</w>": 3572,
  "ship</w>": 3573,
  "present": 3574,
  "glob": 3575,
  "position</w>": 3576,
  "tsp": 3577,
  "dition</w>": 3578,
  "ulation</w>": 3579,
  "curr": 3580,
  "gn</w>": 3581,
  "ologi": 3582,
  "entsp": 3583,
  "typ": 3584,
  "tural</w>": 3585,
  "Nor": 3586,
  "ests</w>": 3587,
  "ner</w>": 3588,
  "cken</w>": 3589,
  "lagen</w>": 3590,
  "anti": 3591,
  "Da": 3592,
  "zwei": 3593,
  "cust": 3594,
  "fast</w>": 3595,
  "Mög": 3596,
  "viele</w>": 3597,
  "concern": 3598,
  "ond</w>": 3599,
  "ital</w>": 3600,
  "vidu": 3601,
  "ef": 3602,
  "environ": 3603,
  "Bar": 3604,
  "yn": 3605,
  "Ter": 3606,
  "sicht</w>": 3607,
  "already</w>": 3608,
  "weil</w>": 3609,
  "ration</w>": 3610,
  "before</w>": 3611,
  "believe</w>": 3612,
  "future</w>": 3613,
  "hä": 3614,
  "consu": 3615,
  "alt</w>": 3616,
  "zent": 3617,
  "high": 3618,
  "emplo": 3619,
  "inten": 3620,
  "ici": 3621,
  "Welt</w>": 3622,
  "sicher": 3623,
  "priv": 3624,
  "einf": 3625,
  "nehmen</w>": 3626,
  "Unternehmen</w>": 3627,
  "course</w>": 3628,
  "mar": 3629,
  "too</w>": 3630,
  "dazu</w>": 3631,
  "Man": 3632,
  "Com": 3633,
  "alisi": 3634,
  "Dies": 3635,
  "eben": 3636,
  "tal": 3637,
  "ry</w>": 3638,
  "fied</w>": 3639,
  "auth": 3640,
  "denn</w>": 3641,
  "ft": 3642,
  "Ba": 3643,
  "ept</w>": 3644,
  "mei": 3645,
  "wäh": 3646,
  "utes</w>": 3647,
  "uro</w>": 3648,
  "zeit</w>": 3649,
  "today</w>": 3650,
  "Kin": 3651,
  "Tre": 3652,
  "ig</w>": 3653,
  "gramme</w>": 3654,
  "inte": 3655,
  "products</w>": 3656,
  "kur": 3657,
  "enst": 3658,
  "ler": 3659,
  "Des": 3660,
  "entwick": 3661,
  "Intern": 3662,
  "wo</w>": 3663,
  "case</w>": 3664,
  "wieder</w>": 3665,
  "experi": 3666,
  "jetzt</w>": 3667,
  "klär": 3668,
  "contro": 3669,
  "Commission": 3670,
  "bal": 3671,
  "komm": 3672,
  "olog": 3673,
  "Rah": 3674,
  "That</w>": 3675,
  "ca</w>": 3676,
  "main</w>": 3677,
  "fer</w>": 3678,
  "hop": 3679,
  "Am": 3680,
  "2009</w>": 3681,
  "acti": 3682,
  "sing</w>": 3683,
  "tors</w>": 3684,
  "level</w>": 3685,
  "seiner</w>": 3686,
  "ample</w>": 3687,
  "Do": 3688,
  "mul": 3689,
  "kan": 3690,
  "some": 3691,
  "hin</w>": 3692,
  "urity</w>": 3693,
  "zieh": 3694,
  "data</w>": 3695,
  "Tran": 3696,
  "gang</w>": 3697,
  "rap": 3698,
  "Ener": 3699,
  "process</w>": 3700,
  "think</w>": 3701,
  "com</w>": 3702,
  "Rus": 3703,
  "Dem": 3704,
  "cannot</w>": 3705,
  "prä": 3706,
  "succ": 3707,
  "Dis": 3708,
  "darauf</w>": 3709,
  "Lage</w>": 3710,
  "ets</w>": 3711,
  "nahme</w>": 3712,
  "saf": 3713,
  "sam": 3714,
  "tiz": 3715,
  "Informationen</w>": 3716,
  "effec": 3717,
  "progra": 3718,
  "ever": 3719,
  "vice</w>": 3720,
  "arbeit</w>": 3721,
  "größ": 3722,
  "Bereich</w>": 3723,
  "sozi": 3724,
  "genommen</w>": 3725,
  "imm": 3726,
  "alität</w>": 3727,
  "Is": 3728,
  "agement</w>": 3729,
  "gestellt</w>": 3730,
  "fully</w>": 3731,
  "Sa": 3732,
  "isch</w>": 3733,
  "Hin": 3734,
  "Gu": 3735,
  "put</w>": 3736,
  "Maßnahmen</w>": 3737,
  "ism</w>": 3738,
  "Web": 3739,
  "ka</w>": 3740,
  "ischer</w>": 3741,
  "individu": 3742,
  "cra": 3743,
  "Hand": 3744,
  "Ad": 3745,
  "sign</w>": 3746,
  "einige</w>": 3747,
  "trä": 3748,
  "Them": 3749,
  "trau": 3750,
  "human</w>": 3751,
  "sagen</w>": 3752,
  "schon</w>": 3753,
  "offers</w>": 3754,
  "schen": 3755,
  "twen": 3756,
  "selbst</w>": 3757,
  "Mi": 3758,
  "ate": 3759,
  "pur": 3760,
  "Le": 3761,
  "pec": 3762,
  "falls</w>": 3763,
  "ately</w>": 3764,
  "dafür</w>": 3765,
  "ls</w>": 3766,
  "macht</w>": 3767,
  "embers</w>": 3768,
  "gesam": 3769,
  "ab</w>": 3770,
  "national</w>": 3771,
  "Fo": 3772,
  "ma</w>": 3773,
  "impro": 3774,
  "adv": 3775,
  "win": 3776,
  "Commissioner</w>": 3777,
  "Stra": 3778,
  "Herrn</w>": 3779,
  "situation</w>": 3780,
  "respec": 3781,
  "ommiss": 3782,
  "11</w>": 3783,
  "imple": 3784,
  "ob</w>": 3785,
  "ats": 3786,
  "chil": 3787,
  "maj": 3788,
  "mir</w>": 3789,
  "gleich": 3790,
  "But</w>": 3791,
  "during</w>": 3792,
  "Medi": 3793,
  "tragen</w>": 3794,
  "Aussch": 3795,
  "bro": 3796,
  "best</w>": 3797,
  "sic</w>": 3798,
  "Stand": 3799,
  "ling</w>": 3800,
  "minist": 3801,
  "abli": 3802,
  "ked</w>": 3803,
  "over": 3804,
  "twendi": 3805,
  "eter</w>": 3806,
  "call": 3807,
  "Kommiss": 3808,
  "ining</w>": 3809,
  "ier</w>": 3810,
  "ihr</w>": 3811,
  "So</w>": 3812,
  "small</w>": 3813,
  "nov": 3814,
  "möglich</w>": 3815,
  "Vol": 3816,
  "stär": 3817,
  "lü": 3818,
  "financial</w>": 3819,
  "fäl": 3820,
  "prof": 3821,
  "nis</w>": 3822,
  "bin</w>": 3823,
  "ihren</w>": 3824,
  "ade</w>": 3825,
  "spra": 3826,
  "ged</w>": 3827,
  "bud": 3828,
  "gebo": 3829,
  "vely</w>": 3830,
  "Pal": 3831,
  "allem</w>": 3832,
  "Jahre</w>": 3833,
  "nor": 3834,
  "ität</w>": 3835,
  "said</w>": 3836,
  "custom": 3837,
  "ning</w>": 3838,
  "viel</w>": 3839,
  "oren</w>": 3840,
  "zeich": 3841,
  "versi": 3842,
  "ish</w>": 3843,
  "gend</w>": 3844,
  "verk": 3845,
  "Arbeit</w>": 3846,
  "issue</w>": 3847,
  "achie": 3848,
  "debate</w>": 3849,
  "means</w>": 3850,
  "yment</w>": 3851,
  "including</w>": 3852,
  "dam</w>": 3853,
  "Fun": 3854,
  "tels</w>": 3855,
  "tsch": 3856,
  "example</w>": 3857,
  "tt</w>": 3858,
  "proposal</w>": 3859,
  "applic": 3860,
  "zel": 3861,
  "Ste": 3862,
  "lungs": 3863,
  "meine</w>": 3864,
  "ilit": 3865,
  "ward</w>": 3866,
  "every</w>": 3867,
  "Mu": 3868,
  "tik": 3869,
  "US</w>": 3870,
  "bit": 3871,
  "text</w>": 3872,
  "All</w>": 3873,
  "question</w>": 3874,
  "condi": 3875,
  "simp": 3876,
  "genden</w>": 3877,
  "fic</w>": 3878,
  "del": 3879,
  "since</w>": 3880,
  "stimm": 3881,
  "kunft</w>": 3882,
  "Res": 3883,
  "worden</w>": 3884,
  "ging</w>": 3885,
  "Vi": 3886,
  "isl": 3887,
  "Sei": 3888,
  "though</w>": 3889,
  "resol": 3890,
  "ene</w>": 3891,
  "gut</w>": 3892,
  "Eine</w>": 3893,
  "sten": 3894,
  "business</w>": 3895,
  "verfü": 3896,
  "wollen</w>": 3897,
  "Dies</w>": 3898,
  "Ju": 3899,
  "lug": 3900,
  "necess": 3901,
  "az": 3902,
  "Land</w>": 3903,
  "tru": 3904,
  "essen": 3905,
  "However</w>": 3906,
  "tig": 3907,
  "Our</w>": 3908,
  "würde</w>": 3909,
  "unseren</w>": 3910,
  "help</w>": 3911,
  "ily</w>": 3912,
  "based</w>": 3913,
  "ahl</w>": 3914,
  "legal</w>": 3915,
  "ol</w>": 3916,
  "Verein": 3917,
  "back</w>": 3918,
  "ban": 3919,
  "ority</w>": 3920,
  "Fir": 3921,
  "tens</w>": 3922,
  "each</w>": 3923,
  "tur</w>": 3924,
  "Person": 3925,
  "taken</w>": 3926,
  "Wi": 3927,
  "Wel": 3928,
  "üh": 3929,
  "deu": 3930,
  "access</w>": 3931,
  "action</w>": 3932,
  "adop": 3933,
  "defin": 3934,
  "Land": 3935,
  "Nat": 3936,
  "ual</w>": 3937,
  "alth</w>": 3938,
  "gramm</w>": 3939,
  "tic</w>": 3940,
  "ology</w>": 3941,
  "bestimm": 3942,
  "use": 3943,
  "annt</w>": 3944,
  "mor": 3945,
  "particular</w>": 3946,
  "offer</w>": 3947,
  "citiz": 3948,
  "Committee</w>": 3949,
  "zun": 3950,
  "tin</w>": 3951,
  "Für</w>": 3952,
  "visi": 3953,
  "illion</w>": 3954,
  "get": 3955,
  "aly": 3956,
  "Haush": 3957,
  "ek</w>": 3958,
  "art": 3959,
  "ähi": 3960,
  "inst": 3961,
  "kün": 3962,
  "partn": 3963,
  "ences</w>": 3964,
  "iger</w>": 3965,
  "colle": 3966,
  "aro": 3967,
  "produ": 3968,
  "bringen</w>": 3969,
  "Techn": 3970,
  "Zimmer</w>": 3971,
  "Internet</w>": 3972,
  "Proje": 3973,
  "ilities</w>": 3974,
  "gar</w>": 3975,
  "während</w>": 3976,
  "three</w>": 3977,
  "etwas</w>": 3978,
  "dig": 3979,
  "Lös": 3980,
  "lichkeiten</w>": 3981,
  "sel</w>": 3982,
  "setzung</w>": 3983,
  "feh": 3984,
  "search</w>": 3985,
  "problem</w>": 3986,
  "Deut": 3987,
  "large</w>": 3988,
  "Arbeits": 3989,
  "common</w>": 3990,
  "requ": 3991,
  "ats</w>": 3992,
  "bieten</w>": 3993,
  "give</w>": 3994,
  "measures</w>": 3995,
  "xi": 3996,
  "next</w>": 3997,
  "areas</w>": 3998,
  "Art</w>": 3999,
  "Ur": 4000,
  "accoun": 4001,
  "utz</w>": 4002,
  "rem</w>": 4003,
  "stry</w>": 4004,
  "every": 4005,
  "aler</w>": 4006,
  "Aut": 4007,
  "present</w>": 4008,
  "affen</w>": 4009,
  "organis": 4010,
  "waren</w>": 4011,
  "Rechts": 4012,
  "derung</w>": 4013,
  "Länder</w>": 4014,
  "nun</w>": 4015,
  "dire": 4016,
  "ssi": 4017,
  "Beh": 4018,
  "ole</w>": 4019,
  "Gre": 4020,
  "Und</w>": 4021,
  "few</w>": 4022,
  "staurant</w>": 4023,
  "energy</w>": 4024,
  "ches</w>": 4025,
  "spezi": 4026,
  "ith</w>": 4027,
  "Unterstütz": 4028,
  "agreement</w>": 4029,
  "Wie</w>": 4030,
  "far</w>": 4031,
  "deli": 4032,
  "establi": 4033,
  "Cent": 4034,
  "La": 4035,
  "dings</w>": 4036,
  "while</w>": 4037,
  "insbesondere</w>": 4038,
  "inde": 4039,
  "18": 4040,
  "ßt</w>": 4041,
  "located</w>": 4042,
  "On</w>": 4043,
  "spre": 4044,
  "necessary</w>": 4045,
  "tieren</w>": 4046,
  "provide</w>": 4047,
  "recei": 4048,
  "dungen</w>": 4049,
  "cies</w>": 4050,
  "2010</w>": 4051,
  "citizens</w>": 4052,
  "sure</w>": 4053,
  "erfol": 4054,
  "iet</w>": 4055,
  "gehör": 4056,
  "Hil": 4057,
  "China</w>": 4058,
  "zü": 4059,
  "pas": 4060,
  "ports</w>": 4061,
  "ju": 4062,
  "histor": 4063,
  "ktionen</w>": 4064,
  "schri": 4065,
  "omen</w>": 4066,
  "ordnung</w>": 4067,
  "verwen": 4068,
  "Stu": 4069,
  "fore": 4070,
  "ak</w>": 4071,
  "wach": 4072,
  "los</w>": 4073,
  "punkt</w>": 4074,
  "alten</w>": 4075,
  "erhalten</w>": 4076,
  "sibility</w>": 4077,
  "using</w>": 4078,
  "follo": 4079,
  "seit</w>": 4080,
  "systems</w>": 4081,
  "ensure</w>": 4082,
  "sy": 4083,
  "begr": 4084,
  "life</w>": 4085,
  "Por": 4086,
  "essen</w>": 4087,
  "ürlich</w>": 4088,
  "Bed": 4089,
  "gesetzt</w>": 4090,
  "dge</w>": 4091,
  "han": 4092,
  "schein": 4093,
  "company</w>": 4094,
  "len": 4095,
  "ask</w>": 4096,
  "eting</w>": 4097,
  "Umwel": 4098,
  "nten</w>": 4099,
  "again</w>": 4100,
  "Verfü": 4101,
  "Änderungs": 4102,
  "aller</w>": 4103,
  "Ru": 4104,
  "date</w>": 4105,
  "sse</w>": 4106,
  "licht</w>": 4107,
  "2008</w>": 4108,
  "key</w>": 4109,
  "mente</w>": 4110,
  "Parlaments</w>": 4111,
  "Rahmen</w>": 4112,
  "opp": 4113,
  "tradi": 4114,
  "whe": 4115,
  "security</w>": 4116,
  "half</w>": 4117,
  "ness</w>": 4118,
  "nisse</w>": 4119,
  "heits": 4120,
  "völ": 4121,
  "equi": 4122,
  "mä": 4123,
  "wes": 4124,
  "wo": 4125,
  "increas": 4126,
  "hil": 4127,
  "fan": 4128,
  "ersten</w>": 4129,
  "wan": 4130,
  "25</w>": 4131,
  "problems</w>": 4132,
  "ularly</w>": 4133,
  "Unterstützung</w>": 4134,
  "further</w>": 4135,
  "shall</w>": 4136,
  "scher</w>": 4137,
  "arch": 4138,
  "äm": 4139,
  "autom": 4140,
  "opport": 4141,
  "heiten</w>": 4142,
  "ieder": 4143,
  "arbeiten</w>": 4144,
  "Bel": 4145,
  "cl": 4146,
  "blei": 4147,
  "Menschen": 4148,
  "Zusammenarbeit</w>": 4149,
  "Win": 4150,
  "Tur": 4151,
  "assung</w>": 4152,
  "prac": 4153,
  "compan": 4154,
  "du</w>": 4155,
  "net": 4156,
  "Namen</w>": 4157,
  "days</w>": 4158,
  "tali": 4159,
  "Teil</w>": 4160,
  "fte</w>": 4161,
  "att": 4162,
  "moder": 4163,
  "sequ": 4164,
  "vote</w>": 4165,
  "Haup": 4166,
  "gs": 4167,
  "trol": 4168,
  "competi": 4169,
  "Group</w>": 4170,
  "sia</w>": 4171,
  "given</w>": 4172,
  "agt</w>": 4173,
  "Ländern</w>": 4174,
  "cou": 4175,
  "spro": 4176,
  "real</w>": 4177,
  "tice</w>": 4178,
  "Richtlin": 4179,
  "Mr": 4180,
  "Gar": 4181,
  "sichti": 4182,
  "allo": 4183,
  "Verk": 4184,
  "beim</w>": 4185,
  "leich": 4186,
  "zo": 4187,
  "ules</w>": 4188,
  "utzen</w>": 4189,
  "invol": 4190,
  "Vorschlag</w>": 4191,
  "setzen</w>": 4192,
  "Dar": 4193,
  "dly</w>": 4194,
  "til</w>": 4195,
  "tungs": 4196,
  "yer</w>": 4197,
  "di</w>": 4198,
  "Amer": 4199,
  "rele": 4200,
  "objec": 4201,
  "izi": 4202,
  "Sk": 4203,
  "voll": 4204,
  "wards</w>": 4205,
  "why</w>": 4206,
  "consider": 4207,
  "however</w>": 4208,
  "unde</w>": 4209,
  "tz</w>": 4210,
  "Fall</w>": 4211,
  "ja</w>": 4212,
  "soll</w>": 4213,
  "Fol": 4214,
  "the": 4215,
  "dest": 4216,
  "Americ": 4217,
  "law</w>": 4218,
  "zug</w>": 4219,
  "Leb": 4220,
  "light</w>": 4221,
  "cooperation</w>": 4222,
  "besteht</w>": 4223,
  "stay</w>": 4224,
  "ieren</w>": 4225,
  "group</w>": 4226,
  "IN": 4227,
  "eck</w>": 4228,
  "Kli": 4229,
  "Op": 4230,
  "tiert</w>": 4231,
  "grund</w>": 4232,
  "gether</w>": 4233,
  "Rol": 4234,
  "Deb": 4235,
  "zep": 4236,
  "connec": 4237,
  "down</w>": 4238,
  "To</w>": 4239,
  "ish": 4240,
  "Uni": 4241,
  "did</w>": 4242,
  "Bürger</w>": 4243,
  "Gen": 4244,
  "sitz": 4245,
  "ennen</w>": 4246,
  "vention</w>": 4247,
  "Ben": 4248,
  "On": 4249,
  "lossen</w>": 4250,
  "tun</w>": 4251,
  "cho": 4252,
  "Eng": 4253,
  "lea": 4254,
  "führung</w>": 4255,
  "amend": 4256,
  "ours</w>": 4257,
  "Stadt</w>": 4258,
  "Kar": 4259,
  "sam</w>": 4260,
  "rum</w>": 4261,
  "ism": 4262,
  "gabe</w>": 4263,
  "With</w>": 4264,
  "ously</w>": 4265,
  "legisl": 4266,
  "hau": 4267,
  "always</w>": 4268,
  "lin</w>": 4269,
  "richti": 4270,
  "System</w>": 4271,
  "wissen</w>": 4272,
  "Ziel</w>": 4273,
  "deren</w>": 4274,
  "gende</w>": 4275,
  "Proz": 4276,
  "int</w>": 4277,
  "needs</w>": 4278,
  "lus": 4279,
  "working</w>": 4280,
  "Br": 4281,
  "valu": 4282,
  "Organ": 4283,
  "einfach</w>": 4284,
  "happ": 4285,
  "atten": 4286,
  "full</w>": 4287,
  "views</w>": 4288,
  "denti": 4289,
  "glau": 4290,
  "They</w>": 4291,
  "Anwen": 4292,
  "initi": 4293,
  "seinen</w>": 4294,
  "24</w>": 4295,
  "cultural</w>": 4296,
  "dert</w>": 4297,
  "appe": 4298,
  "Geschäf": 4299,
  "strateg": 4300,
  "drei</w>": 4301,
  "Fragen</w>": 4302,
  "state</w>": 4303,
  "Lan": 4304,
  "plan": 4305,
  "ession": 4306,
  "United</w>": 4307,
  "wichtig</w>": 4308,
  "Bei</w>": 4309,
  "verb": 4310,
  "dren</w>": 4311,
  "hope</w>": 4312,
  "dlich</w>": 4313,
  "materi": 4314,
  "fung</w>": 4315,
  "Gi": 4316,
  "production</w>": 4317,
  "ep</w>": 4318,
  "einmal</w>": 4319,
  "mehr": 4320,
  "Fam": 4321,
  "Pu": 4322,
  "flo": 4323,
  "welche</w>": 4324,
  "At</w>": 4325,
  "ases</w>": 4326,
  "spiel</w>": 4327,
  "ina</w>": 4328,
  "Af": 4329,
  "Euro</w>": 4330,
  "Partn": 4331,
  "guar": 4332,
  "plac": 4333,
  "parti": 4334,
  "stance</w>": 4335,
  "Problem</w>": 4336,
  "od</w>": 4337,
  "main": 4338,
  "solu": 4339,
  "terstat": 4340,
  "Seite</w>": 4341,
  "Ob": 4342,
  "better</w>": 4343,
  "wäre</w>": 4344,
  "darf</w>": 4345,
  "teil</w>": 4346,
  "esses</w>": 4347,
  "ei</w>": 4348,
  "House</w>": 4349,
  "ised</w>": 4350,
  "Community</w>": 4351,
  "Sec": 4352,
  "porte": 4353,
  "letzten</w>": 4354,
  "dabei</w>": 4355,
  "reco": 4356,
  "ettbewer": 4357,
  "War": 4358,
  "ird</w>": 4359,
  "Präsiden": 4360,
  "100</w>": 4361,
  "orts</w>": 4362,
  "industri": 4363,
  "Entschei": 4364,
  "ER": 4365,
  "And</w>": 4366,
  "Kollegen</w>": 4367,
  "bau": 4368,
  "treten</w>": 4369,
  "ference</w>": 4370,
  "ine": 4371,
  "times</w>": 4372,
  "Tex": 4373,
  "EU": 4374,
  "betri": 4375,
  "sever": 4376,
  "Milli": 4377,
  "USA</w>": 4378,
  "esse</w>": 4379,
  "gaben</w>": 4380,
  "open</w>": 4381,
  "km</w>": 4382,
  "around</w>": 4383,
  "politischen</w>": 4384,
  "Wirtschaf": 4385,
  "ämp": 4386,
  "yed</w>": 4387,
  "protection</w>": 4388,
  "geführt</w>": 4389,
  "Institu": 4390,
  "13</w>": 4391,
  "iert</w>": 4392,
  "Daten</w>": 4393,
  "genheit</w>": 4394,
  "ations": 4395,
  "2007</w>": 4396,
  "Recht</w>": 4397,
  "add": 4398,
  "lied</w>": 4399,
  "them": 4400,
  "rechte</w>": 4401,
  "Bi": 4402,
  "entfer": 4403,
  "power</w>": 4404,
  "imp": 4405,
  "What</w>": 4406,
  "dec": 4407,
  "making</w>": 4408,
  "ton</w>": 4409,
  "rän": 4410,
  "together</w>": 4411,
  "Woh": 4412,
  "Wer": 4413,
  "Mein": 4414,
  "sing": 4415,
  "abo": 4416,
  "vil": 4417,
  "zeigt</w>": 4418,
  "großen</w>": 4419,
  "pack": 4420,
  "Bedeut": 4421,
  "große</w>": 4422,
  "rise</w>": 4423,
  "ingungen</w>": 4424,
  "Ziel": 4425,
  "tte</w>": 4426,
  "Fraktion</w>": 4427,
  "enjo": 4428,
  "Kre": 4429,
  "Viel": 4430,
  "riti": 4431,
  "schaften</w>": 4432,
  "Eu": 4433,
  "dent</w>": 4434,
  "spar": 4435,
  "ines</w>": 4436,
  "gern</w>": 4437,
  "ück</w>": 4438,
  "ware</w>": 4439,
  "plat": 4440,
  "tan": 4441,
  "ima": 4442,
  "lab": 4443,
  "He": 4444,
  "current</w>": 4445,
  "Spiel": 4446,
  "streng": 4447,
  "gän": 4448,
  "Haushal": 4449,
  "prü": 4450,
  "ources</w>": 4451,
  "ury</w>": 4452,
  "resul": 4453,
  "Mrs</w>": 4454,
  "hängi": 4455,
  "special</w>": 4456,
  "sha": 4457,
  "Auf</w>": 4458,
  "Was</w>": 4459,
  "CO": 4460,
  "unic": 4461,
  "terms</w>": 4462,
  "orig": 4463,
  "pt</w>": 4464,
  "fort</w>": 4465,
  "Verfügung</w>": 4466,
  "Ele": 4467,
  "hand</w>": 4468,
  "inner": 4469,
  "00": 4470,
  "Er</w>": 4471,
  "för": 4472,
  "einzi": 4473,
  "Sicherheit</w>": 4474,
  "Ergeb": 4475,
  "weiter</w>": 4476,
  "trade</w>": 4477,
  "Bedeutung</w>": 4478,
  "deta": 4479,
  "Gener": 4480,
  "ra</w>": 4481,
  "sted</w>": 4482,
  "co</w>": 4483,
  "Off": 4484,
  "region": 4485,
  "stä": 4486,
  "extre": 4487,
  "2000</w>": 4488,
  "Ihr</w>": 4489,
  "Situ": 4490,
  "whether</w>": 4491,
  "Eben": 4492,
  "outh</w>": 4493,
  "become</w>": 4494,
  "icul": 4495,
  "centre</w>": 4496,
  "particularly</w>": 4497,
  "going</w>": 4498,
  "enzen</w>": 4499,
  "These</w>": 4500,
  "Ira": 4501,
  "orities</w>": 4502,
  "Möglichkeit</w>": 4503,
  "zurück": 4504,
  "discus": 4505,
  "hr</w>": 4506,
  "ro</w>": 4507,
  "erungs": 4508,
  "management</w>": 4509,
  "wed</w>": 4510,
  "uter</w>": 4511,
  "val</w>": 4512,
  "difficul": 4513,
  "promo": 4514,
  "los": 4515,
  "basis</w>": 4516,
  "another</w>": 4517,
  "ths</w>": 4518,
  "certain</w>": 4519,
  "außer": 4520,
  "air</w>": 4521,
  "trac": 4522,
  "40</w>": 4523,
  "children</w>": 4524,
  "When</w>": 4525,
  "commit": 4526,
  "mb": 4527,
  "bel</w>": 4528,
  "schließlich</w>": 4529,
  "ath</w>": 4530,
  "Nach</w>": 4531,
  "18</w>": 4532,
  "location</w>": 4533,
  "burg</w>": 4534,
  "Wo": 4535,
  "Sol": 4536,
  "ffe</w>": 4537,
  "ign</w>": 4538,
  "range</w>": 4539,
  "expres": 4540,
  "rapporte": 4541,
  "web": 4542,
  "fähi": 4543,
  "Berichterstat": 4544,
  "ror": 4545,
  "supp": 4546,
  "serv": 4547,
  "Auch</w>": 4548,
  "muß</w>": 4549,
  "handelt</w>": 4550,
  "met": 4551,
  "notwendi": 4552,
  "Lie": 4553,
  "result</w>": 4554,
  "look</w>": 4555,
  "Rom": 4556,
  "gleich</w>": 4557,
  "contri": 4558,
  "second</w>": 4559,
  "näch": 4560,
  "Frau": 4561,
  "conditions</w>": 4562,
  "groß": 4563,
  "eigenen</w>": 4564,
  "iti": 4565,
  "page</w>": 4566,
  "ator</w>": 4567,
  "politik</w>": 4568,
  "gene</w>": 4569,
  "ermög": 4570,
  "rüh": 4571,
  "Staaten</w>": 4572,
  "Fahr": 4573,
  "xim": 4574,
  "dlichen</w>": 4575,
  "table</w>": 4576,
  "region</w>": 4577,
  "14</w>": 4578,
  "Flug": 4579,
  "issues</w>": 4580,
  "Ti": 4581,
  "cel": 4582,
  "tigt</w>": 4583,
  "Als</w>": 4584,
  "ellschaft</w>": 4585,
  "tal</w>": 4586,
  "dessen</w>": 4587,
  "ales</w>": 4588,
  "Aber</w>": 4589,
  "Plat": 4590,
  "alles</w>": 4591,
  "water</w>": 4592,
  "inf": 4593,
  "Regierung</w>": 4594,
  "pflich": 4595,
  "Thema</w>": 4596,
  "aller": 4597,
  "rin": 4598,
  "Lis": 4599,
  "kra": 4600,
  "zed</w>": 4601,
  "erforder": 4602,
  "Gra": 4603,
  "Service</w>": 4604,
  "dio</w>": 4605,
  "German</w>": 4606,
  "Energi": 4607,
  "ering</w>": 4608,
  "Gä": 4609,
  "Zent": 4610,
  "yo": 4611,
  "davon</w>": 4612,
  "wahr": 4613,
  "Indu": 4614,
  "grei": 4615,
  "exten": 4616,
  "turn</w>": 4617,
  "darüber</w>": 4618,
  "zer": 4619,
  "Probleme</w>": 4620,
  "goti": 4621,
  "espec": 4622,
  "ific": 4623,
  "bor": 4624,
  "weit</w>": 4625,
  "dom</w>": 4626,
  "60</w>": 4627,
  "control</w>": 4628,
  "wegen</w>": 4629,
  "daher</w>": 4630,
  "gress</w>": 4631,
  "ichte</w>": 4632,
  "coming</w>": 4633,
  "companies</w>": 4634,
  "role</w>": 4635,
  "Ant": 4636,
  "fft</w>": 4637,
  "women</w>": 4638,
  "Kommissar</w>": 4639,
  "Kunden</w>": 4640,
  "geord": 4641,
  "decision</w>": 4642,
  "entschei": 4643,
  "ross</w>": 4644,
  "Famili": 4645,
  "Weise</w>": 4646,
  "soli": 4647,
  "experience</w>": 4648,
  "kein</w>": 4649,
  "various</w>": 4650,
  "beau": 4651,
  "AT": 4652,
  "guaran": 4653,
  "especi": 4654,
  "programme</w>": 4655,
  "wide</w>": 4656,
  "establish": 4657,
  "sowohl</w>": 4658,
  "industry</w>": 4659,
  "fizi": 4660,
  "sage</w>": 4661,
  "seri": 4662,
  "whole</w>": 4663,
  "selves</w>": 4664,
  "ismus</w>": 4665,
  "exist": 4666,
  "blick</w>": 4667,
  "weitere</w>": 4668,
  "Finanz": 4669,
  "ire</w>": 4670,
  "Artik": 4671,
  "ordin": 4672,
  "Politik</w>": 4673,
  "Car": 4674,
  "16</w>": 4675,
  "befindet</w>": 4676,
  "Dienst": 4677,
  "health</w>": 4678,
  "comes</w>": 4679,
  "ss": 4680,
  "design": 4681,
  "even": 4682,
  "dou": 4683,
  "tor": 4684,
  "kommt</w>": 4685,
  "non</w>": 4686,
  "sector</w>": 4687,
  "suchen</w>": 4688,
  "weisen</w>": 4689,
  "AR": 4690,
  "especially</w>": 4691,
  "vis": 4692,
  "hör": 4693,
  "könnte</w>": 4694,
  "gel</w>": 4695,
  "modern</w>": 4696,
  "Ihrer</w>": 4697,
  "distri": 4698,
  "innov": 4699,
  "ta</w>": 4700,
  "erreichen</w>": 4701,
  "agen": 4702,
  "teil": 4703,
  "Kun": 4704,
  "called</w>": 4705,
  "aty</w>": 4706,
  "really</w>": 4707,
  "hatte</w>": 4708,
  "work": 4709,
  "samen</w>": 4710,
  "close</w>": 4711,
  "local</w>": 4712,
  "asi": 4713,
  "far": 4714,
  "meiner</w>": 4715,
  "anzu": 4716,
  "mentation</w>": 4717,
  "matter</w>": 4718,
  "besonders</w>": 4719,
  "hang</w>": 4720,
  "enter": 4721,
  "Jun": 4722,
  "ziehen</w>": 4723,
  "Minist": 4724,
  "word</w>": 4725,
  "Pra": 4726,
  "oth": 4727,
  "liegen</w>": 4728,
  "done</w>": 4729,
  "Ende</w>": 4730,
  "name</w>": 4731,
  "versch": 4732,
  "account</w>": 4733,
  "tten</w>": 4734,
  "ellent</w>": 4735,
  "wish</w>": 4736,
  "fav": 4737,
  "ils</w>": 4738,
  "instru": 4739,
  "specific</w>": 4740,
  "luss</w>": 4741,
  "staf": 4742,
  "wirklich</w>": 4743,
  "ingt</w>": 4744,
  "private</w>": 4745,
  "respect</w>": 4746,
  "Grupp": 4747,
  "ek": 4748,
  "leben</w>": 4749,
  "def": 4750,
  "Beispiel</w>": 4751,
  "budget</w>": 4752,
  "chen": 4753,
  "ihnen</w>": 4754,
  "Lin": 4755,
  "Inv": 4756,
  "invest": 4757,
  "Zukunft</w>": 4758,
  "Richtlinie</w>": 4759,
  "ritte</w>": 4760,
  "vision</w>": 4761,
  "2006</w>": 4762,
  "verschiedenen</w>": 4763,
  "entsprech": 4764,
  "natürlich</w>": 4765,
  "Indi": 4766,
  "unser</w>": 4767,
  "Mittel": 4768,
  "docu": 4769,
  "ared</w>": 4770,
  "unterstützen</w>": 4771,
  "aktu": 4772,
  "third</w>": 4773,
  "akti": 4774,
  "neten</w>": 4775,
  "ationale</w>": 4776,
  "isi": 4777,
  "profession": 4778,
  "government</w>": 4779,
  "gelegt</w>": 4780,
  "blo": 4781,
  "create</w>": 4782,
  "innerhalb</w>": 4783,
  "don</w>": 4784,
  "abhängi": 4785,
  "Bal": 4786,
  "negoti": 4787,
  "research</w>": 4788,
  "AN": 4789,
  "eili": 4790,
  "face</w>": 4791,
  "Währ": 4792,
  "ably</w>": 4793,
  "Haupt": 4794,
  "entfernt</w>": 4795,
  "Afri": 4796,
  "Wettbewer": 4797,
  "staff</w>": 4798,
  "öh": 4799,
  "ik</w>": 4800,
  "feat": 4801,
  "langu": 4802,
  "fy</w>": 4803,
  "vielen</w>": 4804,
  "gegenüber</w>": 4805,
  "wa</w>": 4806,
  "zahl": 4807,
  "sprechen</w>": 4808,
  "Boo": 4809,
  "At": 4810,
  "incre": 4811,
  "finanzi": 4812,
  "ession</w>": 4813,
  "reli": 4814,
  "tigung</w>": 4815,
  "user</w>": 4816,
  "fül": 4817,
  "Ban": 4818,
  "Forsch": 4819,
  "Rück": 4820,
  "Grün": 4821,
  "quali": 4822,
  "Rolle</w>": 4823,
  "sön": 4824,
  "hervor": 4825,
  "Germany</w>": 4826,
  "grund": 4827,
  "software</w>": 4828,
  "start</w>": 4829,
  "zwar</w>": 4830,
  "merk": 4831,
  "rimin": 4832,
  "bl": 4833,
  "single</w>": 4834,
  "Nutz": 4835,
  "gue</w>": 4836,
  "Kul": 4837,
  "reduc": 4838,
  "krati": 4839,
  "mati": 4840,
  "eller</w>": 4841,
  "Frauen</w>": 4842,
  "internationalen</w>": 4843,
  "Weg</w>": 4844,
  "major</w>": 4845,
  "accep": 4846,
  "project</w>": 4847,
  "aci": 4848,
  "rate</w>": 4849,
  "term</w>": 4850,
  "ands</w>": 4851,
  "Seiten</w>": 4852,
  "Du": 4853,
  "something</w>": 4854,
  "million</w>": 4855,
  "eme</w>": 4856,
  "pose</w>": 4857,
  "kul": 4858,
  "abili": 4859,
  "off</w>": 4860,
  "list</w>": 4861,
  "enten</w>": 4862,
  "itself</w>": 4863,
  "198": 4864,
  "ency</w>": 4865,
  "cally</w>": 4866,
  "intro": 4867,
  "atten</w>": 4868,
  "tation</w>": 4869,
  "automati": 4870,
  "several</w>": 4871,
  "racht</w>": 4872,
  "Wil": 4873,
  "möchten</w>": 4874,
  "ain</w>": 4875,
  "away</w>": 4876,
  "ols</w>": 4877,
  "ories</w>": 4878,
  "tage</w>": 4879,
  "employment</w>": 4880,
  "Industri": 4881,
  "rapporteur</w>": 4882,
  "eicht</w>": 4883,
  "resolution</w>": 4884,
  "Fu": 4885,
  "lish</w>": 4886,
  "gerich": 4887,
  "druck</w>": 4888,
  "gest</w>": 4889,
  "found</w>": 4890,
  "ttle</w>": 4891,
  "Lebens": 4892,
  "break": 4893,
  "zusammen": 4894,
  "umfas": 4895,
  "global</w>": 4896,
  "continue</w>": 4897,
  "ording</w>": 4898,
  "known</w>": 4899,
  "äre</w>": 4900,
  "fel": 4901,
  "Tag</w>": 4902,
  "regard</w>": 4903,
  "stei": 4904,
  "untern": 4905,
  "ading</w>": 4906,
  "na": 4907,
  "dort</w>": 4908,
  "Ihren</w>": 4909,
  "nich": 4910,
  "Bau": 4911,
  "stimmung</w>": 4912,
  "via</w>": 4913,
  "mäß": 4914,
  "dür": 4915,
  "ente</w>": 4916,
  "gentle": 4917,
  "europäische</w>": 4918,
  "No</w>": 4919,
  "ool</w>": 4920,
  "sprache</w>": 4921,
  "disp": 4922,
  "open": 4923,
  "wnlo": 4924,
  "advan": 4925,
  "era</w>": 4926,
  "suff": 4927,
  "ativen</w>": 4928,
  "taking</w>": 4929,
  "jects</w>": 4930,
  "wth</w>": 4931,
  "EN</w>": 4932,
  "fron": 4933,
  "cks</w>": 4934,
  "liches</w>": 4935,
  "tives</w>": 4936,
  "pro</w>": 4937,
  "town</w>": 4938,
  "Hotels</w>": 4939,
  "mework</w>": 4940,
  "direkt</w>": 4941,
  "regul": 4942,
  "ected</w>": 4943,
  "kommen": 4944,
  "least</w>": 4945,
  "version</w>": 4946,
  "ans": 4947,
  "Itali": 4948,
  "gewähr": 4949,
  "TV</w>": 4950,
  "general</w>": 4951,
  "top</w>": 4952,
  "vement</w>": 4953,
  "dence</w>": 4954,
  "Demok": 4955,
  "etc</w>": 4956,
  "Je": 4957,
  "onds</w>": 4958,
  "sischen</w>": 4959,
  "EUR</w>": 4960,
  "Neu": 4961,
  "Pi": 4962,
  "Jan": 4963,
  "following</w>": 4964,
  "let</w>": 4965,
  "New</w>": 4966,
  "sation</w>": 4967,
  "gentlemen</w>": 4968,
  "fall</w>": 4969,
  "often</w>": 4970,
  "ander</w>": 4971,
  "excellent</w>": 4972,
  "transport</w>": 4973,
  "atives</w>": 4974,
  "family</w>": 4975,
  "but": 4976,
  "Regel": 4977,
  "nei": 4978,
  "pho": 4979,
  "any": 4980,
  "asy</w>": 4981,
  "Emp": 4982,
  "ear": 4983,
  "hunder": 4984,
  "erste</w>": 4985,
  "gration</w>": 4986,
  "Fil": 4987,
  "Pol": 4988,
  "cing</w>": 4989,
  "aufge": 4990,
  "einzu": 4991,
  "ilt</w>": 4992,
  "Artikel</w>": 4993,
  "crisis</w>": 4994,
  "lands</w>": 4995,
  "lon": 4996,
  "struk": 4997,
  "particip": 4998,
  "sci": 4999,
  "food</w>": 5000,
  "gten</w>": 5001,
  "He</w>": 5002,
  "spolitik</w>": 5003,
  "Software</w>": 5004,
  "breit": 5005,
  "West": 5006,
  "benef": 5007,
  "rules</w>": 5008,
  "directive</w>": 5009,
  "culture</w>": 5010,
  "field</w>": 5011,
  "works</w>": 5012,
  "EC": 5013,
  "Spra": 5014,
  "einzel": 5015,
  "II</w>": 5016,
  "grün": 5017,
  "ian</w>": 5018,
  "drück": 5019,
  "personal</w>": 5020,
  "Gesund": 5021,
  "erst</w>": 5022,
  "Spe": 5023,
  "ehmen": 5024,
  "lang</w>": 5025,
  "bis": 5026,
  "itäten</w>": 5027,
  "once</w>": 5028,
  "metho": 5029,
  "subject</w>": 5030,
  "represent": 5031,
  "online</w>": 5032,
  "Char": 5033,
  "oc": 5034,
  "gef": 5035,
  "tron": 5036,
  "ined</w>": 5037,
  "ahn": 5038,
  "Programm</w>": 5039,
  "fication</w>": 5040,
  "price</w>": 5041,
  "Har": 5042,
  "money</w>": 5043,
  "nam": 5044,
  "gl": 5045,
  "sichtlich</w>": 5046,
  "Hier</w>": 5047,
  "ones</w>": 5048,
  "conclu": 5049,
  "environment</w>": 5050,
  "erungen</w>": 5051,
  "Alle</w>": 5052,
  "perform": 5053,
  "Verbrau": 5054,
  "tour": 5055,
  "od": 5056,
  "vers</w>": 5057,
  "Sel": 5058,
  "Son": 5059,
  "bution</w>": 5060,
  "activi": 5061,
  "wle": 5062,
  "bs": 5063,
  "welcome</w>": 5064,
  "EN": 5065,
  "Mittel</w>": 5066,
  "Meinung</w>": 5067,
  "Um</w>": 5068,
  "ino</w>": 5069,
  "towards</w>": 5070,
  "ender</w>": 5071,
  "tual</w>": 5072,
  "verschieden": 5073,
  "za</w>": 5074,
  "wri": 5075,
  "recogn": 5076,
  "wieder": 5077,
  "milit": 5078,
  "Deutsch": 5079,
  "little</w>": 5080,
  "communic": 5081,
  "things</w>": 5082,
  "Abgeord": 5083,
  "ritten</w>": 5084,
  "spr": 5085,
  "danken</w>": 5086,
  "gsten</w>": 5087,
  "Span": 5088,
  "ES": 5089,
  "World</w>": 5090,
  "17</w>": 5091,
  "Geschäfts": 5092,
  "frage</w>": 5093,
  "Kur": 5094,
  "ktiv": 5095,
  "him</w>": 5096,
  "mel": 5097,
  "tics</w>": 5098,
  "sting</w>": 5099,
  "phi": 5100,
  "oun": 5101,
  "lig</w>": 5102,
  "Situation</w>": 5103,
  "product</w>": 5104,
  "aussch": 5105,
  "until</w>": 5106,
  "Steu": 5107,
  "forward</w>": 5108,
  "institutions</w>": 5109,
  "dic": 5110,
  "gesagt</w>": 5111,
  "Uhr</w>": 5112,
  "19</w>": 5113,
  "acht</w>": 5114,
  "aufen</w>": 5115,
  "statt</w>": 5116,
  "lot</w>": 5117,
  "part": 5118,
  "mers</w>": 5119,
  "Zusammenhang</w>": 5120,
  "tigkeit</w>": 5121,
  "tex": 5122,
  "Tag": 5123,
  "tures</w>": 5124,
  "politische</w>": 5125,
  "bedeu": 5126,
  "effici": 5127,
  "Rau": 5128,
  "IS": 5129,
  "UN": 5130,
  "beiden</w>": 5131,
  "unserem</w>": 5132,
  "Fe": 5133,
  "technology</w>": 5134,
  "ßen": 5135,
  "Lösung</w>": 5136,
  "tains</w>": 5137,
  "Ra": 5138,
  "Madam</w>": 5139,
  "mach": 5140,
  "Sep": 5141,
  "lies</w>": 5142,
  "home</w>": 5143,
  "2005</w>": 5144,
  "bz": 5145,
  "läge</w>": 5146,
  "Sü": 5147,
  "IC": 5148,
  "analy": 5149,
  "spä": 5150,
  "play</w>": 5151,
  "agree</w>": 5152,
  "Unser": 5153,
  "teilung</w>": 5154,
  "individual</w>": 5155,
  "Treaty</w>": 5156,
  "customers</w>": 5157,
  "Region</w>": 5158,
  "Entschließ": 5159,
  "Fisch": 5160,
  "ever</w>": 5161,
  "ago</w>": 5162,
  "Mat": 5163,
  "bau</w>": 5164,
  "dom": 5165,
  "Isra": 5166,
  "design</w>": 5167,
  "17": 5168,
  "verbesser": 5169,
  "jen": 5170,
  "increase</w>": 5171,
  "vers": 5172,
  "ech": 5173,
  "21</w>": 5174,
  "bung</w>": 5175,
  "Hilfe</w>": 5176,
  "lear": 5177,
  "manu": 5178,
  "thank</w>": 5179,
  "growth</w>": 5180,
  "programm": 5181,
  "short</w>": 5182,
  "Zwei": 5183,
  "mosp": 5184,
  "asser": 5185,
  "Verantwor": 5186,
  "standards</w>": 5187,
  "hy": 5188,
  "lick</w>": 5189,
  "house</w>": 5190,
  "opportunity</w>": 5191,
  "rather</w>": 5192,
  "bzw</w>": 5193,
  "ements</w>": 5194,
  "läu": 5195,
  "Dieses</w>": 5196,
  "Pla": 5197,
  "Organis": 5198,
  "Dienstleist": 5199,
  "ples</w>": 5200,
  "tete</w>": 5201,
  "recht</w>": 5202,
  "activities</w>": 5203,
  "building</w>": 5204,
  "sidency</w>": 5205,
  "value</w>": 5206,
  "Sozi": 5207,
  "call</w>": 5208,
  "ER</w>": 5209,
  "anim": 5210,
  "dent": 5211,
  "Ni": 5212,
  "ritt</w>": 5213,
  "tischen</w>": 5214,
  "Mehr": 5215,
  "positive</w>": 5216,
  "quite</w>": 5217,
  "Cor": 5218,
  "aid</w>": 5219,
  "begrü": 5220,
  "Euro": 5221,
  "baren</w>": 5222,
  "ehm": 5223,
  "Disk": 5224,
  "Demokrati": 5225,
  "Produkte</w>": 5226,
  "weniger</w>": 5227,
  "Strateg": 5228,
  "reali": 5229,
  "voll</w>": 5230,
  "origin": 5231,
  "dows</w>": 5232,
  "princip": 5233,
  "reicht</w>": 5234,
  "mittel</w>": 5235,
  "provided</w>": 5236,
  "einge": 5237,
  "ord</w>": 5238,
  "erwar": 5239,
  "signific": 5240,
  "Präsidentin</w>": 5241,
  "resources</w>": 5242,
  "erzi": 5243,
  "ups</w>": 5244,
  "zimmer</w>": 5245,
  "Nov": 5246,
  "10": 5247,
  "Schul": 5248,
  "erh": 5249,
  "occ": 5250,
  "sätz": 5251,
  "jeder</w>": 5252,
  "bili": 5253,
  "equ": 5254,
  "identi": 5255,
  "wün": 5256,
  "öffentlichen</w>": 5257,
  "ht</w>": 5258,
  "Stru": 5259,
  "Haus</w>": 5260,
  "teilen</w>": 5261,
  "unterschie": 5262,
  "bed</w>": 5263,
  "pic": 5264,
  "gend": 5265,
  "wort</w>": 5266,
  "ute</w>": 5267,
  "Leben</w>": 5268,
  "multi": 5269,
  "perf": 5270,
  "annten</w>": 5271,
  "daran</w>": 5272,
  "adt</w>": 5273,
  "Air": 5274,
  "gewi": 5275,
  "approach</w>": 5276,
  "Dec": 5277,
  "file</w>": 5278,
  "ona</w>": 5279,
  "pop": 5280,
  "Frie": 5281,
  "behalf</w>": 5282,
  "sionen</w>": 5283,
  "gilt</w>": 5284,
  "interest</w>": 5285,
  "lang": 5286,
  "period</w>": 5287,
  "tar": 5288,
  "holi": 5289,
  "State</w>": 5290,
  "persön": 5291,
  "kung</w>": 5292,
  "gute</w>": 5293,
  "Members</w>": 5294,
  "ater": 5295,
  "Initi": 5296,
  "Deshalb</w>": 5297,
  "2004</w>": 5298,
  "educ": 5299,
  "fang</w>": 5300,
  "gesehen</w>": 5301,
  "Rates</w>": 5302,
  "tember</w>": 5303,
  "ums</w>": 5304,
  "lub</w>": 5305,
  "ämlich</w>": 5306,
  "gin": 5307,
  "IT</w>": 5308,
  "yet</w>": 5309,
  "having</w>": 5310,
  "Kü": 5311,
  "mom": 5312,
  "An</w>": 5313,
  "Comp": 5314,
  "bitte</w>": 5315,
  "Im": 5316,
  "tually</w>": 5317,
  "ads</w>": 5318,
  "geschlossen</w>": 5319,
  "fragen</w>": 5320,
  "include</w>": 5321,
  "arti": 5322,
  "ckt</w>": 5323,
  "inion</w>": 5324,
  "nu": 5325,
  "zeitig</w>": 5326,
  "AS": 5327,
  "nämlich</w>": 5328,
  "forderungen</w>": 5329,
  "ersch": 5330,
  "Erfahr": 5331,
  "proper": 5332,
  "Schutz</w>": 5333,
  "indem</w>": 5334,
  "Gol": 5335,
  "September</w>": 5336,
  "members</w>": 5337,
  "foc": 5338,
  "hu": 5339,
  "dungs": 5340,
  "recom": 5341,
  "ahr</w>": 5342,
  "solution</w>": 5343,
  "viol": 5344,
  "sty": 5345,
  "allen": 5346,
  "require": 5347,
  "ungs</w>": 5348,
  "spi": 5349,
  "bereich</w>": 5350,
  "pol": 5351,
  "ladies</w>": 5352,
  "due</w>": 5353,
  "Grund</w>": 5354,
  "sogar</w>": 5355,
  "völk": 5356,
  "Hei": 5357,
  "vity</w>": 5358,
  "Pak": 5359,
  "ücksichti": 5360,
  "gemacht</w>": 5361,
  "Europas</w>": 5362,
  "might</w>": 5363,
  "beauti": 5364,
  "forms</w>": 5365,
  "ctions</w>": 5366,
  "International</w>": 5367,
  "leisten</w>": 5368,
  "points</w>": 5369,
  "antrag</w>": 5370,
  "zeichn": 5371,
  "flexi": 5372,
  "bank</w>": 5373,
  "Can": 5374,
  "proposals</w>": 5375,
  "One</w>": 5376,
  "left</w>": 5377,
  "ratic</w>": 5378,
  "pool</w>": 5379,
  "gebracht</w>": 5380,
  "lieren</w>": 5381,
  "confi": 5382,
  "fortable</w>": 5383,
  "Zw": 5384,
  "Gleich": 5385,
  "among</w>": 5386,
  "Kinder</w>": 5387,
  "amendments</w>": 5388,
  "ategi": 5389,
  "elleicht</w>": 5390,
  "gui": 5391,
  "hinaus</w>": 5392,
  "auszu": 5393,
  "bindung</w>": 5394,
  "Millionen</w>": 5395,
  "zahl</w>": 5396,
  "words</w>": 5397,
  "etwa</w>": 5398,
  "safety</w>": 5399,
  "isse</w>": 5400,
  "content</w>": 5401,
  "framework</w>": 5402,
  "anträ": 5403,
  "allow</w>": 5404,
  "minutes</w>": 5405,
  "pat": 5406,
  "effective</w>": 5407,
  "ologie</w>": 5408,
  "richt</w>": 5409,
  "appropri": 5410,
  "force</w>": 5411,
  "dien": 5412,
  "After</w>": 5413,
  "zö": 5414,
  "above</w>": 5415,
  "va</w>": 5416,
  "mod": 5417,
  "economy</w>": 5418,
  "Früh": 5419,
  "tioned</w>": 5420,
  "alisierung</w>": 5421,
  "stim": 5422,
  "2003</w>": 5423,
  "ächlich</w>": 5424,
  "cop": 5425,
  "Gegen": 5426,
  "costs</w>": 5427,
  "transpar": 5428,
  "schaffen</w>": 5429,
  "easy</w>": 5430,
  "regel": 5431,
  "erklär": 5432,
  "member</w>": 5433,
  "Berlin</w>": 5434,
  "Pf": 5435,
  "Mor": 5436,
  "kol": 5437,
  "sites</w>": 5438,
  "Daten": 5439,
  "Besu": 5440,
  "ground</w>": 5441,
  "Dok": 5442,
  "dar</w>": 5443,
  "poten": 5444,
  "others</w>": 5445,
  "ends</w>": 5446,
  "ihn</w>": 5447,
  "ständig</w>": 5448,
  "cracy</w>": 5449,
  "Jo": 5450,
  "Ther": 5451,
  "ath": 5452,
  "adopted</w>": 5453,
  "sweise</w>": 5454,
  "sieh": 5455,
  "Chi": 5456,
  "beginn": 5457,
  "Personen</w>": 5458,
  "Kap": 5459,
  "prev": 5460,
  "ebenfalls</w>": 5461,
  "usses</w>": 5462,
  "zeigen</w>": 5463,
  "Verhand": 5464,
  "einigen</w>": 5465,
  "agri": 5466,
  "ural</w>": 5467,
  "who": 5468,
  "charac": 5469,
  "Instru": 5470,
  "ihm</w>": 5471,
  "usammen</w>": 5472,
  "Deutschland</w>": 5473,
  "Unsere</w>": 5474,
  "show</w>": 5475,
  "Dieser</w>": 5476,
  "Janu": 5477,
  "reason</w>": 5478,
  "progress</w>": 5479,
  "ana</w>": 5480,
  "Leist": 5481,
  "exclu": 5482,
  "funda": 5483,
  "bs</w>": 5484,
  "Ebene</w>": 5485,
  "seinem</w>": 5486,
  "wesent": 5487,
  "Col": 5488,
  "stoff": 5489,
  "Far": 5490,
  "Website</w>": 5491,
  "makes</w>": 5492,
  "Durch": 5493,
  "demokrati": 5494,
  "Pe": 5495,
  "live</w>": 5496,
  "deal</w>": 5497,
  "enjoy</w>": 5498,
  "opinion</w>": 5499,
  "station</w>": 5500,
  "website</w>": 5501,
  "apart": 5502,
  "tober</w>": 5503,
  "Punkt</w>": 5504,
  "body</w>": 5505,
  "gestimm": 5506,
  "rela": 5507,
  "Angebo": 5508,
  "ül": 5509,
  "ign": 5510,
  "Wis": 5511,
  "application</w>": 5512,
  "Form</w>": 5513,
  "ko</w>": 5514,
  "pass": 5515,
  "prec": 5516,
  "Aussprache</w>": 5517,
  "stens</w>": 5518,
  "assen</w>": 5519,
  "bus</w>": 5520,
  "AL": 5521,
  "legislation</w>": 5522,
  "suppor": 5523,
  "Sal": 5524,
  "dit</w>": 5525,
  "unding</w>": 5526,
  "unterstützt</w>": 5527,
  "Universi": 5528,
  "arbeitet</w>": 5529,
  "Stre": 5530,
  "ought</w>": 5531,
  "teile</w>": 5532,
  "halt</w>": 5533,
  "favour</w>": 5534,
  "Schi": 5535,
  "amoun": 5536,
  "projects</w>": 5537,
  "hon": 5538,
  "Ha": 5539,
  "complete</w>": 5540,
  "plan</w>": 5541,
  "ktor</w>": 5542,
  "zeichnet</w>": 5543,
  "gramm": 5544,
  "nete</w>": 5545,
  "brauchen</w>": 5546,
  "road</w>": 5547,
  "Mal": 5548,
  "sicher</w>": 5549,
  "results</w>": 5550,
  "difficult</w>": 5551,
  "Nä": 5552,
  "kind</w>": 5553,
  "els": 5554,
  "moun": 5555,
  "fli": 5556,
  "erweise</w>": 5557,
  "provides</w>": 5558,
  "Priv": 5559,
  "groups</w>": 5560,
  "staurants</w>": 5561,
  "eth": 5562,
  "Musi": 5563,
  "darin</w>": 5564,
  "Komm": 5565,
  "Wirtschafts": 5566,
  "responsibility</w>": 5567,
  "unver": 5568,
  "Qualität</w>": 5569,
  "Entwicklungs": 5570,
  "künf": 5571,
  "Kl": 5572,
  "etzen</w>": 5573,
  "je</w>": 5574,
  "attention</w>": 5575,
  "Zeit": 5576,
  "policies</w>": 5577,
  "DE</w>": 5578,
  "contact</w>": 5579,
  "ehmer</w>": 5580,
  "ner": 5581,
  "concerned</w>": 5582,
  "ises</w>": 5583,
  "Erfol": 5584,
  "Kra": 5585,
  "AC": 5586,
  "cted</w>": 5587,
  "Dru": 5588,
  "Tat": 5589,
  "gerade</w>": 5590,
  "dd": 5591,
  "Ac": 5592,
  "eli": 5593,
  "dliche</w>": 5594,
  "regar": 5595,
  "redu": 5596,
  "zung</w>": 5597,
  "sea</w>": 5598,
  "Wh": 5599,
  "power": 5600,
  "glaube</w>": 5601,
  "Vil": 5602,
  "nationalen</w>": 5603,
  "zeh": 5604,
  "2001</w>": 5605,
  "airs</w>": 5606,
  "halte</w>": 5607,
  "Restaurant</w>": 5608,
  "Haushalts": 5609,
  "addi": 5610,
  "komple": 5611,
  "addition</w>": 5612,
  "sition</w>": 5613,
  "Rechte</w>": 5614,
  "gegeben</w>": 5615,
  "Bre": 5616,
  "Kri": 5617,
  "beautiful</w>": 5618,
  "Mär": 5619,
  "simply</w>": 5620,
  "Bro": 5621,
  "Sy": 5622,
  "Hol": 5623,
  "allgem": 5624,
  "dürfen</w>": 5625,
  "proce": 5626,
  "row</w>": 5627,
  "Benutz": 5628,
  "Gemeinschaft</w>": 5629,
  "frie": 5630,
  "Jahrhunder": 5631,
  "let": 5632,
  "gebung</w>": 5633,
  "questions</w>": 5634,
  "free": 5635,
  "she</w>": 5636,
  "importance</w>": 5637,
  "Weiter": 5638,
  "Beschäf": 5639,
  "kar": 5640,
  "society</w>": 5641,
  "grat": 5642,
  "chs</w>": 5643,
  "endly</w>": 5644,
  "ameri": 5645,
  "Zus": 5646,
  "Hal": 5647,
  "certain": 5648,
  "cir": 5649,
  "administ": 5650,
  "coura": 5651,
  "bon</w>": 5652,
  "introduc": 5653,
  "Da</w>": 5654,
  "schafts": 5655,
  "success": 5656,
  "spru": 5657,
  "Poli": 5658,
  "derzeit</w>": 5659,
  "Jap": 5660,
  "sollen</w>": 5661,
  "jeden</w>": 5662,
  "ideal</w>": 5663,
  "Ak": 5664,
  "nichts</w>": 5665,
  "yers</w>": 5666,
  "liber": 5667,
  "Kan": 5668,
  "Cas": 5669,
  "mate</w>": 5670,
  "RO": 5671,
  "beispiel": 5672,
  "genau</w>": 5673,
  "ihrem</w>": 5674,
  "ok</w>": 5675,
  "lö": 5676,
  "Abstimmung</w>": 5677,
  "greater</w>": 5678,
  "alog</w>": 5679,
  "Schlus": 5680,
  "training</w>": 5681,
  "emb": 5682,
  "help": 5683,
  "keinen</w>": 5684,
  "Gel": 5685,
  "Zah": 5686,
  "voted</w>": 5687,
  "una</w>": 5688,
  "Vereinig": 5689,
  "termin": 5690,
  "markt</w>": 5691,
  "gespro": 5692,
  "zusätz": 5693,
  "siert</w>": 5694,
  "directly</w>": 5695,
  "ption</w>": 5696,
  "freund": 5697,
  "meisten</w>": 5698,
  "22</w>": 5699,
  "Wach": 5700,
  "strategy</w>": 5701,
  "cover": 5702,
  "cratic</w>": 5703,
  "Wirtschaft</w>": 5704,
  "bare</w>": 5705,
  "environmental</w>": 5706,
  "edure</w>": 5707,
  "denken</w>": 5708,
  "gehört</w>": 5709,
  "wirtschaft</w>": 5710,
  "La</w>": 5711,
  "gestimmt</w>": 5712,
  "schi": 5713,
  "night</w>": 5714,
  "betrifft</w>": 5715,
  "jus": 5716,
  "mitt": 5717,
  "anstal": 5718,
  "mechan": 5719,
  "zusammen</w>": 5720,
  "fern</w>": 5721,
  "step</w>": 5722,
  "interest": 5723,
  "Doku": 5724,
  "tin": 5725,
  "Ort</w>": 5726,
  "Sub": 5727,
  "zäh": 5728,
  "principle</w>": 5729,
  "sei</w>": 5730,
  "along</w>": 5731,
  "unded</w>": 5732,
  "klar</w>": 5733,
  "cal": 5734,
  "weiterhin</w>": 5735,
  "ological</w>": 5736,
  "hoch": 5737,
  "extrem": 5738,
  "asser</w>": 5739,
  "80</w>": 5740,
  "ächst</w>": 5741,
  "natural</w>": 5742,
  "Welt": 5743,
  "wledge</w>": 5744,
  "utzt</w>": 5745,
  "cs</w>": 5746,
  "pan": 5747,
  "promis": 5748,
  "immt</w>": 5749,
  "tritt</w>": 5750,
  "tnis</w>": 5751,
  "looking</w>": 5752,
  "Fortsch": 5753,
  "cat": 5754,
  "ya</w>": 5755,
  "manufac": 5756,
  "Bezug</w>": 5757,
  "unkte</w>": 5758,
  "heart</w>": 5759,
  "required</w>": 5760,
  "responsible</w>": 5761,
  "sache</w>": 5762,
  "wirtschaftlichen</w>": 5763,
  "Kamp": 5764,
  "verstän": 5765,
  "changes</w>": 5766,
  "nel</w>": 5767,
  "kämp": 5768,
  "500</w>": 5769,
  "test</w>": 5770,
  "sug": 5771,
  "Ple": 5772,
  "gie</w>": 5773,
  "2002</w>": 5774,
  "eig": 5775,
  "herr": 5776,
  "Groß": 5777,
  "zustellen</w>": 5778,
  "Tür": 5779,
  "Änderungsanträ": 5780,
  "unities</w>": 5781,
  "san": 5782,
  "Pa": 5783,
  "Minu": 5784,
  "century</w>": 5785,
  "Bem": 5786,
  "Direc": 5787,
  "vic": 5788,
  "Gesellschaft</w>": 5789,
  "Den": 5790,
  "bility</w>": 5791,
  "vo</w>": 5792,
  "Bürger": 5793,
  "kosten": 5794,
  "ligen</w>": 5795,
  "setzt</w>": 5796,
  "standing</w>": 5797,
  "Govern": 5798,
  "bedeutet</w>": 5799,
  "ource</w>": 5800,
  "meeting</w>": 5801,
  "ze": 5802,
  "rank": 5803,
  "wichtige</w>": 5804,
  "clearly</w>": 5805,
  "steu": 5806,
  "für": 5807,
  "Bezieh": 5808,
  "benö": 5809,
  "breakfast</w>": 5810,
  "197": 5811,
  "ong": 5812,
  "deshalb</w>": 5813,
  "solche</w>": 5814,
  "trolle</w>": 5815,
  "refer": 5816,
  "famili": 5817,
  "pages</w>": 5818,
  "authorities</w>": 5819,
  "four</w>": 5820,
  "easi": 5821,
  "schwi": 5822,
  "Kosten</w>": 5823,
  "struction</w>": 5824,
  "kenn": 5825,
  "technical</w>": 5826,
  "hen": 5827,
  "nutzen</w>": 5828,
  "füh": 5829,
  "mail</w>": 5830,
  "care</w>": 5831,
  "rest</w>": 5832,
  "send</w>": 5833,
  "temp": 5834,
  "swi": 5835,
  "remo": 5836,
  "structure</w>": 5837,
  "För": 5838,
  "pped</w>": 5839,
  "mil": 5840,
  "aufgrund</w>": 5841,
  "November</w>": 5842,
  "komp": 5843,
  "Zugang</w>": 5844,
  "besser</w>": 5845,
  "conf": 5846,
  "susta": 5847,
  "useum</w>": 5848,
  "recent</w>": 5849,
  "besten</w>": 5850,
  "stadt</w>": 5851,
  "amm": 5852,
  "civi": 5853,
  "car</w>": 5854,
  "lan</w>": 5855,
  "Aus</w>": 5856,
  "Kolleg": 5857,
  "stor": 5858,
  "teilt</w>": 5859,
  "23</w>": 5860,
  "cher": 5861,
  "ette</w>": 5862,
  "mind</w>": 5863,
  "own": 5864,
  "Fi": 5865,
  "achieve</w>": 5866,
  "install": 5867,
  "würden</w>": 5868,
  "mitted</w>": 5869,
  "Sin": 5870,
  "uses</w>": 5871,
  "ops</w>": 5872,
  "betre": 5873,
  "address</w>": 5874,
  "200</w>": 5875,
  "challen": 5876,
  "deutlich</w>": 5877,
  "akzep": 5878,
  "Arbeitsp": 5879,
  "nature</w>": 5880,
  "schnell</w>": 5881,
  "Apri": 5882,
  "ticle</w>": 5883,
  "person</w>": 5884,
  "Sor": 5885,
  "gran": 5886,
  "derungen</w>": 5887,
  "active</w>": 5888,
  "senden</w>": 5889,
  "Markt</w>": 5890,
  "staat": 5891,
  "Fest": 5892,
  "Gesetz": 5893,
  "rist": 5894,
  "indepen": 5895,
  "rich</w>": 5896,
  "dau": 5897,
  "Bra": 5898,
  "rely</w>": 5899,
  "essential</w>": 5900,
  "Sti": 5901,
  "feel</w>": 5902,
  "standen</w>": 5903,
  "Ide": 5904,
  "gemä": 5905,
  "Menschenrechte</w>": 5906,
  "Bevölk": 5907,
  "Windows</w>": 5908,
  "Strategie</w>": 5909,
  "ned</w>": 5910,
  "Feh": 5911,
  "mem": 5912,
  "risk</w>": 5913,
  "erfolgre": 5914,
  "Dank</w>": 5915,
  "wert</w>": 5916,
  "haltung</w>": 5917,
  "Von</w>": 5918,
  "serious</w>": 5919,
  "teten</w>": 5920,
  "lig": 5921,
  "space</w>": 5922,
  "months</w>": 5923,
  "dro": 5924,
  "sport</w>": 5925,
  "Zi": 5926,
  "standard</w>": 5927,
  "facilities</w>": 5928,
  "Ei": 5929,
  "ano</w>": 5930,
  "longer</w>": 5931,
  "zes</w>": 5932,
  "ames</w>": 5933,
  "einander</w>": 5934,
  "solutions</w>": 5935,
  "Verbesser": 5936,
  "bekannt</w>": 5937,
  "op</w>": 5938,
  "Richtung</w>": 5939,
  "history</w>": 5940,
  "ming</w>": 5941,
  "bring</w>": 5942,
  "nächsten</w>": 5943,
  "past</w>": 5944,
  "ut</w>": 5945,
  "züglich</w>": 5946,
  "enough</w>": 5947,
  "media</w>": 5948,
  "proposed</w>": 5949,
  "reach": 5950,
  "El": 5951,
  "Wah": 5952,
  "Struk": 5953,
  "either</w>": 5954,
  "verein": 5955,
  "type</w>": 5956,
  "carri": 5957,
  "developed</w>": 5958,
  "events</w>": 5959,
  "April</w>": 5960,
  "Umsetzung</w>": 5961,
  "related</w>": 5962,
  "near</w>": 5963,
  "ition</w>": 5964,
  "ics</w>": 5965,
  "Fern": 5966,
  "currently</w>": 5967,
  "tos</w>": 5968,
  "Ansicht</w>": 5969,
  "team</w>": 5970,
  "internal</w>": 5971,
  "cost</w>": 5972,
  "lines</w>": 5973,
  "interests</w>": 5974,
  "träge</w>": 5975,
  "direct</w>": 5976,
  "oods</w>": 5977,
  "vorgesch": 5978,
  "guests</w>": 5979,
  "Rat": 5980,
  "ferenz</w>": 5981,
  "Wachst": 5982,
  "needed</w>": 5983,
  "requirements</w>": 5984,
  "restaurant</w>": 5985,
  "yc": 5986,
  "ade": 5987,
  "Han": 5988,
  "berg</w>": 5989,
  "regions</w>": 5990,
  "hält</w>": 5991,
  "language</w>": 5992,
  "lose</w>": 5993,
  "visit</w>": 5994,
  "Mil": 5995,
  "Nähe</w>": 5996,
  "sab": 5997,
  "limit": 5998,
  "lte</w>": 5999,
  "27</w>": 6000,
  "Mitarbei": 6001,
  "speak": 6002,
  "vices</w>": 6003,
  "uren</w>": 6004,
  "erneu": 6005,
  "press</w>": 6006,
  "Vertrag</w>": 6007,
  "ada</w>": 6008,
  "fris": 6009,
  "parties</w>": 6010,
  "Dan": 6011,
  "Ap": 6012,
  "ingly</w>": 6013,
  "fis": 6014,
  "neg": 6015,
  "seits</w>": 6016,
  "tra</w>": 6017,
  "Verfahren</w>": 6018,
  "mbH</w>": 6019,
  "Freih": 6020,
  "weder</w>": 6021,
  "manag": 6022,
  "allerdings</w>": 6023,
  "scht</w>": 6024,
  "gte</w>": 6025,
  "vier</w>": 6026,
  "Vertra": 6027,
  "Please</w>": 6028,
  "peace</w>": 6029,
  "16": 6030,
  "zentr": 6031,
  "involved</w>": 6032,
  "tag</w>": 6033,
  "Drit": 6034,
  "organiz": 6035,
  "themselves</w>": 6036,
  "young</w>": 6037,
  "graph": 6038,
  "don": 6039,
  "raum</w>": 6040,
  "lange</w>": 6041,
  "Bedingungen</w>": 6042,
  "Ziele</w>": 6043,
  "From</w>": 6044,
  "affung</w>": 6045,
  "human": 6046,
  "beispielsweise</w>": 6047,
  "combin": 6048,
  "betra": 6049,
  "regulation</w>": 6050,
  "fün": 6051,
  "Anwendung</w>": 6052,
  "itali": 6053,
  "werde</w>": 6054,
  "central</w>": 6055,
  "ungspro": 6056,
  "hoffe</w>": 6057,
  "democracy</w>": 6058,
  "Selb": 6059,
  "Verantwortung</w>": 6060,
  "depen": 6061,
  "separ": 6062,
  "comfortable</w>": 6063,
  "greifen</w>": 6064,
  "posed</w>": 6065,
  "competition</w>": 6066,
  "gesprochen</w>": 6067,
  "edi": 6068,
  "implementation</w>": 6069,
  "wirkungen</w>": 6070,
  "categ": 6071,
  "never</w>": 6072,
  "seen</w>": 6073,
  "IT": 6074,
  "bleiben</w>": 6075,
  "bra": 6076,
  "vious</w>": 6077,
  "markets</w>": 6078,
  "Russia</w>": 6079,
  "upon</w>": 6080,
  "big</w>": 6081,
  "gemeinsamen</w>": 6082,
  "extremely</w>": 6083,
  "wand": 6084,
  "anks</w>": 6085,
  "richtung</w>": 6086,
  "freedom</w>": 6087,
  "Inte": 6088,
  "notwendig</w>": 6089,
  "terror": 6090,
  "grupp": 6091,
  "stet</w>": 6092,
  "ables</w>": 6093,
  "Vide": 6094,
  "jewei": 6095,
  "Komp": 6096,
  "Dah": 6097,
  "funktion": 6098,
  "med</w>": 6099,
  "Version</w>": 6100,
  "scheint</w>": 6101,
  "Demokratie</w>": 6102,
  "efforts</w>": 6103,
  "schön": 6104,
  "igung</w>": 6105,
  "please</w>": 6106,
  "Erweiter": 6107,
  "San": 6108,
  "total</w>": 6109,
  "genu": 6110,
  "ww": 6111,
  "sozialen</w>": 6112,
  "network</w>": 6113,
  "Aspe": 6114,
  "GmbH</w>": 6115,
  "As": 6116,
  "cases</w>": 6117,
  "caus": 6118,
  "Vorschläge</w>": 6119,
  "event</w>": 6120,
  "alls</w>": 6121,
  "Herren</w>": 6122,
  "gere": 6123,
  "arian</w>": 6124,
  "held</w>": 6125,
  "OR": 6126,
  "bew": 6127,
  "cht": 6128,
  "monit": 6129,
  "set": 6130,
  "vielleicht</w>": 6131,
  "kleinen</w>": 6132,
  "antly</w>": 6133,
  "Klima": 6134,
  "strong</w>": 6135,
  "Grundlage</w>": 6136,
  "beru": 6137,
  "Gebiet</w>": 6138,
  "modi": 6139,
  "LA": 6140,
  "Am</w>": 6141,
  "iled</w>": 6142,
  "Verwal": 6143,
  "ynam": 6144,
  "Sozial": 6145,
  "Interesse</w>": 6146,
  "verwendet</w>": 6147,
  "implemen": 6148,
  "Reihe</w>": 6149,
  "tory</w>": 6150,
  "serve</w>": 6151,
  "cla": 6152,
  "atory</w>": 6153,
  "www</w>": 6154,
  "erle": 6155,
  "friendly</w>": 6156,
  "demon": 6157,
  "achten</w>": 6158,
  "berücksichti": 6159,
  "arri": 6160,
  "Geschichte</w>": 6161,
  "offen": 6162,
  "democratic</w>": 6163,
  "Kön": 6164,
  "keep</w>": 6165,
  "The": 6166,
  "14": 6167,
  "aria</w>": 6168,
  "optim": 6169,
  "Tro": 6170,
  "Dam": 6171,
  "lack</w>": 6172,
  "Angele": 6173,
  "relev": 6174,
  "Arch": 6175,
  "run</w>": 6176,
  "Man</w>": 6177,
  "ow</w>": 6178,
  "platz</w>": 6179,
  "Ihrem</w>": 6180,
  "Teil": 6181,
  "Durch</w>": 6182,
  "cam": 6183,
  "summ": 6184,
  "disk": 6185,
  "tem</w>": 6186,
  "häl": 6187,
  "vorsch": 6188,
  "zogen</w>": 6189,
  "stly</w>": 6190,
  "innen": 6191,
  "harmon": 6192,
  "wnload</w>": 6193,
  "maxim": 6194,
  "rates</w>": 6195,
  "rench</w>": 6196,
  "inen</w>": 6197,
  "France</w>": 6198,
  "appropriate</w>": 6199,
  "ahn</w>": 6200,
  "1999</w>": 6201,
  "zation</w>": 6202,
  "prep": 6203,
  "regional</w>": 6204,
  "Cu": 6205,
  "Möglichkeiten</w>": 6206,
  "Cour": 6207,
  "erreicht</w>": 6208,
  "music</w>": 6209,
  "actions</w>": 6210,
  "Daher</w>": 6211,
  "Publi": 6212,
  "Sicherheits": 6213,
  "ered</w>": 6214,
  "AG</w>": 6215,
  "schö": 6216,
  "material</w>": 6217,
  "Kenn": 6218,
  "hard</w>": 6219,
  "Tri": 6220,
  "sprä": 6221,
  "situated</w>": 6222,
  "negotiations</w>": 6223,
  "Fl": 6224,
  "pay</w>": 6225,
  "gets</w>": 6226,
  "true</w>": 6227,
  "AD": 6228,
  "cen</w>": 6229,
  "mes</w>": 6230,
  "gleichen</w>": 6231,
  "Debatte</w>": 6232,
  "schnit": 6233,
  "verfol": 6234,
  "sucht</w>": 6235,
  "Institutionen</w>": 6236,
  "Öff": 6237,
  "consider</w>": 6238,
  "gesetz": 6239,
  "Mod": 6240,
  "book</w>": 6241,
  "agi": 6242,
  "Office</w>": 6243,
  "tained</w>": 6244,
  "Aff": 6245,
  "höch": 6246,
  "seh": 6247,
  "Erklär": 6248,
  "Investi": 6249,
  "turel": 6250,
  "sident": 6251,
  "everything</w>": 6252,
  "center</w>": 6253,
  "vide": 6254,
  "exper": 6255,
  "isches</w>": 6256,
  "RE": 6257,
  "developing</w>": 6258,
  "created</w>": 6259,
  "surro": 6260,
  "reiche</w>": 6261,
  "beach</w>": 6262,
  "altern": 6263,
  "ants</w>": 6264,
  "fordert</w>": 6265,
  "sst</w>": 6266,
  "request</w>": 6267,
  "Stell": 6268,
  "istan</w>": 6269,
  "fundamental</w>": 6270,
  "foreign</w>": 6271,
  "alogue</w>": 6272,
  "Wieder": 6273,
  "board</w>": 6274,
  "richten</w>": 6275,
  "Lon": 6276,
  "che": 6277,
  "Kir": 6278,
  "Netz": 6279,
  "Umwelt": 6280,
  "oft</w>": 6281,
  "fortun": 6282,
  "spor": 6283,
  "wissen": 6284,
  "unique</w>": 6285,
  "elli": 6286,
  "gerä": 6287,
  "All": 6288,
  "conven": 6289,
  "share</w>": 6290,
  "mal": 6291,
  "thus</w>": 6292,
  "lus</w>": 6293,
  "education</w>": 6294,
  "Ka": 6295,
  "15": 6296,
  "ators</w>": 6297,
  "stellungen</w>": 6298,
  "ünsti": 6299,
  "according</w>": 6300,
  "stehenden</w>": 6301,
  "ks": 6302,
  "bereit</w>": 6303,
  "states</w>": 6304,
  "wenig</w>": 6305,
  "descri": 6306,
  "Nich": 6307,
  "reiben</w>": 6308,
  "funds</w>": 6309,
  "Damen</w>": 6310,
  "verschiedene</w>": 6311,
  "French</w>": 6312,
  "Dol": 6313,
  "entwickelt</w>": 6314,
  "Hoch": 6315,
  "Absch": 6316,
  "Bri": 6317,
  "Preis</w>": 6318,
  "improve</w>": 6319,
  "aut</w>": 6320,
  "mentary</w>": 6321,
  "refle": 6322,
  "Rechn": 6323,
  "prices</w>": 6324,
  "sian</w>": 6325,
  "erfül": 6326,
  "Presidency</w>": 6327,
  "tou": 6328,
  "sm</w>": 6329,
  "accomm": 6330,
  "könnten</w>": 6331,
  "Hinblick</w>": 6332,
  "almost</w>": 6333,
  "rema": 6334,
  "aper</w>": 6335,
  "unik": 6336,
  "ring": 6337,
  "tweit</w>": 6338,
  "climate</w>": 6339,
  "icro": 6340,
  "minim": 6341,
  "nimmt</w>": 6342,
  "correc": 6343,
  "treat": 6344,
  "drin": 6345,
  "effect</w>": 6346,
  "American</w>": 6347,
  "pment</w>": 6348,
  "mission</w>": 6349,
  "reform</w>": 6350,
  "verantwor": 6351,
  "parts</w>": 6352,
  "meet</w>": 6353,
  "Dienstleistungen</w>": 6354,
  "famous</w>": 6355,
  "living</w>": 6356,
  "lätz": 6357,
  "immedi": 6358,
  "spielen</w>": 6359,
  "designed</w>": 6360,
  "arbeitung</w>": 6361,
  "ghout</w>": 6362,
  "graphi": 6363,
  "digen</w>": 6364,
  "TO</w>": 6365,
  "success</w>": 6366,
  "konkre": 6367,
  "additional</w>": 6368,
  "included</w>": 6369,
  "griff</w>": 6370,
  "erseits</w>": 6371,
  "befinden</w>": 6372,
  "San</w>": 6373,
  "Bank</w>": 6374,
  "Si": 6375,
  "prise</w>": 6376,
  "gelei": 6377,
  "heu": 6378,
  "gemeinsame</w>": 6379,
  "Fischer": 6380,
  "Berichterstatter</w>": 6381,
  "Plan": 6382,
  "Diskus": 6383,
  "mitteln</w>": 6384,
  "aim": 6385,
  "soon</w>": 6386,
  "actually</w>": 6387,
  "Dien": 6388,
  "Minuten</w>": 6389,
  "later</w>": 6390,
  "statt": 6391,
  "glichen</w>": 6392,
  "Frühst": 6393,
  "Park</w>": 6394,
  "hor": 6395,
  "ail</w>": 6396,
  "verfügt</w>": 6397,
  "hof</w>": 6398,
  "kor": 6399,
  "Behör": 6400,
  "hier": 6401,
  "Tele": 6402,
  "idea</w>": 6403,
  "ermöglicht</w>": 6404,
  "oni": 6405,
  "Heraus": 6406,
  "card</w>": 6407,
  "CD</w>": 6408,
  "tax</w>": 6409,
  "Auswirkungen</w>": 6410,
  "ski</w>": 6411,
  "Pat": 6412,
  "sichts</w>": 6413,
  "Außer": 6414,
  "Israel</w>": 6415,
  "haps</w>": 6416,
  "atsächlich</w>": 6417,
  "links</w>": 6418,
  "Abkommen</w>": 6419,
  "St</w>": 6420,
  "ambi": 6421,
  "enter</w>": 6422,
  "key": 6423,
  "lik": 6424,
  "genie": 6425,
  "Paris</w>": 6426,
  "ban</w>": 6427,
  "sati": 6428,
  "Konta": 6429,
  "fallen</w>": 6430,
  "ruhi": 6431,
  "effizi": 6432,
  "Tour": 6433,
  "unternehmen</w>": 6434,
  "mentioned</w>": 6435,
  "Met": 6436,
  "Regionen</w>": 6437,
  "exam": 6438,
  "encoura": 6439,
  "pe</w>": 6440,
  "Liber": 6441,
  "hatten</w>": 6442,
  "bark": 6443,
  "schrif": 6444,
  "Vertre": 6445,
  "ishing</w>": 6446,
  "elling</w>": 6447,
  "reich</w>": 6448,
  "understand</w>": 6449,
  "Wal": 6450,
  "investi": 6451,
  "ändern</w>": 6452,
  "five</w>": 6453,
  "workers</w>": 6454,
  "Doch</w>": 6455,
  "Frei": 6456,
  "will": 6457,
  "cover</w>": 6458,
  "lead</w>": 6459,
  "comb": 6460,
  "werk</w>": 6461,
  "associ": 6462,
  "Agen": 6463,
  "wil": 6464,
  "receive</w>": 6465,
  "jenigen</w>": 6466,
  "70</w>": 6467,
  "gle</w>": 6468,
  "Austri": 6469,
  "verfahren</w>": 6470,
  "Kat": 6471,
  "Führ": 6472,
  "ker": 6473,
  "Fer": 6474,
  "acy</w>": 6475,
  "abled</w>": 6476,
  "28</w>": 6477,
  "Tatsache</w>": 6478,
  "Portu": 6479,
  "helfen</w>": 6480,
  "Programme</w>": 6481,
  "accept</w>": 6482,
  "camp": 6483,
  "stattet</w>": 6484,
  "uring</w>": 6485,
  "initiative</w>": 6486,
  "Zu</w>": 6487,
  "Mis": 6488,
  "Verhandlungen</w>": 6489,
  "ffe": 6490,
  "erforderlich</w>": 6491,
  "fair</w>": 6492,
  "capital</w>": 6493,
  "check</w>": 6494,
  "schul": 6495,
  "takes</w>": 6496,
  "äußer": 6497,
  "outside</w>": 6498,
  "leading</w>": 6499,
  "obs</w>": 6500,
  "Del": 6501,
  "Proto": 6502,
  "Mitglieder</w>": 6503,
  "fal": 6504,
  "sustain": 6505,
  "back": 6506,
  "commer": 6507,
  "Fäl": 6508,
  "weltweit</w>": 6509,
  "procedure</w>": 6510,
  "beh": 6511,
  "fran": 6512,
  "bildung</w>": 6513,
  "ched</w>": 6514,
  "gestal": 6515,
  "Mas": 6516,
  "sierung</w>": 6517,
  "Haf": 6518,
  "amerikan": 6519,
  "race</w>": 6520,
  "integr": 6521,
  "gesamten</w>": 6522,
  "tische</w>": 6523,
  "Hö": 6524,
  "built</w>": 6525,
  "knowledge</w>": 6526,
  "Gef": 6527,
  "ziert</w>": 6528,
  "users</w>": 6529,
  "IP</w>": 6530,
  "erhö": 6531,
  "reit": 6532,
  "dist": 6533,
  "tely</w>": 6534,
  "week</w>": 6535,
  "IM": 6536,
  "Kor": 6537,
  "care": 6538,
  "eigent": 6539,
  "smus</w>": 6540,
  "ebenso</w>": 6541,
  "Bar</w>": 6542,
  "Pan": 6543,
  "schließen</w>": 6544,
  "13": 6545,
  "majority</w>": 6546,
  "welt": 6547,
  "features</w>": 6548,
  "Liste</w>": 6549,
  "einzelnen</w>": 6550,
  "Finanzi": 6551,
  "amount</w>": 6552,
  "darum</w>": 6553,
  "bezieh": 6554,
  "served</w>": 6555,
  "program</w>": 6556,
  "ay</w>": 6557,
  "ening</w>": 6558,
  "angebo": 6559,
  "ually</w>": 6560,
  "denke</w>": 6561,
  "communication</w>": 6562,
  "lässi": 6563,
  "met</w>": 6564,
  "Kolleginnen</w>": 6565,
  "early</w>": 6566,
  "cking</w>": 6567,
  "tax": 6568,
  "files</w>": 6569,
  "zone</w>": 6570,
  "stead</w>": 6571,
  "front</w>": 6572,
  "reach</w>": 6573,
  "hours</w>": 6574,
  "took</w>": 6575,
  "Gruppe</w>": 6576,
  "Außen": 6577,
  "Bit": 6578,
  "erwäh": 6579,
  "eien</w>": 6580,
  "sta</w>": 6581,
  "Verkehr": 6582,
  "Mob": 6583,
  "doing</w>": 6584,
  "empha": 6585,
  "Zentrum</w>": 6586,
  "strategi": 6587,
  "turen</w>": 6588,
  "avo": 6589,
  "Prin": 6590,
  "iting</w>": 6591,
  "aden</w>": 6592,
  "throughout</w>": 6593,
  "eption</w>": 6594,
  "ländern</w>": 6595,
  "satis": 6596,
  "Chr": 6597,
  "weiteren</w>": 6598,
  "Mail</w>": 6599,
  "super": 6600,
  "Bestimm": 6601,
  "Schritt</w>": 6602,
  "guarantee</w>": 6603,
  "angem": 6604,
  "park</w>": 6605,
  "Bur": 6606,
  "Verf": 6607,
  "oring</w>": 6608,
  "customer</w>": 6609,
  "verur": 6610,
  "nen": 6611,
  "web</w>": 6612,
  "Außerdem</w>": 6613,
  "zer</w>": 6614,
  "zen": 6615,
  "connection</w>": 6616,
  "eless</w>": 6617,
  "foo": 6618,
  "tions": 6619,
  "Entscheidung</w>": 6620,
  "Binnen": 6621,
  "How</w>": 6622,
  "Änderungsanträge</w>": 6623,
  "ti</w>": 6624,
  "ES</w>": 6625,
  "dor": 6626,
  "UN</w>": 6627,
  "party</w>": 6628,
  "Abgeordneten</w>": 6629,
  "26</w>": 6630,
  "door</w>": 6631,
  "frei": 6632,
  "across</w>": 6633,
  "extern": 6634,
  "stelle</w>": 6635,
  "unds</w>": 6636,
  "Bereichen</w>": 6637,
  "gab</w>": 6638,
  "dest</w>": 6639,
  "Verwen": 6640,
  "final</w>": 6641,
  "aware</w>": 6642,
  "religi": 6643,
  "sem": 6644,
  "add</w>": 6645,
  "Ergebnis</w>": 6646,
  "wahl</w>": 6647,
  "internationale</w>": 6648,
  "zz": 6649,
  "context</w>": 6650,
  "attrac": 6651,
  "writing</w>": 6652,
  "stances</w>": 6653,
  "stic</w>": 6654,
  "certainly</w>": 6655,
  "Russ": 6656,
  "log": 6657,
  "IS</w>": 6658,
  "investment</w>": 6659,
  "elegan": 6660,
  "relations</w>": 6661,
  "nation": 6662,
  "Net": 6663,
  "jedem</w>": 6664,
  "consequ": 6665,
  "zunehmen</w>": 6666,
  "inge</w>": 6667,
  "traditional</w>": 6668,
  "ändert</w>": 6669,
  "ST": 6670,
  "amen": 6671,
  "code</w>": 6672,
  "vorzu": 6673,
  "Bus": 6674,
  "Web</w>": 6675,
  "Wasser": 6676,
  "stage</w>": 6677,
  "Änderungsantrag</w>": 6678,
  "flä": 6679,
  "konnte</w>": 6680,
  "significant</w>": 6681,
  "Einzel": 6682,
  "samkeit</w>": 6683,
  "Oc": 6684,
  "äd": 6685,
  "indic": 6686,
  "kli": 6687,
  "lux": 6688,
  "aring</w>": 6689,
  "hätte</w>": 6690,
  "isen</w>": 6691,
  "fähigkeit</w>": 6692,
  "performance</w>": 6693,
  "By</w>": 6694,
  "existing</w>": 6695,
  "wunder": 6696,
  "liert</w>": 6697,
  "gegenwär": 6698,
  "ba</w>": 6699,
  "tent</w>": 6700,
  "although</w>": 6701,
  "Beziehungen</w>": 6702,
  "Vereinigten</w>": 6703,
  "Antwort</w>": 6704,
  "colleag": 6705,
  "lässt</w>": 6706,
  "90</w>": 6707,
  "Platz</w>": 6708,
  "Aktiv": 6709,
  "Sh": 6710,
  "Fur": 6711,
  "sische</w>": 6712,
  "Ph": 6713,
  "sent</w>": 6714,
  "original</w>": 6715,
  "Blick</w>": 6716,
  "gres": 6717,
  "licherweise</w>": 6718,
  "speciali": 6719,
  "choo": 6720,
  "gleichzeitig</w>": 6721,
  "Gele": 6722,
  "Turkey</w>": 6723,
  "game</w>": 6724,
  "anz</w>": 6725,
  "rus": 6726,
  "alitä": 6727,
  "vels</w>": 6728,
  "Stat": 6729,
  "Urlau": 6730,
  "weiß</w>": 6731,
  "formen</w>": 6732,
  "perfect</w>": 6733,
  "programmes</w>": 6734,
  "Bevölkerung</w>": 6735,
  "heißt</w>": 6736,
  "ination</w>": 6737,
  "Geh": 6738,
  "English</w>": 6739,
  "gei": 6740,
  "Vo": 6741,
  "ligh": 6742,
  "coordin": 6743,
  "prakti": 6744,
  "concerns</w>": 6745,
  "cke</w>": 6746,
  "ama</w>": 6747,
  "ände</w>": 6748,
  "gemeinsam</w>": 6749,
  "contra": 6750,
  "Verordnung</w>": 6751,
  "wat": 6752,
  "mas": 6753,
  "ising</w>": 6754,
  "Joh": 6755,
  "walk</w>": 6756,
  "Ausdruck</w>": 6757,
  "wichtigen</w>": 6758,
  "igration</w>": 6759,
  "thern</w>": 6760,
  "Wohn": 6761,
  "ebru": 6762,
  "vir": 6763,
  "moment</w>": 6764,
  "shed</w>": 6765,
  "Geld</w>": 6766,
  "anderer</w>": 6767,
  "smo": 6768,
  "Government</w>": 6769,
  "lten</w>": 6770,
  "richtig</w>": 6771,
  "urch</w>": 6772,
  "ld": 6773,
  "ierung</w>": 6774,
  "pleas": 6775,
  "mut": 6776,
  "My</w>": 6777,
  "Erfolg</w>": 6778,
  "kei</w>": 6779,
  "Risi": 6780,
  "my": 6781,
  "langen</w>": 6782,
  "America</w>": 6783,
  "adi": 6784,
  "ison</w>": 6785,
  "volle</w>": 6786,
  "Acc": 6787,
  "yl": 6788,
  "Inst": 6789,
  "quick": 6790,
  "professional</w>": 6791,
  "dap": 6792,
  "bleibt</w>": 6793,
  "na</w>": 6794,
  "ähri": 6795,
  "Politi": 6796,
  "concerning</w>": 6797,
  "Tages": 6798,
  "sag": 6799,
  "barkeit</w>": 6800,
  "dio": 6801,
  "ativ</w>": 6802,
  "lok": 6803,
  "jede</w>": 6804,
  "apply</w>": 6805,
  "read</w>": 6806,
  "committee</w>": 6807,
  "Online</w>": 6808,
  "eigen": 6809,
  "population</w>": 6810,
  "schriften</w>": 6811,
  "accommod": 6812,
  "sitz</w>": 6813,
  "soft</w>": 6814,
  "size</w>": 6815,
  "Ham": 6816,
  "community</w>": 6817,
  "seite</w>": 6818,
  "Förderung</w>": 6819,
  "enor": 6820,
  "Verpflich": 6821,
  "Krise</w>": 6822,
  "länder</w>": 6823,
  "Sat": 6824,
  "military</w>": 6825,
  "gest": 6826,
  "cru": 6827,
  "Verbindung</w>": 6828,
  "Türkei</w>": 6829,
  "reasons</w>": 6830,
  "established</w>": 6831,
  "agreements</w>": 6832,
  "kil": 6833,
  "erinn": 6834,
  "quo": 6835,
  "Aufgabe</w>": 6836,
  "Schwi": 6837,
  "bekommen</w>": 6838,
  "archit": 6839,
  "kleine</w>": 6840,
  "conflic": 6841,
  "completely</w>": 6842,
  "impact</w>": 6843,
  "nothing</w>": 6844,
  "legi": 6845,
  "Projekt</w>": 6846,
  "decisions</w>": 6847,
  "richtungen</w>": 6848,
  "treffen</w>": 6849,
  "Febru": 6850,
  "bein": 6851,
  "PC</w>": 6852,
  "emer": 6853,
  "Sie": 6854,
  "unabhängi": 6855,
  "includes</w>": 6856,
  "Barcel": 6857,
  "new": 6858,
  "nit": 6859,
  "erkenn": 6860,
  "fordern</w>": 6861,
  "Minister</w>": 6862,
  "integri": 6863,
  "South</w>": 6864,
  "tively</w>": 6865,
  "Court</w>": 6866,
  "Konz": 6867,
  "Stabili": 6868,
  "partner</w>": 6869,
  "practice</w>": 6870,
  "garanti": 6871,
  "mark</w>": 6872,
  "erst": 6873,
  "basic</w>": 6874,
  "Cre": 6875,
  "Unser</w>": 6876,
  "mals</w>": 6877,
  "such": 6878,
  "ält</w>": 6879,
  "Schlussel": 6880,
  "Sen": 6881,
  "style</w>": 6882,
  "mobili": 6883,
  "consul": 6884,
  "Aug": 6885,
  "ürz": 6886,
  "London</w>": 6887,
  "Seit</w>": 6888,
  "bedeut": 6889,
  "Kontrolle</w>": 6890,
  "ey": 6891,
  "verbunden</w>": 6892,
  "ly": 6893,
  "entscheiden": 6894,
  "meinen</w>": 6895,
  "gerichtet</w>": 6896,
  "ues</w>": 6897,
  "Slo": 6898,
  "Schla": 6899,
  "erlau": 6900,
  "ams</w>": 6901,
  "unseres</w>": 6902,
  "Mal</w>": 6903,
  "equipped</w>": 6904,
  "Einsatz</w>": 6905,
  "Spezi": 6906,
  "Ausschusses</w>": 6907,
  "Zum</w>": 6908,
  "CH": 6909,
  "restri": 6910,
  "rach": 6911,
  "funden</w>": 6912,
  "ddle</w>": 6913,
  "bedingungen</w>": 6914,
  "Forschung</w>": 6915,
  "jähri": 6916,
  "mes": 6917,
  "allows</w>": 6918,
  "star</w>": 6919,
  "Ku": 6920,
  "constitu": 6921,
  "Design</w>": 6922,
  "atic</w>": 6923,
  "Jahres</w>": 6924,
  "terran": 6925,
  "sense</w>": 6926,
  "räu": 6927,
  "internet</w>": 6928,
  "bath": 6929,
  "cas": 6930,
  "Val": 6931,
  "gehören</w>": 6932,
  "jobs</w>": 6933,
  "tol": 6934,
  "mise</w>": 6935,
  "enthalten</w>": 6936,
  "process": 6937,
  "29</w>": 6938,
  "enlar": 6939,
  "Information</w>": 6940,
  "gangen</w>": 6941,
  "echti": 6942,
  "expen": 6943,
  "intel": 6944,
  "bad</w>": 6945,
  "verbin": 6946,
  "Ober": 6947,
  "model</w>": 6948,
  "Partner": 6949,
  "sidentschaft</w>": 6950,
  "grenz": 6951,
  "gent</w>": 6952,
  "plann": 6953,
  "ssel": 6954,
  "gangenen</w>": 6955,
  "remain</w>": 6956,
  "abzu": 6957,
  "run": 6958,
  "Since</w>": 6959,
  "45</w>": 6960,
  "itable</w>": 6961,
  "desi": 6962,
  "preci": 6963,
  "holiday</w>": 6964,
  "äufi": 6965,
  "bit</w>": 6966,
  "choice</w>": 6967,
  "figu": 6968,
  "sidi": 6969,
  "Glob": 6970,
  "timmen</w>": 6971,
  "basi": 6972,
  "sieht</w>": 6973,
  "confir": 6974,
  "construction</w>": 6975,
  "ref": 6976,
  "Rec": 6977,
  "überzeu": 6978,
  "values</w>": 6979,
  "partners</w>": 6980,
  "atisti": 6981,
  "sches</w>": 6982,
  "objectives</w>": 6983,
  "oblig": 6984,
  "Ven": 6985,
  "tle</w>": 6986,
  "wirtschaftliche</w>": 6987,
  "Lux": 6988,
  "package</w>": 6989,
  "gefähr": 6990,
  "function</w>": 6991,
  "stop</w>": 6992,
  "hom": 6993,
  "received</w>": 6994,
  "integration</w>": 6995,
  "Auff": 6996,
  "Partner</w>": 6997,
  "wech": 6998,
  "Wissen": 6999,
  "gemäß</w>": 7000,
  "Erweiterung</w>": 7001,
  "neu</w>": 7002,
  "eich": 7003,
  "Entschließung</w>": 7004,
  "ieten</w>": 7005,
  "eps</w>": 7006,
  "influ": 7007,
  "regarding</w>": 7008,
  "develop</w>": 7009,
  "tary</w>": 7010,
  "35</w>": 7011,
  "schle": 7012,
  "unge</w>": 7013,
  "ns</w>": 7014,
  "annte</w>": 7015,
  "Nutzung</w>": 7016,
  "verständlich</w>": 7017,
  "Lisbon</w>": 7018,
  "Programm": 7019,
  "hinzu": 7020,
  "euro</w>": 7021,
  "wise</w>": 7022,
  "haf": 7023,
  "steller</w>": 7024,
  "prüfen</w>": 7025,
  "simple</w>": 7026,
  "equipment</w>": 7027,
  "Behörden</w>": 7028,
  "tempor": 7029,
  "guarante": 7030,
  "applications</w>": 7031,
  "August</w>": 7032,
  "dents</w>": 7033,
  "196": 7034,
  "west": 7035,
  "erc": 7036,
  "Mul": 7037,
  "cell": 7038,
  "purch": 7039,
  "mm</w>": 7040,
  "ece</w>": 7041,
  "Geor": 7042,
  "Vor</w>": 7043,
  "Ausschuss</w>": 7044,
  "jedes</w>": 7045,
  "verhin": 7046,
  "displa": 7047,
  "frü": 7048,
  "gol": 7049,
  "verti": 7050,
  "pal": 7051,
  "popu": 7052,
  "schaft": 7053,
  "besu": 7054,
  "manufactur": 7055,
  "image</w>": 7056,
  "sett": 7057,
  "demand</w>": 7058,
  "Lösungen</w>": 7059,
  "entire</w>": 7060,
  "wichtigsten</w>": 7061,
  "perat": 7062,
  "Beitrag</w>": 7063,
  "Natur": 7064,
  "move</w>": 7065,
  "agricultural</w>": 7066,
  "timi": 7067,
  "Japan</w>": 7068,
  "tioning</w>": 7069,
  "resse</w>": 7070,
  "ante</w>": 7071,
  "territ": 7072,
  "Let</w>": 7073,
  "rable</w>": 7074,
  "fight</w>": 7075,
  "App": 7076,
  "Ukra": 7077,
  "31</w>": 7078,
  "lier</w>": 7079,
  "Notwendi": 7080,
  "Damit</w>": 7081,
  "ON</w>": 7082,
  "haup": 7083,
  "300</w>": 7084,
  "stimmen</w>": 7085,
  "pite</w>": 7086,
  "Text</w>": 7087,
  "Kam": 7088,
  "gerne</w>": 7089,
  "Veranstal": 7090,
  "hotels</w>": 7091,
  "xed</w>": 7092,
  "safe</w>": 7093,
  "benefit</w>": 7094,
  "mus": 7095,
  "aim</w>": 7096,
  "absolu": 7097,
  "EL": 7098,
  "computer</w>": 7099,
  "leh": 7100,
  "Bitte</w>": 7101,
  "treatment</w>": 7102,
  "spiri": 7103,
  "atmosp": 7104,
  "sou": 7105,
  "ard": 7106,
  "Schwei": 7107,
  "objective</w>": 7108,
  "Lissab": 7109,
  "series</w>": 7110,
  "return</w>": 7111,
  "Aufenth": 7112,
  "Feri": 7113,
  "DV": 7114,
  "sit": 7115,
  "genau": 7116,
  "scre": 7117,
  "mehrere</w>": 7118,
  "concern</w>": 7119,
  "Host": 7120,
  "reports</w>": 7121,
  "quickly</w>": 7122,
  "East</w>": 7123,
  "limited</w>": 7124,
  "below</w>": 7125,
  "digung</w>": 7126,
  "wobei</w>": 7127,
  "liance</w>": 7128,
  "flü": 7129,
  "hinsichtlich</w>": 7130,
  "goods</w>": 7131,
  "elen</w>": 7132,
  "Steuer": 7133,
  "fru": 7134,
  "Gewal": 7135,
  "laden</w>": 7136,
  "Soli": 7137,
  "gesamt</w>": 7138,
  "nice</w>": 7139,
  "fest</w>": 7140,
  "gesp": 7141,
  "May</w>": 7142,
  "nachhal": 7143,
  "sorgen</w>": 7144,
  "CA": 7145,
  "gratul": 7146,
  "transl": 7147,
  "aches</w>": 7148,
  "Markt": 7149,
  "focus</w>": 7150,
  "Here</w>": 7151,
  "anten</w>": 7152,
  "Buch": 7153,
  "Ca": 7154,
  "anischen</w>": 7155,
  "Affairs</w>": 7156,
  "kit": 7157,
  "double</w>": 7158,
  "daten</w>": 7159,
  "zurück</w>": 7160,
  "ened</w>": 7161,
  "ganze</w>": 7162,
  "ganzen</w>": 7163,
  "ären</w>": 7164,
  "promise</w>": 7165,
  "fortunately</w>": 7166,
  "Chan": 7167,
  "enthält</w>": 7168,
  "scri": 7169,
  "Kultur</w>": 7170,
  "ash": 7171,
  "bald</w>": 7172,
  "scienti": 7173,
  "Gesam": 7174,
  "Verbesserung</w>": 7175,
  "veh": 7176,
  "anno": 7177,
  "sum": 7178,
  "ager</w>": 7179,
  "phy": 7180,
  "bezüglich</w>": 7181,
  "successful</w>": 7182,
  "rund</w>": 7183,
  "system": 7184,
  "veness</w>": 7185,
  "tradition": 7186,
  "riften</w>": 7187,
  "neben</w>": 7188,
  "velop": 7189,
  "Management</w>": 7190,
  "beteili": 7191,
  "Cap": 7192,
  "ermöglichen</w>": 7193,
  "kulturel": 7194,
  "Innov": 7195,
  "eigene</w>": 7196,
  "handeln</w>": 7197,
  "Materi": 7198,
  "genannten</w>": 7199,
  "ick</w>": 7200,
  "job</w>": 7201,
  "Whi": 7202,
  "eks</w>": 7203,
  "guest</w>": 7204,
  "contains</w>": 7205,
  "achieved</w>": 7206,
  "fs</w>": 7207,
  "schwieri": 7208,
  "ühr": 7209,
  "acity</w>": 7210,
  "Ara": 7211,
  "seems</w>": 7212,
  "sicherheit</w>": 7213,
  "Eink": 7214,
  "rechts": 7215,
  "indeed</w>": 7216,
  "ring</w>": 7217,
  "top": 7218,
  "follow</w>": 7219,
  "potential</w>": 7220,
  "Bul": 7221,
  "aufzu": 7222,
  "Barcelona</w>": 7223,
  "elten</w>": 7224,
  "sul": 7225,
  "Stunden</w>": 7226,
  "kei": 7227,
  "Iran</w>": 7228,
  "National</w>": 7229,
  "June</w>": 7230,
  "ciples</w>": 7231,
  "Koh": 7232,
  "recently</w>": 7233,
  "frei</w>": 7234,
  "Tä": 7235,
  "Verbraucher</w>": 7236,
  "chem": 7237,
  "beein": 7238,
  "loss</w>": 7239,
  "Fri": 7240,
  "Schaffung</w>": 7241,
  "Tim": 7242,
  "sende</w>": 7243,
  "mean</w>": 7244,
  "Arbeitn": 7245,
  "Umwelt</w>": 7246,
  "une</w>": 7247,
  "Ok": 7248,
  "ink": 7249,
  "weis</w>": 7250,
  "zahlen</w>": 7251,
  "weg</w>": 7252,
  "evi": 7253,
  "prevent</w>": 7254,
  "Amend": 7255,
  "dates</w>": 7256,
  "Somm": 7257,
  "levels</w>": 7258,
  "highly</w>": 7259,
  "beginning</w>": 7260,
  "ley</w>": 7261,
  "alisation</w>": 7262,
  "Wort</w>": 7263,
  "verpflich": 7264,
  "ites</w>": 7265,
  "rieg</w>": 7266,
  "schließend</w>": 7267,
  "Mich": 7268,
  "Flü": 7269,
  "menten</w>": 7270,
  "clean</w>": 7271,
  "Finally</w>": 7272,
  "Server</w>": 7273,
  "dialogue</w>": 7274,
  "fs": 7275,
  "added</w>": 7276,
  "office</w>": 7277,
  "Selbst": 7278,
  "angen": 7279,
  "congratul": 7280,
  "ktions": 7281,
  "Ergebnisse</w>": 7282,
  "inner</w>": 7283,
  "organisation</w>": 7284,
  "places</w>": 7285,
  "presented</w>": 7286,
  "dynam": 7287,
  "Yor": 7288,
  "Central</w>": 7289,
  "Amster": 7290,
  "ständigen</w>": 7291,
  "Gelegenheit</w>": 7292,
  "ku": 7293,
  "Verwendung</w>": 7294,
  "vorschriften</w>": 7295,
  "Betri": 7296,
  "Bild</w>": 7297,
  "lück": 7298,
  "Gebäu": 7299,
  "circ": 7300,
  "Bü": 7301,
  "everyone</w>": 7302,
  "viously</w>": 7303,
  "Krank": 7304,
  "traff": 7305,
  "Jus": 7306,
  "Russland</w>": 7307,
  "tiger</w>": 7308,
  "Apart": 7309,
  "rep": 7310,
  "Landes</w>": 7311,
  "Angebot</w>": 7312,
  "orien</w>": 7313,
  "häre</w>": 7314,
  "sent": 7315,
  "gas</w>": 7316,
  "governments</w>": 7317,
  "gek": 7318,
  "ürf": 7319,
  "igkeiten</w>": 7320,
  "völlig</w>": 7321,
  "huge</w>": 7322,
  "Initiative</w>": 7323,
  "ME": 7324,
  "elek": 7325,
  "border</w>": 7326,
  "City</w>": 7327,
  "attemp": 7328,
  "fördern</w>": 7329,
  "urs</w>": 7330,
  "Woche</w>": 7331,
  "floor</w>": 7332,
  "erheb": 7333,
  "balance</w>": 7334,
  "Notwendigkeit</w>": 7335,
  "ple</w>": 7336,
  "soziale</w>": 7337,
  "note</w>": 7338,
  "whose</w>": 7339,
  "Fach": 7340,
  "Prof": 7341,
  "acks</w>": 7342,
  "grundle": 7343,
  "increased</w>": 7344,
  "verbessern</w>": 7345,
  "agreed</w>": 7346,
  "ini</w>": 7347,
  "slo": 7348,
  "Linu": 7349,
  "answer</w>": 7350,
  "relevant</w>": 7351,
  "flu": 7352,
  "sex": 7353,
  "pects</w>": 7354,
  "Ir": 7355,
  "jour": 7356,
  "carried</w>": 7357,
  "dens</w>": 7358,
  "selec": 7359,
  "organisi": 7360,
  "dep": 7361,
  "großer</w>": 7362,
  "asked</w>": 7363,
  "consumers</w>": 7364,
  "Enter": 7365,
  "guten</w>": 7366,
  "Team</w>": 7367,
  "Lissabon</w>": 7368,
  "Mitarbeiter</w>": 7369,
  "covered</w>": 7370,
  "bute</w>": 7371,
  "higher</w>": 7372,
  "keyword</w>": 7373,
  "gal</w>": 7374,
  "geo": 7375,
  "suffici": 7376,
  "Mad": 7377,
  "shows</w>": 7378,
  "entwickeln</w>": 7379,
  "principles</w>": 7380,
  "Prior": 7381,
  "ón</w>": 7382,
  "direction</w>": 7383,
  "testen</w>": 7384,
  "server</w>": 7385,
  "ähn": 7386,
  "kreich</w>": 7387,
  "Nieder": 7388,
  "tei</w>": 7389,
  "oph": 7390,
  "sal": 7391,
  "verwenden</w>": 7392,
  "Interessen</w>": 7393,
  "Tage</w>": 7394,
  "servation</w>": 7395,
  "ella</w>": 7396,
  "Themen</w>": 7397,
  "verstär": 7398,
  "film</w>": 7399,
  "enable</w>": 7400,
  "OS</w>": 7401,
  "ID": 7402,
  "Darüber</w>": 7403,
  "setting</w>": 7404,
  "amendment</w>": 7405,
  "bestä": 7406,
  "humanit": 7407,
  "video</w>": 7408,
  "General</w>": 7409,
  "sustainable</w>": 7410,
  "Fa": 7411,
  "recommen": 7412,
  "verfügen</w>": 7413,
  "häufi": 7414,
  "gers</w>": 7415,
  "Hum": 7416,
  "fonds</w>": 7417,
  "Energie": 7418,
  "Sam": 7419,
  "positi": 7420,
  "Industrie</w>": 7421,
  "reviews</w>": 7422,
  "considered</w>": 7423,
  "kann": 7424,
  "possibility</w>": 7425,
  "später</w>": 7426,
  "mean": 7427,
  "disku": 7428,
  "Män": 7429,
  "base</w>": 7430,
  "travel</w>": 7431,
  "schutz": 7432,
  "Familie</w>": 7433,
  "ball</w>": 7434,
  "gül": 7435,
  "choose</w>": 7436,
  "arin</w>": 7437,
  "perhaps</w>": 7438,
  "complex</w>": 7439,
  "union</w>": 7440,
  "commitment</w>": 7441,
  "zieren</w>": 7442,
  "sical</w>": 7443,
  "Zeitpunkt</w>": 7444,
  "nuclear</w>": 7445,
  "ologies</w>": 7446,
  "nie</w>": 7447,
  "Gipf": 7448,
  "post": 7449,
  "feld</w>": 7450,
  "spezif": 7451,
  "mann</w>": 7452,
  "materials</w>": 7453,
  "nie": 7454,
  "bour": 7455,
  "bestehen</w>": 7456,
  "conduc": 7457,
  "Some</w>": 7458,
  "fünf</w>": 7459,
  "meinem</w>": 7460,
  "Article</w>": 7461,
  "maßnahmen</w>": 7462,
  "unk": 7463,
  "Überein": 7464,
  "01</w>": 7465,
  "gehend</w>": 7466,
  "astrop": 7467,
  "irgend": 7468,
  "emis": 7469,
  "Änderungen</w>": 7470,
  "volu": 7471,
  "Bewer": 7472,
  "folge</w>": 7473,
  "ov": 7474,
  "dienen</w>": 7475,
  "effects</w>": 7476,
  "Therefore</w>": 7477,
  "uß</w>": 7478,
  "Wasser</w>": 7479,
  "zunächst</w>": 7480,
  "Ital": 7481,
  "Arbeitsplätz": 7482,
  "vehic": 7483,
  "Frankreich</w>": 7484,
  "matters</w>": 7485,
  "vorhan": 7486,
  "Person</w>": 7487,
  "Unternehmen": 7488,
  "MP": 7489,
  "RA": 7490,
  "verfüg": 7491,
  "Wahr": 7492,
  "shown</w>": 7493,
  "Organisation</w>": 7494,
  "First</w>": 7495,
  "ON": 7496,
  "xis</w>": 7497,
  "aspects</w>": 7498,
  "oom</w>": 7499,
  "thanks</w>": 7500,
  "entlich</w>": 7501,
  "Develop": 7502,
  "closed</w>": 7503,
  "wählen</w>": 7504,
  "geeig": 7505,
  "plant</w>": 7506,
  "Mai</w>": 7507,
  "status</w>": 7508,
  "Gesundheit</w>": 7509,
  "cro": 7510,
  "innovative</w>": 7511,
  "dient</w>": 7512,
  "cket</w>": 7513,
  "Regierungen</w>": 7514,
  "angenommen</w>": 7515,
  "verse</w>": 7516,
  "gerung</w>": 7517,
  "Wert</w>": 7518,
  "big": 7519,
  "Werk": 7520,
  "promote</w>": 7521,
  "übri": 7522,
  "Briti": 7523,
  "joint</w>": 7524,
  "diglich</w>": 7525,
  "Koso": 7526,
  "rought</w>": 7527,
  "freien</w>": 7528,
  "32</w>": 7529,
  "clas": 7530,
  "tatsächlich</w>": 7531,
  "geleg": 7532,
  "former</w>": 7533,
  "samm": 7534,
  "Juni</w>": 7535,
  "came</w>": 7536,
  "exchange</w>": 7537,
  "Now</w>": 7538,
  "Sum": 7539,
  "terien</w>": 7540,
  "Spain</w>": 7541,
  "placed</w>": 7542,
  "Volks": 7543,
  "Wettbewerbs": 7544,
  "Erfahrung</w>": 7545,
  "Of</w>": 7546,
  "fik": 7547,
  "eindeu": 7548,
  "Internet": 7549,
  "mobi": 7550,
  "Konfli": 7551,
  "Behand": 7552,
  "latest</w>": 7553,
  "speak</w>": 7554,
  "Debian</w>": 7555,
  "tiveness</w>": 7556,
  "behind</w>": 7557,
  "details</w>": 7558,
  "deten</w>": 7559,
  "exhi": 7560,
  "Auswahl</w>": 7561,
  "schriftlich</w>": 7562,
  "syn": 7563,
  "creation</w>": 7564,
  "Metho": 7565,
  "opportunities</w>": 7566,
  "Kommunik": 7567,
  "sound</w>": 7568,
  "previous</w>": 7569,
  "anner</w>": 7570,
  "EC</w>": 7571,
  "gliche</w>": 7572,
  "dischen</w>": 7573,
  "capacity</w>": 7574,
  "schätz": 7575,
  "nö": 7576,
  "Up": 7577,
  "rali": 7578,
  "zeit": 7579,
  "Herzen</w>": 7580,
  "pressure</w>": 7581,
  "Einführung</w>": 7582,
  "procedu": 7583,
  "determin": 7584,
  "ffet</w>": 7585,
  "increasing</w>": 7586,
  "Gäste": 7587,
  "Umgebung</w>": 7588,
  "Linux</w>": 7589,
  "Italy</w>": 7590,
  "shop</w>": 7591,
  "tenen</w>": 7592,
  "internation": 7593,
  "Museum</w>": 7594,
  "Frank": 7595,
  "Vertrau": 7596,
  "avi": 7597,
  "bauen</w>": 7598,
  "Autom": 7599,
  "Analy": 7600,
  "spruch</w>": 7601,
  "compet": 7602,
  "aling</w>": 7603,
  "etary</w>": 7604,
  "popular</w>": 7605,
  "Fle": 7606,
  "Während</w>": 7607,
  "draw</w>": 7608,
  "providing</w>": 7609,
  "prepared</w>": 7610,
  "Blo": 7611,
  "verstehen</w>": 7612,
  "öffnet</w>": 7613,
  "Anfang</w>": 7614,
  "Terror": 7615,
  "response</w>": 7616,
  "teria</w>": 7617,
  "accommodation</w>": 7618,
  "oil</w>": 7619,
  "reached</w>": 7620,
  "Dabei</w>": 7621,
  "argu": 7622,
  "terin</w>": 7623,
  "stag</w>": 7624,
  "easily</w>": 7625,
  "Vereinbar": 7626,
  "gefunden</w>": 7627,
  "atmosphere</w>": 7628,
  "prim": 7629,
  "wenden</w>": 7630,
  "Mitglied</w>": 7631,
  "explo": 7632,
  "parlia": 7633,
  "simi": 7634,
  "äußerst</w>": 7635,
  "uen</w>": 7636,
  "tically</w>": 7637,
  "die": 7638,
  "1998</w>": 7639,
  "Meer</w>": 7640,
  "taining</w>": 7641,
  "Eigen": 7642,
  "bio": 7643,
  "industrial</w>": 7644,
  "Prozess</w>": 7645,
  "lo</w>": 7646,
  "Hotel": 7647,
  "Öffent": 7648,
  "Ratsprä": 7649,
  "bestimmte</w>": 7650,
  "func": 7651,
  "undes": 7652,
  "commercial</w>": 7653,
  "gessen</w>": 7654,
  "pul": 7655,
  "Kampf</w>": 7656,
  "arily</w>": 7657,
  "wider": 7658,
  "Staats": 7659,
  "Natur</w>": 7660,
  "class</w>": 7661,
  "hohen</w>": 7662,
  "bisher</w>": 7663,
  "reduce</w>": 7664,
  "Solidar": 7665,
  "WTO</w>": 7666,
  "systeme</w>": 7667,
  "erous</w>": 7668,
  "schaftlichen</w>": 7669,
  "leben": 7670,
  "TH": 7671,
  "ented</w>": 7672,
  "external</w>": 7673,
  "publik</w>": 7674,
  "Africa</w>": 7675,
  "bür": 7676,
  "repe": 7677,
  "gesamte</w>": 7678,
  "produced</w>": 7679,
  "Swi": 7680,
  "somit</w>": 7681,
  "Haus": 7682,
  "Ori": 7683,
  "Systems</w>": 7684,
  "beschäf": 7685,
  "Gest": 7686,
  "charge</w>": 7687,
  "link</w>": 7688,
  "lediglich</w>": 7689,
  "Tit": 7690,
  "krä": 7691,
  "stark</w>": 7692,
  "DI": 7693,
  "Sprache</w>": 7694,
  "ga</w>": 7695,
  "wers</w>": 7696,
  "Aktivitäten</w>": 7697,
  "gewährleisten</w>": 7698,
  "sla": 7699,
  "zusetzen</w>": 7700,
  "entde": 7701,
  "Amsterdam</w>": 7702,
  "summer</w>": 7703,
  "thy</w>": 7704,
  "ending</w>": 7705,
  "Micro": 7706,
  "Energie</w>": 7707,
  "SA": 7708,
  "Anzahl</w>": 7709,
  "verkehr</w>": 7710,
  "supply</w>": 7711,
  "infra": 7712,
  "Stern": 7713,
  "bringt</w>": 7714,
  "compre": 7715,
  "British</w>": 7716,
  "neigh": 7717,
  "Hand</w>": 7718,
  "submitted</w>": 7719,
  "Hom": 7720,
  "mäßig</w>": 7721,
  "Raum</w>": 7722,
  "Hinter": 7723,
  "ery</w>": 7724,
  "Convention</w>": 7725,
  "assess": 7726,
  "wünschen</w>": 7727,
  "Bekämp": 7728,
  "einhei": 7729,
  "Blu": 7730,
  "ena</w>": 7731,
  "Reg": 7732,
  "Gäste</w>": 7733,
  "ques</w>": 7734,
  "ically</w>": 7735,
  "Integration</w>": 7736,
  "decided</w>": 7737,
  "gives</w>": 7738,
  "efficient</w>": 7739,
  "obwohl</w>": 7740,
  "gender</w>": 7741,
  "civil</w>": 7742,
  "Ukraine</w>": 7743,
  "resi": 7744,
  "hung</w>": 7745,
  "December</w>": 7746,
  "ühm": 7747,
  "versuchen</w>": 7748,
  "property</w>": 7749,
  "besitz": 7750,
  "aum</w>": 7751,
  "announ": 7752,
  "hervorra": 7753,
  "Wahl</w>": 7754,
  "bewus": 7755,
  "Business</w>": 7756,
  "protect</w>": 7757,
  "Protokol": 7758,
  "genheiten</w>": 7759,
  "cia</w>": 7760,
  "priority</w>": 7761,
  "bestimmten</w>": 7762,
  "employe": 7763,
  "Eing": 7764,
  "enlargement</w>": 7765,
  "Bild": 7766,
  "anti</w>": 7767,
  "reading</w>": 7768,
  "remains</w>": 7769,
  "bert</w>": 7770,
  "ourcen</w>": 7771,
  "ungsp": 7772,
  "essi": 7773,
  "ichten</w>": 7774,
  "Bekämpfung</w>": 7775,
  "rus</w>": 7776,
  "sätze</w>": 7777,
  "Also</w>": 7778,
  "erenden</w>": 7779,
  "id": 7780,
  "Dez": 7781,
  "Kop": 7782,
  "tiv": 7783,
  "cause</w>": 7784,
  "Produktion</w>": 7785,
  "einschließlich</w>": 7786,
  "assu": 7787,
  "fän": 7788,
  "appoin": 7789,
  "lige</w>": 7790,
  "absol": 7791,
  "ished</w>": 7792,
  "Services</w>": 7793,
  "speed</w>": 7794,
  "tili": 7795,
  "sibilities</w>": 7796,
  "selbst": 7797,
  "supported</w>": 7798,
  "funding</w>": 7799,
  "Hy": 7800,
  "character": 7801,
  "island</w>": 7802,
  "interess": 7803,
  "erkennen</w>": 7804,
  "leave</w>": 7805,
  "Kommissarin</w>": 7806,
  "accord": 7807,
  "setzungen</w>": 7808,
  "Jav": 7809,
  "Erach": 7810,
  "mbo": 7811,
  "Erachtens</w>": 7812,
  "günsti": 7813,
  "las</w>": 7814,
  "independent</w>": 7815,
  "meines</w>": 7816,
  "thermore</w>": 7817,
  "Zentr": 7818,
  "Cam": 7819,
  "ile</w>": 7820,
  "Dinge</w>": 7821,
  "trag": 7822,
  "onnen</w>": 7823,
  "zweite</w>": 7824,
  "gewöh": 7825,
  "franzö": 7826,
  "Party</w>": 7827,
  "ania</w>": 7828,
  "zehn</w>": 7829,
  "mobile</w>": 7830,
  "Dor": 7831,
  "verl": 7832,
  "Insel</w>": 7833,
  "restaurants</w>": 7834,
  "betro": 7835,
  "York</w>": 7836,
  "Kosovo</w>": 7837,
  "Zahl</w>": 7838,
  "Reser": 7839,
  "ka": 7840,
  "Sto": 7841,
  "Christ": 7842,
  "zahlreiche</w>": 7843,
  "instrument</w>": 7844,
  "consumer</w>": 7845,
  "billion</w>": 7846,
  "van</w>": 7847,
  "Dom": 7848,
  "assistance</w>": 7849,
  "produce</w>": 7850,
  "Ress": 7851,
  "movement</w>": 7852,
  "Spiel</w>": 7853,
  "Transpar": 7854,
  "Bestimmungen</w>": 7855,
  "comprehen": 7856,
  "Pap": 7857,
  "terranean</w>": 7858,
  "IL": 7859,
  "ror</w>": 7860,
  "Gerä": 7861,
  "presents</w>": 7862,
  "Booking</w>": 7863,
  "prob": 7864,
  "My": 7865,
  "aries</w>": 7866,
  "demonstr": 7867,
  "zip</w>": 7868,
  "letter</w>": 7869,
  "impres": 7870,
  "prepar": 7871,
  "spee": 7872,
  "cker</w>": 7873,
  "erweiter": 7874,
  "purpose</w>": 7875,
  "Tu": 7876,
  "zeuge</w>": 7877,
  "dete</w>": 7878,
  "quare</w>": 7879,
  "acceptable</w>": 7880,
  "Fortschritte</w>": 7881,
  "gewis": 7882,
  "Western</w>": 7883,
  "lös": 7884,
  "Voraus": 7885,
  "plom": 7886,
  "rea</w>": 7887,
  "ney</w>": 7888,
  "oppel": 7889,
  "konzent": 7890,
  "erster</w>": 7891,
  "sagte</w>": 7892,
  "addres": 7893,
  "tenden</w>": 7894,
  "wander": 7895,
  "schütz": 7896,
  "gem</w>": 7897,
  "sprün": 7898,
  "fr": 7899,
  "creating</w>": 7900,
  "Trans": 7901,
  "similar</w>": 7902,
  "gebaut</w>": 7903,
  "möglichkeiten</w>": 7904,
  "gesell": 7905,
  "source</w>": 7906,
  "rule</w>": 7907,
  "apartment</w>": 7908,
  "activity</w>": 7909,
  "Les": 7910,
  "Jahrhundert</w>": 7911,
  "Oper": 7912,
  "conver": 7913,
  "Preise</w>": 7914,
  "Cro": 7915,
  "Dezember</w>": 7916,
  "brought</w>": 7917,
  "icial</w>": 7918,
  "option</w>": 7919,
  "laun": 7920,
  "relation</w>": 7921,
  "ere": 7922,
  "äuß": 7923,
  "hes</w>": 7924,
  "March</w>": 7925,
  "exec": 7926,
  "Position</w>": 7927,
  "largest</w>": 7928,
  "regulations</w>": 7929,
  "ourselves</w>": 7930,
  "legung</w>": 7931,
  "ices</w>": 7932,
  "written</w>": 7933,
  "immer": 7934,
  "12": 7935,
  "ausgestattet</w>": 7936,
  "hoben</w>": 7937,
  "Funktion</w>": 7938,
  "minister</w>": 7939,
  "außerdem</w>": 7940,
  "rieben</w>": 7941,
  "Erklärung</w>": 7942,
  "Cha": 7943,
  "steps</w>": 7944,
  "kin": 7945,
  "frequ": 7946,
  "SE</w>": 7947,
  "Luft": 7948,
  "erzeu": 7949,
  "January</w>": 7950,
  "solidar": 7951,
  "solchen</w>": 7952,
  "Stelle</w>": 7953,
  "mein</w>": 7954,
  "ondly</w>": 7955,
  "Dialog</w>": 7956,
  "Dr</w>": 7957,
  "Bas": 7958,
  "emand</w>": 7959,
  "Lauf": 7960,
  "conv": 7961,
  "airport</w>": 7962,
  "Prü": 7963,
  "vollen</w>": 7964,
  "leicht</w>": 7965,
  "six</w>": 7966,
  "präsen": 7967,
  "schau": 7968,
  "ele</w>": 7969,
  "wurf</w>": 7970,
  "mine</w>": 7971,
  "Cli": 7972,
  "dadurch</w>": 7973,
  "Gei": 7974,
  "stände</w>": 7975,
  "instruments</w>": 7976,
  "stung</w>": 7977,
  "hohe</w>": 7978,
  "pleased</w>": 7979,
  "versity</w>": 7980,
  "aren</w>": 7981,
  "acts</w>": 7982,
  "ships</w>": 7983,
  "categories</w>": 7984,
  "Wachstum</w>": 7985,
  "construc": 7986,
  "berühm": 7987,
  "fla": 7988,
  "zweiten</w>": 7989,
  "expla": 7990,
  "Republic</w>": 7991,
  "variety</w>": 7992,
  "October</w>": 7993,
  "North</w>": 7994,
  "lossen": 7995,
  "fishing</w>": 7996,
  "insgesamt</w>": 7997,
  "Mehrheit</w>": 7998,
  "wid": 7999,
  "hafen</w>": 8000,
  "sides</w>": 8001,
  "Site</w>": 8002,
  "Club</w>": 8003,
  "radi": 8004,
  "conference</w>": 8005,
  "interpre": 8006,
  "relation": 8007,
  "Punkte</w>": 8008,
  "paid</w>": 8009,
  "größten</w>": 8010,
  "Handel</w>": 8011,
  "rein": 8012,
  "pati": 8013,
  "gesellschaft</w>": 8014,
  "instead</w>": 8015,
  "message</w>": 8016,
  "medium</w>": 8017,
  "ce": 8018,
  "leider</w>": 8019,
  "sets</w>": 8020,
  "ope</w>": 8021,
  "Aufmerk": 8022,
  "discussion</w>": 8023,
  "document</w>": 8024,
  "sth": 8025,
  "ssel</w>": 8026,
  "tell</w>": 8027,
  "jün": 8028,
  "Strand</w>": 8029,
  "intensi": 8030,
  "eher</w>": 8031,
  "einzige</w>": 8032,
  "aufgenommen</w>": 8033,
  "types</w>": 8034,
  "reib": 8035,
  "Vorschriften</w>": 8036,
  "stellten</w>": 8037,
  "round</w>": 8038,
  "alist</w>": 8039,
  "thous": 8040,
  "became</w>": 8041,
  "Gewalt</w>": 8042,
  "Musik</w>": 8043,
  "Erzeu": 8044,
  "voc": 8045,
  "Mediterranean</w>": 8046,
  "post</w>": 8047,
  "Det": 8048,
  "regards</w>": 8049,
  "fisher": 8050,
  "sa</w>": 8051,
  "arran": 8052,
  "ental</w>": 8053,
  "reover</w>": 8054,
  "stability</w>": 8055,
  "study</w>": 8056,
  "extra</w>": 8057,
  "section</w>": 8058,
  "ategorien</w>": 8059,
  "started</w>": 8060,
  "gelan": 8061,
  "gnisse</w>": 8062,
  "Informations": 8063,
  "distance</w>": 8064,
  "Entscheidungen</w>": 8065,
  "Ameri": 8066,
  "item</w>": 8067,
  "vergangenen</w>": 8068,
  "Swe": 8069,
  "giving</w>": 8070,
  "Italian</w>": 8071,
  "abge": 8072,
  "werk": 8073,
  "sau": 8074,
  "credit</w>": 8075,
  "Anforderungen</w>": 8076,
  "cross</w>": 8077,
  "chtung</w>": 8078,
  "Don": 8079,
  "Verkehrs": 8080,
  "Install": 8081,
  "Bundes": 8082,
  "Hi": 8083,
  "distribution</w>": 8084,
  "Küche</w>": 8085,
  "Kün": 8086,
  "März</w>": 8087,
  "Nur</w>": 8088,
  "Feder": 8089,
  "cast": 8090,
  "ete</w>": 8091,
  "opping</w>": 8092,
  "lia</w>": 8093,
  "eph": 8094,
  "legislative</w>": 8095,
  "oben</w>": 8096,
  "folgt</w>": 8097,
  "pass</w>": 8098,
  "sels</w>": 8099,
  "Fak": 8100,
  "Pho": 8101,
  "Balk": 8102,
  "porate</w>": 8103,
  "haus</w>": 8104,
  "interesting</w>": 8105,
  "Tor": 8106,
  "bewertungen</w>": 8107,
  "sters</w>": 8108,
  "Bon": 8109,
  "Bud": 8110,
  "ordini": 8111,
  "mension</w>": 8112,
  "Sho": 8113,
  "kosten</w>": 8114,
  "einzigar": 8115,
  "aging</w>": 8116,
  "Aufmerksamkeit</w>": 8117,
  "allowed</w>": 8118,
  "Hung": 8119,
  "signed</w>": 8120,
  "mming</w>": 8121,
  "yond</w>": 8122,
  "MS</w>": 8123,
  "Masch": 8124,
  "gste</w>": 8125,
  "ault</w>": 8126,
  "click</w>": 8127,
  "eck": 8128,
  "partner": 8129,
  "procedures</w>": 8130,
  "dig</w>": 8131,
  "ca": 8132,
  "Today</w>": 8133,
  "genießen</w>": 8134,
  "Spanish</w>": 8135,
  "conveni": 8136,
  "stration</w>": 8137,
  "shops</w>": 8138,
  "rene": 8139,
  "Inde": 8140,
  "concept</w>": 8141,
  "reibung</w>": 8142,
  "Freiheit</w>": 8143,
  "Agr": 8144,
  "LE": 8145,
  "statement</w>": 8146,
  "ologien</w>": 8147,
  "vier": 8148,
  "Gefahr</w>": 8149,
  "ange</w>": 8150,
  "Gesundheits": 8151,
  "school</w>": 8152,
  "architec": 8153,
  "compon": 8154,
  "Lehr": 8155,
  "relax": 8156,
  "Rights</w>": 8157,
  "PS</w>": 8158,
  "ule</w>": 8159,
  "tert</w>": 8160,
  "etz</w>": 8161,
  "payment</w>": 8162,
  "kein": 8163,
  "tool</w>": 8164,
  "konzentri": 8165,
  "kriti": 8166,
  "Städ": 8167,
  "West</w>": 8168,
  "äst": 8169,
  "Gemeinschafts": 8170,
  "Center</w>": 8171,
  "compromise</w>": 8172,
  "nissen</w>": 8173,
  "regu": 8174,
  "Projekte</w>": 8175,
  "electri": 8176,
  "Kredi": 8177,
  "quar": 8178,
  "Stär": 8179,
  "damage</w>": 8180,
  "Villa</w>": 8181,
  "Macht</w>": 8182,
  "Standpunkt</w>": 8183,
  "Sim": 8184,
  "lege</w>": 8185,
  "contribution</w>": 8186,
  "Beschäftigung</w>": 8187,
  "letzt</w>": 8188,
  "Wirk": 8189,
  "teien</w>": 8190,
  "evalu": 8191,
  "liegenden</w>": 8192,
  "Grenzen</w>": 8193,
  "historical</w>": 8194,
  "Gal": 8195,
  "provisions</w>": 8196,
  "Aller": 8197,
  "agenda</w>": 8198,
  "verty</w>": 8199,
  "kurz</w>": 8200,
  "stands</w>": 8201,
  "pursu": 8202,
  "Bereiche</w>": 8203,
  "village</w>": 8204,
  "Stadt": 8205,
  "Empfeh": 8206,
  "lauf": 8207,
  "abri": 8208,
  "rat": 8209,
  "dow</w>": 8210,
  "Goo": 8211,
  "Gästebewertungen</w>": 8212,
  "übersch": 8213,
  "weg": 8214,
  "1997</w>": 8215,
  "min</w>": 8216,
  "Lab": 8217,
  "Mus": 8218,
  "gelten</w>": 8219,
  "Development</w>": 8220,
  "Sil": 8221,
  "fassen</w>": 8222,
  "July</w>": 8223,
  "Landwirtschaft</w>": 8224,
  "violence</w>": 8225,
  "Rahmen": 8226,
  "sports</w>": 8227,
  "dise": 8228,
  "ros</w>": 8229,
  "eigentlich</w>": 8230,
  "vin": 8231,
  "mensch": 8232,
  "effort</w>": 8233,
  "build</w>": 8234,
  "verkehr": 8235,
  "quiet</w>": 8236,
  "Tab": 8237,
  "box</w>": 8238,
  "konnten</w>": 8239,
  "During</w>": 8240,
  "electron": 8241,
  "Wider": 8242,
  "drive</w>": 8243,
  "bevor</w>": 8244,
  "neuer</w>": 8245,
  "wine</w>": 8246,
  "kontrol": 8247,
  "weis": 8248,
  "temporary</w>": 8249,
  "Rooms</w>": 8250,
  "fahrt</w>": 8251,
  "Nr</w>": 8252,
  "shor": 8253,
  "UR": 8254,
  "Portugal</w>": 8255,
  "Belgi": 8256,
  "seln</w>": 8257,
  "gewöhn": 8258,
  "eingesetzt</w>": 8259,
  "nor</w>": 8260,
  "task</w>": 8261,
  "labour</w>": 8262,
  "Opf": 8263,
  "Bad</w>": 8264,
  "Beru": 8265,
  "documents</w>": 8266,
  "Reform</w>": 8267,
  "Wettbewerb</w>": 8268,
  "üb": 8269,
  "Anfrage</w>": 8270,
  "istischen</w>": 8271,
  "Hu": 8272,
  "late</w>": 8273,
  "criteria</w>": 8274,
  "iete</w>": 8275,
  "ließ": 8276,
  "operating</w>": 8277,
  "sus": 8278,
  "Ere": 8279,
  "estival</w>": 8280,
  "ton": 8281,
  "Kraft</w>": 8282,
  "express</w>": 8283,
  "Investitionen</w>": 8284,
  "fangen</w>": 8285,
  "download</w>": 8286,
  "Afgh": 8287,
  "Konferenz</w>": 8288,
  "vements</w>": 8289,
  "Vis": 8290,
  "europäischer</w>": 8291,
  "falt</w>": 8292,
  "wenige</w>": 8293,
  "75</w>": 8294,
  "engen</w>": 8295,
  "tlicher</w>": 8296,
  "gation</w>": 8297,
  "ktiven</w>": 8298,
  "craft</w>": 8299,
  "Regeln</w>": 8300,
  "justi": 8301,
  "band</w>": 8302,
  "Benutzer</w>": 8303,
  "niedri": 8304,
  "lam": 8305,
  "Folgen</w>": 8306,
  "Untersuch": 8307,
  "integrated</w>": 8308,
  "Nationen</w>": 8309,
  "const": 8310,
  "utting</w>": 8311,
  "Fischerei": 8312,
  "Oktober</w>": 8313,
  "lief": 8314,
  "finally</w>": 8315,
  "uli</w>": 8316,
  "inen": 8317,
  "tools</w>": 8318,
  "draft</w>": 8319,
  "Nation": 8320,
  "benefits</w>": 8321,
  "PH": 8322,
  "Bildung</w>": 8323,
  "klassi": 8324,
  "unmittel": 8325,
  "durchgeführt</w>": 8326,
  "Christi": 8327,
  "Pres": 8328,
  "ot</w>": 8329,
  "growing</w>": 8330,
  "elements</w>": 8331,
  "equal</w>": 8332,
  "Frühstück</w>": 8333,
  "Eig": 8334,
  "wonder": 8335,
  "digital</w>": 8336,
  "Januar</w>": 8337,
  "Handels": 8338,
  "Firma</w>": 8339,
  "stable</w>": 8340,
  "poses</w>": 8341,
  "Diskussion</w>": 8342,
  "residen": 8343,
  "aktuellen</w>": 8344,
  "Bor": 8345,
  "ching</w>": 8346,
  "rat</w>": 8347,
  "größte</w>": 8348,
  "MA": 8349,
  "tau": 8350,
  "Linie</w>": 8351,
  "Star</w>": 8352,
  "Many</w>": 8353,
  "asse</w>": 8354,
  "by": 8355,
  "stes</w>": 8356,
  "conom": 8357,
  "happy</w>": 8358,
  "University</w>": 8359,
  "require</w>": 8360,
  "Transparenz</w>": 8361,
  "Sinne</w>": 8362,
  "Meine</w>": 8363,
  "benötigen</w>": 8364,
  "masch": 8365,
  "got</w>": 8366,
  "Telef": 8367,
  "Berichts</w>": 8368,
  "Personal</w>": 8369,
  "Centre</w>": 8370,
  "alternative</w>": 8371,
  "immediately</w>": 8372,
  "bru": 8373,
  "highest</w>": 8374,
  "wichtiger</w>": 8375,
  "beziehen</w>": 8376,
  "host": 8377,
  "See</w>": 8378,
  "specific": 8379,
  "Kinder": 8380,
  "kat": 8381,
  "Verän": 8382,
  "mut</w>": 8383,
  "apartments</w>": 8384,
  "hed</w>": 8385,
  "Phi": 8386,
  "Pas": 8387,
  "Although</w>": 8388,
  "changed</w>": 8389,
  "transparency</w>": 8390,
  "forces</w>": 8391,
  "Gründen</w>": 8392,
  "Zun": 8393,
  "Präsidenten</w>": 8394,
  "unsch</w>": 8395,
  "einfa": 8396,
  "curren": 8397,
  "ont</w>": 8398,
  "Terra": 8399,
  "instal": 8400,
  "Enterprise</w>": 8401,
  "König": 8402,
  "Höhe</w>": 8403,
  "schwer": 8404,
  "Zur</w>": 8405,
  "angesichts</w>": 8406,
  "Du</w>": 8407,
  "Schwier": 8408,
  "hören</w>": 8409,
  "goes</w>": 8410,
  "veau</w>": 8411,
  "astern</w>": 8412,
  "Kern": 8413,
  "Hig": 8414,
  "Ferien": 8415,
  "sub</w>": 8416,
  "Studi": 8417,
  "ausdrück": 8418,
  "folgenden</w>": 8419,
  "schutz</w>": 8420,
  "ahnhof</w>": 8421,
  "skil": 8422,
  "getan</w>": 8423,
  "erwarten</w>": 8424,
  "enced</w>": 8425,
  "allein</w>": 8426,
  "chi": 8427,
  "cr": 8428,
  "parking</w>": 8429,
  "orrow</w>": 8430,
  "danke</w>": 8431,
  "kannst</w>": 8432,
  "Econom": 8433,
  "veröffent": 8434,
  "195": 8435,
  "Your</w>": 8436,
  "ebs": 8437,
  "official</w>": 8438,
  "employees</w>": 8439,
  "Saf": 8440,
  "busin": 8441,
  "abschie": 8442,
  "con</w>": 8443,
  "fine</w>": 8444,
  "Park": 8445,
  "ace": 8446,
  "wiesen</w>": 8447,
  "Kunst": 8448,
  "ursprün": 8449,
  "friends</w>": 8450,
  "SP": 8451,
  "Fehler</w>": 8452,
  "New": 8453,
  "Eis": 8454,
  "mous</w>": 8455,
  "ihres</w>": 8456,
  "Atmosp": 8457,
  "gens</w>": 8458,
  "Präsidentschaft</w>": 8459,
  "Wa": 8460,
  "death</w>": 8461,
  "astic</w>": 8462,
  "applied</w>": 8463,
  "Agrar": 8464,
  "elections</w>": 8465,
  "reality</w>": 8466,
  "contrac": 8467,
  "Loc": 8468,
  "titu": 8469,
  "train</w>": 8470,
  "Bedürf": 8471,
  "Flu": 8472,
  "Bemüh": 8473,
  "iten</w>": 8474,
  "helpful</w>": 8475,
  "Bulg": 8476,
  "elte</w>": 8477,
  "numerous</w>": 8478,
  "Auffassung</w>": 8479,
  "gelö": 8480,
  "hinter</w>": 8481,
  "photo": 8482,
  "transpor": 8483,
  "ling": 8484,
  "substan": 8485,
  "analysis</w>": 8486,
  "sofort</w>": 8487,
  "cent</w>": 8488,
  "gewäh": 8489,
  "dol": 8490,
  "annual</w>": 8491,
  "avoid</w>": 8492,
  "tac": 8493,
  "trit": 8494,
  "Vertei": 8495,
  "ständige</w>": 8496,
  "challenges</w>": 8497,
  "advantage</w>": 8498,
  "Sache</w>": 8499,
  "lösen</w>": 8500,
  "Öffentlichkeit</w>": 8501,
  "sil": 8502,
  "daily</w>": 8503,
  "traum</w>": 8504,
  "poverty</w>": 8505,
  "volution</w>": 8506,
  "ght": 8507,
  "23": 8508,
  "processes</w>": 8509,
  "Flughafen</w>": 8510,
  "persons</w>": 8511,
  "undation</w>": 8512,
  "institution": 8513,
  "ero": 8514,
  "pun": 8515,
  "Privat": 8516,
  "clu": 8517,
  "Beschäftig": 8518,
  "kehr": 8519,
  "ätze</w>": 8520,
  "labor": 8521,
  "vali": 8522,
  "perman": 8523,
  "Furthermore</w>": 8524,
  "ktiv</w>": 8525,
  "Ereig": 8526,
  "Druck</w>": 8527,
  "nungen</w>": 8528,
  "erfolgreich": 8529,
  "solidarity</w>": 8530,
  "fair": 8531,
  "zeug</w>": 8532,
  "wiederhol": 8533,
  "offizi": 8534,
  "raten</w>": 8535,
  "review</w>": 8536,
  "demokratischen</w>": 8537,
  "talk</w>": 8538,
  "Heute</w>": 8539,
  "Kör": 8540,
  "Völ": 8541,
  "behör": 8542,
  "effe": 8543,
  "alte</w>": 8544,
  "gic</w>": 8545,
  "occa": 8546,
  "egation</w>": 8547,
  "wortern</w>": 8548,
  "Beteili": 8549,
  "Pau": 8550,
  "ausreich": 8551,
  "timate</w>": 8552,
  "erneut</w>": 8553,
  "consequences</w>": 8554,
  "eingesch": 8555,
  "bathroom</w>": 8556,
  "elles</w>": 8557,
  "saying</w>": 8558,
  "offering</w>": 8559,
  "Cal": 8560,
  "zeichnung</w>": 8561,
  "Wahl": 8562,
  "legt</w>": 8563,
  "fasst</w>": 8564,
  "jähr": 8565,
  "Kompromis": 8566,
  "diejenigen</w>": 8567,
  "schönen</w>": 8568,
  "Sou": 8569,
  "öffentliche</w>": 8570,
  "Palest": 8571,
  "beyond</w>": 8572,
  "Bilder</w>": 8573,
  "Tagesordnung</w>": 8574,
  "historic</w>": 8575,
  "begrüße</w>": 8576,
  "Datei</w>": 8577,
  "aged</w>": 8578,
  "digt</w>": 8579,
  "berechti": 8580,
  "alisiert</w>": 8581,
  "sely</w>": 8582,
  "event": 8583,
  "EL</w>": 8584,
  "ßer</w>": 8585,
  "DVD</w>": 8586,
  "conflict</w>": 8587,
  "Kapit": 8588,
  "geworden</w>": 8589,
  "haupt</w>": 8590,
  "Ci": 8591,
  "mess": 8592,
  "adequ": 8593,
  "head</w>": 8594,
  "erter</w>": 8595,
  "entsprechenden</w>": 8596,
  "bran": 8597,
  "seas": 8598,
  "stark": 8599,
  "Änderung</w>": 8600,
  "nahe</w>": 8601,
  "morgen</w>": 8602,
  "therwise</w>": 8603,
  "efficiency</w>": 8604,
  "High</w>": 8605,
  "lives</w>": 8606,
  "Camp": 8607,
  "bereit": 8608,
  "wirken</w>": 8609,
  "Urlaub</w>": 8610,
  "ester</w>": 8611,
  "98</w>": 8612,
  "buffet</w>": 8613,
  "Archit": 8614,
  "Ren": 8615,
  "ldwide</w>": 8616,
  "ader</w>": 8617,
  "zunehmen": 8618,
  "scap": 8619,
  "recommend": 8620,
  "ecken</w>": 8621,
  "plus</w>": 8622,
  "rative</w>": 8623,
  "beitragen</w>": 8624,
  "offered</w>": 8625,
  "satz": 8626,
  "colleagues</w>": 8627,
  "minimum</w>": 8628,
  "Fällen</w>": 8629,
  "chtet</w>": 8630,
  "Juli</w>": 8631,
  "Kommission": 8632,
  "getro": 8633,
  "Bemühungen</w>": 8634,
  "gyp": 8635,
  "options</w>": 8636,
  "Tou": 8637,
  "gkeiten</w>": 8638,
  "great": 8639,
  "Gerich": 8640,
  "Ange": 8641,
  "Austria</w>": 8642,
  "carry</w>": 8643,
  "Restaurants</w>": 8644,
  "keits": 8645,
  "Do</w>": 8646,
  "victi": 8647,
  "Schlusselwortern</w>": 8648,
  "fail": 8649,
  "emphasi": 8650,
  "scho": 8651,
  "bia</w>": 8652,
  "langfris": 8653,
  "igran": 8654,
  "lernen</w>": 8655,
  "werte</w>": 8656,
  "illegal</w>": 8657,
  "modified</w>": 8658,
  "wanted</w>": 8659,
  "Monaten</w>": 8660,
  "Well": 8661,
  "starting</w>": 8662,
  "terrorism</w>": 8663,
  "published</w>": 8664,
  "Ost": 8665,
  "ideas</w>": 8666,
  "behandelt</w>": 8667,
  "ense</w>": 8668,
  "practical</w>": 8669,
  "Star": 8670,
  "beschrän": 8671,
  "Room</w>": 8672,
  "zip": 8673,
  "requires</w>": 8674,
  "Basis</w>": 8675,
  "lec": 8676,
  "balan": 8677,
  "bir": 8678,
  "Ansatz</w>": 8679,
  "establish</w>": 8680,
  "ki": 8681,
  "wahrschein": 8682,
  "sinn": 8683,
  "marks</w>": 8684,
  "dt</w>": 8685,
  "timmung</w>": 8686,
  "utely</w>": 8687,
  "zin": 8688,
  "hou": 8689,
  "bedingt</w>": 8690,
  "beträ": 8691,
  "industrie</w>": 8692,
  "transfer</w>": 8693,
  "poor</w>": 8694,
  "news</w>": 8695,
  "bekämp": 8696,
  "zufrie": 8697,
  "phone</w>": 8698,
  "player</w>": 8699,
  "Mau": 8700,
  "sieren</w>": 8701,
  "Bürgern</w>": 8702,
  "verhindern</w>": 8703,
  "implemented</w>": 8704,
  "verstanden</w>": 8705,
  "shopping</w>": 8706,
  "Grö": 8707,
  "useful</w>": 8708,
  "trei": 8709,
  "einfach": 8710,
  "stie": 8711,
  "Republik</w>": 8712,
  "Directive</w>": 8713,
  "Hel": 8714,
  "leb": 8715,
  "Leg": 8716,
  "reference</w>": 8717,
  "divi": 8718,
  "Liefer": 8719,
  "organisations</w>": 8720,
  "Dateien</w>": 8721,
  "ef</w>": 8722,
  "1996</w>": 8723,
  "berücksichtigt</w>": 8724,
  "expect</w>": 8725,
  "Standard</w>": 8726,
  "griffen</w>": 8727,
  "zügi": 8728,
  "machine</w>": 8729,
  "weeks</w>": 8730,
  "Tagen</w>": 8731,
  "ior</w>": 8732,
  "cities</w>": 8733,
  "monitoring</w>": 8734,
  "Italien</w>": 8735,
  "wäl": 8736,
  "hätten</w>": 8737,
  "kommens</w>": 8738,
  "behalten</w>": 8739,
  "Ansch": 8740,
  "turned</w>": 8741,
  "protec": 8742,
  "Behandlung</w>": 8743,
  "sufficient</w>": 8744,
  "alien</w>": 8745,
  "rechts</w>": 8746,
  "erfolgt</w>": 8747,
  "thought</w>": 8748,
  "discrimin": 8749,
  "dnis</w>": 8750,
  "tomorrow</w>": 8751,
  "vergessen</w>": 8752,
  "losen</w>": 8753,
  "paar</w>": 8754,
  "technischen</w>": 8755,
  "congratulate</w>": 8756,
  "maximum</w>": 8757,
  "circum": 8758,
  "sektor</w>": 8759,
  "sales</w>": 8760,
  "crucial</w>": 8761,
  "Technologie</w>": 8762,
  "anderem</w>": 8763,
  "clients</w>": 8764,
  "secure</w>": 8765,
  "dner</w>": 8766,
  "Spei": 8767,
  "cut</w>": 8768,
  "Milliar": 8769,
  "trotz</w>": 8770,
  "Bürgerinnen</w>": 8771,
  "gence</w>": 8772,
  "learn</w>": 8773,
  "Mün": 8774,
  "relating</w>": 8775,
  "Pen": 8776,
  "wert": 8777,
  "credi": 8778,
  "NAT": 8779,
  "zt</w>": 8780,
  "wser</w>": 8781,
  "ologischen</w>": 8782,
  "sorg": 8783,
  "minute</w>": 8784,
  "reduction</w>": 8785,
  "weist</w>": 8786,
  "bes</w>": 8787,
  "lle</w>": 8788,
  "Unter</w>": 8789,
  "Brü": 8790,
  "anlage</w>": 8791,
  "Mc": 8792,
  "Schlü": 8793,
  "Atmosphäre</w>": 8794,
  "zuführen</w>": 8795,
  "vertreten</w>": 8796,
  "Tat</w>": 8797,
  "sü": 8798,
  "technologies</w>": 8799,
  "sometimes</w>": 8800,
  "lesen</w>": 8801,
  "kurz": 8802,
  "morning</w>": 8803,
  "sien</w>": 8804,
  "Maß": 8805,
  "druck": 8806,
  "IN</w>": 8807,
  "versucht</w>": 8808,
  "epage</w>": 8809,
  "Schließ": 8810,
  "elds</w>": 8811,
  "Vergan": 8812,
  "street</w>": 8813,
  "blu": 8814,
  "mountain</w>": 8815,
  "claim": 8816,
  "comprehensive</w>": 8817,
  "month</w>": 8818,
  "Amendment</w>": 8819,
  "anders</w>": 8820,
  "Nachbar": 8821,
  "richtige</w>": 8822,
  "caused</w>": 8823,
  "Soci": 8824,
  "deutschen</w>": 8825,
  "kers</w>": 8826,
  "getary</w>": 8827,
  "email</w>": 8828,
  "natür": 8829,
  "sichern</w>": 8830,
  "serves</w>": 8831,
  "games</w>": 8832,
  "usw</w>": 8833,
  "hoch</w>": 8834,
  "sigkeit</w>": 8835,
  "RO</w>": 8836,
  "voting</w>": 8837,
  "campa": 8838,
  "struktur</w>": 8839,
  "Tr": 8840,
  "orie</w>": 8841,
  "Mag": 8842,
  "Erfahrungen</w>": 8843,
  "Verhäl": 8844,
  "Den</w>": 8845,
  "Le</w>": 8846,
  "folgen</w>": 8847,
  "child</w>": 8848,
  "degre": 8849,
  "Even</w>": 8850,
  "reason": 8851,
  "therap": 8852,
  "48</w>": 8853,
  "While</w>": 8854,
  "bemü": 8855,
  "Imp": 8856,
  "PD": 8857,
  "sprech": 8858,
  "Get": 8859,
  "modernen</w>": 8860,
  "gements</w>": 8861,
  "Sicht</w>": 8862,
  "verwal": 8863,
  "theless</w>": 8864,
  "Berat": 8865,
  "accordance</w>": 8866,
  "ffenen</w>": 8867,
  "Wol": 8868,
  "stör": 8869,
  "thin": 8870,
  "vertheless</w>": 8871,
  "fügen</w>": 8872,
  "ara</w>": 8873,
  "Natürlich</w>": 8874,
  "Rechtsvorschriften</w>": 8875,
  "perfe": 8876,
  "hold</w>": 8877,
  "session</w>": 8878,
  "disa": 8879,
  "ehem": 8880,
  "anything</w>": 8881,
  "trägt</w>": 8882,
  "Nicht</w>": 8883,
  "überhaupt</w>": 8884,
  "institutional</w>": 8885,
  "Fähi": 8886,
  "waste</w>": 8887,
  "freih": 8888,
  "exac": 8889,
  "alone</w>": 8890,
  "Begin": 8891,
  "warum</w>": 8892,
  "historischen</w>": 8893,
  "Gruppen</w>": 8894,
  "Bl": 8895,
  "Spanien</w>": 8896,
  "ktive</w>": 8897,
  "bring": 8898,
  "lower</w>": 8899,
  "norm": 8900,
  "Meer": 8901,
  "chter</w>": 8902,
  "sorgung</w>": 8903,
  "plans</w>": 8904,
  "probably</w>": 8905,
  "begin</w>": 8906,
  "players</w>": 8907,
  "ists</w>": 8908,
  "ki</w>": 8909,
  "erklärt</w>": 8910,
  "fit": 8911,
  "languages</w>": 8912,
  "Altern": 8913,
  "aving</w>": 8914,
  "FR</w>": 8915,
  "ah</w>": 8916,
  "candi": 8917,
  "zahlreichen</w>": 8918,
  "Mom": 8919,
  "interested</w>": 8920,
  "kro": 8921,
  "verantwortlich</w>": 8922,
  "Beginn</w>": 8923,
  "Is</w>": 8924,
  "Wochen</w>": 8925,
  "Schutz": 8926,
  "method</w>": 8927,
  "kap": 8928,
  "Computer</w>": 8929,
  "säm": 8930,
  "bition</w>": 8931,
  "eping</w>": 8932,
  "Ressourcen</w>": 8933,
  "dule</w>": 8934,
  "Aufenthalt</w>": 8935,
  "brechen</w>": 8936,
  "certi": 8937,
  "Frankfur": 8938,
  "Microsoft</w>": 8939,
  "welches</w>": 8940,
  "betreff": 8941,
  "Prote": 8942,
  "Lassen</w>": 8943,
  "Finanzierung</w>": 8944,
  "Afghan": 8945,
  "offen</w>": 8946,
  "graf": 8947,
  "Airport</w>": 8948,
  "Dritt": 8949,
  "concent": 8950,
  "rück": 8951,
  "Fron": 8952,
  "Conference</w>": 8953,
  "likely</w>": 8954,
  "occu": 8955,
  "accession</w>": 8956,
  "menu</w>": 8957,
  "images</w>": 8958,
  "farmers</w>": 8959,
  "lim": 8960,
  "Aspekte</w>": 8961,
  "extent</w>": 8962,
  "tari": 8963,
  "worldwide</w>": 8964,
  "scientific</w>": 8965,
  "Mac": 8966,
  "lauf</w>": 8967,
  "release</w>": 8968,
  "tori": 8969,
  "worked</w>": 8970,
  "Kal": 8971,
  "scale</w>": 8972,
  "tnisse</w>": 8973,
  "Fel": 8974,
  "erfüllen</w>": 8975,
  "Mand": 8976,
  "Swis": 8977,
  "garden</w>": 8978,
  "beste</w>": 8979,
  "gewesen</w>": 8980,
  "sun": 8981,
  "vollständig</w>": 8982,
  "toren</w>": 8983,
  "gruppe</w>": 8984,
  "issen</w>": 8985,
  "green</w>": 8986,
  "methods</w>": 8987,
  "Anti": 8988,
  "chance</w>": 8989,
  "mention</w>": 8990,
  "angemessen": 8991,
  "cen": 8992,
  "zess</w>": 8993,
  "führte</w>": 8994,
  "Agent": 8995,
  "zeiten</w>": 8996,
  "Vergangenheit</w>": 8997,
  "chs": 8998,
  "swimming</w>": 8999,
  "motion</w>": 9000,
  "Qualitä": 9001,
  "Dro": 9002,
  "Ander": 9003,
  "häufig</w>": 9004,
  "PP": 9005,
  "challenge</w>": 9006,
  "Security</w>": 9007,
  "zumin": 9008,
  "stellte</w>": 9009,
  "Inhalt</w>": 9010,
  "geschaffen</w>": 9011,
  "sions": 9012,
  "entsprechend</w>": 9013,
  "adverti": 9014,
  "pain": 9015,
  "erfolgreich</w>": 9016,
  "strength": 9017,
  "fish</w>": 9018,
  "ony": 9019,
  "Fac": 9020,
  "count</w>": 9021,
  "neues</w>": 9022,
  "Chinese</w>": 9023,
  "sectors</w>": 9024,
  "jeweiligen</w>": 9025,
  "endlich</w>": 9026,
  "ckets</w>": 9027,
  "és</w>": 9028,
  "Dre": 9029,
  "Video</w>": 9030,
  "Public</w>": 9031,
  "Em": 9032,
  "IF": 9033,
  "Mei": 9034,
  "processing</w>": 9035,
  "zumindest</w>": 9036,
  "Sonder": 9037,
  "tiges</w>": 9038,
  "Adresse</w>": 9039,
  "verpflichtet</w>": 9040,
  "profi": 9041,
  "zig</w>": 9042,
  "Google</w>": 9043,
  "crimin": 9044,
  "appear</w>": 9045,
  "wood</w>": 9046,
  "Fund</w>": 9047,
  "asp": 9048,
  "bedau": 9049,
  "gewiesen</w>": 9050,
  "Lit": 9051,
  "powers</w>": 9052,
  "cin": 9053,
  "stets</w>": 9054,
  "attra": 9055,
  "Sterne</w>": 9056,
  "reland</w>": 9057,
  "System": 9058,
  "befür": 9059,
  "enze</w>": 9060,
  "Free</w>": 9061,
  "Zweitens</w>": 9062,
  "uner": 9063,
  "fields</w>": 9064,
  "zahlt</w>": 9065,
  "unten</w>": 9066,
  "lost</w>": 9067,
  "Werte</w>": 9068,
  "nehm": 9069,
  "gla": 9070,
  "verage</w>": 9071,
  "Viele</w>": 9072,
  "99</w>": 9073,
  "wr": 9074,
  "außerhalb</w>": 9075,
  "selection</w>": 9076,
  "justice</w>": 9077,
  "erende</w>": 9078,
  "kam</w>": 9079,
  "walking</w>": 9080,
  "businesses</w>": 9081,
  "erwartet</w>": 9082,
  "ero</w>": 9083,
  "Minder": 9084,
  "passen": 9085,
  "Wohl": 9086,
  "Besonder": 9087,
  "genutzt</w>": 9088,
  "appreci": 9089,
  "accepted</w>": 9090,
  "Schritte</w>": 9091,
  "fläche</w>": 9092,
  "schützen</w>": 9093,
  "despite</w>": 9094,
  "09</w>": 9095,
  "strategic</w>": 9096,
  "comfort</w>": 9097,
  "sus</w>": 9098,
  "teren</w>": 9099,
  "400</w>": 9100,
  "vertrau": 9101,
  "incor": 9102,
  "kennen</w>": 9103,
  "sensi": 9104,
  "ails</w>": 9105,
  "gst</w>": 9106,
  "exerc": 9107,
  "Grand</w>": 9108,
  "fying</w>": 9109,
  "empfeh": 9110,
  "ica</w>": 9111,
  "uty</w>": 9112,
  "fluss</w>": 9113,
  "ausgezeich": 9114,
  "Not</w>": 9115,
  "Arbeitnehmer</w>": 9116,
  "map</w>": 9117,
  "Bran": 9118,
  "fres": 9119,
  "stab": 9120,
  "viert</w>": 9121,
  "extra": 9122,
  "Thank</w>": 9123,
  "Öster": 9124,
  "Ireland</w>": 9125,
  "fts": 9126,
  "seines</w>": 9127,
  "Pl": 9128,
  "Berg": 9129,
  "Berichterstatterin</w>": 9130,
  "eil</w>": 9131,
  "braucht</w>": 9132,
  "Vertrauen</w>": 9133,
  "persönlichen</w>": 9134,
  "Angelegenheiten</w>": 9135,
  "08</w>": 9136,
  "gnis</w>": 9137,
  "leistet</w>": 9138,
  "raised</w>": 9139,
  "Russian</w>": 9140,
  "kn": 9141,
  "ester": 9142,
  "well": 9143,
  "statisti": 9144,
  "Angelegenheit</w>": 9145,
  "sprü": 9146,
  "visitors</w>": 9147,
  "influence</w>": 9148,
  "innovation</w>": 9149,
  "separate</w>": 9150,
  "El</w>": 9151,
  "barer</w>": 9152,
  "wahrscheinlich</w>": 9153,
  "Gebäude</w>": 9154,
  "genug</w>": 9155,
  "heutigen</w>": 9156,
  "contract</w>": 9157,
  "Zentral": 9158,
  "trying</w>": 9159,
  "heben</w>": 9160,
  "letzte</w>": 9161,
  "doubt</w>": 9162,
  "awar": 9163,
  "adap": 9164,
  "sle": 9165,
  "igkeit</w>": 9166,
  "öri": 9167,
  "Infra": 9168,
  "absolutely</w>": 9169,
  "Dazu</w>": 9170,
  "scope</w>": 9171,
  "implement</w>": 9172,
  "Herausforderungen</w>": 9173,
  "Gesprä": 9174,
  "flexible</w>": 9175,
  "Schwierigkeiten</w>": 9176,
  "losigkeit</w>": 9177,
  "Wein": 9178,
  "achtet</w>": 9179,
  "erlaubt</w>": 9180,
  "ourable</w>": 9181,
  "heraus": 9182,
  "operate</w>": 9183,
  "Distri": 9184,
  "mand": 9185,
  "ty": 9186,
  "cohe": 9187,
  "brie": 9188,
  "amerikanischen</w>": 9189,
  "AT</w>": 9190,
  "bot</w>": 9191,
  "Bade": 9192,
  "Praxis</w>": 9193,
  "Ale": 9194,
  "ausschließlich</w>": 9195,
  "Preis": 9196,
  "150</w>": 9197,
  "Vertreter</w>": 9198,
  "bessere</w>": 9199,
  "Entschließungs": 9200,
  "Künst": 9201,
  "less": 9202,
  "your": 9203,
  "ized</w>": 9204,
  "ee</w>": 9205,
  "Spieler</w>": 9206,
  "isation</w>": 9207,
  "join</w>": 9208,
  "Foto": 9209,
  "Parteien</w>": 9210,
  "UK</w>": 9211,
  "Premi": 9212,
  "fällt</w>": 9213,
  "leaders</w>": 9214,
  "bilden</w>": 9215,
  "Allerdings</w>": 9216,
  "ode</w>": 9217,
  "sechs</w>": 9218,
  "tour</w>": 9219,
  "lien</w>": 9220,
  "Menschenrechts": 9221,
  "Produkt</w>": 9222,
  "demands</w>": 9223,
  "ize</w>": 9224,
  "ativ": 9225,
  "geschütz": 9226,
  "erkennung</w>": 9227,
  "elektron": 9228,
  "ID</w>": 9229,
  "Einrichtung</w>": 9230,
  "gehöri": 9231,
  "Alt": 9232,
  "tations</w>": 9233,
  "prises</w>": 9234,
  "namely</w>": 9235,
  "studi": 9236,
  "Klas": 9237,
  "Neben</w>": 9238,
  "Ima": 9239,
  "love</w>": 9240,
  "Only</w>": 9241,
  "Betrie": 9242,
  "utive</w>": 9243,
  "affected</w>": 9244,
  "borders</w>": 9245,
  "Aktion": 9246,
  "dispo": 9247,
  "dische</w>": 9248,
  "tar</w>": 9249,
  "ose</w>": 9250,
  "Einige</w>": 9251,
  "nern</w>": 9252,
  "ruption</w>": 9253,
  "Eigent": 9254,
  "critical</w>": 9255,
  "gerungen</w>": 9256,
  "Region": 9257,
  "opening</w>": 9258,
  "Hinsicht</w>": 9259,
  "Imm": 9260,
  "zeichnen</w>": 9261,
  "intended</w>": 9262,
  "getting</w>": 9263,
  "Dra": 9264,
  "hour</w>": 9265,
  "Constitu": 9266,
  "Folge</w>": 9267,
  "privaten</w>": 9268,
  "Schwer": 9269,
  "heard</w>": 9270,
  "Moreover</w>": 9271,
  "calls</w>": 9272,
  "Secondly</w>": 9273,
  "erinnern</w>": 9274,
  "ET": 9275,
  "geschi": 9276,
  "Denn</w>": 9277,
  "stoffe</w>": 9278,
  "weiten</w>": 9279,
  "ai": 9280,
  "geln</w>": 9281,
  "overall</w>": 9282,
  "Wunsch</w>": 9283,
  "klu": 9284,
  "rid</w>": 9285,
  "regime</w>": 9286,
  "staaten</w>": 9287,
  "stone</w>": 9288,
  "HT": 9289,
  "krise</w>": 9290,
  "33</w>": 9291,
  "MO": 9292,
  "afft</w>": 9293,
  "Falls</w>": 9294,
  "selben</w>": 9295,
  "diplom": 9296,
  "bitten</w>": 9297,
  "Staat</w>": 9298,
  "warm</w>": 9299,
  "Spec": 9300,
  "tritts": 9301,
  "mat</w>": 9302,
  "Pati": 9303,
  "ap</w>": 9304,
  "Instrument</w>": 9305,
  "sal</w>": 9306,
  "Agre": 9307,
  "ken": 9308,
  "vent": 9309,
  "Ihres</w>": 9310,
  "negative</w>": 9311,
  "adopt</w>": 9312,
  "Opfer</w>": 9313,
  "winn": 9314,
  "anda</w>": 9315,
  "gelt</w>": 9316,
  "Sport": 9317,
  "vorgeschla": 9318,
  "insi": 9319,
  "italien": 9320,
  "store</w>": 9321,
  "says</w>": 9322,
  "SQ": 9323,
  "tere</w>": 9324,
  "expec": 9325,
  "htt": 9326,
  "mption</w>": 9327,
  "allgemeinen</w>": 9328,
  "orienti": 9329,
  "Annahme</w>": 9330,
  "representatives</w>": 9331,
  "yourself</w>": 9332,
  "fälle</w>": 9333,
  "Solidarität</w>": 9334,
  "zukünf": 9335,
  "nungs": 9336,
  "Hoff": 9337,
  "Nachfol": 9338,
  "tre</w>": 9339,
  "Aufgaben</w>": 9340,
  "ML</w>": 9341,
  "übernehmen</w>": 9342,
  "Super": 9343,
  "dated</w>": 9344,
  "gekommen</w>": 9345,
  "forced</w>": 9346,
  "NATO</w>": 9347,
  "Red</w>": 9348,
  "moderne</w>": 9349,
  "Doppel": 9350,
  "schung</w>": 9351,
  "relationship</w>": 9352,
  "banks</w>": 9353,
  "Struktur": 9354,
  "ehemali": 9355,
  "Dann</w>": 9356,
  "laufen</w>": 9357,
  "running</w>": 9358,
  "Seh": 9359,
  "Wer</w>": 9360,
  "ai</w>": 9361,
  "Som": 9362,
  "AK": 9363,
  "dene</w>": 9364,
  "Frieden</w>": 9365,
  "initiatives</w>": 9366,
  "istic</w>": 9367,
  "Arbeitsplätze</w>": 9368,
  "GN": 9369,
  "lass</w>": 9370,
  "traffic</w>": 9371,
  "stress</w>": 9372,
  "Krieg</w>": 9373,
  "usually</w>": 9374,
  "Mex": 9375,
  "strengungen</w>": 9376,
  "gebiet</w>": 9377,
  "95</w>": 9378,
  "lern</w>": 9379,
  "ausch</w>": 9380,
  "entscheiden</w>": 9381,
  "Mittelme": 9382,
  "see": 9383,
  "ünf": 9384,
  "suitable</w>": 9385,
  "begrenz": 9386,
  "expressed</w>": 9387,
  "Afghanistan</w>": 9388,
  "evening</w>": 9389,
  "schwer</w>": 9390,
  "datab": 9391,
  "Exper": 9392,
  "jahr</w>": 9393,
  "klein": 9394,
  "People</w>": 9395,
  "0s</w>": 9396,
  "Its</w>": 9397,
  "Nu": 9398,
  "peace": 9399,
  "Lam": 9400,
  "Mer": 9401,
  "Glau": 9402,
  "konom": 9403,
  "target</w>": 9404,
  "ständen</w>": 9405,
  "prüft</w>": 9406,
  "ha</w>": 9407,
  "Kultur": 9408,
  "collec": 9409,
  "born</w>": 9410,
  "cript</w>": 9411,
  "bewusst</w>": 9412,
  "SO": 9413,
  "expected</w>": 9414,
  "lierung</w>": 9415,
  "darstellt</w>": 9416,
  "committed</w>": 9417,
  "Organisationen</w>": 9418,
  "beide</w>": 9419,
  "97</w>": 9420,
  "More</w>": 9421,
  "ee": 9422,
  "mainly</w>": 9423,
  "fant": 9424,
  "freie</w>": 9425,
  "Obwohl</w>": 9426,
  "begrüßen</w>": 9427,
  "zudem</w>": 9428,
  "proper</w>": 9429,
  "rup": 9430,
  "automatisch</w>": 9431,
  "hilfen</w>": 9432,
  "0er</w>": 9433,
  "Gesamt": 9434,
  "cyc": 9435,
  "Syn": 9436,
  "si</w>": 9437,
  "ill": 9438,
  "stein</w>": 9439,
  "Kunden": 9440,
  "administration</w>": 9441,
  "Dire": 9442,
  "Ern": 9443,
  "fel</w>": 9444,
  "sitting</w>": 9445,
  "Produkt": 9446,
  "DA": 9447,
  "rail": 9448,
  "approved</w>": 9449,
  "talking</w>": 9450,
  "win</w>": 9451,
  "maintain</w>": 9452,
  "Systeme</w>": 9453,
  "Hä": 9454,
  "forderung</w>": 9455,
  "gelegen</w>": 9456,
  "änder": 9457,
  "ethn": 9458,
  "karte</w>": 9459,
  "chec": 9460,
  "compar": 9461,
  "Obje": 9462,
  "terrace</w>": 9463,
  "ungspolitik</w>": 9464,
  "generation</w>": 9465,
  "etings</w>": 9466,
  "Leute</w>": 9467,
  "Erstens</w>": 9468,
  "Verfassung</w>": 9469,
  "vermei": 9470,
  "installation</w>": 9471,
  "buch</w>": 9472,
  "fangre": 9473,
  "planning</w>": 9474,
  "van": 9475,
  "ator": 9476,
  "programm</w>": 9477,
  "nachten</w>": 9478,
  "fördert</w>": 9479,
  "Democ": 9480,
  "she": 9481,
  "Nord": 9482,
  "illeg": 9483,
  "sagt</w>": 9484,
  "destens</w>": 9485,
  "deine</w>": 9486,
  "Station</w>": 9487,
  "Verpflichtungen</w>": 9488,
  "EM": 9489,
  "vital</w>": 9490,
  "SS</w>": 9491,
  "ature</w>": 9492,
  "vorgeschlagen</w>": 9493,
  "Stim": 9494,
  "Regierungs": 9495,
  "kürz": 9496,
  "nä": 9497,
  "acious</w>": 9498,
  "Sing": 9499,
  "tourist</w>": 9500,
  "ren</w>": 9501,
  "temperat": 9502,
  "normal</w>": 9503,
  "stehende</w>": 9504,
  "bon": 9505,
  "Armut</w>": 9506,
  "currency</w>": 9507,
  "mini": 9508,
  "Überwach": 9509,
  "families</w>": 9510,
  "confidence</w>": 9511,
  "Tsch": 9512,
  "parte": 9513,
  "Agenda</w>": 9514,
  "thin</w>": 9515,
  "optimi": 9516,
  "public": 9517,
  "Falle</w>": 9518,
  "mär": 9519,
  "cohesion</w>": 9520,
  "Roma</w>": 9521,
  "Kunst</w>": 9522,
  "ang": 9523,
  "improved</w>": 9524,
  "freuen</w>": 9525,
  "delines</w>": 9526,
  "De</w>": 9527,
  "ri</w>": 9528,
  "collection</w>": 9529,
  "kü": 9530,
  "zing</w>": 9531,
  "Multi": 9532,
  "eindeutig</w>": 9533,
  "losoph": 9534,
  "screen</w>": 9535,
  "spann": 9536,
  "Rats": 9537,
  "34</w>": 9538,
  "practic": 9539,
  "structures</w>": 9540,
  "Immobili": 9541,
  "Grie": 9542,
  "correct</w>": 9543,
  "ologische</w>": 9544,
  "Elek": 9545,
  "militär": 9546,
  "heb": 9547,
  "controll": 9548,
  "photo</w>": 9549,
  "Milliarden</w>": 9550,
  "führten</w>": 9551,
  "lymp": 9552,
  "Costa</w>": 9553,
  "Spa": 9554,
  "administrative</w>": 9555,
  "Bec": 9556,
  "lic</w>": 9557,
  "Sant": 9558,
  "goal</w>": 9559,
  "students</w>": 9560,
  "Kriterien</w>": 9561,
  "fei": 9562,
  "größere</w>": 9563,
  "Sitzung</w>": 9564,
  "Partei</w>": 9565,
  "Code</w>": 9566,
  "entschie": 9567,
  "Zustimmung</w>": 9568,
  "Reak": 9569,
  "Anstrengungen</w>": 9570,
  "Invest": 9571,
  "reforms</w>": 9572,
  "kaum</w>": 9573,
  "lichung</w>": 9574,
  "benutzt</w>": 9575,
  "rats</w>": 9576,
  "structural</w>": 9577,
  "Bio": 9578,
  "west</w>": 9579,
  "feature</w>": 9580,
  "65</w>": 9581,
  "Karte</w>": 9582,
  "delivery</w>": 9583,
  "64</w>": 9584,
  "Nun</w>": 9585,
  "Hause</w>": 9586,
  "haft</w>": 9587,
  "white</w>": 9588,
  "Charak": 9589,
  "07</w>": 9590,
  "bul": 9591,
  "comments</w>": 9592,
  "excep": 9593,
  "ergän": 9594,
  "increasingly</w>": 9595,
  "musi": 9596,
  "Sign": 9597,
  "Film</w>": 9598,
  "stieg</w>": 9599,
  "whom</w>": 9600,
  "pping</w>": 9601,
  "conclusion</w>": 9602,
  "decide</w>": 9603,
  "engine": 9604,
  "intelli": 9605,
  "buted</w>": 9606,
  "competitive</w>": 9607,
  "nationale</w>": 9608,
  "Prozent</w>": 9609,
  "25": 9610,
  "circumstances</w>": 9611,
  "sachen</w>": 9612,
  "bum</w>": 9613,
  "protected</w>": 9614,
  "ücke</w>": 9615,
  "reduced</w>": 9616,
  "Anerkennung</w>": 9617,
  "zusätzliche</w>": 9618,
  "schaftliche</w>": 9619,
  "spricht</w>": 9620,
  "umfangre": 9621,
  "erland</w>": 9622,
  "contin": 9623,
  "Protokoll</w>": 9624,
  "critic": 9625,
  "automatically</w>": 9626,
  "Süd": 9627,
  "äden</w>": 9628,
  "Che": 9629,
  "genannt</w>": 9630,
  "gruppen</w>": 9631,
  "Idee</w>": 9632,
  "Nations</w>": 9633,
  "Funktionen</w>": 9634,
  "entspricht</w>": 9635,
  "unbedingt</w>": 9636,
  "1995</w>": 9637,
  "crime</w>": 9638,
  "reagi": 9639,
  "Vereinbarung</w>": 9640,
  "Gast": 9641,
  "teach": 9642,
  "laws</w>": 9643,
  "Tem": 9644,
  "Verwaltung</w>": 9645,
  "electronic</w>": 9646,
  "mentar": 9647,
  "pes</w>": 9648,
  "Terrorismus</w>": 9649,
  "tious</w>": 9650,
  "Binnenmarkt</w>": 9651,
  "36</w>": 9652,
  "zlich</w>": 9653,
  "gg": 9654,
  "else</w>": 9655,
  "Wahlen</w>": 9656,
  "Eff": 9657,
  "sources</w>": 9658,
  "voice</w>": 9659,
  "Erd": 9660,
  "Iraq</w>": 9661,
  "celeb": 9662,
  "2020</w>": 9663,
  "mitten</w>": 9664,
  "ico</w>": 9665,
  "began</w>": 9666,
  "defined</w>": 9667,
  "titude</w>": 9668,
  "Fuß": 9669,
  "decor": 9670,
  "Sommer</w>": 9671,
  "priorities</w>": 9672,
  "format</w>": 9673,
  "96</w>": 9674,
  "sofern</w>": 9675,
  "beginnen</w>": 9676,
  "vertre": 9677,
  "überzeugt</w>": 9678,
  "unemployment</w>": 9679,
  "Ty": 9680,
  "estic</w>": 9681,
  "schöne</w>": 9682,
  "supports</w>": 9683,
  "powerful</w>": 9684,
  "Palestini": 9685,
  "Ist</w>": 9686,
  "selbstverständlich</w>": 9687,
  "Mach": 9688,
  "gleiche</w>": 9689,
  "extensive</w>": 9690,
  "played</w>": 9691,
  "contribute</w>": 9692,
  "infrastructure</w>": 9693,
  "vac": 9694,
  "eries</w>": 9695,
  "flus": 9696,
  "founded</w>": 9697,
  "vorgelegt</w>": 9698,
  "speaking</w>": 9699,
  "anci": 9700,
  "Enga": 9701,
  "participation</w>": 9702,
  "erreich": 9703,
  "ensuring</w>": 9704,
  "isely</w>": 9705,
  "mindestens</w>": 9706,
  "stärker</w>": 9707,
  "Gipfel</w>": 9708,
  "worth</w>": 9709,
  "yal</w>": 9710,
  "getragen</w>": 9711,
  "introduced</w>": 9712,
  "ag</w>": 9713,
  "Hor": 9714,
  "tabled</w>": 9715,
  "ato</w>": 9716,
  "ported</w>": 9717,
  "pay": 9718,
  "cked</w>": 9719,
  "Identi": 9720,
  "emissions</w>": 9721,
  "Stellung": 9722,
  "http</w>": 9723,
  "functions</w>": 9724,
  "Volk</w>": 9725,
  "inger</w>": 9726,
  "ober": 9727,
  "plants</w>": 9728,
  "spie": 9729,
  "Ausschuß</w>": 9730,
  "kategorien</w>": 9731,
  "chern</w>": 9732,
  "lement</w>": 9733,
  "OR</w>": 9734,
  "perspec": 9735,
  "hund": 9736,
  "Inhalte</w>": 9737,
  "tzdem</w>": 9738,
  "there": 9739,
  "understanding</w>": 9740,
  "exist</w>": 9741,
  "victims</w>": 9742,
  "bü": 9743,
  "ries</w>": 9744,
  "specifically</w>": 9745,
  "unterschiedlichen</w>": 9746,
  "Swiss</w>": 9747,
  "ping</w>": 9748,
  "deliver": 9749,
  "enty</w>": 9750,
  "erwähnt</w>": 9751,
  "erlei</w>": 9752,
  "verabschie": 9753,
  "Medien</w>": 9754,
  "south</w>": 9755,
  "verlässi": 9756,
  "effectively</w>": 9757,
  "encourage</w>": 9758,
  "mens</w>": 9759,
  "Asia</w>": 9760,
  "trav": 9761,
  "regre": 9762,
  "SQL</w>": 9763,
  "beha": 9764,
  "pleasant</w>": 9765,
  "tter</w>": 9766,
  "record</w>": 9767,
  "schnitt</w>": 9768,
  "bequ": 9769,
  "Produkten</w>": 9770,
  "PL</w>": 9771,
  "financing</w>": 9772,
  "glauben</w>": 9773,
  "gerecht</w>": 9774,
  "Flor": 9775,
  "sper": 9776,
  "Reise": 9777,
  "gezeigt</w>": 9778,
  "gency</w>": 9779,
  "stattung</w>": 9780,
  "Durchführung</w>": 9781,
  "kts</w>": 9782,
  "track</w>": 9783,
  "Wäh": 9784,
  "Frankfurt</w>": 9785,
  "fellow</w>": 9786,
  "fizierung</w>": 9787,
  "Straße</w>": 9788,
  "India</w>": 9789,
  "Indeed</w>": 9790,
  "Bestand": 9791,
  "Osten</w>": 9792,
  "acces": 9793,
  "Haushalt</w>": 9794,
  "mas</w>": 9795,
  "techni": 9796,
  "stated</w>": 9797,
  "teleph": 9798,
  "berücksichtigen</w>": 9799,
  "gründet</w>": 9800,
  "Just</w>": 9801,
  "SE": 9802,
  "früh": 9803,
  "bab": 9804,
  "49</w>": 9805,
  "seiten</w>": 9806,
  "ritann": 9807,
  "ierten</w>": 9808,
  "aktuelle</w>": 9809,
  "Associ": 9810,
  "vorher": 9811,
  "symbo": 9812,
  "abkommen</w>": 9813,
  "Fla": 9814,
  "Wann</w>": 9815,
  "agriculture</w>": 9816,
  "manner</w>": 9817,
  "derzei": 9818,
  "furnis": 9819,
  "liefert</w>": 9820,
  "alisten</w>": 9821,
  "Mitteilung</w>": 9822,
  "paper</w>": 9823,
  "mehreren</w>": 9824,
  "purposes</w>": 9825,
  "EG</w>": 9826,
  "Mel": 9827,
  "erkannt</w>": 9828,
  "positions</w>": 9829,
  "hilfe</w>": 9830,
  "wesentlich</w>": 9831,
  "nachdem</w>": 9832,
  "sively</w>": 9833,
  "hochwer": 9834,
  "Nutzen</w>": 9835,
  "sichten</w>": 9836,
  "emo": 9837,
  "Formu": 9838,
  "hinweisen</w>": 9839,
  "dringend</w>": 9840,
  "entry</w>": 9841,
  "Agreement</w>": 9842,
  "37</w>": 9843,
  "larger</w>": 9844,
  "managed</w>": 9845,
  "War</w>": 9846,
  "asks</w>": 9847,
  "opened</w>": 9848,
  "Each</w>": 9849,
  "entsprechende</w>": 9850,
  "Vorteile</w>": 9851,
  "John</w>": 9852,
  "glie": 9853,
  "Bemerk": 9854,
  "parag": 9855,
  "partment</w>": 9856,
  "heal": 9857,
  "wonderful</w>": 9858,
  "endes</w>": 9859,
  "alism</w>": 9860,
  "Sektor</w>": 9861,
  "referred</w>": 9862,
  "later": 9863,
  "detailed</w>": 9864,
  "animals</w>": 9865,
  "aded</w>": 9866,
  "recht": 9867,
  "Vari": 9868,
  "Fore": 9869,
  "hot</w>": 9870,
  "xes</w>": 9871,
  "vent</w>": 9872,
  "sit</w>": 9873,
  "member": 9874,
  "Stabilität</w>": 9875,
  "verfügbar</w>": 9876,
  "SM": 9877,
  "rechten</w>": 9878,
  "kungen</w>": 9879,
  "Besuch</w>": 9880,
  "Spa</w>": 9881,
  "listed</w>": 9882,
  "Social</w>": 9883,
  "aimed</w>": 9884,
  "marketing</w>": 9885,
  "Mol": 9886,
  "gain</w>": 9887,
  "discuss</w>": 9888,
  "Technologien</w>": 9889,
  "Green</w>": 9890,
  "Olymp": 9891,
  "linked</w>": 9892,
  "Christian</w>": 9893,
  "amb": 9894,
  "spiele</w>": 9895,
  "globalen</w>": 9896,
  "42</w>": 9897,
  "gert</w>": 9898,
  "dedic": 9899,
  "artige</w>": 9900,
  "regular</w>": 9901,
  "Rel": 9902,
  "pre</w>": 9903,
  "stechn": 9904,
  "Reformen</w>": 9905,
  "deter": 9906,
  "erfahren</w>": 9907,
  "bilater": 9908,
  "immern</w>": 9909,
  "limit</w>": 9910,
  "partnership</w>": 9911,
  "acci": 9912,
  "Funktion": 9913,
  "lio</w>": 9914,
  "arge</w>": 9915,
  "rent</w>": 9916,
  "rural</w>": 9917,
  "hoffen</w>": 9918,
  "euch</w>": 9919,
  "Forschungs": 9920,
  "beds</w>": 9921,
  "passen</w>": 9922,
  "stent</w>": 9923,
  "technische</w>": 9924,
  "klicken</w>": 9925,
  "ny</w>": 9926,
  "lash</w>": 9927,
  "Homepage</w>": 9928,
  "Augen</w>": 9929,
  "atively</w>": 9930,
  "Policy</w>": 9931,
  "exactly</w>": 9932,
  "sli": 9933,
  "Über</w>": 9934,
  "camera</w>": 9935,
  "besonderen</w>": 9936,
  "existi": 9937,
  "zentrum</w>": 9938,
  "transparent</w>": 9939,
  "Cze": 9940,
  "nehmer</w>": 9941,
  "troll": 9942,
  "wrong</w>": 9943,
  "Nahr": 9944,
  "stärk": 9945,
  "Fr": 9946,
  "02</w>": 9947,
  "Mio</w>": 9948,
  "Board</w>": 9949,
  "entwicklung</w>": 9950,
  "05</w>": 9951,
  "adequate</w>": 9952,
  "Sea</w>": 9953,
  "February</w>": 9954,
  "Dig": 9955,
  "Plan</w>": 9956,
  "assessment</w>": 9957,
  "kop": 9958,
  "bestimmt</w>": 9959,
  "otherwise</w>": 9960,
  "becoming</w>": 9961,
  "Kredit": 9962,
  "attle</w>": 9963,
  "risks</w>": 9964,
  "landscap": 9965,
  "precisely</w>": 9966,
  "sy</w>": 9967,
  "went</w>": 9968,
  "Schwe": 9969,
  "Sup": 9970,
  "discussed</w>": 9971,
  "ial</w>": 9972,
  "zeichen</w>": 9973,
  "Brus": 9974,
  "Sport</w>": 9975,
  "bestehenden</w>": 9976,
  "39</w>": 9977,
  "akzeptieren</w>": 9978,
  "rejec": 9979,
  "gor": 9980,
  "sicherzustellen</w>": 9981,
  "kommenden</w>": 9982,
  "ye</w>": 9983,
  "luxuri": 9984,
  "represents</w>": 9985,
  "Dollar</w>": 9986,
  "stro": 9987,
  "sized</w>": 9988,
  "police</w>": 9989,
  "satisfac": 9990,
  "Switz": 9991,
  "dware</w>": 9992,
  "umfangreich": 9993,
  "III</w>": 9994,
  "budgetary</w>": 9995,
  "client</w>": 9996,
  "hren</w>": 9997,
  "Kontakt</w>": 9998,
  "selected</w>": 9999,
  "tend</w>": 10000,
  "operations</w>": 10001,
  "metres</w>": 10002,
  "benutzen</w>": 10003,
  "wants</w>": 10004,
  "sidiar": 10005,
  "programs</w>": 10006,
  "Pun": 10007,
  "m²</w>": 10008,
  "chmal</w>": 10009,
  "weap": 10010,
  "Human</w>": 10011,
  "siehe</w>": 10012,
  "won</w>": 10013,
  "developments</w>": 10014,
  "Proc": 10015,
  "measure</w>": 10016,
  "aktiv</w>": 10017,
  "getroffen</w>": 10018,
  "shof</w>": 10019,
  "tages</w>": 10020,
  "discussions</w>": 10021,
  "introduction</w>": 10022,
  "werke</w>": 10023,
  "jene</w>": 10024,
  "din": 10025,
  "wagen</w>": 10026,
  "Familien</w>": 10027,
  "danger": 10028,
  "Zy": 10029,
  "ingdom</w>": 10030,
  "anische</w>": 10031,
  "Then</w>": 10032,
  "Versch": 10033,
  "Garanti": 10034,
  "suite</w>": 10035,
  "Why</w>": 10036,
  "verlei": 10037,
  "chter": 10038,
  "ph</w>": 10039,
  "Liz": 10040,
  "votes</w>": 10041,
  "Austra": 10042,
  "Schließlich</w>": 10043,
  "erzielt</w>": 10044,
  "erti": 10045,
  "Akti": 10046,
  "Suche</w>": 10047,
  "eb</w>": 10048,
  "Anwendungen</w>": 10049,
  "gelöst</w>": 10050,
  "Cat": 10051,
  "Kriti": 10052,
  "domin": 10053,
  "Zudem</w>": 10054,
  "möglicherweise</w>": 10055,
  "clean": 10056,
  "Zunächst</w>": 10057,
  "fresh</w>": 10058,
  "enterprises</w>": 10059,
  "itation</w>": 10060,
  "läuft</w>": 10061,
  "openha": 10062,
  "inside</w>": 10063,
  "alter</w>": 10064,
  "fühl</w>": 10065,
  "medical</w>": 10066,
  "Rese": 10067,
  "Haltung</w>": 10068,
  "kitchen</w>": 10069,
  "thousands</w>": 10070,
  "möglichen</w>": 10071,
  "Open</w>": 10072,
  "Sun": 10073,
  "notwendigen</w>": 10074,
  "Pr": 10075,
  "isine</w>": 10076,
  "istics</w>": 10077,
  "buy</w>": 10078,
  "Einrichtungen</w>": 10079,
  "SI": 10080,
  "tele": 10081,
  "refu": 10082,
  "Chance</w>": 10083,
  "graphic</w>": 10084,
  "Switzerland</w>": 10085,
  "respond</w>": 10086,
  "houses</w>": 10087,
  "Minister": 10088,
  "chron": 10089,
  "dienst": 10090,
  "Auto</w>": 10091,
  "Vertrags</w>": 10092,
  "Best</w>": 10093,
  "Apartments</w>": 10094,
  "Tau": 10095,
  "dum</w>": 10096,
  "Inn": 10097,
  "stered</w>": 10098,
  "omet": 10099,
  "dia</w>": 10100,
  "zuletzt</w>": 10101,
  "Mini": 10102,
  "finanziellen</w>": 10103,
  "gebenen</w>": 10104,
  "psy": 10105,
  "ik": 10106,
  "Zeichen</w>": 10107,
  "wegung</w>": 10108,
  "geändert</w>": 10109,
  "Emis": 10110,
  "Turk": 10111,
  "44</w>": 10112,
  "IV</w>": 10113,
  "playing</w>": 10114,
  "Wettbewerbsfähigkeit</w>": 10115,
  "Flexi": 10116,
  "tured</w>": 10117,
  "guidelines</w>": 10118,
  "sur</w>": 10119,
  "warten</w>": 10120,
  "erfüllt</w>": 10121,
  "exclusive</w>": 10122,
  "buildings</w>": 10123,
  "facilit": 10124,
  "wah": 10125,
  "surance</w>": 10126,
  "Transport</w>": 10127,
  "winter</w>": 10128,
  "earlier</w>": 10129,
  "represent</w>": 10130,
  "Belar": 10131,
  "assungs": 10132,
  "Middle</w>": 10133,
  "enswür": 10134,
  "cians</w>": 10135,
  "followed</w>": 10136,
  "CO2</w>": 10137,
  "festgelegt</w>": 10138,
  "Jahres": 10139,
  "liefer": 10140,
  "umgesetzt</w>": 10141,
  "broad</w>": 10142,
  "stimme</w>": 10143,
  "03</w>": 10144,
  "eng</w>": 10145,
  "anderes</w>": 10146,
  "nütz": 10147,
  "weite</w>": 10148,
  "verbun": 10149,
  "Lat": 10150,
  "hood</w>": 10151,
  "passi": 10152,
  "gelegten</w>": 10153,
  "gewal": 10154,
  "National": 10155,
  "schreiben</w>": 10156,
  "spacious</w>": 10157,
  "kri": 10158,
  "geber</w>": 10159,
  "cement</w>": 10160,
  "closely</w>": 10161,
  "spend</w>": 10162,
  "aufs": 10163,
  "atur</w>": 10164,
  "Standards</w>": 10165,
  "bedarf</w>": 10166,
  "connected</w>": 10167,
  "convinc": 10168,
  "enna</w>": 10169,
  "coffe": 10170,
  "breiten</w>": 10171,
  "Vier": 10172,
  "She</w>": 10173,
  "ado</w>": 10174,
  "Zimmer": 10175,
  "aming</w>": 10176,
  "Unterkategorien</w>": 10177,
  "gemü": 10178,
  "ype</w>": 10179,
  "ergreifen</w>": 10180,
  "spoliti": 10181,
  "discrimination</w>": 10182,
  "utions</w>": 10183,
  "tourism</w>": 10184,
  "gradu": 10185,
  "Ausbildung</w>": 10186,
  "Break": 10187,
  "core</w>": 10188,
  "income</w>": 10189,
  "Economic</w>": 10190,
  "Vir": 10191,
  "Monate</w>": 10192,
  "stock</w>": 10193,
  "Est": 10194,
  "Stand</w>": 10195,
  "Anspruch</w>": 10196,
  "networks</w>": 10197,
  "bereitet</w>": 10198,
  "supporting</w>": 10199,
  "weit": 10200,
  "compens": 10201,
  "Lag": 10202,
  "shower</w>": 10203,
  "degree</w>": 10204,
  "elegant</w>": 10205,
  "Meter</w>": 10206,
  "strengthen</w>": 10207,
  "popul": 10208,
  "season</w>": 10209,
  "facing</w>": 10210,
  "quanti": 10211,
  "voller</w>": 10212,
  "britann": 10213,
  "PT</w>": 10214,
  "science</w>": 10215,
  "God</w>": 10216,
  "eingerichtet</w>": 10217,
  "fun</w>": 10218,
  "enster</w>": 10219,
  "immigration</w>": 10220,
  "gesund": 10221,
  "Voll": 10222,
  "istische</w>": 10223,
  "stausch</w>": 10224,
  "tot": 10225,
  "improving</w>": 10226,
  "him": 10227,
  "gungen</w>": 10228,
  "fand</w>": 10229,
  "mischen</w>": 10230,
  "haften</w>": 10231,
  "Bru": 10232,
  "spit": 10233,
  "Mut": 10234,
  "06</w>": 10235,
  "path</w>": 10236,
  "sum</w>": 10237,
  "bezo": 10238,
  "Czech</w>": 10239,
  "select</w>": 10240,
  "Barro": 10241,
  "roman": 10242,
  "vieren</w>": 10243,
  "maß": 10244,
  "auer</w>": 10245,
  "berich": 10246,
  "Greece</w>": 10247,
  "Name</w>": 10248,
  "vermeiden</w>": 10249,
  "telephone</w>": 10250,
  "tspolitik</w>": 10251,
  "Kindern</w>": 10252,
  "remember</w>": 10253,
  "save</w>": 10254,
  "38</w>": 10255,
  "greif": 10256,
  "listen</w>": 10257,
  "worten</w>": 10258,
  "lichem</w>": 10259,
  "duty</w>": 10260,
  "aces</w>": 10261,
  "Vielfalt</w>": 10262,
  "anding</w>": 10263,
  "chine": 10264,
  "rah": 10265,
  "ffer</w>": 10266,
  "obach": 10267,
  "außer</w>": 10268,
  "emin": 10269,
  "jederzeit</w>": 10270,
  "booking</w>": 10271,
  "considerable</w>": 10272,
  "Krieg": 10273,
  "happen</w>": 10274,
  "Test": 10275,
  "ums": 10276,
  "Research</w>": 10277,
  "Moder": 10278,
  "eten</w>": 10279,
  "lichst</w>": 10280,
  "Vorberei": 10281,
  "Tier": 10282,
  "kraft": 10283,
  "ay": 10284,
  "zy": 10285,
  "Georgi": 10286,
  "Golf</w>": 10287,
  "Air</w>": 10288,
  "pen</w>": 10289,
  "richtet</w>": 10290,
  "owned</w>": 10291,
  "welcher</w>": 10292,
  "wand</w>": 10293,
  "adju": 10294,
  "Spit": 10295,
  "ead</w>": 10296,
  "speech</w>": 10297,
  "pris": 10298,
  "hear</w>": 10299,
  "purchase</w>": 10300,
  "geeignet</w>": 10301,
  "His</w>": 10302,
  "Konzept</w>": 10303,
  "darunter</w>": 10304,
  "Atlan": 10305,
  "Stimme</w>": 10306,
  "Schweiz</w>": 10307,
  "freiheit</w>": 10308,
  "tled</w>": 10309,
  "typical</w>": 10310,
  "grade</w>": 10311,
  "mac": 10312,
  "stärken</w>": 10313,
  "Irak</w>": 10314,
  "55</w>": 10315,
  "luß</w>": 10316,
  "Cle": 10317,
  "tief": 10318,
  "deck": 10319,
  "expl": 10320,
  "jeweils</w>": 10321,
  "eingeschrän": 10322,
  "gang": 10323,
  "oriz": 10324,
  "destro": 10325,
  "Klein": 10326,
  "verfolgen</w>": 10327,
  "spirit</w>": 10328,
  "sicherlich</w>": 10329,
  "mani": 10330,
  "ehrte</w>": 10331,
  "drawn</w>": 10332,
  "pap": 10333,
  "Pic": 10334,
  "utili": 10335,
  "digit": 10336,
  "wall</w>": 10337,
  "entweder</w>": 10338,
  "gangs": 10339,
  "prior</w>": 10340,
  "provision</w>": 10341,
  "lian</w>": 10342,
  "dé": 10343,
  "presence</w>": 10344,
  "Innovation</w>": 10345,
  "diversity</w>": 10346,
  "thinking</w>": 10347,
  "kam": 10348,
  "debt</w>": 10349,
  "2011</w>": 10350,
  "Einfluss</w>": 10351,
  "gave</w>": 10352,
  "windi": 10353,
  "Tätigkeit</w>": 10354,
  "Nah": 10355,
  "Sci": 10356,
  "Frem": 10357,
  "Download</w>": 10358,
  "nü": 10359,
  "Frieden": 10360,
  "billi": 10361,
  "Wege</w>": 10362,
  "Most</w>": 10363,
  "Kenntnis</w>": 10364,
  "sicht": 10365,
  "Webseite</w>": 10366,
  "tainment</w>": 10367,
  "components</w>": 10368,
  "entschieden</w>": 10369,
  "bahn</w>": 10370,
  "dorf</w>": 10371,
  "mechanis": 10372,
  "reception</w>": 10373,
  "gewün": 10374,
  "AB": 10375,
  "bodies</w>": 10376,
  "Menge</w>": 10377,
  "Betriebs": 10378,
  "enheit</w>": 10379,
  "Leistungen</w>": 10380,
  "rufen</w>": 10381,
  "cuisine</w>": 10382,
  "teilweise</w>": 10383,
  "Sprachen</w>": 10384,
  "experts</w>": 10385,
  "schlä": 10386,
  "staatlichen</w>": 10387,
  "Ever": 10388,
  "Mitte</w>": 10389,
  "IR": 10390,
  "veran": 10391,
  "Garten</w>": 10392,
  "OT": 10393,
  "gelangen</w>": 10394,
  "schlagen</w>": 10395,
  "Geld": 10396,
  "tinu": 10397,
  "animal</w>": 10398,
  "saw</w>": 10399,
  "properly</w>": 10400,
  "Street</w>": 10401,
  "ADS</w>": 10402,
  "break</w>": 10403,
  "Mess": 10404,
  "character</w>": 10405,
  "Februar</w>": 10406,
  "Großbritann": 10407,
  "uten</w>": 10408,
  "anspru": 10409,
  "Produc": 10410,
  "bet</w>": 10411,
  "dish</w>": 10412,
  "matic</w>": 10413,
  "IA</w>": 10414,
  "tivity</w>": 10415,
  "element</w>": 10416,
  "items</w>": 10417,
  "Environ": 10418,
  "besuchen</w>": 10419,
  "wollte</w>": 10420,
  "Abschluss</w>": 10421,
  "angezeigt</w>": 10422,
  "ordinary</w>": 10423,
  "erzielen</w>": 10424,
  "Salz": 10425,
  "Modell</w>": 10426,
  "Instrumente</w>": 10427,
  "spielt</w>": 10428,
  "refer</w>": 10429,
  "ull</w>": 10430,
  "stischen</w>": 10431,
  "Forderung</w>": 10432,
  "Griechen": 10433,
  "ommen": 10434,
  "Ul": 10435,
  "ame": 10436,
  "änden</w>": 10437,
  "fisheries</w>": 10438,
  "coordination</w>": 10439,
  "Verb": 10440,
  "ald</w>": 10441,
  "Arbeiten</w>": 10442,
  "Design": 10443,
  "Vereinten</w>": 10444,
  "phra": 10445,
  "Europe": 10446,
  "zustimmen</w>": 10447,
  "perfec": 10448,
  "Brussels</w>": 10449,
  "konferenz</w>": 10450,
  "leng": 10451,
  "verbessert</w>": 10452,
  "generally</w>": 10453,
  "rement</w>": 10454,
  "Installation</w>": 10455,
  "Poland</w>": 10456,
  "ony</w>": 10457,
  "klare</w>": 10458,
  "coffee</w>": 10459,
  "tter": 10460,
  "entirely</w>": 10461,
  "Forum</w>": 10462,
  "tradition</w>": 10463,
  "Moun": 10464,
  "competitiveness</w>": 10465,
  "zweifel": 10466,
  "Sitz": 10467,
  "Allgem": 10468,
  "Sau": 10469,
  "agno": 10470,
  "Berichte</w>": 10471,
  "erleben</w>": 10472,
  "Rezep": 10473,
  "übernachten</w>": 10474,
  "plätze</w>": 10475,
  "brand</w>": 10476,
  "erhöhen</w>": 10477,
  "schli": 10478,
  "vorgesehen</w>": 10479,
  "authority</w>": 10480,
  "tlinie</w>": 10481,
  "41</w>": 10482,
  "Abschließend</w>": 10483,
  "Initiativen</w>": 10484,
  "unbe": 10485,
  "trust</w>": 10486,
  "average</w>": 10487,
  "schä": 10488,
  "jud": 10489,
  "presidency</w>": 10490,
  "funktioniert</w>": 10491,
  "ausdrücklich</w>": 10492,
  "Verwaltungs": 10493,
  "überschreit": 10494,
  "tially</w>": 10495,
  "dealing</w>": 10496,
  "down": 10497,
  "ades</w>": 10498,
  "suggest</w>": 10499,
  "fach</w>": 10500,
  "ael</w>": 10501,
  "wären</w>": 10502,
  "tigkeiten</w>": 10503,
  "appar": 10504,
  "actual</w>": 10505,
  "Grenz": 10506,
  "zählen</w>": 10507,
  "aufmerk": 10508,
  "Regelung</w>": 10509,
  "rete</w>": 10510,
  "stored</w>": 10511,
  "relate</w>": 10512,
  "xe</w>": 10513,
  "elimin": 10514,
  "stit": 10515,
  "Plen": 10516,
  "display</w>": 10517,
  "ISO</w>": 10518,
  "Fit": 10519,
  "hafte</w>": 10520,
  "after": 10521,
  "difficulties</w>": 10522,
  "ied</w>": 10523,
  "reasonable</w>": 10524,
  "Vorsitz": 10525,
  "Mitgliedstaat</w>": 10526,
  "difference</w>": 10527,
  "Because</w>": 10528,
  "summit</w>": 10529,
  "43</w>": 10530,
  "jet": 10531,
  "informed</w>": 10532,
  "sand": 10533,
  "ari</w>": 10534,
  "recor": 10535,
  "richtigen</w>": 10536,
  "pper</w>": 10537,
  "leistung</w>": 10538,
  "Verbin": 10539,
  "parliamentary</w>": 10540,
  "riesi": 10541,
  "altung</w>": 10542,
  "flexibility</w>": 10543,
  "told</w>": 10544,
  "raph</w>": 10545,
  "ington</w>": 10546,
  "Schlaf": 10547,
  "ness": 10548,
  "enhan": 10549,
  "betonen</w>": 10550,
  "NE": 10551,
  "tise</w>": 10552,
  "Schön": 10553,
  "meetings</w>": 10554,
  "Ins": 10555,
  "Refer": 10556,
  "600</w>": 10557,
  "ells</w>": 10558,
  "condition</w>": 10559,
  "speziell</w>": 10560,
  "modern": 10561,
  "tto</w>": 10562,
  "machines</w>": 10563,
  "abilities</w>": 10564,
  "habit": 10565,
  "ktieren</w>": 10566,
  "seem</w>": 10567,
  "Click</w>": 10568,
  "liter": 10569,
  "Abgeordnete</w>": 10570,
  "Dienste</w>": 10571,
  "Jetzt</w>": 10572,
  "Unabhängi": 10573,
  "gehalten</w>": 10574,
  "fixed</w>": 10575,
  "Num": 10576,
  "conten": 10577,
  "verring": 10578,
  "beschlossen</w>": 10579,
  "Veränderungen</w>": 10580,
  "vehicles</w>": 10581,
  "Mechan": 10582,
  "schrän": 10583,
  "informieren</w>": 10584,
  "iling</w>": 10585,
  "consideration</w>": 10586,
  "won": 10587,
  "judi": 10588,
  "Sach": 10589,
  "essor</w>": 10590,
  "grammen</w>": 10591,
  "mel</w>": 10592,
  "Asy": 10593,
  "Pass": 10594,
  "origin</w>": 10595,
  "wom": 10596,
  "natur": 10597,
  "IB": 10598,
  "ude</w>": 10599,
  "erstellt</w>": 10600,
  "hands</w>": 10601,
  "reise</w>": 10602,
  "orial</w>": 10603,
  "toler": 10604,
  "Besucher</w>": 10605,
  "counter": 10606,
  "möglichst</w>": 10607,
  "district</w>": 10608,
  "ances</w>": 10609,
  "flow</w>": 10610,
  "righ": 10611,
  "endor": 10612,
  "Ski": 10613,
  "Shi": 10614,
  "eling</w>": 10615,
  "Teile</w>": 10616,
  "print</w>": 10617,
  "Gri": 10618,
  "fire</w>": 10619,
  "Gran": 10620,
  "Unfortunately</w>": 10621,
  "politics</w>": 10622,
  "EADS</w>": 10623,
  "Kil": 10624,
  "ökonom": 10625,
  "Status</w>": 10626,
  "Zeiten</w>": 10627,
  "Leider</w>": 10628,
  "NG": 10629,
  "Great</w>": 10630,
  "Familien": 10631,
  "fly</w>": 10632,
  "formed</w>": 10633,
  "appears</w>": 10634,
  "Kno": 10635,
  "atin</w>": 10636,
  "Engagement</w>": 10637,
  "Strategi": 10638,
  "Jugend": 10639,
  "Ausgaben</w>": 10640,
  "offici": 10641,
  "numbers</w>": 10642,
  "lokalen</w>": 10643,
  "peaceful</w>": 10644,
  "gefordert</w>": 10645,
  "compati": 10646,
  "Währung</w>": 10647,
  "Casino</w>": 10648,
  "applies</w>": 10649,
  "fa</w>": 10650,
  "flation</w>": 10651,
  "Fonds</w>": 10652,
  "vul": 10653,
  "Warum</w>": 10654,
  "Rou": 10655,
  "kulturellen</w>": 10656,
  "cards</w>": 10657,
  "establishment</w>": 10658,
  "permanent</w>": 10659,
  "800</w>": 10660,
  "gie": 10661,
  "Vergleich</w>": 10662,
  "Komfort</w>": 10663,
  "atta": 10664,
  "weak": 10665,
  "Angaben</w>": 10666,
  "Einwander": 10667,
  "ints</w>": 10668,
  "schw": 10669,
  "becomes</w>": 10670,
  "digkeiten</w>": 10671,
  "arby</w>": 10672,
  "week": 10673,
  "genü": 10674,
  "47</w>": 10675,
  "oo</w>": 10676,
  "tlinien</w>": 10677,
  "Harmon": 10678,
  "dank</w>": 10679,
  "host</w>": 10680,
  "lisch</w>": 10681,
  "täglich</w>": 10682,
  "simpli": 10683,
  "Prop": 10684,
  "combat</w>": 10685,
  "rac": 10686,
  "klar": 10687,
  "vorhanden</w>": 10688,
  "proto": 10689,
  "bilität</w>": 10690,
  "experienced</w>": 10691,
  "Zeitraum</w>": 10692,
  "resort</w>": 10693,
  "3D</w>": 10694,
  "Gebieten</w>": 10695,
  "geräum": 10696,
  "estate</w>": 10697,
  "practices</w>": 10698,
  "Hier": 10699,
  "auff": 10700,
  "Once</w>": 10701,
  "picture</w>": 10702,
  "konkrete</w>": 10703,
  "Vie": 10704,
  "hne</w>": 10705,
  "dagegen</w>": 10706,
  "Qualitäts": 10707,
  "openhagen</w>": 10708,
  "Vielen</w>": 10709,
  "Madrid</w>": 10710,
  "Origin": 10711,
  "durchaus</w>": 10712,
  "club</w>": 10713,
  "Ratsvor": 10714,
  "wenigen</w>": 10715,
  "duce</w>": 10716,
  "Ker": 10717,
  "prüfung</w>": 10718,
  "sthaf": 10719,
  "erleich": 10720,
  "Stil</w>": 10721,
  "database</w>": 10722,
  "wait</w>": 10723,
  "LAN</w>": 10724,
  "auftra": 10725,
  "Log": 10726,
  "adul": 10727,
  "Breakfast</w>": 10728,
  "Kirche</w>": 10729,
  "attempt</w>": 10730,
  "cy": 10731,
  "zeugen</w>": 10732,
  "Script</w>": 10733,
  "Tour</w>": 10734,
  "ffs</w>": 10735,
  "embly</w>": 10736,
  "Post": 10737,
  "advanced</w>": 10738,
  "DP</w>": 10739,
  "mögliche</w>": 10740,
  "domestic</w>": 10741,
  "Hauses</w>": 10742,
  "versal</w>": 10743,
  "secre": 10744,
  "auft</w>": 10745,
  "atischen</w>": 10746,
  "gewinnen</w>": 10747,
  "zentrale</w>": 10748,
  "himself</w>": 10749,
  "asses</w>": 10750,
  "stabili": 10751,
  "weight</w>": 10752,
  "Österreich</w>": 10753,
  "PC": 10754,
  "öst": 10755,
  "endet</w>": 10756,
  "ferred</w>": 10757,
  "aims</w>": 10758,
  "Sur": 10759,
  "welt</w>": 10760,
  "ünen</w>": 10761,
  "gewährleistet</w>": 10762,
  "Analyse</w>": 10763,
[...]
