#version: 0.2 - Trained by `huggingface/tokenizers`
e s</w>
t i
e n
a n
o n
i n
t h
o n</w>
e r
d e</w>
r e
o u
a ti
o r
th e</w>
a r
i s
i t
p r
l e</w>
en t</w>
t r
q u
e m
o f</w>
o m
e r</w>
e t</w>
e s
a l
l a</w>
ati on</w>
i c
u r
an d</w>
e d</w>
l es</w>
a t
a i
a l</w>
d es</w>
a c
c on
s i
e c
e l
t o</w>
s u
pr o
on s</w>
t s</w>
e n</w>
a u
l i
i n</w>
u n
ti on</w>
in g</w>
d i
c e</w>
r e</w>
p l
o r</w>
i s</w>
c om
i l
qu e</w>
a s
a p
c i
c h
em ent</w>
a b
o p
d u</w>
a t</w>
a g
o l
a m
a s</w>
a v
e x
a d
en t
p ar
s t
r é
d é
e u
an t</w>
a n</w>
r o
t er
r i
p o
ou r</w>
p or
f f
an s</w>
t e</w>
re s
m e</w>
0 0
v i
ati ons</w>
f or
m ent</w>
g r
a r</w>
e v
a u</w>
tr e</w>
f or</w>
2 00
u l
i m
T h
s e</w>
ou r
e t
d u
v er
au x</w>
u n</w>
é s</w>
en ts</w>
p er
un e</w>
a in
é t
p our</w>
n o
v e</w>
d ans</w>
on t</w>
es t</w>
on n
th at</w>
i t</w>
it é</w>
c l
r es</w>
u s
e ur
c es</w>
su r</w>
é r
ti n
o c
ti ons</w>
l y</w>
si on</w>
Th e</w>
en d
g i
f i
com m
for m
ou s</w>
ati on
s er
n i
s e
m in
C om
it y</w>
em b
p ar</w>
n e</w>
eu r</w>
w h
an ce</w>
pr é
en ce</w>
é e</w>
m o
i r</w>
qu i</w>
at e</w>
p u
i g
ur e</w>
u s</w>
er s</w>
C an
it h</w>
b e</w>
re c
it s</w>
ou n
o u</w>
s o
b y</w>
t u
in ter
d is
o b
ai t</w>
u m
w ith</w>
e l</w>
n ation
i l</w>
é es</w>
ti c
ai re</w>
s tr
ar e</w>
b u
C on
m is
c o
eur s</w>
t en
s h
1 9
s p
qu es</w>
a le</w>
I n
por t
l o
ac c
ab le</w>
m es</w>
ag e</w>
d e
po s
is t
ser v
por t</w>
l e
du c
ad a</w>
v en
m a
d s</w>
b e
tr i
Can ada</w>
an g
i v
ti es</w>
a y
is i
es s
f in
t es</w>
é g
tin g</w>
el op
ou v
c er
ic e</w>
q u</w>
el le</w>
é n
t ed</w>
e ff
re l
m an
t h</w>
l is
l d</w>
com p
th e
ar i
g an
è re</w>
d ev
an ts</w>
er e</w>
m e
L e</w>
t e
th er</w>
é ri
a di
ic ation</w>
r ap
or d
en ti
t er</w>
s ti
ai res</w>
é l
nation al</w>
ver n
al l</w>
n e
pu b
as s
ro m</w>
é c
ac ti
at ed</w>
c h</w>
pl us</w>
u e</w>
em ents</w>
p re
d er
ci p
ét é</w>
w or
ou t</w>
f rom</w>
gr am
it e</w>
ar y</w>
t at
s ont</w>
t ec
b i
d o
so ci
r a
p on
ou ld</w>
s ec
v o
m on
form ation</w>
s s
ic es</w>
ic i
es s</w>
no t</w>
p as</w>
t o
t é</w>
per s
19 9
s es</w>
ec ti
L es</w>
an s
m ar
s t</w>
an d
e p
par ti
av e</w>
ur es</w>
pro c
P ro
it és</w>
cl u
pl o
or gan
w as</w>
è s</w>
th is</w>
m i
il l</w>
s y
e c</w>
v es</w>
su l
p res
ic h</w>
g h
p e
pré s
mis sion</w>
f r
tr es</w>
an n
R e
qu i
pub li
f ac
wh ich</w>
al es</w>
av ec</w>
d ing</w>
L a</w>
a k
h ave</w>
il l
C h
c ri
sti tu
a y</w>
pro gram
g o
d er</w>
in e</w>
v al
w ill</w>
ol l
ai s</w>
el les</w>
comm un
e ar
r ou
as e</w>
av ai
eu x</w>
po si
tr ans
si b
ê tre</w>
in t
ay s</w>
d ro
ai n</w>
v is
ar d</w>
l ement</w>
or i
su b
en c
is s
d em
a f
on e</w>
s o</w>
et te</w>
P ar
ati ve</w>
o ff
en s</w>
pr i
el s</w>
or e</w>
re r</w>
i r
h as</w>
a d</w>
ol u
U n
g u
ec t</w>
su p
Com m
u c
an c
i d
r en
f on
al l
s i</w>
g e</w>
sy st
re g
con om
in formation</w>
t ure</w>
isi on</w>
pro v
vi r
prés ent
qu es
on al</w>
en tre</w>
ol o
t or
con cer
i e</w>
u ti
the ir</w>
Com mission</w>
si d
v e
pro j
m ents</w>
0 0</w>
s ou
tri bu
tr o
i z
U ni
pers onn
è me</w>
im port
p h
serv ices</w>
A c
m emb
par t
c re
is e</w>
tr a
I n</w>
w e
en er
it ed</w>
in v
p eu
ac e</w>
r u
di ff
res pon
f o
N ations</w>
g én
ec i
o ther</w>
f er
S ec
al ly</w>
en s
un i
j u
our s</w>
em plo
is ation</w>
is tr
in g
re d</w>
in clu
tat s</w>
d es
E ur
c oun
em ent
i c</w>
ap pl
in s</w>
m ent
s on</w>
1 0</w>
tic le</w>
b o
d ic
ai ent</w>
es ti
ap p
ven tion</w>
dev elop
u ation</w>
pro vi
di rec
l eur</w>
au tres</w>
ab il
p e</w>
c an
ac h
m il
t ain
g n
gén ér
a ff
Eur op
t ou
pro duc
f l
con tr
si ons</w>
p ays</w>
n on</w>
al so</w>
c u
v elop
r it
tec h
con s
ig n
l a
en ces</w>
po li
f u
ci al</w>
o ir</w>
be en</w>
ch e</w>
velop p
dé c
ch ang
our ces</w>
f s</w>
d ed</w>
gr ou
res s
par tic
ou vern
ex am
tr avai
o w
A r
ap pro
è res</w>
en g
s it
I l</w>
wor k</w>
o d</w>
inter national</w>
in t</w>
m et
em p
c or
m é
c ap
w ere</w>
dé velopp
or s</w>
parti cip
acti v
es t
e w</w>
d onn
c ette</w>
f ication</w>
b l
al ement</w>
k ing</w>
h um
i re</w>
E n
olu tion</w>
publi c</w>
in i
an de</w>
u m</w>
d oc
Can adi
h e
t y</w>
A l
S u
c ul
com pl
el y</w>
en vir
concer n
e ts</w>
es e</w>
op er
in cip
c ar
l eurs</w>
d ec
re t
ob j
en ne</w>
m at
con tin
n om
s ur
a m</w>
ig h
w i
el l
n ous</w>
S t
an ti
con si
p ol
th o
organ is
it te
al s</w>
f ic
m es
om e</w>
ai l
ar g
uti lis
m ore</w>
ex p
Un ited</w>
t ak
ati ves</w>
con t
n ouv
k s</w>
sh ould</w>
lo w
emb er</w>
al th</w>
com me</w>
ri gh
us t</w>
In ter
se il</w>
développ ement</w>
S tat
au t
pr incip
an ces</w>
E n</w>
an y</w>
f a
ener al</w>
ag es</w>
ab lis
ré gi
g l
200 5</w>
f ait</w>
emplo y
c oll
ati n
in di
itte e</w>
ag rap
i que</w>
h e</w>
il s</w>
200 6</w>
on g</w>
A n
con n
pro tec
a re
m ati
C oun
poli ti
ti onn
g ouvern
pr om
e ar</w>
r is
atin g</w>
d ur
T I
en tr
sib le</w>
d om
ad op
re ment</w>
es sion</w>
w ould</w>
A ss
o v
ic al</w>
sp eci
s a</w>
s el
min istr
t ant</w>
str uc
por ts</w>
200 4</w>
g h</w>
pro du
res p
M in
ab les</w>
ac tion</w>
bu t</w>
d at
program me</w>
ver s
p our
h o
ter min
Con seil</w>
con tribu
pr ès</w>
posi tion</w>
qu al
d g
l oc
en n
par t</w>
s an
su ch</w>
c an</w>
m ain
e m</w>
un der</w>
dro its</w>
Comm ittee</w>
par agrap
i es</w>
e an</w>
É tats</w>
ac t</w>
p end
al is
1 2</w>
su iv
e z</w>
ar ticle</w>
vern ment</w>
ul ation</w>
is su
re qui
ent re
li g
O N
e g
fin an
tech n
b et
m s</w>
E x
ag ement</w>
200 7</w>
t eur</w>
ti ve</w>
ab or
re comm
sid ent</w>
b re</w>
an te</w>
h ad</w>
travai l</w>
du str
w e</w>
A d
or y</w>
e u</w>
l u
str at
Stat es</w>
sh i
D i
Th is</w>
wi th
rap port</w>
t ur
ch er
e d
v ous</w>
con c
200 3</w>
ci l</w>
1 5</w>
olo gi
as t</w>
inter nation
h i
l ev
Q u
ain si</w>
peu t</w>
A N
k e</w>
ti me</w>
Coun cil</w>
is es</w>
G o
st at
1 1</w>
m ê
ne w</w>
S er
an t
n um
as ed</w>
ma y</w>
f aire</w>
ac h</w>
in stitu
th er
im pl
C o
é conom
develop ment</w>
I t</w>
op ér
A m
fi r
li m
ini ti
c ré
el l</w>
ain e</w>
ec tion</w>
s c
I N
ec ts</w>
200 2</w>
A g
t ous</w>
2 0</w>
éc ur
f un
Canadi an</w>
en d</w>
ég alement</w>
y ou</w>
op é
O r
tri es</w>
pro pos
t ari
è g
u es</w>
P re
s ession</w>
u se</w>
at t
ch o
the y</w>
sp é
00 0</w>
é v
protec tion</w>
con di
e w
200 1</w>
obj ecti
our n
3 0</w>
G eneral</w>
g es
t out</w>
s écur
con sul
si gn
ation al</w>
Con vention</w>
ad ministr
a si
su s</w>
1 3</w>
i a</w>
E S</w>
enc y</w>
le g
ic ations</w>
th ese</w>
fon c
R é
san té</w>
per i
b er</w>
c ad
T r
isi ons</w>
é d
um ents</w>
b er
en f
eur opé
end re</w>
o g
am e</w>
f ol
ent e</w>
f ér
olo g
200 0</w>
b le</w>
mil li
p en
U N
dé r
n o</w>
E N
sécur ité</w>
A u
m ais</w>
u ment</w>
p op
in form
D e
R es
é li
Ass emb
re e</w>
vi ew</w>
appl ication</w>
t or</w>
Com ité</w>
p ai
can adi
serv ice</w>
d ate</w>
memb res</w>
mê me</w>
Europ ean</w>
program mes</w>
d eux</w>
we en</w>
v ent</w>
c our
or d</w>
mis e</w>
e au</w>
re port</w>
h om
eff or
a w
p s</w>
coun tries</w>
t w
c as</w>
re m
al y
com pr
Ser v
O ff
th rou
entre pr
bet ween</w>
activ ités</w>
ti onal</w>
re at
j us
ur r
pl ace</w>
é val
se ign
th an</w>
au ss
u li
im p
l ég
con tre</w>
is l
el i
in dustr
emb re</w>
re gi
B u
in to</w>
G rou
sib il
pro f
sup port</w>
t eurs</w>
dro it</w>
i li
po int</w>
o s
ar ds</w>
b il
r ait</w>
comm er
pl ac
j o
f em
ques tion</w>
m en
él é
ré s
in es</w>
ord in
s ous</w>
t t
av oir</w>
ét u
M ar
organ iz
inclu ding</w>
ur ity</w>
ai r
partic uli
d ont</w>
c ours</w>
proj et</w>
wh o</w>
cad re</w>
ar m
in cre
t y
v re</w>
cer tain
id enti
auss i</w>
f am
e y</w>
duc ation</w>
ev er</w>
P r
re cher
re présent
b r
mes ures</w>
O N</w>
tic al</w>
ecti ve</w>
an tes</w>
h el
1 4</w>
ic ul
ear ch</w>
ma de</w>
ment al</w>
ques tions</w>
ec ted</w>
ex c
mar ch
n at
ord er</w>
pre mi
n éc
t al</w>
do it</w>
m ust</w>
cap ac
é gi
p er</w>
personn es</w>
néc ess
f e
pr iv
n or
righ ts</w>
F or
conom ic</w>
200 8</w>
Uni es</w>
M r</w>
oun d</w>
ch il
5 0</w>
in ce</w>
a ur
am ment</w>
cri min
Uni on</w>
ges tion</w>
Or gan
w ell</w>
for c
Di rec
ou t
spé ci
ing s</w>
ni ve
ic y</w>
at es</w>
on ly</w>
shi p</w>
import ant</w>
er c
H e
in st
M on
sit uation</w>
con stitu
p ur
res s</w>
su m
throu gh</w>
sh all</w>
v ari
prom o
th ere</w>
est ablis
ter s</w>
B o
au th
t at</w>
C O
parti e</w>
p es</w>
f t</w>
om en</w>
b re
m ul
he alth</w>
re sul
es p
s ite</w>
D ans</w>
au se</w>
pro bl
e ting</w>
for e</w>
pl an</w>
abil ity</w>
1 8</w>
ô le</w>
met tre</w>
ement ation</w>
fol low
y ear</w>
l ic
fo is</w>
u p</w>
vi ol
tho se</w>
pos sible</w>
2 0
em s</w>
t ation</w>
at s</w>
P l
o l</w>
mati ère</w>
ac tu
soci al</w>
di t</w>
2 5</w>
posi tions</w>
af in</w>
pres ent
is on</w>
E R
an aly
i f</w>
un der
O n</w>
publi que</w>
p tion</w>
1 6</w>
m is</w>
génér al</w>
vi ties</w>
19 8
onn ement</w>
p i
condi tions</w>
r ati
é qu
syst em</w>
pl u
ist ance</w>
d re
st and
no t
et y</w>
bu dg
donn ées</w>
so it</w>
N o
partic ul
par ties</w>
Europ e</w>
fi c</w>
ver y</w>
o i</w>
mo y
d ay</w>
es si
as es</w>
ati s
au tor
au c
cl ar
app li
or ig
tr y</w>
W or
bi en</w>
fi ed</w>
c ro
n u
us ed</w>
ten tion</w>
è mes</w>
nom bre</w>
fer ence</w>
ét ait</w>
pe op
mo ins</w>
Inter national</w>
effor ts</w>
ar s</w>
no v
A R
ent es</w>
ab out</w>
ain es</w>
al ité</w>
at eurs</w>
a près</w>
c i</w>
gr am</w>
b ec
ear s</w>
ci d
p le</w>
s ans</w>
ten ir</w>
M an
Ã ©
t ain</w>
l in
j ur
v ue</w>
oc cu
comp te</w>
f ul
syst ème</w>
Pro gram
contin u
I I</w>
I C
v ement</w>
O n
conn a
num ber</w>
ré sul
p ouv
tw o</w>
ov er</w>
po se</w>
1 7</w>
chang e</w>
al i
gh t</w>
en e
F r
acti vities</w>
c us
on g
ver s</w>
off ici
pr im
mar k
concern ant</w>
si g
recher che</w>
au tre</w>
y ears</w>
ob lig
P our</w>
pré c
p ass
k no
1 9</w>
Ac t</w>
g ar
produ its</w>
consi der
il le</w>
ti ce</w>
st u
au t</w>
with in</w>
o ire</w>
hum an</w>
fem mes</w>
or s
me as
Min ist
fér ence</w>
ec h
dem ande</w>
finan ci
ev er
ag re
2 1</w>
o ù</w>
s é
E l
Go vernment</w>
wh ere</w>
ar ge</w>
D ec
tr av
on es</w>
respon s
sec tion</w>
s eu
ress ources</w>
provi de</w>
lo w</w>
or is
r èg
politi que</w>
j our</w>
as soci
enf ants</w>
mo st</w>
mo di
f av
d on
l ang
p éri
or ity</w>
ter r
el lement</w>
appro pri
iv ent</w>
s ome</w>
D ev
t és</w>
fin anc
duc tion</w>
oper ation</w>
t emp
abil ité</w>
doc ument</w>
M o
D é
3 1</w>
vi du
g e
resp ect</w>
h is</w>
ad di
Ar ticle</w>
œ u
199 9</w>
d ra
ré pon
ex t</w>
produc tion</w>
li eu</w>
A p
R E
ter rit
w w
diff ér
it ation</w>
fir st</w>
it es</w>
re qu
dre n</w>
t a
i ques</w>
gr ap
peu vent</w>
it er</w>
am éli
establis h
es o
f é
ww w</w>
pop ulation</w>
ac i
ét ab
ex erc
é ment</w>
com e</w>
peop le</w>
2 4</w>
tou tes</w>
y our</w>
not amment</w>
S p
for m</w>
gouvern ement</w>
mo d
ec tr
ma j
P ré
re au</w>
d r
ec tu
is h
Off ice</w>
S o
Comm un
N o</w>
Re g
politi ques</w>
1 0
int é
c urr
c ent</w>
con form
in dic
envir on
I S
exam in
indi vidu
D E</w>
ob serv
É tat</w>
Sec ret
ul ations</w>
W e</w>
nive au</w>
tr uc
i le</w>
ai l</w>
c li
re st
strat égi
génér ale</w>
der ni
institu tions</w>
m u
d o</w>
do ivent</w>
es sus</w>
c a</w>
N ous</w>
ex emp
proc ess</w>
l ée</w>
us in
oun t</w>
wh en</w>
w omen</w>
an is
b un
inv esti
s ci
t el</w>
ain st</w>
ai r</w>
St ate</w>
2 2</w>
b eso
at er</w>
P o
ch a
seign ements</w>
rec e
d y</w>
ar r
lev el</w>
b ase</w>
pol icy</w>
ain ing</w>
man agement</w>
p ay
c at
ati f</w>
ap pu
acc ord
ex per
avai l
gr ation</w>
F in
ac tions</w>
I s
P u
personn el</w>
péri o
Program me</w>
b ased</w>
internation ale</w>
G u
po st
man i
eff ic
proc essus</w>
é ch
follow ing</w>
ent ly</w>
ne ed</w>
o le</w>
it al</w>
er a</w>
d am
be ing</w>
W h
d el
w n</w>
tor s</w>
A f
si ve</w>
E C
l and</w>
Dev elop
h ol
abor ation</w>
ch es</w>
s en
paragrap he</w>
se con
2 3</w>
h y
P er
w ay</w>
L i
M e
éval uation</w>
la w</w>
e conomic</w>
tak e</w>
techn ologi
u i</w>
t ob
com b
as su
He alth</w>
eur e</w>
prov in
emb le</w>
dis cus
the m</w>
ten u</w>
min ist
f ur
provi ded</w>
mon di
min is
ad d
opér ation</w>
qu er</w>
ac k</w>
su c
ti en</w>
man y</w>
ass istance</w>
e aux</w>
coun try</w>
fac il
ag ainst</w>
v ol
hom me</w>
R o
issu es</w>
ti que</w>
d re</w>
end ed</w>
b les</w>
temp s</w>
c ould</w>
ag r
at eur</w>
dé clar
su ff
ow ever</w>
av ant</w>
doc uments</w>
F e
sig ni
av ait</w>
pu is</w>
n er
économ ique</w>
iss ance</w>
f ourn
po in
d ou
l ong</w>
A s</w>
fr ic
righ t</w>
d oll
particip ation</w>
Sec ré
ex e</w>
europé enne</w>
p a
r a</w>
F or</w>
ens ure</w>
ex is
vi e</w>
om m
tech ni
acc ep
a z
ig h</w>
pr ati
A C
ch arg
i de</w>
meas ures</w>
o rer</w>
ti s
ci vi
g ro
olog y</w>
con clu
ann u
A TI
res olution</w>
proc éd
s al
chil dren</w>
ai de</w>
T R
rés olution</w>
go vernment</w>
occu p
impl ementation</w>
6 0</w>
dé termin
On tari
bo th</w>
ser a</w>
b an
e qu
s ement</w>
n et</w>
Ontari o</w>
ex plo
e ach</w>
suc c
N or
dur ing</w>
fu l</w>
diff er
b li
ren seignements</w>
b asi
L oi</w>
ex t
4 0</w>
ene f
for me</w>
enn es</w>
œu vre</w>
exam en</w>
enc our
R ec
ne e
dat a</w>
2 6</w>
to tal</w>
our ce</w>
h ar
M ember</w>
O R
su ite</w>
usin ess</w>
par ten
ig n</w>
2 8</w>
N ational</w>
er g
avail able</w>
ann ée</w>
résul tats</w>
Develop ment</w>
0 1</w>
ain s</w>
rel ev
x im
prof essi
e f</w>
dé fin
y ing</w>
re present
iz ation</w>
ci r
tou te</w>
consul t
s ol
ou ver
me di
finan cial</w>
go vern
ori ties</w>
j ect</w>
é qui
ess enti
al isation</w>
tr ic
2 7</w>
lo i</w>
2 9</w>
af ter</w>
s s</w>
grap h
pl e
ve ill
C ol
C I
fa ç
sub st
u p
D is
u tion</w>
c ol
j ou
res earch</w>
ma ke</w>
mé di
ari at</w>
import ance</w>
gl ob
ai d</w>
c et</w>
sel on</w>
tur al</w>
doll ars</w>
C entre</w>
i ent</w>
j e</w>
it ted</w>
tr ès</w>
peri od</w>
sec teur</w>
rel ated</w>
c ase</w>
memb ers</w>
Assemb ly</w>
an ds</w>
tra it
m or
t able</w>
éri eur</w>
cl ai
I m
o p</w>
i al</w>
me eting</w>
o i
bun al</w>
ac t
c al
recomm and
dé f
sec urity</w>
r aient</w>
s or
n er</w>
p li
bu il
part ment</w>
au g
travai l
wor k
l ine</w>
g s</w>
s et</w>
budg et</w>
t oc
ic h
R ap
an i
eur es</w>
is sion</w>
ren forc
are as</w>
C E
déc ision</w>
in str
res ources</w>
dec ision</w>
C or
D e</w>
t ures</w>
f in</w>
organis ations</w>
Assemb lée</w>
isl ation</w>
re li
O u
re ven
1 8
sup pl
dis crimin
in fr
co ordin
as si
W e
acc ès</w>
R O
m un
tak en</w>
lu i</w>
fé dér
b enef
t aire</w>
ex pres
v ing</w>
n ing</w>
commun i
Serv ice</w>
il y</w>
d ge</w>
inv ol
paragrap h</w>
grou pe</w>
T ri
1 00</w>
j ours</w>
appl ic
U n</w>
ten ti
be c</w>
commun ity</w>
199 8</w>
am ent</w>
g en
o ver
A T
h ab
ét ablis
étab li
C e</w>
co opération</w>
mes ure</w>
l s</w>
acc ess</w>
f our
ex ig
particul ar</w>
contin ue</w>
j et</w>
pério de</w>
dem and
am e
t l
in f
mul ti
n ec
ad v
vo tre</w>
no tre</w>
ti tre</w>
mil it
C ette</w>
no te</w>
En vir
I T
cri ption</w>
ter n
fonc tionn
t ement</w>
faç on</w>
si eurs</w>
O c
ap pr
re as
con struc
a i</w>
s m
s ed</w>
orig in
U ne</w>
proj ets</w>
di es</w>
envir onnement</w>
entrepr ises</w>
mis sions</w>
dis tribu
v ic
m al
se e</w>
c in
o se</w>
A D
Serv ices</w>
ti ques</w>
d et
ar t</w>
se p
fur ther</w>
cha que</w>
s om
l ors
per met
der al</w>
ty pe</w>
vo y
pro g
s ame</w>
e la</w>
de termin
utilis ation</w>
vo ir</w>
N ew</w>
qual ity</w>
x i
pré v
tr aining</w>
cer tain</w>
tro is</w>
Grou pe</w>
ré uni
Bu reau</w>
é tr
organiz ations</w>
as p
fi er</w>
A b
nec ess
signi fic
Pré sident</w>
f e</w>
Pre sident</w>
olu tions</w>
ent ation</w>
on c
S e
ac k
Organ isation</w>
assu rer</w>
o m</w>
ê t</w>
B r
re ments</w>
i ev
aug ment
f il
ur al</w>
ecti v
particuli er</w>
ec tions</w>
Grou p</w>
A I
qu elle</w>
ô t</w>
administr ation</w>
ati fs</w>
A s
al im
dis positions</w>
pend ant</w>
In stitu
ti v
th ree</w>
igh t</w>
S y
emplo i</w>
ac ts</w>
are a</w>
ass ess
P ol
oc c
o k</w>
pr acti
ens emble</w>
regi onal</w>
proj ect</w>
ori es</w>
j e
h ist
trans port</w>
C E</w>
compr is</w>
v ed</w>
leg al</w>
Secret ary</w>
co û
commun ication</w>
ex éc
ow n</w>
dom aine</w>
fl u
comp ét
initi atives</w>
requi red</w>
ti c</w>
qu é</w>
ann ées</w>
pr endre</w>
recomm end
be fore</w>
m et</w>
loc al</w>
organis mes</w>
int ér
personn e</w>
ég ard</w>
H um
C our
Bo ard</w>
1 3
an des</w>
o w</w>
wh at</w>
h igh
can di
av ant
s atis
dev rait</w>
fac e</w>
C es</w>
Tr ans
h er
ach iev
nation ale</w>
o ds</w>
én é
t aux</w>
milli on</w>
inform ations</w>
commun aut
h ic
qual ité</w>
ag er</w>
th ou
op port
ex ist
eff ective</w>
is h</w>
a is
for ce</w>
objecti fs</w>
av i
ré gl
J o
in te
v ision</w>
po tenti
d ence</w>
t a</w>
oc rati
pe ti
ther e
relev ant</w>
ra is
enc ore</w>
b ro
acti ve</w>
t u</w>
per form
f y</w>
ar ly</w>
exemp le</w>
ectr on
E S
certain s</w>
ju d
h tt
af f</w>
l ess</w>
c entr
en ci
è rement</w>
ar ri
ex te</w>
o s</w>
vi ew
A fric
du e</w>
htt p</w>
S i</w>
pro gram</w>
o f
march é</w>
soci été</w>
A L
S tr
G r
inclu de</w>
si m
ét aient</w>
issu e</w>
ex pl
sit u
vers ity</w>
J e</w>
ou s
op h
pos sibil
t on</w>
L e
pen ses</w>
reg ul
au v
mat er
at ory</w>
effic ac
fi g
hab it
tro l</w>
z ed</w>
s em
fic ations</w>
proc ed
T o</w>
v en</w>
S I
cl ear</w>
e ducation</w>
plu sieurs</w>
so li
tr adi
ass ur
ol s</w>
ti mes</w>
re view</w>
d ation</w>
étr ang
F o
z e</w>
co operation</w>
imp act</w>
s af
T er
P ri
D es</w>
t ab
r ôle</w>
esti m
h igh</w>
Minist er</w>
pers on</w>
ep tion</w>
ou th</w>
end ant</w>
t en</w>
ord re</w>
t ent</w>
c ou
co s
e gi
I f</w>
grou pes</w>
terr oris
milli ons</w>
c el
mark et</w>
A u</w>
l et
ent al</w>
con fl
speci fic</w>
E m
Tri bunal</w>
th en</w>
ê te</w>
w ater</w>
b usiness</w>
in tro
dé t
enn ent</w>
de pend
p les</w>
re ad
c am
le ad
199 7</w>
pres ent</w>
dé b
Secré taire</w>
at ure</w>
au té</w>
prés ent</w>
fonc tion</w>
no s</w>
sub m
por ting</w>
wor king</w>
eff ectu
li ke</w>
discrimin ation</w>
wh e
0 2</w>
n ég
pro b
igh ts</w>
ay ant</w>
necess ary</w>
ap prov
de fin
nouv eau</w>
pri or
c eux</w>
ré alis
ho w</w>
Sec urity</w>
w le
b éné
régi on</w>
si s</w>
pai x</w>
Sp eci
am end
rece iv
at te
as se</w>
vis ant</w>
con ven
e th
conform ément</w>
no w</w>
ph y
ver tu</w>
st ain
P ar</w>
trav aux</w>
m an</w>
ten ant</w>
con tain
f ici
qu ement</w>
basi s</w>
1 5
T o
ame work</w>
régi on
1 4
wor ld</w>
mani ère</w>
s k
Re public</w>
at er
contr ôle</w>
Un is</w>
nom bre
port ed</w>
s ex
c rit
appropri ate</w>
l ong
k ey</w>
al ity</w>
grou p</w>
ac qu
d i</w>
B i
commer ci
aff aires</w>
rel atives</w>
Hum an</w>
poin ts</w>
bec ause</w>
ro le</w>
plo y
c r
con duc
with out</w>
In formation</w>
don c</w>
av ons</w>
ap pe
g c</w>
je un
viol ence</w>
E M
p age</w>
eff et</w>
ré e</w>
concer ne</w>
l arge</w>
tr an
Con ference</w>
pl ans</w>
el d</w>
tic s</w>
De partment</w>
ser ont</w>
19 7
per man
tic les</w>
cor por
as k
Ré publique</w>
c au
g eneral</w>
ess es</w>
h al
f er</w>
con se
financ ement</w>
li gn
R ights</w>
eng ag
onn e</w>
Pu bli
cl os
ur g
dra ft</w>
requi rements</w>
ac y</w>
qu el
inst all
four ni
E U</w>
U R
jus tice</w>
promo tion</w>
0 5</w>
Par li
N ov
ré s</w>
Dec ember</w>
A C</w>
A P
ili ties</w>
hum an
nat ure</w>
er ic
as truc
as s</w>
Par ties</w>
particip ants</w>
fu ture</w>
règ lement</w>
0 3</w>
es tin
1 7
présent e</w>
T ra
l ors</w>
0 4</w>
Ag ency</w>
î tre</w>
A ff
nouv elles</w>
ti on
in c
f oc
do es</w>
C R
B an
ri er</w>
sec tor</w>
200 9</w>
qu el</w>
nee ds</w>
tra de</w>
P e
Th ere</w>
chang es</w>
Publi c</w>
to ch
consi dér
su g
U E</w>
xi ème</w>
am ong</w>
A S
de puis</w>
déc embre</w>
c are</w>
in s
c y
i di
V I
H owever</w>
beso ins</w>
ev en</w>
resul ts</w>
at tention</w>
pr ises</w>
As soci
Th ese</w>
por te</w>
éval u
is t</w>
m er</w>
establish ed</w>
so ient</w>
al og
premi ère</w>
no m</w>
st aff</w>
g ener
rap ports</w>
hel d</w>
si de</w>
gouvern ement
produc ts</w>
grou ps</w>
av is</w>
end a</w>
diff icul
tr ouv
199 6</w>
re ç
sel f</w>
Am eric
la quelle</w>
in ation</w>
poli tical</w>
cer ti
reg ard</w>
cons équ
mé tho
toch t
us es</w>
mon de</w>
él ev
Envir on
sci enti
incre ase</w>
t reat
ti t
lu t
Com mis
D iv
des tin
kno wle
ter m</w>
g é
im prov
dé lég
pol ici
ex clu
pro pri
1 6
ta x
J une</w>
pers ons</w>
ar b
acc ord</w>
differ ent</w>
ad ap
A L</w>
wh ile</w>
u e
develop ing</w>
jus qu</w>
pub l
0 6</w>
gro w
str eng
organ isation</w>
ab r
gr ande</w>
n es</w>
ist es</w>
canadi enne</w>
min im
pro t
ê ts</w>
ra ison</w>
or ation</w>
v éri
El le</w>
at ely</w>
ré du
og ni
con fi
v er</w>
O M
at ors</w>
h er</w>
adop ted</w>
ab o
r adi
is c
c ent
ser ve</w>
com par
coordin ation</w>
fi x
u x</w>
pr ise</w>
G ouvern
li fe</w>
ré c
lo g
lang u
d ent</w>
E C</w>
ag ne</w>
c ases</w>
alog ue</w>
s ince</w>
air s</w>
i tion</w>
fon ds</w>
iss ent</w>
inter ven
ti m
construc tion</w>
I P
en qu
di ver
3 5</w>
a de</w>
T H
probl èmes</w>
pon i
C l
whe ther</w>
syst ems</w>
ju in</w>
ju st
mo is</w>
initi ative</w>
t re
professi onn
me ans</w>
port eur</w>
prov isions</w>
ang e</w>
origin al</w>
syst èmes</w>
employ e
in a</w>
m om
accord ance</w>
u les</w>
premi er</w>
li b
ris k</w>
améli orer</w>
us si
qu a
ev al
n am
c op
an im
Com p
gi ven</w>
v ou
ex peri
We b</w>
seu lement</w>
Ch ar
t ly</w>
canadi en</w>
employ ment</w>
in nov
en h
iss ant</w>
oblig ations</w>
rel ations</w>
D es
jur idi
enci es</w>
curr ent</w>
In di
f aut</w>
F un
h a
ist an</w>
nouv eaux</w>
exper ts</w>
5 5</w>
contribu tion</w>
dis poni
re fl
l er</w>
Inter net</w>
pro per
ou tre</w>
k e
su jet</w>
commer ce</w>
capac ity</w>
en ing</w>
E R</w>
exerc ice</w>
proj ects</w>
ur ing</w>
mon it
s avoir</w>
aff ir
hel p</w>
st e
Am end
T ou
er ed</w>
g ation</w>
é ment
é ducation</w>
ep t
dé e</w>
en reg
i i</w>
m ain</w>
des ign
m y</w>
Pro gram</w>
par ation</w>
secon d</w>
dé penses</w>
car act
ter me</w>
pol ice</w>
or ing</w>
jud ici
adop tion</w>
oi res</w>
g re
minis tre</w>
ch em
ful l</w>
d ers</w>
ét at</w>
po w
ul y</w>
consider ed</w>
e x</w>
propos ed</w>
b ri
gi e</w>
o th
sur veill
comp li
te fois</w>
A t</w>
F ir
Pro toc
C H
Pl an</w>
re ign</w>
aw a</w>
re ques
us ing</w>
investi ss
b ur
fa is
part y</w>
mé dic
4 5</w>
étu de</w>
sub ject</w>
Cour t</w>
con trol</w>
pub lic
qual i
Parli ament</w>
mi gr
or ds</w>
dé p
tari at</w>
or t</w>
speci al</w>
I V</w>
eg y</w>
b ru
in cid
Ac c
l arg
moy en</w>
resul t</w>
9 0</w>
trait ement</w>
appu i</w>
infr astruc
in sp
exam ple</w>
val eur</w>
ti ves</w>
environ mental</w>
s aid</w>
man u
Mar ch</w>
ATI ON</w>
M al
ch ez</w>
c ause</w>
cor respon
com pos
ir d</w>
strat egi
glob al</w>
m enti
Commun ity</w>
nouv elle</w>
ex tr
Res earch</w>
es ts</w>
J an
ch am
ab s
n et
al estin
pri x</w>
pour rait</w>
ord onn
iz ed</w>
port er</w>
ear ly</w>
maj or</w>
r end
b our
lig ne</w>
8 0</w>
polici es</w>
me ill
V i
is er</w>
contribu tions</w>
technologi es</w>
mar s</w>
fun c
étu des</w>
tocht ones</w>
r ent</w>
j à</w>
3 3</w>
Gouvern ement</w>
it er
élé ments</w>
exp éri
am ount</w>
form ul
lev els</w>
agr icul
qu ent</w>
ma xim
obj et</w>
Min is
ch ar
con st
ri r</w>
Co de</w>
se in</w>
europé en</w>
ic t</w>
er ing</w>
addi tion</w>
commun ications</w>
r ate</w>
mon tant</w>
dé jà</w>
m ed</w>
o graph
thou gh</w>
w ard</w>
at or</w>
certain es</w>
th s</w>
o y
t al
S ept
fi que</w>
c le</w>
rel ative</w>
re ports</w>
199 5</w>
Associ ation</w>
C C
g a
ch arge</w>
vers ité</w>
ar ticles</w>
Par lement</w>
nor m
human it
ni e</w>
l ab
M ay</w>
M me</w>
h en
d at</w>
m éc
rec ogni
vari ous</w>
activ ité</w>
memb er</w>
instr uments</w>
gr ès</w>
provi des</w>
asp ects</w>
fe deral</w>
o ci
de b
comp e
jo int</w>
Fir st</w>
Minist ère</w>
ch i
qu ant</w>
stand ing</w>
coll aboration</w>
es se</w>
fr on
Man agement</w>
op ini
appro ach</w>
acc ount</w>
end s</w>
olog ical</w>
produ it</w>
è ne</w>
c elle</w>
Qu é
om s</w>
en se</w>
cos ts</w>
Wor ld</w>
qui p
internation ales</w>
re fer
conc entr
O tt
w s</w>
A M
u it</w>
ob tenir</w>
ep t</w>
ill et</w>
ain t</w>
Sept ember</w>
ré se
Re port</w>
u t</w>
h au
nécess aire</w>
techni ques</w>
mom ent</w>
ti f</w>
R C</w>
ma king</w>
agre ement</w>
s cho
pr is</w>
develop ed</w>
w ays</w>
s ources</w>
b al
pr e</w>
p én
Ott awa</w>
sou tien</w>
program s</w>
candi dat
vi ent</w>
Str at
si x</w>
gu es</w>
mat éri
sit es</w>
L E</w>
6 3</w>
C ar
g o</w>
l l</w>
environ ment</w>
opér ations</w>
add ress</w>
eff ici
sibil ity</w>
jeun es</w>
sep t
b el
cul ture</w>
Sec tion</w>
dé m
D oc
cul tu
nor mes</w>
su stain
prati ques</w>
t em
reg ar
t élé
bi li
3 2</w>
inv est
Qué bec</w>
sept embre</w>
analy se</w>
fr amework</w>
n ess</w>
av ing</w>
ful ly</w>
A N</w>
l es
Su b
dé pend
c en
ét ant</w>
ter n</w>
J us
étu di
économ iques</w>
t ée</w>
ver sion</w>
fam ili
qu ar
d eli
industr y</w>
t an
dev raient</w>
fin s</w>
R èg
ic s</w>
ch er</w>
a x
c all
ex pos
cel ui</w>
nécess aires</w>
Con férence</w>
z one</w>
capac ité</w>
ne x</w>
O b
R ussi
c entre</w>
dis tin
ic i</w>
B ri
ser ait</w>
entrepr ise</w>
tin gs</w>
S O
F on
ou se</w>
buil ding</w>
ti ent</w>
tran si
il les</w>
ri l</w>
con serv
ri que</w>
li v
atte in
i x</w>
car ri
app el
so ins</w>
pe u</w>
c ar</w>
end er</w>
li ber
receiv ed</w>
U S</w>
ven ir</w>
compe ti
knowle dge</w>
5 7</w>
perform ance</w>
Su p
port ant</w>
direc t</w>
di d</w>
Fr ance</w>
in flu
au près</w>
0 7</w>
e k</w>
uni ties</w>
inte gr
L a
ann exe</w>
hal f</w>
regi on</w>
comm it
ch all
go od</w>
ter ms</w>
eu xième</w>
read y</w>
Oc tob
7 0</w>
gar anti
n ers</w>
des cri
EN T</w>
is te</w>
Ag re
D ate</w>
Div ision</w>
cor rec
J uly</w>
A pr
ch e
pl ann
ever al</w>
établis sement</w>
ris que</w>
assess ment</w>
recommand ations</w>
abo ve</w>
inter est</w>
prog ress</w>
éri que</w>
donn é</w>
M emb
é co
ty pes</w>
aff ec
avai ent</w>
suff is
comm on</w>
K o
d ated</w>
en seign
Pre mi
eu ses</w>
S C</w>
j an
h é
do m</w>
moy ens</w>
mondi ale</w>
ti fication</w>
vi dence</w>
vi er</w>
A v
sp e
Apr il</w>
an ci
E T</w>
ti z
eff ecti
for ces</w>
consult ations</w>
En g
E conomic</w>
there fore</w>
f re
Speci al</w>
fi ques</w>
si on
gu eur</w>
dur able</w>
gu id
fi eld</w>
techn ical</w>
3 4</w>
ti fs</w>
fun ding</w>
t els</w>
So cial</w>
co st</w>
auth orities</w>
cré ation</w>
resp ec
H o
f au
beso in</w>
réuni on</w>
c elles</w>
béné fici
tit ul
struc ture</w>
Octob er</w>
5 8</w>
o eu
it able</w>
sm all</w>
6 1</w>
del eg
E L
techn ology</w>
c it
déc isions</w>
r y</w>
5 6</w>
v é
In c</w>
chil d</w>
techni que</w>
al low
lut te</w>
dom aines</w>
pur su
us tr
méc anis
procéd ure</w>
c o</w>
S T
direc tion</w>
el op</w>
cap ital</w>
eff ets</w>
è le</w>
ri g
Nov ember</w>
pro ve</w>
in d
ma i</w>
is se</w>
0 8</w>
ju illet</w>
m i</w>
5 9</w>
industr ie</w>
individu al</w>
leg islation</w>
explo itation</w>
M a
ic k</w>
av ril</w>
S el
et c</w>
Re gi
Ad ministr
ph o
g reat
nég oci
signific ant</w>
t ées</w>
fac t</w>
intér êt</w>
stand ards</w>
tr ou
pu t</w>
incre ased</w>
h eures</w>
con fir
oc tob
addi tional</w>
re f
In dustr
pre u
particul arly</w>
lors que</w>
octob re</w>
n i</w>
acc oun
p ing</w>
distribu tion</w>
s olution</w>
recommend ations</w>
s et
val ue</w>
4 1</w>
di alogue</w>
envir onn
soci ale</w>
su per
gr and</w>
v ul
priv ate</w>
él aboration</w>
A si
Is ra
re conna
Sy st
plac ement</w>
bi a</w>
f ound</w>
objecti f</w>
e conom
p ati
l ais</w>
j our
d ang
si mil
nat u
ati sti
Th ey</w>
aut om
Con t
suiv i</w>
nov embre</w>
u ary</w>
sou ha
di re</w>
lis te</w>
Jan uary</w>
ta x</w>
fourni r</w>
u le</w>
occ a
Al ber
ré es</w>
3 6</w>
port ation</w>
199 4</w>
0 9</w>
app el</w>
3 7</w>
O F</w>
ir s</w>
per tin
h and
Ch il
renforc er</w>
stu dy</w>
qu els</w>
surveill ance</w>
l ed</w>
f isc
inclu ded</w>
T ech
communi ties</w>
m ech
nation ales</w>
consul tation</w>
fo od</w>
dé pos
O ther</w>
Al l</w>
fr an
f our</w>
déclar ation</w>
U R</w>
N ouv
P O
G re
sex u
7 5</w>
qu anti
4 8</w>
al ors</w>
trans fer
vo te</w>
be g
e i
D S</w>
l ar
et ed</w>
t el
autor ités</w>
pouv oir</w>
4 4</w>
tak ing</w>
alestin i
ail s</w>
An n
c ell
dém ocrati
jan vier</w>
im pos
R el
s w
op e</w>
an ni
al ités</w>
s ource</w>
or g</w>
in come</w>
ou p</w>
r on
e quip
régi ons</w>
re té</w>
ag enda</w>
c ela</w>
acc es
ér o</w>
b on</w>
mi gration</w>
li ght</w>
res tric
avant age</w>
C ON
form es</w>
ar mes</w>
a red</w>
b eli
â ce</w>
Go vern
in ten
ag ed</w>
commun auté</w>
go ods</w>
m ari
at tribu
minist ère</w>
Af rique</w>
uti ve</w>
w ards</w>
exis ting</w>
fr ais</w>
min u
w el
T or
k ed</w>
coû ts</w>
fin al</w>
mi eux</w>
ju g
t i</w>
cl assi
it re</w>
b ed</w>
f ai
ten ue</w>
cro issance</w>
environn ement
ret ur
Règ lement</w>
ru les</w>
ai der</w>
é ti
reli gi
gr ad
fam ily</w>
3 9</w>
ak e</w>
ici p
nation aux</w>
M ission</w>
ré g
représent ants</w>
il li
grow th</w>
i d</w>
h ô
p ens
th ird</w>
organiz ation</w>
è te</w>
concern ed</w>
ris ques</w>
V er
cont act</w>
4 2</w>
er ship</w>
esp è
1 er</w>
g y</w>
at oire</w>
dev elop</w>
pre st
per mis</w>
mal adi
C our</w>
prot ég
employ és</w>
qu elles</w>
le ar
5 1</w>
co ver
suppl ément
l at
Organ ization</w>
sti ll</w>
ti l</w>
Agre ement</w>
ner ship</w>
to t
au tochtones</w>
go ti
up on</w>
Wor king</w>
con sum
facil it
p at
pro grès</w>
ro ss</w>
re v
T ur
coll ectiv
l ast</w>
ent aires</w>
pres sion</w>
qua tre</w>
spé cial</w>
cli ents</w>
ep endant</w>
h ui</w>
requ est</w>
proper ty</w>
d euxième</w>
j ourn
subm itted</w>
tou jours</w>
auc oup</w>
él ectron
ét és</w>
treat ment</w>
is me</w>
Aff airs</w>
Tech n
sib les</w>
Uni versity</w>
én er
bi e</w>
auc une</w>
N ord</w>
en ir</w>
concern ing</w>
ch ap
re main
ouv oir</w>
jour d</w>
bet ter</w>
p ap
saf ety</w>
cat ég
6 2</w>
trans par
in é
in tention</w>
y er</w>
potenti al</w>
cul tural</w>
au di
inté ress
4 3</w>
soci ety</w>
T able</w>
B el
U S
pro position</w>
f ree</w>
5 4</w>
tr ad
n al</w>
it em</w>
duc ed</w>
b est</w>
4 9</w>
ouv ent</w>
pré occup
T S</w>
C er
r an
j ust</w>
3 8</w>
s everal</w>
mo der
direc tive</w>
tr ait</w>
b an</w>
p oll
stratégi e</w>
er ia</w>
lis t</w>
gr é</w>
im prove</w>
stitu tion</w>
ab lement</w>
bi o
Afric a</w>
f ont</w>
Con tr
oper ations</w>
respons abilité</w>
ac e
éli min
s si
ail leurs</w>
tu de</w>
S an
dem andes</w>
go ing</w>
ell ectu
opini on</w>
proc e
ag encies</w>
ti ers</w>
prov ince</w>
mech anis
le au</w>
6 7</w>
o t</w>
O p
dom esti
établi r</w>
ati onn
th em
pro ch
ther n</w>
P R
ar ch
o t
st oc
vi gueur</w>
provin cial</w>
e tings</w>
res t</w>
av er
cin q</w>
d enti
Canadi ans</w>
ener gy</w>
man dat</w>
respon sible</w>
benef its</w>
A G
ag it</w>
en ting</w>
procéd ures</w>
objecti ves</w>
pl ani
d ents</w>
princip es</w>
S i
I II</w>
pre vi
H e</w>
no ted</w>
civi l</w>
Par ti
p auv
fi ve</w>
on d
ten us</w>
proced ures</w>
5 2</w>
el ines</w>
p ê
D em
ap par
ent aire</w>
N um
Qu e
cen tres</w>
m it</w>
gouvern ements</w>
infrastruc ture</w>
h ear
I M
le ast</w>
as se
doc um
parti r</w>
probl ems</w>
add ress
mu ch</w>
suiv re</w>
view s</w>
C N</w>
promo te</w>
al ready</w>
is sions</w>
ati c</w>
istr y</w>
6 5</w>
ér ation</w>
n ed</w>
reven u</w>
è ve</w>
p an
sy n
m er
H er
Reg ulations</w>
shi ps</w>
oeu vre</w>
pe ace</w>
pop ulations</w>
langu age</w>
fig ur
cit oy
oun d
A ir</w>
arr ang
tec tion</w>
P RO
memb re</w>
ex i
compl e
su sp
fi é</w>
Pro c
dis pos
1 2
détermin er</w>
st ate</w>
be aucoup</w>
P C
discus sion</w>
it r
tr im
ven ant</w>
d en</w>
Ac tion</w>
probl ème</w>
règ les</w>
dic al</w>
eu se</w>
différ ents</w>
wor ks</w>
nombre ux</w>
c as
y l
post e</w>
cal cul
jo in
éri eure</w>
Ab original</w>
T reat
d ays</w>
er re</w>
int érieur</w>
h owever</w>
an dis
t arg
off ice</w>
Ro y
C u
consider ation</w>
rec ru
Alber ta</w>
r ont</w>
form s</w>
fon dam
5 00</w>
efficac ité</w>
G er
cons ist
M s</w>
applic able</w>
z ation</w>
h ere</w>
5 3</w>
dis position</w>
per mettre</w>
provi ding</w>
me et</w>
Pol icy</w>
û t</w>
è ge</w>
cu st
administr ative</w>
ne goti
ter mes</w>
pré vention</w>
So ci
E P
prom ouvoir</w>
9 5</w>
practi ces</w>
an other</w>
res se</w>
activ ity</w>
com es</w>
pro por
ter ed</w>
t é
Jo h
un ity</w>
cultu rel
m ic
respon se</w>
4 7</w>
iss ement</w>
mis es</w>
S al
In v
E N</w>
r s</w>
A n</w>
h t
CO M
a ison</w>
stat us</w>
G en
ag n
c um
donn er</w>
analy sis</w>
Rap port</w>
d ru
bi ens</w>
capac ités</w>
Ad d</w>
4 6</w>
cour se</w>
P or
s ouvent</w>
on to</w>
9 9</w>
Direc tor</w>
t our
cl é
all oc
invol ved</w>
fam ille</w>
sec teurs</w>
it ure</w>
chang ements</w>
s éri
de part
enf ant</w>
princip al</w>
ous ly</w>
al iné
oblig ation</w>
eff ect</w>
m a</w>
To tal</w>
D P</w>
commer cial</w>
TH E</w>
propos al</w>
exéc ution</w>
appl y</w>
n ext</w>
li min
exig ences</w>
as k</w>
har mon
W ith</w>
lis h</w>
internation aux</w>
utilis er</w>
march és</w>
i ve</w>
C T
D I
distin c
ex es</w>
régi me</w>
iv er</w>
économ ie</w>
me etings</w>
du ce</w>
Canadi ens</w>
S ci
ré férence</w>
ni ti
publ ication</w>
ill s</w>
l ent</w>
beli ev
end ing</w>
provin ces</w>
cont ext</w>
Commis sion
appro che</w>
conc urr
ég alité</w>
eng agement</w>
199 0</w>
consi dé
A S</w>
monit oring</w>
pur pose</w>
parten aires</w>
auc un</w>
I niti
ci tiz
perman ent</w>
particuli èrement</w>
S T</w>
suiv ants</w>
b onne</w>
l l
exis te</w>
sustain able</w>
envir on</w>
ON U</w>
incre as
examin er</w>
ec utive</w>
govern mental</w>
J ap
en ni
experi ence</w>
per met</w>
L A</w>
ol d</w>
dec isions</w>
to ge
I R
ur y</w>
autor is
é tro
int ég
a k</w>
Col om
ex ten
toge ther</w>
acc ro
sid ence</w>
él ec
regar ding</w>
éner gie</w>
dev ant</w>
rédu ire</w>
e vidence</w>
subst anti
secon d
S h
La w</w>
Fon ds</w>
off re</w>
in e
s olutions</w>
prov ision</w>
établis s
Fe bru
N U
as te</w>
Febru ary</w>
délég ation</w>
h on
manu fac
C am
mo bil
equip ment</w>
annu al</w>
Tra de</w>
iss ances</w>
assur ance</w>
mun icip
respon sibility</w>
rel ati
produc t</w>
lors qu</w>
strat egy</w>
au jourd</w>
technologi e</w>
an ies</w>
a th
abs ence</w>
pos es</w>
n eu
év rier</w>
fo reign</w>
cl ass
ent er</w>
ac te</w>
ra ft</w>
I ra
rel ation</w>
su it</w>
b ack</w>
appr ouv
N ew
lég islation</w>
depend ent</w>
con du
C ro
wi de</w>
a x</w>
6 4</w>
fav oris
u sion</w>
Fun d</w>
I r
S um
é di
an e</w>
pr ét
o irs</w>
au n
Ag ence</w>
représent ant</w>
Rap porteur</w>
uni que</w>
condi tion</w>
me tho
z ones</w>
sé ance</w>
nive aux</w>
occa sion</w>
expéri ence</w>
en vis
is m</w>
territ ori
v ille</w>
re porting</w>
rel ating</w>
ar ti
F ren
effic ace</w>
o x
invest ment</w>
d its</w>
ari an</w>
m on</w>
Au g
preu ve</w>
A U
industr i
plu part</w>
nu clé
Secret ariat</w>
h aving</w>
enqu ête</w>
derni er</w>
es sions</w>
mondi al</w>
continu ed</w>
gr av
lég isl
bec ome</w>
domesti c</w>
re ported</w>
p il
con f
et tes</w>
subst ances</w>
per sp
jus ti
do ssi
agre ed</w>
TI ON</w>
eval uation</w>
a ï
vé hic
ph ase</w>
E D</w>
ér ic
r ates</w>
auth ority</w>
d a</w>
Environ ment</w>
employe es</w>
r ange</w>
f évrier</w>
do wn</w>
s ing</w>
gr âce</w>
aut eur</w>
an a</w>
le ase</w>
t est</w>
199 3</w>
great er</w>
public s</w>
AN D</w>
ê tes</w>
tis h</w>
m en</w>
I C</w>
natu rel
Em ploy
C ap
li k
esp eci
exp ected</w>
em erg
Fren ch</w>
mon ths</w>
20 10</w>
fédér al</w>
financi ère</w>
l i</w>
tain ed</w>
acc ue
Tor onto</w>
consi der</w>
ag ents</w>
comm ission</w>
ré serv
territ oire</w>
dé sign
especi ally</w>
t exte</w>
plann ing</w>
augment ation</w>
ré duction</w>
reg is
sh e</w>
ag ent</w>
in d</w>
él ection</w>
confl ict</w>
ever y</w>
can not</w>
Com me</w>
ve hic
ON S</w>
ad or</w>
di x</w>
cour t</w>
gi ve</w>
identi fied</w>
adop té</w>
sou lign
cri me</w>
ven ess</w>
lis h
li t</w>
ser i
préc éd
co m</w>
San té</w>
dic tion</w>
ve y</w>
on ce</w>
princip e</w>
eff ects</w>
in struc
fi le</w>
pers onal</w>
rec ours</w>
att ach
2 00</w>
appl ications</w>
l it
vo ie</w>
6 6</w>
prati que</w>
G e
ent u
B e
fun ds</w>
W omen</w>
actu ellement</w>
gr ound</w>
c lim
to wards</w>
dé es</w>
milit ary</w>
lic ence</w>
ac ting</w>
su sc
form er</w>
F i
r ac
minim um</w>
ail ed</w>
propri été</w>
st atisti
I ls</w>
P S
rec ent</w>
A tl
ag ing</w>
chall eng
dé s
represent atives</w>
t end
199 2</w>
ob st
R ev
Bri tish</w>
l anc
sug ges
L u
S outh</w>
7 3</w>
dé cid
fav eur</w>
d avantage</w>
P D
observ ations</w>
foc us</w>
pl ain
refer red</w>
c ô
I L
orig ine</w>
res er
r è
rap p
er e
cons ac
int ellectu
hom mes</w>
paragrap h
sec ré
Treat y</w>
princip les</w>
Commission er</w>
C ri
gu ar
di vers</w>
G R
t elles</w>
posi tive</w>
of ten</w>
Cor por
quel ques</w>
n av
ch ac
represent ative</w>
pour raient</w>
al tern
m ess
nécess ité</w>
op tion</w>
tl ed</w>
soci aux</w>
to x
oun g</w>
ater al</w>
conclu sions</w>
pai d</w>
hum aines</w>
le m</w>
com ité</w>
in ter</w>
opport unities</w>
pr is
t elle</w>
al ized</w>
A P</w>
ab ly</w>
enseign ement</w>
u r</w>
situ ations</w>
proced ure</w>
i de
ic er</w>
P L
M c
comp ens
D ES</w>
hen sive</w>
ac ross</w>
benef it</w>
d ri
som mes</w>
plani fication</w>
fondam ent
G l
S ask
él ic
in dépend
import ante</w>
tr ices</w>
possibil ité</w>
tra ite</w>
f abr
con cl
9 7</w>
9 8</w>
vis e</w>
v a</w>
march andis
pur poses</w>
For ce</w>
ab ilities</w>
Su d</w>
par l
ad equ
mi lieu</w>
ail l
er ont</w>
lar ation</w>
cont exte</w>
l ands</w>
R en
V al
nat ural</w>
tra î
at ch
aw ar
satis fac
agre ements</w>
anc ed</w>
a o
vol on
bu reau</w>
part ners</w>
fran ç
D r</w>
main tien</w>
7 7</w>
par ents</w>
Pro tection</w>
compét ences</w>
practi ce</w>
he ad
N e
Tou tefois</w>
qu oi</w>
tr a</w>
e ase</w>
agr ic
Des cription</w>
al ization</w>
stat ement</w>
C AN
p ay</w>
F C</w>
of f</w>
N O
n ame</w>
d y
bel ow</w>
g ender</w>
innov ation</w>
Jus tice</w>
équi p
rése au</w>
tou ch
pré sident</w>
civi le</w>
vi v
mon t
juridi que</w>
offici al</w>
a h
v ely</w>
vis ory</w>
aur ait</w>
aliné a</w>
canadi ennes</w>
M ad
S ur
cré er</w>
Per s
métho des</w>
Ch am
Institu te</w>
l ack</w>
répon dre</w>
pre par
tem por
Ch air
mat ter</w>
ad mis
fon d
9 6</w>
vo s</w>
répon se</w>
ver ty</w>
ac comp
différ entes</w>
char ac
Ap pl
fonc tions</w>
t ôt</w>
re ference</w>
princip aux</w>
qu és</w>
maxim um</w>
inter vention</w>
re j
Aug ust</w>
199 1</w>
op en</w>
contr ô
S ou
m ight</w>
nee ded</w>
exc ell
es ted</w>
présent é</w>
Af gh
er t</w>
individu als</w>
rit anni
V ous</w>
tor al</w>
am éric
Y u
li és</w>
be half</w>
m ing</w>
lim ited</w>
For um</w>
phy s
dur ée</w>
indi qué</w>
Afric an</w>
inclu des</w>
main tenant</w>
ei ther</w>
am in
direc tement</w>
par ce</w>
demand é</w>
ab orer</w>
plac ed</w>
pri ority</w>
en z
8 5</w>
P E</w>
A gr
rend ement</w>
sy m
6 13</w>
mon tr
respons abil
pré vo
instr ument</w>
st re
it u
R ep
B ul
n ations</w>
s au
isi ème</w>
re mo
lim it
Que bec</w>
sh ow
concer n</w>
con soli
ang lais</w>
An nex</w>
bo dies</w>
éch elle</w>
marchandis es</w>
scho ol</w>
succ ess
iz e</w>
al low</w>
réuni ons</w>
Wh at</w>
s ing
renforc ement</w>
institu tion</w>
en traî
ectiv ely</w>
menti onn
Eng lish</w>
dé s</w>
inté gr
suiv ant</w>
discus sions</w>
f f</w>
rel atifs</w>
tionn els</w>
p ast</w>
transi tion</w>
r endre</w>
de x</w>
uni vers
prior ités</w>
centr al</w>
N on</w>
er ies</w>
intér êts</w>
v isi
Secré tariat</w>
Y or
suiv antes</w>
comm enc
reques ted</w>
A D</w>
con férence</w>
6 8</w>
enreg ist
pow er</w>
associ ated</w>
présent er</w>
s ens</w>
ci pl
comp anies</w>
prob lem</w>
Nor th</w>
f ish
i er</w>
it ob
el ec
high er</w>
import ants</w>
pré par
financi ères</w>
li bre</w>
opport unity</w>
A B
en ess</w>
suff ici
de f
hol ders</w>
gu li
ar d
comp on
P aci
ori e</w>
ic k
comb in
ao ût</w>
ologi e</w>
atis tics</w>
h aut</w>
chang ement</w>
post es</w>
inté gration</w>
al ia</w>
comp re
m ary</w>
lo is</w>
communaut aire</w>
Atl anti
cri t</w>
p t</w>
améli oration</w>
contain ed</w>
call ed</w>
speci es</w>
conna issances</w>
le quel</w>
véri fication</w>
H IV</w>
m us
L ors
to day</w>
av anc
Am érique</w>
P h
9 4</w>
oth ers</w>
Con sul
F ur
A R</w>
fac teurs</w>
régi onal</w>
fre e
t ext</w>
mar k</w>
bo dy</w>
c ru
Ban k</w>
work ers</w>
val eurs</w>
soci étés</w>
sp ace</w>
caract ér
v eu
financi ers</w>
r é</w>
l em
i ti
curr ently</w>
sur ance</w>
P A</w>
pos t</w>
travail leurs</w>
cir cul
M ex
Man itob
onn es</w>
Yor k</w>
matéri el</w>
h u
ologi ques</w>
direc teur</w>
cap it
re l</w>
agricul ture</w>
direc tly</w>
E F</w>
diff usion</w>
jur is
s l
Th at</w>
on d</w>
li gh
ou ti
d en
constitu e</w>
issu ed</w>
Wh en</w>
Fe deral</w>
o les</w>
ell ing</w>
au x
priv é</w>
C i
m é</w>
Q U
obst ac
establish ment</w>
fin d</w>
er y</w>
forc ement</w>
l ing</w>
hi le</w>
olu me</w>
acc ords</w>
y m
gouvernement ales</w>
hist ori
commit ment</w>
rec ev
hi b
bro ad
sid ents</w>
ex prim
diver ses</w>
pauv reté</w>
Manitob a</w>
is tiques</w>
e p</w>
ré guli
9 1</w>
at ti
particip er</w>
I D
crit ères</w>
phy si
si eur</w>
le z</w>
p ed</w>
O ne</w>
establis h</w>
st ances</w>
iv al
i or</w>
es ting</w>
P M
comp any</w>
li ées</w>
mani f
ologi que</w>
ati que</w>
m ag
approv ed</w>
kno wn</w>
ro ad</w>
é missions</w>
dé but</w>
ic ally</w>
t ex
et ary</w>
rap id
9 2</w>
reg ulations</w>
comple te</w>
Direc tion</w>
O per
an te
rel ation
Ter rit
évalu er</w>
stand ard</w>
déb at</w>
équi pe</w>
Con stitution</w>
én onc
Americ an</w>
ak e
un til</w>
é ro
contr at</w>
ag ers</w>
pro positions</w>
8 8</w>
b or
on ed</w>
sign ed</w>
pursu ant</w>
St and
strategi c</w>
o od</w>
o d
di men
pa red</w>
S t</w>
migr ants</w>
ici le</w>
disponi bles</w>
a ise</w>
th é
effor t</w>
dem on
cher ch
tra ité</w>
citoy ens</w>
d it
Ac cor
Ex ecutive</w>
a su
co de</w>
com ment</w>
l and
î t</w>
fac ilities</w>
pub lish
A T</w>
exp li
r ural</w>
S aint</w>
dis cipl
cent age</w>
fa its</w>
fl exi
ré serve</w>
W hile</w>
stu dies</w>
medi a</w>
ou l
publi ques</w>
h or
cons om
ad ul
avant ages</w>
fais ant</w>
ecti ves</w>
P S</w>
Direc tive</w>
kno w</w>
ét aire</w>
d ings</w>
ep ing</w>
organis me</w>
étab li</w>
du le</w>
mater ial</w>
in corpor
6 9</w>
régl ement
P I</w>
D U</w>
électron ique</w>
eth ni
bil ity</w>
simil ar</w>
vic times</w>
id ed</w>
f élic
m ation</w>
tr é
iv es</w>
lik ely</w>
s ure</w>
Americ a</w>
d one</w>
S C
Reg ulation</w>
7 2</w>
M ill
s anc
dur ant</w>
Min istry</w>
enti tled</w>
Sel on</w>
present ed</w>
No te</w>
cat eg
s û
ac tes</w>
M us
D el
l ande</w>
carri ed</w>
certi fic
man date</w>
Y ou</w>
et er</w>
D C</w>
Ch ap
Po li
tra ff
T O</w>
op s</w>
Mon sieur</w>
è de</w>
ec t
investi g
di pl
challeng es</w>
it aires</w>
par ts</w>
a éri
ad ress
bili ties</w>
c anc
Par ty</w>
nu clear</w>
h ér
mê mes</w>
proc esses</w>
lang ue</w>
y s</w>
compre hensive</w>
en ed</w>
V o
b es</w>
Pro ject</w>
modi fications</w>
i als</w>
lang ues</w>
lab our</w>
ail le</w>
ectron ic</w>
S en
f ew</w>
nombre uses</w>
b as
opér ationn
essenti al</w>
conserv ation</w>
ari es</w>
sen sibil
ing ly</w>
z er
previ ous</w>
S te
stat es</w>
ocrati c</w>
permet tant</w>
I tal
s ch
P an
U L
ét ap
trouv er</w>
f ar</w>
in qui
B ur
A ustr
on om
derni ères</w>
Ira q</w>
streng th
S tu
derni ère</w>
pro vis
ma k
ti n</w>
supplément aires</w>
mécanis mes</w>
di g
du s</w>
impl ement</w>
uni on</w>
E X
â ge</w>
sor te</w>
C F
in k</w>
régl ementation</w>
des ign</w>
y oung</w>
ri t</w>
reç u</w>
re fu
tionn el</w>
ritanni que</w>
qu o
address ed</w>
no tes</w>
fol low</w>
val uation</w>
Col um
O S
s am
con stat
in titul
stratégi que</w>
con seil</w>
mod èle</w>
po verty</w>
Protoc ol</w>
ouv er</w>
emb l
b ass
h ome</w>
provin ci
in cl
AI DS</w>
Au th
Dé clar
b ul
pl y</w>
c ris
ch im
terroris me</w>
it aire</w>
encour age</w>
con sid
sh are</w>
qu ées</w>
em ph
minist ères</w>
cons omm
O r</w>
Pro duc
9 3</w>
gi ble</w>
ew an</w>
re duce</w>
expres sed</w>
ré alisation</w>
ep ti
a c</w>
sing le</w>
econom y</w>
cir cum
tr ice</w>
th ing</w>
Administr ation</w>
S E
Sask atch
ex tern
a jou
requi re</w>
C ela</w>
Saskatch ewan</w>
compli ance</w>
gre at</w>
uni ver
si bilities</w>
l ines</w>
ord ing</w>
Br un
canadi ens</w>
ain ed</w>
av ez</w>
re conn
entr ée</w>
a j
exist ence</w>
conclu sion</w>
under standing</w>
over all</w>
le y</w>
bil ité</w>
m ail</w>
rel atif</w>
t ance</w>
propos als</w>
b at
fac tors</w>
t le</w>
m l</w>
ro om</w>
it age</w>
coû t</w>
am ents</w>
co ordonn
er ait</w>
Colom bie</w>
ag no
cl ose</w>
hol d</w>
pl ay</w>
consom mat
vic ti
objecti ve</w>
arrang ements</w>
ar ound</w>
C M
améli or
regi ons</w>
viol ations</w>
er ci
auth ori
Memb res</w>
espè ces</w>
Re view</w>
er ie</w>
ph one</w>
stratégi es</w>
é der</w>
2 8
qu ée</w>
D A</w>
conséqu ent</w>
concern s</w>
pi ed</w>
I T</w>
Joh n</w>
comm un</w>
appli quer</w>
b res</w>
UN IC
f ying</w>
av enir</w>
rest e</w>
ven tions</w>
ru ption</w>
respons able</w>
établiss ements</w>
part ement</w>
p ul
urg ence</w>
organ es</w>
fonctionn ement</w>
achiev e</w>
Accor d</w>
satisfac tion</w>
M ac
Par t</w>
deleg ation</w>
spéci alis
charg é</w>
et é</w>
mic ro
pre pared</w>
es tern</w>
Res ources</w>
l or
7 1</w>
exp end
pl ay
ke eping</w>
Pr op
K ing
to ok</w>
Afgh an
struc tures</w>
For ces</w>
Pro v
par mi</w>
expres sion</w>
gh out</w>
g et</w>
trou ve</w>
ement ed</w>
sh ar
tro isième</w>
pr en
J u
princip le</w>
C al
P C</w>
investiss ement</w>
op tions</w>
Afghan istan</w>
inte gration</w>
fu gi
B er
7 8</w>
aver age</w>
accord ing</w>
re a</w>
O R</w>
P alestini
se l</w>
is ed</w>
comm ittee</w>
C entr
A F
tor y</w>
conduc ted</w>
loc ation</w>
w ar
th an
cy cle</w>
des sus</w>
H igh</w>
Amend ment</w>
guar ante
possibil ités</w>
or ité</w>
Bu dg
financi er</w>
Environ mental</w>
t â
mat ters</w>
protég er</w>
C S
re duction</w>
en sus</w>
pre vention</w>
l à</w>
Ch i
re al</w>
E ff
le ad</w>
ach es</w>
l aun
ch ef</w>
v ente</w>
liber té</w>
istr ation</w>
O T
strategi es</w>
Res pon
respons ables</w>
VI H</w>
design ed</w>
comp et
fron ti
vi a</w>
attein dre</w>
inter nal</w>
dem n
ori ent
élev é</w>
install ations</w>
communaut és</w>
ex change</w>
trans fer</w>
pro toc
t om
prévo it</w>
appli ed</w>
exc ep
pr es</w>
Rep res
r ue</w>
basi c</w>
ap port
L eg
em ment</w>
st ake
dé la
we ap
aur a</w>
citiz ens</w>
us er</w>
modi fi
as ter</w>
D I</w>
U N</w>
déf ense</w>
pe ace
com ing</w>
crit eria</w>
it ures</w>
an ted</w>
Déclar ation</w>
7 6</w>
S lo
ê me</w>
éri eures</w>
Ch ina</w>
me dical</w>
pri orities</w>
Regi onal</w>
collectiv ités</w>
mati que</w>
B usiness</w>
at ten
enreg istr
al li
ouver ture</w>
ist ed</w>
st ated</w>
initi al</w>
pro pre</w>
retur n</w>
sp h
Par agrap
der ation</w>
ré v
ar ily</w>
at a</w>
fai ble</w>
D éc
val id
Initi ative</w>
Bi en</w>
us age</w>
fér ences</w>
determin e</w>
S af
com port
prév ues</w>
Colum bia</w>
out side</w>
increas ing</w>
actu elle</w>
cho ix</w>
pu is
hi m</w>
tu al</w>
rece ive</w>
demon str
b a</w>
num éro</w>
z ing</w>
p tions</w>
décid é</w>
C oll
pri or</w>
se e
v al</w>
pen sion</w>
oun ds</w>
B ar
for ward</w>
médi as</w>
ré qu
déla i</w>
au me</w>
se par
t ori
k r
F ac
Doc ument</w>
em enting</w>
val ues</w>
mod el</w>
él aborer</w>
S M
nu tri
bu re
indic ated</w>
con vention</w>
import antes</w>
fourn iss
it ement</w>
stat ut</w>
facil iter</w>
fo res
E ducation</w>
inter pre
transfer t</w>
Commis s
h ours</w>
év entu
am es</w>
pay ment</w>
identi fy</w>
modi fication</w>
wh ole</w>
li ving</w>
k a</w>
adequ ate</w>
conduc t</w>
ru le</w>
dec ided</w>
propos é</w>
pati ents</w>
fav or
ex port
regul ar</w>
conse ils</w>
R om
cont ent</w>
I S</w>
S ome</w>
enni um</w>
confl its</w>
des cription</w>
hand ic
direc tives</w>
m ach
B y</w>
y a</w>
appro xim
Bu t</w>
pre vent</w>
as h
str ong</w>
Amend ement</w>
imp li
7 4</w>
C ependant</w>
fonctionn aires</w>
él abor
employe e</w>
con vient</w>
tionn elle</w>
sel ves</w>
im medi
ré fugi
T C</w>
sup ported</w>
docum entation</w>
pro pres</w>
ti se</w>
Protoc ole</w>
ev ents</w>
re z</w>
tain ing</w>
ist er</w>
correspon d
tab leau</w>
contribu te</w>
hy dro
ad resse</w>
d ess
Fo od</w>
fi l</w>
3 00</w>
tionn elles</w>
depart ments</w>
s essions</w>
deli very</w>
at ures</w>
Uni versité</w>
an cial</w>
inter ests</w>
ter res</w>
guid elines</w>
crimin al</w>
tou tefois</w>
cre ate</w>
a que</w>
M ari
Agr icul
be h
as tr
chap itre</w>
ess ing</w>
reas on
utilis é</w>
alim ents</w>
govern ments</w>
région ales</w>
év olution</w>
cho is
dy nam
gr andes</w>
arb itr
li ens</w>
sup pli
mati ères</w>
let ter</w>
throu ghout</w>
Ar ch
relati vement</w>
s er</w>
suffici ent</w>
M or
suppl y</w>
secré tariat</w>
H ome</w>
a ér
B ro
s ent</w>
acc or
prés ence</w>
mater ials</w>
au dit</w>
pré ci
étrang er</w>
o di
utilis és</w>
ét aires</w>
v olume</w>
mechanis ms</w>
juridi ques</w>
la ws</w>
stu dents</w>
Qu es
responsabil ités</w>
terroris m</w>
f lo
défin ition</w>
ent ative</w>
p u</w>
sci ence</w>
région aux</w>
di s</w>
pro pose</w>
sur tout</w>
w it
donn e</w>
ap s</w>
D E
consult atif</w>
a qu
succ ès</w>
defin ed</w>
ten ance</w>
clos ure</w>
S P
C ul
aff ected</w>
L E
t d</w>
humanit arian</w>
off er</w>
associ ations</w>
incid ence</w>
dis pens
garanti r</w>
awar eness</w>
sc ol
mati ques</w>
streng then</w>
prim ary</w>
vol un
lead ership</w>
pê che</w>
con str
P i
ici al</w>
i des</w>
ten ues</w>
is ts</w>
Ann exe</w>
compl eted</w>
sur face</w>
ti ss
c s</w>
J ourn
CAN AD
e duc
eval u
séri e</w>
competi tion</w>
i m</w>
ent er
E d
is ol
ev ent</w>
li on</w>
plu tôt</w>
identi fication</w>
fi f
ak ing</w>
E ast</w>
év én
is ing</w>
ant i</w>
tain s</w>
habit at</w>
Ã ©</w>
esti onn
consist ent</w>
ro g
me th
man dat
th us</w>
re ad</w>
Institu t</w>
comm itted</w>
equ al</w>
seri ous</w>
dang er
L et
oun c
n s</w>
b ou
moy enne</w>
susc epti
é change</w>
end ra</w>
déclar é</w>
inter ne</w>
L O
Po int</w>
po int
low er</w>
compr end</w>
dru g</w>
arm ac
lign es</w>
emph asi
to o</w>
8 3</w>
trans ports</w>
li eux</w>
circum stances</w>
négoci ations</w>
du m</w>
minist éri
un ité</w>
m ement</w>
li n</w>
é tique</w>
w rit
sub si
cam p
anc ing</w>
Fin ancial</w>
gen ous</w>
man ner</w>
app are
sub section</w>
Roy aume</w>
Un der</w>
annu el</w>
believ e</w>
ac cid
L I
esti me</w>
it self</w>
ep s</w>
re ti
fédér ale</w>
mé dec
y l</w>
we b
concurr ence</w>
Mon tré
présent ation</w>
r om
inter prét
s emble</w>
comp tes</w>
comm une</w>
l t</w>
métho de</w>
w ant</w>
cré dit</w>
in ement</w>
prior ité</w>
professi onal</w>
in al</w>
Centr al</w>
gr at
protec t</w>
Montré al</w>
accro ître</w>
L im
minu tes</w>
st ar
ra ther</w>
st and</w>
éri eurs</w>
H R</w>
ext ent</w>
rais ons</w>
re form</w>
publ ications</w>
fig ure</w>
prév u</w>
u t
determin ed</w>
catég orie</w>
associ ation</w>
at oires</w>
v it
u te</w>
anti ll
ul t
ac es</w>
gl ements</w>
sec tors</w>
descri bed</w>
ga z</w>
B C</w>
conf lit</w>
consomm ation</w>
R I
ish ed</w>
W P</w>
ant ly</w>
p sy
impl emented</w>
enregist rement</w>
PD F</w>
im médi
Ã ¨
metho ds</w>
gu ide</w>
l am
publish ed</w>
gu erre</w>
alim entaire</w>
j am
8 7</w>
centr ale</w>
a fric
di a</w>
loc aux</w>
ti er</w>
C O</w>
ré forme</w>
oper ational</w>
dam ental</w>
de al
M ais</w>
ren ouv
conc ept</w>
E tats</w>
po s</w>
vo l</w>
candidat s</w>
8 4</w>
Se con
poin ted</w>
L oc
Ou est</w>
r y
S ince</w>
fisc al</w>
bo ard</w>
S ous</w>
produc ed</w>
pi è
am bi
m ét
é p
IP O</w>
ic ers</w>
proc u
Pe op
ar ms</w>
P E
isi tion</w>
exper tise</w>
as sum
propor tion</w>
sh ort</w>
Ch ine</w>
8 1</w>
in dependent</w>
C R</w>
vis ed</w>
seu l</w>
p rec
emp ê
cons ensus</w>
ju dg
tur ing</w>
off ices</w>
el ements</w>
deb ate</w>
tor ture</w>
e il</w>
caract ère</w>
an ia</w>
cover ed</w>
net work</w>
approv al</w>
C N
ag e
con tenu</w>
s élection</w>
at h</w>
r ing</w>
7 9</w>
te am</w>
pr ice</w>
f réqu
at mo
viol ation</w>
part nership</w>
ol es
pos s
ho tel</w>
bal ance</w>
f ri
E st
demand er</w>
pop ul
s a
hé sion</w>
D o
R E</w>
Ou r</w>
p ack
compl ain
è rent</w>
Gu ide</w>
integr ated</w>
sim ple</w>
ar ab
ho sp
influ ence</w>
n °</w>
for t</w>
rem ain</w>
charac ter
clai m</w>
per cent</w>
V anc
c all</w>
des truc
sec tions</w>
leg isl
t ables</w>
D uring</w>
recher ches</w>
pres cri
rec o
spéci ale</w>
wor ds</w>
IN G</w>
long er</w>
ori entation</w>
h ou
milit aire</w>
an ch</w>
contr act</w>
Brun sw
S co
ens uring</w>
ht ml</w>
soci ales</w>
cli ent</w>
di versité</w>
ass ist</w>
clim ate</w>
Nouv elle</w>
milit aires</w>
présent ant</w>
préc is
Pr incip
y et</w>
bi r
enti ss
comp ati
sec ret
ed ings</w>
g y
éch antill
adv ant
continu er</w>
8 2</w>
l abor
int ended</w>
tin e</w>
dev ons</w>
â g
Vanc ouver</w>
Num ber</w>
al ong</w>
requi res</w>
clai rement</w>
rem bour
Dec laration</w>
cri mes</w>
hô tel</w>
ré mun
N et
el ectronic</w>
engag ements</w>
exc eption</w>
mo bili
li er</w>
res ource</w>
8 9</w>
g ens</w>
Brunsw ick</w>
h and</w>
sid a</w>
Pr om
W in
v o</w>
é ni
omm et</w>
de partment</w>
maladi es</w>
Gl ob
prest ations</w>
B ritannique</w>
difficul t</w>
rec ord</w>
sou mis</w>
I N</w>
tra ités</w>
s at
amend ments</w>
in demn
jur y</w>
élé ment</w>
inform ed</w>
r ant</w>
pur ch
install ation</w>
sk ills</w>
statisti ques</w>
con v
ati ques</w>
Ban que</w>
C re
acces sible</w>
re ur</w>
Se e</w>
j ets</w>
rais onn
vis it
c are
e ding</w>
re ach
p p
EM ENT</w>
Im pl
c raft</w>
hum ains</w>
n ation</w>
mark ets</w>
w ish</w>
8 00</w>
reas ons</w>
coll ec
Syst em</w>
compr endre</w>
bil lion</w>
mat es</w>
8 6</w>
T im
regul atory</w>
è que</w>
franç ais</w>
facilit ate</w>
élimin ation</w>
essenti el</w>
dom in
ad ver
pl an
exper t</w>
loc ales</w>
les quelles</w>
L ES</w>
G O
AN S</w>
S ch
impl ementing</w>
fi e</w>
spéci fiques</w>
consommat eurs</w>
sign al
s av
ic a</w>
imp ôt</w>
W IPO</w>
f ish</w>
pho to
H ar
stake holders</w>
P AR
il lez</w>
L o
all s</w>
insp ection</w>
t él
recomm ended</w>
Al though</w>
pro venant</w>
Char ter</w>
b ation</w>
d ès</w>
les quels</w>
coll ection</w>
he ad</w>
réfugi és</w>
investiss ements</w>
T e
pre ci
a des</w>
coll ective</w>
U kr
ask ed</w>
sc ope</w>
m age</w>
tiv ité</w>
H aut</w>
Un i</w>
ci v
terr ain</w>
n ord</w>
ré si
Bel gi
loc ated</w>
veill er</w>
wh ose</w>
intro duction</w>
tradi tional</w>
pass é</w>
démocrati que</w>
y outh</w>
Me eting</w>
b ar
véhic ules</w>
chac un</w>
outi ls</w>
co ver</w>
R ob
st er</w>
autor ité</w>
ur s</w>
chi ff
trav el</w>
UNIC EF</w>
conse qu
an ie</w>
st eps</w>
per c
cre ated</w>
en ue</w>
M IN
rapid ement</w>
to ols</w>
W i
l ater</w>
R i
i ère</w>
aff aire</w>
comm ents</w>
con ci
King dom</w>
en able</w>
adop ter</w>
particip ate</w>
t ol
subst ance</w>
fon d</w>
am ent
financ ing</w>
we b</w>
sc r
génér alement</w>
cré é</w>
cust om
parten ariat</w>
Par t
provis oire</w>
effici ent</w>
Industr y</w>
ep h
t lement</w>
ent h</w>
pap er</w>
no ti
su is</w>
famili es</w>
off rir</w>
L ab
Pu bl
s ay</w>
appu yer</w>
COM M
st age</w>
cl early</w>
exerc ise</w>
pr end</w>
clai ms</w>
respon sibilities</w>
maladi e</w>
appli que</w>
Ge or
rou te</w>
k on</w>
al leg
lear ning</w>
Ho tel</w>
rec ue
Con go</w>
oper ating</w>
un it</w>
gener ally</w>
accep table</w>
cri tical</w>
persp ective</w>
classi fication</w>
vis u
Par is</w>
dis par
on i
at eli
view ed</w>
e f
poll ution</w>
trans mission</w>
success ful</w>
è les</w>
iss ons</w>
se qu
lo o
let tre</w>
E st</w>
o ine</w>
Man u
follow s</w>
e as
prest ation</w>
o te</w>
Ko so
pai ement</w>
gr ands</w>
en jo
ec ture</w>
re mar
main tenance</w>
O C
en voy
esp ace</w>
n é
reques ts</w>
sub s
ill ic
succ ess</w>
Au tres</w>
fun damental</w>
im porte</w>
al ways</w>
seu le</w>
ér é</w>
h abil
habit u
ser vi
contribu er</w>
negoti ations</w>
personn els</w>
b ers</w>
ou gh</w>
promo ting</w>
go als</w>
Russi e</w>
phys ical</w>
M i
L ang
applic ant</w>
radi o
L td</w>
T E</w>
te ach
quel que</w>
enh ance</w>
Fo reign</w>
dis pose</w>
reven us</w>
pouv oirs</w>
them selves</w>
candidat es</w>
h ors</w>
0 4
a tri
E A</w>
dis posi
éch é
e ds</w>
dis tric
form at</w>
rè glements</w>
obstac les</w>
cl am
é th
Commun ications</w>
cons ci
coll abor
ic o</w>
cre dit</w>
jo b</w>
ist ant</w>
langu ages</w>
ré vis
res olutions</w>
I F
ari ats</w>
év iter</w>
t ability</w>
s ais
v u</w>
fa ite</w>
interven ants</w>
com pu
pouv ez</w>
pl ement</w>
O P
achiev ed</w>
Minis tre</w>
ré per
comm and
exéc u
concentr ation</w>
menti oned</w>
professionn els</w>
ç u</w>
mor t
d ar
Govern ments</w>
rem erci
en forcement</w>
appe al</w>
rou ght</w>
v acc
représent e</w>
Chair man</w>
M ich
De puis</w>
Saf ety</w>
w id
form al</w>
maj ority</w>
ur b
li qui
rest aur
Ad visory</w>
a p</w>
ex tra
g es</w>
M O
per f
prog res
X X
nav ig
v ér
peu ples</w>
k m</w>
pr ac
Koso vo</w>
meill eure</w>
cre ation</w>
è tres</w>
sci ences</w>
nuclé aires</w>
constitu ent</w>
s ent
com position</w>
br ing</w>
Corpor ation</w>
off er
prof it</w>
bure aux</w>
T ER
ag ain</w>
trim oine</w>
hi bi
examin é</w>
ic king</w>
proce edings</w>
te z</w>
ple inement</w>
sanc tions</w>
minis tres</w>
communaut aires</w>
recogni zed</w>
Al lem
ad équ
writ ten</w>
sug g
ad ded</w>
Chil dren</w>
som e
Ass ess
organiz ed</w>
weap ons</w>
tiv ity</w>
Yu kon</w>
e ful</w>
mon ey</w>
g as</w>
Cont act</w>
entrepr en
fam illes</w>
Strat egy</w>
L ake</w>
tro p</w>
ext érieur</w>
maj orité</w>
compét ence</w>
el im
T élé
is tique</w>
speci fied</w>
al istes</w>
fem me</w>
déclar ations</w>
ci de</w>
4 00</w>
stat ements</w>
s mo
H on
pour suivre</w>
y le</w>
adap tation</w>
oper ate</w>
all ég
r ich
l ac
pen se</w>
C y
suiv ante</w>
Memb ers</w>
naturel les</w>
t op
ap porter</w>
M rs</w>
lo ok</w>
Direc teur</w>
i ds</w>
A M</w>
V oir</w>
W est</w>
effecti veness</w>
pour quoi</w>
Ger many</w>
app ell
in ning</w>
sal le</w>
u its</w>
efficac es</w>
étrang ères</w>
che dule</w>
restric tions</w>
autor isation</w>
princip ales</w>
r aci
él è
entiss age</w>
T y
travail l
T A</w>
par a</w>
im migration</w>
Trans port</w>
on going</w>
reg ulation</w>
min or
ti ennent</w>
ch ec
al though</w>
tri bunal</w>
inst ance</w>
T ab
dem and</w>
interven tions</w>
i ii</w>
sur vey</w>
under taken</w>
scienti fiques</w>
A près</w>
destruc tion</w>
er ce</w>
acqu isition</w>
Parti cip
work sh
inter médi
me asu
victi ms</w>
cl ari
industr ies</w>
relation ship</w>
S ite</w>
aut onom
â ti
all er</w>
conna issance</w>
duc ing</w>
lin ks</w>
humanit aire</w>
th è
Co ordin
radi o</w>
disponi ble</w>
remain s</w>
ai med</w>
end ro
intellectu elle</w>
Ex am
main tain</w>
lin gu
sp on
pro li
we e
198 9</w>
i ties</w>
ec h</w>
reg istration</w>
manif est
ann ounc
strength ening</w>
ser aient</w>
Budg et</w>
employ é</w>
dé si
sec u
de al</w>
op pos
pu ty</w>
I A</w>
ser ies</w>
sh ow</w>
Asi e</w>
région ale</w>
ri el</w>
C C</w>
Chi ef</w>
an nex</w>
re ach</w>
Off icer</w>
conn ection</w>
arm ed</w>
vou dr
Russi an</w>
eu m</w>
estim ated</w>
th y</w>
diff icile</w>
sel ection</w>
ai rement</w>
am en
port ée</w>
Pri v
souha it
Commun auté</w>
conséqu ences</w>
re pres
V ice</w>
indi que</w>
am oun
t ary</w>
b lo
su d</w>
ai gn
mécanis me</w>
ur ban</w>
ri e</w>
en sion</w>
in dex</w>
D u
si ze</w>
en ses</w>
at tr
Mar k
ON U
Atlanti c</w>
Parti e</w>
z es</w>
pro pos</w>
EC E</w>
cau ses</w>
it ems</w>
Dé partement</w>
confi denti
vis it</w>
u su
E UR</w>
ever y
b ack
defin ition</w>
exc e
Pro f
ous ing</w>
B al
rem plac
judici aire</w>
vou l
subm it</w>
s se</w>
territ oires</w>
dér ation</w>
Sup port</w>
T out</w>
tak es</w>
ti l
mon th</w>
rap ide</w>
arm ement</w>
Agricul ture</w>
appr entissage</w>
Palestini an</w>
enti al</w>
sex es</w>
con ference</w>
improv ed</w>
secret ariat</w>
ans w
cl és</w>
en tion</w>
rem pli
R iver</w>
re in
qu and</w>
Ukr aine</w>
T ous</w>
offici als</w>
S E</w>
E U
ag o</w>
De f
handic ap
territ ory</w>
J ean</w>
W H
él ections</w>
Lors que</w>
conform ité</w>
li en</w>
F ish
ap point
R ou
ch ers</w>
S U
Ro om</w>
civi li
favoris er</w>
offici elles</w>
recommand ation</w>
parl ement
jam ais</w>
cor ruption</w>
dossi er</w>
compens ation</w>
improv ing</w>
d an</w>
Allem agne</w>
her e
priv ée</w>
th ink</w>
sp ati
Repres entative</w>
D ru
commerci ales</w>
dipl om
fi és</w>
ais se</w>
A ir
l ad
direc trices</w>
quar ters</w>
ré parti
difficul tés</w>
v ill
r ang
An aly
ic ité</w>
rése aux</w>
ordin aire</w>
regis tered</w>
médic aments</w>
particuli ers</w>
pré paration</w>
isi e</w>
lo ss</w>
ë l</w>
refu ge
sup érieur</w>
e fs</w>
dé cl
w ing</w>
pass er</w>
Nor thern</w>
re d
e ases</w>
im age</w>
ouv rir</w>
vi ennent</w>
le ave</w>
C D</w>
Techn ology</w>
det ailed</w>
am s</w>
ill ed</w>
A t
con g
Minis ters</w>
asse ts</w>
eph one</w>
R em
travail ler</w>
té mo
fa x</w>
respec ter</w>
eu re
sh own</w>
b order</w>
oun dation</w>
approxim ately</w>
vehic le</w>
min al</w>
wh y</w>
m itted</w>
investi gation</w>
princip alement</w>
al co
exam ine</w>
stratégi ques</w>
uti le</w>
W estern</w>
F é
intro duced</w>
func tions</w>
t un
indic ateurs</w>
H ouse</w>
con ver
l um
em issions</w>
hist ory</w>
scienti fic</w>
bl an
buil d</w>
en suite</w>
aut ant</w>
li ation</w>
Por tu
198 8</w>
actu al</w>
A ra
ev a</w>
Pl ann
off icers</w>
étrang ers</w>
free dom</w>
ch ets</w>
altern ative</w>
oc r
Dec ision</w>
al ie</w>
S A</w>
ouver t</w>
ori z
I P</w>
A in
territori al</w>
aut eurs</w>
requi rement</w>
just e</w>
198 7</w>
servi r</w>
An d</w>
Comp any</w>
tu des</w>
0 2
sp ec
industr ial</w>
pu isse</w>
di ri
B os
ac compl
h eure</w>
im mun
cherch eurs</w>
dé plac
ag g
mar que</w>
car b
comb at</w>
conse ill
li ve</w>
Char te</w>
z i
Appl ication</w>
extern al</w>
étudi ants</w>
eff ectively</w>
g am
to p</w>
comp ared</w>
subsi di
Per man
com prom
di e</w>
us ers</w>
min es</w>
cir const
F A
F OR
Employ ment</w>
S P</w>
de g
g estionn
charg es</w>
meas ure</w>
gar de</w>
p alestini
uni quement</w>
ne y</w>
ste p</w>
concentr ations</w>
CE E</w>
comm iss
M il
encour ager</w>
ris ks</w>
Ain si</w>
di vision</w>
ner ships</w>
t ali
scho ols</w>
in surance</w>
t ations</w>
déf is</w>
S m
Assess ment</w>
lim it</w>
Gu id
func tion</w>
appel ant</w>
en ge</w>
E sp
emplo is</w>
M es
ag issant</w>
ac qui
g ary</w>
sc ale</w>
cl asse</w>
dét aill
th i
pr it</w>
cris is</w>
mi x
ar m</w>
v ac
mu si
ne g
ter re</w>
E P</w>
ac compli
pré al
entraî n
we ek</w>
fav our</w>
g ri
ox y
Fr an
F ig
ali ties</w>
ad just
grap hi
s cre
C L
sup porting</w>
enc ed</w>
ag ue</w>
peti tes</w>
re duced</w>
dou ble</w>
fa ites</w>
lat ér
commit ments</w>
C P</w>
rés olutions</w>
on ie</w>
ent ed</w>
ins cri
lin ed</w>
st art</w>
p ages</w>
Fe deration</w>
di versity</w>
f air</w>
reas on</w>
t ard</w>
trans actions</w>
Envir onnement</w>
caractér istiques</w>
at ér
ur red</w>
S cho
bo o
fer ences</w>
reason able</w>
ent ente</w>
resp ecti
dis tance</w>
comp ter</w>
e e</w>
adv ice</w>
anc ement</w>
dé ploy
Arch ives</w>
pay er</w>
G az
arm ament</w>
ne w
Premi ères</w>
conc eption</w>
dépos é</w>
cr ise</w>
govern ance</w>
communi quer</w>
p ou
ar ts</w>
ren ew
e quality</w>
è vement</w>
c ependant</w>
sign ature</w>
eur o</w>
milli ards</w>
E T
Su r</w>
T el
em pl
mo de</w>
lim ite</w>
P age</w>
legisl ative</w>
Ac cu
pr u
M u
ri es</w>
dis ease</w>
lead ing</w>
conna ître</w>
Glob al</w>
réalis er</w>
recommend ation</w>
ti s</w>
environnement ale</w>
oc k</w>
pr on
contr ac
canc er</w>
establish ing</w>
conven tions</w>
f requ
confi ance</w>
w ar</w>
t ests</w>
w ise</w>
pén ale</w>
catég ories</w>
imp acts</w>
C op
g er</w>
so i
tic ul
peop les</w>
abor d</w>
C B
défin i
permet tent</w>
en e</w>
ess ai</w>
sou tenir</w>
ch ed</w>
y ond</w>
règ le</w>
observ ation</w>
norm al</w>
f ail
f tw
fun d</w>
si x
web site</w>
actu el</w>
car ry</w>
P a
parten ariats</w>
Perman ent</w>
ann onc
c ess
Auth ority</w>
entr y</w>
O ver
fabr ication</w>
é rer</w>
anc oph
val u
ques tionn
no tice</w>
ren du</w>
s po
am ended</w>
A us
pre paration</w>
comp ag
Fr amework</w>
pay ments</w>
tr u
délég ations</w>
ap preci
répon ses</w>
OM PI</w>
Isra el</w>
Fé dération</w>
o ther
institu tional</w>
génér ales</w>
re t</w>
appro bation</w>
198 5</w>
a e</w>
Ob j
pol y
deli ver
ob tained</w>
sat ell
conn exes</w>
Con tribu
Asi a</w>
scienti fique</w>
fic ally</w>
sexu al</w>
ç ant</w>
F ol
H el
publi é</w>
con tient</w>
discus sed</w>
ad em
contin ues</w>
chim iques</w>
an g</w>
o il</w>
all ing</w>
enqu êtes</w>
pro sp
l isted</w>
fon dée</w>
B l
ex port</w>
Jap an</w>
det ails</w>
ti a</w>
D om
off ers</w>
R et
pr ices</w>
Off icial</w>
N at
ple ase</w>
dro gues</w>
f el
mess age</w>
c ity</w>
en du</w>
effici ency</w>
Acc ording</w>
répon d
Ci vi
du es</w>
st or
th reat
St atistics</w>
pré vue</w>
lo t</w>
si tion</w>
éc rit</w>
lit tle</w>
p un
m as
mak es</w>
V I</w>
sem in
E D
réc emment</w>
pl as
st ation</w>
m m</w>
ph armac
tr ac
mar ine</w>
voudr ais</w>
développ er</w>
dess ous</w>
agricul tural</w>
k g</w>
S om
Peop le</w>
qui e</w>
s port</w>
m ant</w>
cro ss</w>
man que</w>
Del eg
P OR
produ ire</w>
cus sions</w>
im es</w>
Chap ter</w>
0 3
nom ination</w>
b rought</w>
ex position</w>
un di</w>
F rom</w>
main tenir</w>
dés armement</w>
rec ords</w>
S k
Tr aining</w>
Ara b</w>
Rec omm
rap porteur</w>
air craft</w>
paragraph es</w>
se en</w>
ré us
Cri minal</w>
exp an
résul tat</w>
C et</w>
ch ron
hist oire</w>
Pan el</w>
du m
Indi an</w>
S ER
hy po
lim ites</w>
is tics</w>
F am
L is
ad oles
Af ter</w>
eli gible</w>
r ur
administr atives</w>
Journ al</w>
Paci fic</w>
v is</w>
larg ement</w>
ord ers</w>
Ac coun
r ite</w>
di agno
judici al</w>
Br anch</w>
set ting</w>
ill ing</w>
itte es</w>
treat y</w>
ag u
ch au
fi ée</w>
dis pu
modi fier</w>
circul ation</w>
H ow</w>
cul tures</w>
agric oles</w>
sum é</w>
se ar
conc ep
Ob serv
plac es</w>
ass ess</w>
N ig
res ses</w>
intitul é</w>
ther more</w>
Ré gi
comm entaires</w>
compl ète</w>
tax es</w>
re le
Pr ince</w>
educ ational</w>
n ér
m g</w>
N om
Ag enda</w>
con cre
st abilité</w>
è nes</w>
Wh ere</w>
M ul
B ra
Ir an</w>
ple in</w>
el ess</w>
indic ators</w>
S S</w>
do w
g al</w>
sau f</w>
G C</w>
2 50</w>
m al</w>
hi li
ic ity</w>
m ouv
S im
employ ed</w>
mod èles</w>
mechanis m</w>
n a
cons iste</w>
c ore</w>
k ind</w>
lig ence</w>
étap e</w>
rec ently</w>
pres ence</w>
ai m</w>
paragraph s</w>
exclu si
sid ente</w>
vul ner
physi que</w>
soulign é</w>
b is</w>
an es</w>
ival ent</w>
at ement</w>
P ak
ar gu
es prit</w>
adop tée</w>
qu ante</w>
sensibil isation</w>
P op
proc essing</w>
génér aux</w>
acc ent</w>
Accu eil</w>
circonst ances</w>
vul nér
cl ass</w>
En fin</w>
ex portation</w>
el ection</w>
ag ency</w>
indi genous</w>
dé mar
ju ge</w>
intro du
dec re
Is land</w>
dat ab
utilis ées</w>
comm o
CANAD A</w>
av oi
Ré union</w>
approv isi
peti ts</w>
applic ables</w>
effectu er</w>
s embl
refl ect</w>
dép ôt</w>
ag ir</w>
op position</w>
ap préci
dé chets</w>
pe ine</w>
dossi ers</w>
grad u
W il
d eci
and a</w>
commerci aux</w>
grow ing</w>
ré d
our able</w>
N u
compl ex</w>
accue il</w>
d le</w>
Tr av
sem aine</w>
res ol
Pro jet</w>
arr ê
dé liv
beh avi
Gen eva</w>
Ques tions</w>
ad s</w>
Con si
b âti
professionn elle</w>
s ales</w>
utilis ateurs</w>
requ ér
Impl ementation</w>
cont amin
ab in
peti t</w>
k er</w>
ouver te</w>
re vised</w>
h ope</w>
Cu ba</w>
conséqu ence</w>
priv il
lib ér
tan dis</w>
H ist
P ap
Isra ël</w>
ing ton</w>
syst é
men er</w>
ak es</w>
tr ain</w>
CO M</w>
éco les</w>
C P
glob ale</w>
op i
pro p
de ath</w>
tri bun
particip é</w>
um s</w>
ai e</w>
s ev
su b</w>
h a</w>
re lease</w>
r o</w>
cat astr
6 00</w>
out come</w>
discipl in
indic ate</w>
du ty</w>
produc teurs</w>
ftw are</w>
cal end
voy age</w>
go al</w>
trans l
fourniss eurs</w>
rapp el
deb t</w>
v ing
gr anted</w>
dat es</w>
permet tra</w>
A V
amend ment</w>
p as
P I
alloc ation</w>
t aille</w>
comp éti
europé ens</w>
T el</w>
2 4
c ents</w>
a h</w>
anim aux</w>
T ro
Con form
graphi ques</w>
pré venir</w>
Def ence</w>
vehic les</w>
Su stain
Strat egi
Soci ety</w>
ag ree</w>
h oriz
be yond</w>
part i</w>
el ds</w>
particuli ère</w>
concl u</w>
ec ting</w>
tor ate</w>
Cu st
pertin entes</w>
employ er</w>
aff ich
S he</w>
ass emb
orig in</w>
Sci ence</w>
Pl us</w>
h un
diri ge
produ ce</w>
expan sion</w>
se z</w>
stoc ks</w>
dem an
re ly</w>
Chil d</w>
conci liation</w>
cam pai
C o</w>
im prim
i on</w>
D ata</w>
appu y
pu issent</w>
go sl
sen si
acqu it
inten si
D ar
Net work</w>
sup ports</w>
L ic
mon tre</w>
rémun ération</w>
arri v
min e</w>
L abr
Is su
rais ed</w>
in fl
figur ant</w>
fondament aux</w>
iv ed</w>
â €
ament ary</w>
inv ite</w>
bec om
meth od</w>
fi les</w>
1 1
contr ats</w>
U p
vari ety</w>
prac tical</w>
Su ch</w>
é ré
co hér
ess ais</w>
approuv é</w>
analy ses</w>
préoccup ations</w>
me an
conclu ded</w>
gi r
cré dits</w>
El les</w>
recomm ande</w>
derni ers</w>
peu ple</w>
pa rer</w>
erg y</w>
att emp
compon ent</w>
qua tri
P au
Labr ador</w>
gouvern ance</w>
F ax</w>
duc tions</w>
o is</w>
determin ation</w>
interprét ation</w>
resul ting</w>
sti mul
N ation</w>
2 3
agric ole</w>
T i
se g
espè ce</w>
T w
d el</w>
chall enge</w>
Ver sion</w>
l et</w>
contain s</w>
le ft</w>
juris diction</w>
separ ate</w>
fourn i</w>
saf e</w>
Q UE</w>
N un
pres se</w>
emerg ency</w>
C ity</w>
V ic
Jo int</w>
Pak istan</w>
so l</w>
atten d</w>
Ex per
guid ance</w>
P ays</w>
De puty</w>
v oc
dis cu
reconna issance</w>
évén ements</w>
ul ar</w>
Gen ève</w>
bo ok</w>
authori zed</w>
Fur thermore</w>
multi latér
for te</w>
Aff aires</w>
develop ments</w>
mar g
mari time</w>
e es</w>
ri en</w>
A uc
In tro
un its</w>
targ et</w>
recev oir</w>
mod alités</w>
resp ective</w>
St re
prov isi
D ur
invol ving</w>
con dam
gouvernement aux</w>
sou ff
follow ed</w>
P hili
A U</w>
princip ale</w>
hy dr
comm issions</w>
jou er</w>
b arri
d rait</w>
S we
eur os</w>
par li
exp enses</w>
ob s</w>
h app
occup ation</w>
de p
traff icking</w>
cau s
du ties</w>
f all</w>
f ound
C at
oll ed</w>
inv ited</w>
quatri ème</w>
no tification</w>
us eful</w>
conc ours</w>
tion ing</w>
sh or
appro aches</w>
st able</w>
intermédi aire</w>
New s</w>
F R
lead ers</w>
P lease</w>
hum aine</w>
hau te</w>
ré vision</w>
tra fic</w>
D É
réalis és</w>
clos ed</w>
Co operation</w>
ar k</w>
1 50</w>
pré serv
Lab our</w>
anc y</w>
Tra ité</w>
Publ ications</w>
T ax</w>
ON G</w>
un ités</w>
d on</w>
An nu
ré un
donn ée</w>
Prom o
Jap on</w>
ban k</w>
im m
O l
allow ed</w>
é changes</w>
inform al</w>
E t</w>
Sum mit</w>
fourn it</w>
civ ils</w>
cap able</w>
b in
présent ée</w>
S ource</w>
ke ep</w>
ent y</w>
produc tive</w>
sim pli
k il
amoun ts</w>
reach ed</w>
H am
res ear
IN C</w>
ai ly</w>
con tenant</w>
C D
organis é</w>
arg ent</w>
et h</w>
équip ement</w>
c les</w>
ob tain</w>
infrastruc tures</w>
w est</w>
rec ettes</w>
recue illi
str ong
al a</w>
Her z
depend ence</w>
tra iter</w>
m én
él ar
sear ch</w>
Bul g
Cro ati
destin és</w>
cham bres</w>
beg inning</w>
aw are</w>
di min
appro fon
v ues</w>
expl ic
grav es</w>
M ore</w>
is ent</w>
Soci été</w>
exclu sion</w>
fédér aux</w>
compon ents</w>
inclu sion</w>
fic hi
pres sure</w>
ad hésion</w>
O L
ro oms</w>
dimen sion</w>
rati fication</w>
ATI ONS</w>
Portu gal</w>
ter a</w>
acc us
éco le</w>
tot ale</w>
emb our
0 s</w>
Secon d</w>
st ations</w>
ocr acy</w>
S ign
cl in
oc k
reas ury</w>
c y</w>
bo is</w>
mark eting</w>
hon or
pério di
Wor k</w>
condu ite</w>
si mul
exéc uti
P acte</w>
trans formation</w>
er o
ab and
alis er</w>
Lang u
acc um
deg ree</w>
T rés
b as</w>
v end
design ated</w>
con férences</w>
Ap pen
P ur
détermin ation</w>
it ant</w>
enn al</w>
Tab leau</w>
asp ect</w>
arch it
men ées</w>
volon té</w>
off ered</w>
gr ounds</w>
supplément aire</w>
sugges ted</w>
pré hen
h ousing</w>
bro ad</w>
h eure
as p</w>
T u
dev ait</w>
contain ing</w>
Num éro</w>
Ou t
tr ust</w>
accomp agn
tâ ches</w>
Appen dix</w>
C A</w>
b s</w>
sel ected</w>
ill ustr
pres s</w>
al most</w>
2 12</w>
f eu
D G
log ement</w>
he al
Mex ico</w>
ven ue</w>
Re présentant</w>
la w
â€ ™
gen re</w>
P ho
observ er</w>
ver i
tax e</w>
che fs</w>
lo ad</w>
under stand</w>
le tin</w>
formul aire</w>
po or</w>
ht m</w>
ement ary</w>
ari a</w>
Pol ice</w>
Al so</w>
B ay</w>
medi um</w>
instruc tions</w>
usin esses</w>
ord ed</w>
Av is</w>
hosp it
es tion</w>
R É
other wise</w>
Nouv eau</w>
el ectr
dé part</w>
candi date</w>
er ra</w>
aff ect</w>
stat u
vo ire</w>
st ability</w>
k ers</w>
ap parten
grou p
M ic
cour ts</w>
rit es</w>
re over</w>
re at</w>
In don
suscepti bles</w>
En ergy</w>
part nerships</w>
oc tro
p étro
sequ ently</w>
g et
Fig ure</w>
mo bi
PC T</w>
trait ements</w>
st es</w>
G H
R adi
Conform ément</w>
h ouse</w>
differ ences</w>
di vi
F re
eng age</w>
p d
commerci ale</w>
A A
shar ing</w>
s exe</w>
mu tu
recommand é</w>
spéci ales</w>
r ad
commun es</w>
so on</w>
D N
Ar gen
P NU
fourn is</w>
att a
EN T
Or der</w>
D U
speci fically</w>
si è
y cl
acti f</w>
contr acts</w>
reco very</w>
f um
a ther</w>
ab use</w>
religi on</w>
jo int
di minu
Con trol</w>
Commiss aire</w>
es te</w>
d ette</w>
E L</w>
défin ir</w>
invol vement</w>
i dée</w>
h az
par le</w>
ti di
C F</w>
an y
1 A</w>
par venir</w>
én erg
Recomm end
pouv ant</w>
fronti ères</w>
particip ating</w>
j eux</w>
Trés or</w>
di rig
anti cip
commun ic
Nov a</w>
mo vement</w>
fu sion</w>
Strat égi
acti fs</w>
par ole</w>
T reasury</w>
pr êts</w>
accep ted</w>
auth or</w>
réparti tion</w>
j ects</w>
proc éder</w>
ac teurs</w>
el ine</w>
exc ept</w>
é cl
évalu ations</w>
represent ed</w>
distric t</w>
par all
Th e
improv ement</w>
min d</w>
pour centage</w>
per te</w>
E valuation</w>
transpar ence</w>
U se</w>
continu ing</w>
é m
ach at</w>
possibil ity</w>
excell ent</w>
M E</w>
tradi tion</w>
call s</w>
Leg al</w>
acc ur
fr ont</w>
Un it</w>
pai ements</w>
in dispens
particip ant</w>
K en
log ici
su jets</w>
re viewed</w>
Regi on</w>
o is
M any</w>
r Ã©
atte int</w>
collectiv ité</w>
consul ter</w>
Am bass
observ ed</w>
ear lier</w>
di tion</w>
S S
sem aines</w>
si onn
con forme</w>
tri al</w>
Acc ess</w>
s auv
signific antly</w>
suffis amment</w>
démocrati e</w>
sibil ité</w>
compl ément
camp agne</w>
s ts</w>
Dem ocratic</w>
comp t
D ro
gr ave</w>
s ale</w>
av oc
prév us</w>
f eu</w>
bli oth
perman ente</w>
sh ared</w>
représent ent</w>
el ections</w>
fil ed</w>
Sustain able</w>
cl ini
compr ennent</w>
én aire</w>
consum er</w>
t esting</w>
high ly</w>
K y
L ond
de ed</w>
Commun ication</w>
de ploy
mo ve</w>
R ech
I E</w>
ap pointed</w>
associ és</w>
Ital y</w>
f ab
2 5
renouv el
second ary</w>
num bers</w>
r i</w>
identi té</w>
aw ay</w>
impl ications</w>
alim entation</w>
réserv es</w>
sep t</w>
ne ar</w>
sti c</w>
appoint ment</w>
M et
augment é</w>
O f</w>
re traite</w>
atis tical</w>
do ing</w>
Roy al</w>
M P
bi d</w>
Per form
augment er</w>
Indi a</w>
présent és</w>
élè ves</w>
o li
sub ventions</w>
out comes</w>
Ap pe
adv ance</w>
UN DP</w>
lo ss
announc ed</w>
ay er</w>
pass age</w>
par c</w>
inter ested</w>
recogni tion</w>
é tiques</w>
it ary</w>
E M</w>
consoli dation</w>
ser t</w>
ge ograph
198 6</w>
m auv
psy ch
T un
Produc ts</w>
t ask</w>
ret our</w>
ob tenu</w>
D C
ag ré
Sum mary</w>
nuclé aire</w>
S ing
No tre</w>
él arg
trav ers</w>
atmo sph
Th ere
im ages</w>
montr é</w>
dem ocratic</w>
Doc uments</w>
b ar</w>
F OR</w>
R ess
fu el</w>
persp ectives</w>
ex empl
for um</w>
collec te</w>
l on
pour ra</w>
fil m</w>
al ty</w>
véhic ule</w>
A F</w>
ain c
piè ces</w>
ul ed</w>
pd f</w>
S ommet</w>
mater n
m y
g ue</w>
év ision</w>
br ary</w>
car te</w>
s in
si e</w>
M at
multi l
ter ial</w>
th ings</w>
ec e</w>
un less</w>
def ence</w>
ri ting</w>
D en
tem per
aux quels</w>
er r
mo i</w>
dum ping</w>
europé ennes</w>
cu p
elim in
ethni c</w>
vis ées</w>
lum ière</w>
utilis ée</w>
reç o
meill eur</w>
Ter re</w>
tribun aux</w>
J am
ver b
W ater</w>
as ks</w>
fin ance</w>
ph én
is ting</w>
c ur
affec tation</w>
TR ANS</w>
pati ent</w>
ou est</w>
ho od</w>
tex tes</w>
P ER
quo tidi
premi ers</w>
fil les</w>
respon d</w>
P T</w>
dang er</w>
Lim ited</w>
l ess
b ases</w>
eu ve</w>
cop y</w>
al o
w aste</w>
exécuti f</w>
acc order</w>
b usinesses</w>
ér ance</w>
avoi d</w>
Scho ol</w>
Fish eries</w>
V e
comb us
abin et</w>
adop t</w>
ow er</w>
considér ation</w>
categ ory</w>
limin ary</w>
trans portation</w>
minor ités</w>
examin ation</w>
ch ô
mul ti</w>
F u
P ay
Intro duction</w>
part age</w>
corpor ate</w>
cho se</w>
f r</w>
Ma j
cl e
an moins</w>
quanti té</w>
C as
culturel s</w>
ro b
exig e</w>
tri c</w>
Her itage</w>
ev ision</w>
O ri
cad res</w>
Rel ations</w>
s chem
f arm
OS CE</w>
x embour
shi p
po ids</w>
wel come</w>
plain te</w>
vis és</w>
ar di
lin k</w>
dru gs</w>
ati es</w>
fun ded</w>
ac commo
Paci fique</w>
show s</w>
d û</w>
Sco tia</w>
Af in</w>
appli es</w>
considér é</w>
ori al</w>
Á Á
f are</w>
tr op
port é</w>
F ri
neg ative</w>
st atistics</w>
élimin er</w>
j obs</w>
M y
effectu é</w>
gr ant</w>
i k
Ress ources</w>
él ectr
f as
I B
ti e</w>
Ar c
j an</w>
un es</w>
volun tary</w>
Ar ticles</w>
éché ant</w>
forc ed</w>
Cer tains</w>
Ne ther
H y
hibi tion</w>
fin dings</w>
H un
R is
se a</w>
onn ées</w>
e ans</w>
Administr ative</w>
fr au
cu l</w>
E E</w>
am én
O U
pl ant</w>
compl et</w>
plann ed</w>
ni a</w>
se au</w>
alis m</w>
T A
inter nes</w>
Bu il
Ital ie</w>
cau sed</w>
i les</w>
dé rou
appar a
M aur
sub mission</w>
s c</w>
off icer</w>
appe ar</w>
net works</w>
Nether lands</w>
édi tion</w>
high est</w>
m ass</w>
approvisi onnement</w>
gé rer</w>
provinci aux</w>
se quent</w>
en u</w>
éri ques</w>
s enti
bi ais</w>
adop tées</w>
ch lor
anis h</w>
in vo
l ati
exten sion</w>
v r
Si erra</w>
t ablis
M id
PNU D</w>
mo tiv
exerc er</w>
long ue</w>
Ad option</w>
ve ts</w>
instruc tion</w>
le ts</w>
certi fication</w>
chang ed</w>
L in
compl aint</w>
cru cial</w>
A l</w>
em ed</w>
tr ouver
protec ted</w>
s en</w>
Rech er
M AR
appli quent</w>
er ve</w>
G ar
indi quer</w>
Res ul
Stat us</w>
R ules</w>
on line</w>
di v
There fore</w>
l eng
is é</w>
achiev ing</w>
proc ès</w>
peace keeping</w>
aff ili
v aste</w>
2 9
cont acts</w>
fac tor</w>
immedi ately</w>
fo rest</w>
ari b
ag é</w>
Bra z
dé lais</w>
Al g
w at
Sp ain</w>
av ut</w>
soli dar
deleg ations</w>
réper cussions</w>
inv ent
am a</w>
en ch
souha ite</w>
wh ere
monit or</w>
con vic
aur ont</w>
onn el</w>
Annu al</w>
dé tention</w>
ir ation</w>
E ach</w>
ai ms</w>
considé rée</w>
ro w</w>
dow n
discus s</w>
me an</w>
expend itures</w>
alim entaires</w>
appell ant</w>
port ent</w>
Al li
Ch ris
men ace</w>
Mo reover</w>
inf ection</w>
clos ely</w>
1 20</w>
se ek</w>
temp ér
dé pu
em or
tic ally</w>
univer sit
G estion</w>
Prop os
utilis ant</w>
acc o</w>
ving t</w>
H CR</w>
f low</w>
P N
i an</w>
competi tive</w>
E as
p t
gr ade</w>
N ic
er ous</w>
P al
In uit</w>
s por
expend iture</w>
destin ation</w>
t onnes</w>
w riting</w>
hear ing</w>
ex ec
Stratégi e</w>
Fin ally</w>
accoun tability</w>
met tant</w>
sen ior</w>
part ner</w>
work ed</w>
iti é</w>
so ftware</w>
Gre at</w>
O H
nor me</w>
ac ted</w>
man agers</w>
Pre vention</w>
com préhen
histori que</w>
pré sidence</w>
rel and</w>
incl ure</w>
n ever</w>
7 00</w>
ir a</w>
dev ra</w>
ti ens</w>
per mit</w>
S am
EN TS</w>
m erc
P H
ail way</w>
Li ber
entre tien</w>
électron iques</w>
velopp ement</w>
Me dia</w>
dem eure</w>
se x</w>
int éri
In te
trouv ent</w>
ent rer</w>
iss on</w>
CI HR</w>
m ér
export ations</w>
to ol</w>
de o</w>
cas ting</w>
cha î
ins cription</w>
charg ée</w>
B ang
avi d</w>
re pe
iter ran
annu elle</w>
S ol
on ia</w>
prepar e</w>
cô té</w>
w ood</w>
tend ance</w>
reconn u</w>
di am
in scr
compet ent</w>
consequ ences</w>
bre ak
consid ère</w>
fin ances</w>
I reland</w>
port eurs</w>
wor d</w>
foc used</w>
questionn aire</w>
regi me</w>
plain tes</w>
it ment</w>
intég rée</w>
Com ment</w>
Mill ennium</w>
re ducing</w>
struc tu
tur n</w>
it ting</w>
sé par
Jus tification</w>
s ound</w>
dam age</w>
R ule</w>
sum mary</w>
pro xim
Rec om
dem eur
Wi th
categ ories</w>
H u
V is
professionn el</w>
im position</w>
knowle dg
Strategi c</w>
budg étaires</w>
com ités</w>
asse z</w>
import ation</w>
spéci fique</w>
in suffis
pe g</w>
proch aine</w>
jur id
fish ing</w>
di gn
SER V
culturel les</w>
Lu xembour
potenti el</w>
B ru
stoc k</w>
employ eur</w>
W A</w>
i res</w>
C urr
Co venant</w>
bil atér
vis ée</w>
pl at
provisi onal</w>
élec tor
vir us</w>
Pri me</w>
Nun avut</w>
puis que</w>
in king</w>
raisonn able</w>
re construction</w>
M R</w>
ac ks</w>
dis abilities</w>
pend ing</w>
ec o
r age</w>
bre vets</w>
concern és</w>
y right</w>
br an
siè cle</w>
co des</w>
fi elds</w>
peti te</w>
Stre et</w>
li aison</w>
Recom man
lic ences</w>
Ass istance</w>
Ch aque</w>
Direc torate</w>
ec i</w>
félic ite</w>
n on
au quel</w>
is tic</w>
Tur key</w>
immédi atement</w>
Con tin
hol der</w>
cop ies</w>
Y outh</w>
Trans portation</w>
d ly</w>
expos ure</w>
pré limin
depart mental</w>
pron onc
wee ks</w>
M ol
j et
m ac
lut ter</w>
with dra
V ER
fabr ic
Par k</w>
four th</w>
th reat</w>
e asi
jud ice</w>
Con clu
B as</w>
low ing</w>
bl ess
L aur
m ol
Luxembour g</w>
aér on
D avid</w>
aur aient</w>
dev enir</w>
Perform ance</w>
F oundation</w>
ren d</w>
mess ages</w>
accoun ts</w>
sou ligne</w>
D F
5 0
consum ers</w>
cham p</w>
Win ni
Prov in
re present</w>
P res
vis ite</w>
premi ères</w>
inter diction</w>
th ème</w>
as sign
j eu</w>
F l
Austr alia</w>
on y</w>
pro hib
présent ées</w>
al d</w>
198 0</w>
T M
i um</w>
Tim or</w>
différ ences</w>
cin quante</w>
élev és</w>
C li
é vi
deal ing</w>
r ace</w>
Fur ther</w>
habil itation</w>
Dé f
usu ally</w>
hou se
pertin ents</w>
gir ls</w>
Premi er</w>
Slo v
we ight</w>
pl éni
Winni peg</w>
lin ked</w>
habit ants</w>
dét ail</w>
d ens
Mo st</w>
étudi er</w>
st ay</w>
enti re</w>
Au x</w>
Ty pe</w>
Civi l</w>
ro y
g n</w>
Ar ab
prim arily</w>
onn és</w>
H ab
cre ating</w>
comport ement</w>
pa trimoine</w>
T ari
me dic
é or
advant age</w>
attein te</w>
corpor ation</w>
pro per</w>
transi t</w>
mo tifs</w>
D ay</w>
Ad di
s even</w>
Mon it
par fois</w>
cont ain</w>
Fam ily</w>
ré clam
men tion</w>
M ême</w>
audi ence</w>
sur ve
acqu is</w>
fau drait</w>
omm un
ma ison</w>
te m</w>
tempor ary</w>
amend ements</w>
An y</w>
avail ability</w>
Mex ique</w>
al ign
pro active</w>
chem ical</w>
moder n</w>
por tion</w>
cultu rel</w>
IR SC</w>
Pr oper
pos sibles</w>
R u
pouv ait</w>
actu elles</w>
ref us
transpar ency</w>
préal able</w>
n or</w>
Paragrap h</w>
hau sse</w>
sch ed
dem ocracy</w>
loc ale</w>
essenti ellement</w>
syst em
perf ecti
resear chers</w>
Dé penses</w>
si ght</w>
l iter
v ice</w>
b ande</w>
allow s</w>
fr ag
per centage</w>
conn u</w>
nom in
l égi
del à</w>
contin g
pre ven
sh e
Comp te</w>
fe es</w>
previ ously</w>
st ress</w>
satell ite</w>
le ge</w>
onn er</w>
Le one</w>
U K</w>
exis t</w>
ti rer</w>
W el
ti r</w>
professi on
sé ances</w>
l ate</w>
d aily</w>
ologi es</w>
recommend s</w>
address ing</w>
cli matiques</w>
sub sequent</w>
sé min
c ouv
jurid ic
cour ses</w>
ind ication</w>
in form</w>
es ter</w>
cons ent</w>
Techn ical</w>
Esp agne</w>
contr aire</w>
se ts</w>
Su b</w>
de gré</w>
Pop ulation</w>
intég rer</w>
im possible</w>
ress or
a trice</w>
F R</w>
rég imes</w>
affir me</w>
t aires</w>
uti l
moder n
consum ption</w>
no té</w>
P at
Guid elines</w>
infr action</w>
B ret
ex hau
iz ing</w>
innov ative</w>
è tes</w>
uc tion</w>
ext ended</w>
v ation</w>
cont re
vo i</w>
sid ency</w>
spéci aux</w>
commiss aire</w>
fac teur</w>
reg ards</w>
thè se</w>
g ains</w>
compr en
facil ity</w>
can ada</w>
sen se</w>
C are</w>
situ é</w>
A zer
rembour sement</w>
class es</w>
territ ories</w>
em por
modi fié</w>
att én
gestionn aires</w>
H is</w>
second aire</w>
ç ons</w>
sec ure</w>
T V
v illes</w>
vi ous</w>
en ough</w>
exc essi
res truc
cho ice</w>
Comm erce</w>
pro long
nouv el</w>
set tlement</w>
St atisti
garanti e</w>
établi s</w>
im migrants</w>
élec tri
acc rue</w>
P our
compl y</w>
larg est</w>
compu ter</w>
C ré
abs olu
religi ous</w>
conv ainc
recru tement</w>
r ying</w>
ass ure</w>
qu ez</w>
ic ts</w>
ograph ique</w>
ô ts</w>
confi dence</w>
établi e</w>
g en</w>
arr êt</w>
or al</w>
esti mates</w>
préc ise</w>
Par mi</w>
chem in</w>
st a</w>
main ly</w>
ti ère</w>
fourn iture</w>
F P</w>
dou te</w>
Oper ations</w>
uti li
Ir lande</w>
ad joint</w>
Ch air</w>
lim its</w>
2 6
è lement</w>
Fin ance</w>
res sion</w>
é rés</w>
Fi f
Cust oms</w>
S a
Poli tique</w>
He ad
form ulation</w>
ty p
si ège</w>
P P</w>
R w
con ç
diver si
st e</w>
vi e
Re ports</w>
chac une</w>
ent ement</w>
ci bl
P lu
cos se</w>
réc eption</w>
sim plement</w>
rév él
M C</w>
pos er</w>
In de</w>
aj out
con fron
pl ants</w>
multil ateral</w>
C ase</w>
pat ent</w>
p al
dé pendant</w>
g a</w>
ar es</w>
culturel le</w>
procu rement</w>
nutri tion</w>
Inv est
vo is
identi fier</w>
respecti vement</w>
ég al</w>
h uit</w>
ess ed</w>
limit ée</w>
GO s</w>
el i</w>
fail ure</w>
cent ury</w>
li ves</w>
sou lev
organis ée</w>
dé mi
S w
hum ain</w>
réguli èrement</w>
om e
empê cher</w>
do c</w>
appropri ées</w>
équ itable</w>
anim al</w>
con join
Premi ère</w>
commenc é</w>
guarante e</w>
tr ue</w>
fi ght</w>
bi en
Azer b
an dum</w>
dis armament</w>
titul aire</w>
bre v
op ti
E tat</w>
Contr acting</w>
offici elle</w>
ul aire</w>
refuge es</w>
spe ak
Tur quie</w>
New found
C ô
I G
dé crit</w>
e y
actu els</w>
produc ers</w>
SI ON</w>
cal cul</w>
resp ectively</w>
uti les</w>
individu s</w>
g ress</w>
qu it
R ES</w>
oun ded</w>
efficac ement</w>
déc oul
D an
dirige ants</w>
n our
fi ées</w>
is ations</w>
encour aged</w>
Resul ts</w>
Syst ème</w>
Ex cell
d Ã©
complain ts</w>
min ority</w>
pres que</w>
fab ri
V E</w>
anni vers
ob tenus</w>
arab e</w>
I denti
bec ame</w>
rec orded</w>
S on</w>
10 5</w>
D raft</w>
V ol
gosl av
Newfound land</w>
f all
quali fications</w>
datab ase</w>
ul gation</w>
signi fie</w>
D O
mont ants</w>
sû reté</w>
ent endu</w>
is ant</w>
re fer</w>
than k</w>
dé ci
fond é</w>
distinc tion</w>
TI ONS</w>
ad re</w>
program ming</w>
ph en
in j
M A
t our</w>
ati c
Proc ed
T an
horiz on
W TO</w>
Inv esti
veu t</w>
us ement</w>
U r
gam me</w>
Recher che</w>
Proper ty</w>
budg ets</w>
th ir
high ligh
requ is</w>
Nom bre</w>
élabor é</w>
Dé veloppement</w>
sup prim
contr act
memb ership</w>
pl ur
traff ic</w>
mar ques</w>
for êts</w>
sig n</w>
su pr
en ab
an ties</w>
G ro
vo ix</w>
mor t</w>
médic aux</w>
Y ear</w>
receiv ing</w>
constitu tion</w>
Tou tes</w>
interpre tation</w>
it ations</w>
° C</w>
pr ison</w>
Cham bre</w>
r un</w>
enti tés</w>
Au tochtones</w>
Mon tre
p ic
tim ely</w>
K u
metho d
0 6
li ti
f ast</w>
le gi
amend ement</w>
val oir</w>
éti qu
Deleg ation</w>
substanti al</w>
9 63</w>
li e</w>
re sident</w>
laun ched</w>
OM C</w>
E l</w>
In t
tél évision</w>
opini ons</w>
y ers</w>
targ ets</w>
diff us
pow ers</w>
pour ront</w>
increas ingly</w>
la iss
adul tes</w>
W G</w>
sim ply</w>
co tis
immedi ate</w>
present ation</w>
sig ne</w>
Nat ural</w>
i dées</w>
F F
G i
compati ble</w>
S wit
direc te</w>
Sur vey</w>
Mill énaire</w>
it ent</w>
E sti
admis sibles</w>
ati n</w>
h ard</w>
ad minis
C ES</w>
enter prises</w>
N GOs</w>
import ations</w>
I ON</w>
reli ef</w>
dr a</w>
D R
i tions</w>
m ée</w>
C S</w>
enti ties</w>
intellectu al</w>
pris on
compréhen sion</w>
aér op
M ed
inform er</w>
don ateurs</w>
K ey</w>
I tem</w>
Av ec</w>
invest ments</w>
rec ens
tend ances</w>
navig ation</w>
sign é</w>
se as
i v</w>
w ish
endro it</w>
L ev
poll u
d or
2 2
Lors qu</w>
mo itié</w>
b aisse</w>
el ement</w>
bil ateral</w>
a rer</w>
larg er</w>
gi ving</w>
In surance</w>
S chedule</w>
assess ed</w>
Sci enti
Con cer
ent ered</w>
pré parer</w>
col on
dou b
Aus tri
ym p
par am
é duc
cor ps</w>
Ac ti
ar a</w>
super vision</w>
character istics</w>
terr or
b ord</w>
H ol
ati vement</w>
quali fied</w>
comm ittees</w>
gi es</w>
Poli tical</w>
budg étaire</w>
mar ks</w>
cour ant</w>
sou dre</w>
distin gu
u ire</w>
vir tu
wh om</w>
èg es</w>
str ic
deliver ed</w>
sou mettre</w>
cham bre</w>
vulner able</w>
r un
infr actions</w>
prog ress
contribu é</w>
coun ter
sm an</w>
chô mage</w>
Ch em
adoles cents</w>
ri vi
N E
appu ie</w>
admis sible</w>
Mo di
crimin alité</w>
extr ê
enh anced</w>
pouv ons</w>
tr ends</w>
terror istes</w>
r c</w>
lanc é</w>
bu d
ó n</w>
Dis closure</w>
trans form
accid ents</w>
ur s
télé phone</w>
D on
autom ob
um es</w>
M ain
Pro vi
St aff</w>
a just
fi re</w>
manufac tu
Mon t
P RE
sor mais</w>
figur ent</w>
es day</w>
Austr alie</w>
neu f</w>
v res</w>
fix ed</w>
i ers</w>
F our
ad j
ne igh
tablis sement</w>
k i</w>
exp and
r ise</w>
M un
T O
tim ate</w>
ar ité</w>
urg ent</w>
st er
Pau l</w>
exemp les</w>
mes ur
sched uled</w>
av y</w>
H igh
M é
veu illez</w>
x ante</w>
dét ails</w>
per tes</w>
n és</w>
détermin é</w>
Mo y
pay able</w>
P en
rur ales</w>
o ts</w>
incre ases</w>
relati vely</w>
ine ering</w>
Promo tion</w>
vi dé
s pr
ét er</w>
Cul tural</w>
Re ference</w>
beg an</w>
w il
excell ence</w>
appare ils</w>
ho st</w>
M ise</w>
ab sor
bi ennal</w>
v ital</w>
s él
f ro
ren contr
Ko rea</w>
hol ds</w>
preu ves</w>
déb ats</w>
L and</w>
T V</w>
Cri me</w>
vis é</w>
enti er</w>
Tw o</w>
Ass istant</w>
pre v
essenti els</w>
mod els</w>
differ ence</w>
étap es</w>
ent end</w>
é ans</w>
c ame</w>
difficul ties</w>
att end
Cal gary</w>
pén al</w>
No s</w>
É cosse</w>
speci alized</w>
respon ses</w>
terroris t</w>
identi ty</w>
dev ices</w>
rempli r</w>
Ã© s</w>
tâ che</w>
et age</w>
dé plo
or ical</w>
m ar</w>
m és</w>
comm is</w>
c e
Montre al</w>
Contr act</w>
Su per
No tice</w>
alis me</w>
w in
oblig atoire</w>
estim é</w>
Rev enue</w>
avi res</w>
Phili pp
E qu
mi d
au che</w>
tab ac</w>
3 3
activ ement</w>
Al ban
r ons</w>
H ali
ban ques</w>
pl en
som me</w>
n a</w>
Con serv
R ich
alis t</w>
syn dic
indépend ance</w>
envis ager</w>
st ress
déploy és</w>
resul ted</w>
Au dit</w>
représent ation</w>
rel ève</w>
rece i
Su isse</w>
cl ause</w>
mo ts</w>
dis eases</w>
Ab out</w>
b ab
ajou ter</w>
fe atures</w>
det ention</w>
rele ased</w>
gouvernement ale</w>
th ers</w>
d in
C T</w>
K 1A</w>
t ons</w>
Atlanti que</w>
meill eures</w>
re cip
économ ies</w>
sk i</w>
substanti ve</w>
d life</w>
Cor ée</w>
Rob ert</w>
h am
chang er</w>
el ected</w>
Swit zer
Plu sieurs</w>
rem pl
c tion</w>
ateli er</w>
pre dic
témo ign
intégr ité</w>
indispens able</w>
gar anties</w>
accep t</w>
fau lt</w>
Switzer land</w>
N i
sal ari
TR E</w>
car rying</w>
play ed</w>
pen sions</w>
éch el
Alli ance</w>
alis ts</w>
stoc k
inst ances</w>
protoc ole</w>
en vers</w>
represent ation</w>
établi es</w>
tel ephone</w>
ad d</w>
chiff res</w>
D et
D ou
N E</w>
her itage</w>
pass eng
av es</w>
examin ed</w>
is ra
environnement ales</w>
CR TC</w>
cy cl
administr ations</w>
il legal</w>
In f
Con se
AN T</w>
B O
offici el</w>
P A
préc is</w>
dev ront</w>
main tained</w>
U M
ph on
parlement aire</w>
T ER</w>
ré soudre</w>
re views</w>
lo in</w>
saf e
L ou
tour isme</w>
b ound
P R</w>
trans action</w>
ch in
Coun tries</w>
o red</w>
organ e</w>
No tes</w>
offer ts</w>
do se</w>
t ting</w>
ré formes</w>
afric aine</w>
man age</w>
chang ing</w>
st an</w>
rec ouv
E s</w>
dem ment</w>
Le ban
re urs</w>
In nov
re production</w>
adress ée</w>
cin qui
stre am</w>
answ er</w>
buil t</w>
cho ses</w>
mont rer</w>
Acti vities</w>
véri fier</w>
combin ed</w>
per m
régl er</w>
fo li
soci o</w>
2 7
fif ty</w>
commun s</w>
ou til</w>
1 st</w>
be an</w>
PM E</w>
touch ant</w>
z u
Th rou
Isra eli</w>
natu rel</w>
Wor k
acc ession</w>
dé sormais</w>
sym bo
SO C</w>
handicap ées</w>
int el
ch é</w>
Me as
assess ments</w>
ou re
harmon isation</w>
appe ars</w>
dra f
F I
destin ées</w>
accompli s</w>
N ame</w>
v as
r ation
com ed</w>
all ant</w>
oc cid
tre ated</w>
certain e</w>
différ ence</w>
prob ablement</w>
consider able</w>
exist ants</w>
repres ents</w>
Exam en</w>
incid ents</w>
di tions</w>
pl aign
pro fon
ré pu
pro vo
occu r</w>
coll ected</w>
incid ences</w>
l d
3 0
proli fér
dimin ution</w>
p asse</w>
Braz il</w>
inform é</w>
fi es</w>
T ask</w>
u er</w>
am or
municip al</w>
fo ot
st yle</w>
s els</w>
con joint</w>
oph ob
comb at
b onnes</w>
econom ies</w>
pauv res</w>
ish ment</w>
remain ing</w>
no ter</w>
présent es</w>
sexu elle</w>
w al
L ist</w>
bi ennium</w>
M y</w>
h es
liber tés</w>
sup érieure</w>
loo king</w>
tit le</w>
rel ever</w>
pri me</w>
organis er</w>
appropri ée</w>
adver tis
fin ding</w>
al ize</w>
di vul
EN D
leng th</w>
activ ely</w>
dé g
ain te</w>
In st
ell ed</w>
Sal le</w>
off rent</w>
impos ed</w>
équi libre</w>
ch ances</w>
enf ance</w>
r us
Swe den</w>
CM P</w>
F IN
C onn
Ch ange</w>
inter action</w>
to ire</w>
Ed mon
dec laration</w>
Im p
ré alité</w>
cas h</w>
Th us</w>
g ain</w>
déc ès</w>
ess or</w>
fin e</w>
éc ou
A rea</w>
cover age</w>
Eas tern</w>
N G</w>
in ser
conven u</w>
bénéfici er</w>
fri end
eth ing</w>
Territ ories</w>
im pose</w>
mobi le</w>
bur g</w>
phén om
enti èrement</w>
B R
S au
législ atives</w>
st ages</w>
t asks</w>
in dépendant</w>
Me dical</w>
Part nership</w>
n avires</w>
É l
z a</w>
C an</w>
ti ème</w>
fe e</w>
Hali fax</w>
ter res
perform ed</w>
sam ple</w>
dom s</w>
Ken ya</w>
dé grad
oper ative</w>
C arib
super vis
sp here</w>
ins crit</w>
certific at</w>
Plann ing</w>
C a
entrepr is</w>
su ites</w>
emphasi s</w>
consid ers</w>
pre liminary</w>
découl ant</w>
cinqui ème</w>
V II</w>
ér ap
ô les</w>
pos ts</w>
béné f
g ene
fir ms</w>
concre te</w>
wel comed</w>
Rw anda</w>
prolifér ation</w>
fem ale</w>
es h</w>
EU RO
Pro cu
tw enty</w>
t ent
Is lam
expl oration</w>
expres s</w>
multi ple</w>
si ties</w>
FOR M
al ed</w>
Cô te</w>
ver se</w>
for d</w>
administr atif</w>
pil ot</w>
sur viv
contr ols</w>
procéd é</w>
st ly</w>
adv oc
Cl assi
S H
constitu te</w>
G ol
Mar ine</w>
spéci alistes</w>
Hab it
alestin e</w>
h onn
UN ES
S pe
direc teurs</w>
Cl ass</w>
Co sta</w>
sec tori
refl ected</w>
ri v
chau ff
In dic
Ger man</w>
sugges tions</w>
In fr
op ie</w>
l as
un d
U ti
en a</w>
end ers</w>
gi ves</w>
fron tali
S R</w>
ch ann
serv ed</w>
comple tion</w>
improv ements</w>
équi pes</w>
fe el</w>
Russi a</w>
présent ent</w>
P alestine</w>
re mise</w>
vill age</w>
ai d
dom m
Mich a
pr êt</w>
im parti
pour suite</w>
st ed</w>
T elec
en contre</w>
198 2</w>
k in
ON AL</w>
g ène</w>
odi c</w>
fac ult
pru dence</w>
qu ite</w>
No m</w>
pr in
Cap ital</w>
Télé phone</w>
engag ed</w>
Li b
annonc é</w>
dat ée</w>
famili ale</w>
fer ation</w>
Ad v
montr ent</w>
Mus eum</w>
accor dée</w>
ig ne</w>
au to
Ex c
T D</w>
Industr ie</w>
CO 2</w>
tin a</w>
pro ven
soulign er</w>
aux quelles</w>
Pro active</w>
su i
Ris k</w>
Monit oring</w>
app els</w>
Manu fac
clim at</w>
p are
disposi tifs</w>
environnement aux</w>
graph ique</w>
négoci ation</w>
ordonn ance</w>
fo re
financ er</w>
B enef
R ome</w>
em ark</w>
I O
c a
behavi our</w>
re ally</w>
vi g
com porte</w>
fac ts</w>
e ight</w>
am i
préoccup ation</w>
Gr and</w>
éc r
Geor gi
pu ts</w>
Buil ding</w>
expos é</w>
pack age</w>
inv itation</w>
actu ally</w>
vi ation</w>
sub stitu
anci en</w>
No t</w>
t ch
occa sions</w>
O ver</w>
nam ely</w>
pre stat
som ething</w>
ré sid
du ci
mo des</w>
Paragrap he</w>
in put</w>
ar ing</w>
fronti ère</w>
atic ally</w>
Pe ace</w>
ré sidence</w>
B en
Program s</w>
por ters</w>
correc t</w>
pos session</w>
Par ks</w>
Ar t</w>
Th om
Appe al</w>
alis és</w>
v entes</w>
nam es</w>
Fol lowing</w>
k o</w>
B ased</w>
b on
mar ri
candi dat</w>
Commiss ariat</w>
di um</w>
sensi tive</w>
P M</w>
M ain</w>
popul aire</w>
r ay
h op
worksh op</w>
C lo
beg in</w>
emerg ing</w>
purch ase</w>
Philipp ines</w>
op tim
Déf ense</w>
remain ed</w>
charg és</w>
reser ve</w>
exam ples</w>
particuli ères</w>
civili an</w>
insp ec
equ ivalent</w>
S earch</w>
exten sive</w>
tel evision</w>
G E</w>
intitul ée</w>
susp ension</w>
Edmon ton</w>
st atistical</w>
équ ité</w>
B rési
catastr oph
I L</w>
occ urred</w>
fu t</w>
y ed</w>
essi onal</w>
n é</w>
confir med</w>
alis é</w>
fondament ales</w>
Div ulgation</w>
éth ique</w>
UNES CO</w>
stre am
integr ity</w>
par ent</w>
détermin ée</w>
Industr ial</w>
Stat ement</w>
in fir
Eur o
tre aties</w>
arm és</w>
énerg étique</w>
appropri é</w>
ren seign
ég ale</w>
Stand ards</w>
ê tres</w>
contr olled</w>
Fran ç
hear t</w>
ac adem
li ée</w>
pré voir</w>
L atin</w>
L an
ommun ications</w>
concl ure</w>
mean ing</w>
Prov ince</w>
198 4</w>
éc opi
qu in
ateli ers</w>
en due</w>
Mes ures</w>
Comm on</w>
W ash
pharmac eu
Su ède</w>
fig ures</w>
hol ding</w>
al one</w>
Av ant</w>
enregistr é</w>
Le ad
con ferences</w>
bénéfici aires</w>
Dru g</w>
contribu ted</w>
ri d</w>
an o</w>
Ré sul
achiev ement</w>
campai gn</w>
si l
effectu ées</w>
min eurs</w>
Au tor
ra ise</w>
prescri bed</w>
ay ing</w>
S I</w>
N euve</w>
confl icts</w>
Mid dle</w>
as ing</w>
B ec
élev ée</w>
sti pul
ass ist
è tre</w>
vulnér ables</w>
dit or</w>
meill eurs</w>
bour g</w>
multi ples</w>
ch ev
s ac
A B</w>
ex ports</w>
par d</w>
st on</w>
ré dig
isra éli
IN TER
bl er</w>
E r
C H</w>
disposi tif</w>
s ports</w>
AU X</w>
as h</w>
Brési l</w>
V eu
des p
see king</w>
n ings</w>
Inter nal</w>
anci ens</w>
correspond ant</w>
favor able</w>
è mement</w>
main taining</w>
continu ent</w>
ti endra</w>
sp ir
st abil
chap ter</w>
B ou
t age</w>
re sidence</w>
Pré sidente</w>
de emed</w>
Habit at</w>
b and</w>
ic als</w>
gi que</w>
ic ing</w>
long temps</w>
m uni
statisti que</w>
ég ét
under taking</w>
M S</w>
précéd ent</w>
Te am</w>
man aged</w>
peri ods</w>
tax ation</w>
ac ul
lat ter</w>
G I
S R
ic he</w>
Sec tor</w>
effecti f</w>
under take</w>
Re v</w>
univers ités</w>
transpar ent</w>
î tr
ac tors</w>
0 5
Provin cial</w>
part out</w>
determin ing</w>
men ée</w>
mu tual</w>
I ts</w>
ill er</w>
es tre</w>
Rel ated</w>
scol aire</w>
C abinet</w>
précéd ente</w>
ak h
Veu illez</w>
M E
as signed</w>
expéri ences</w>
s cri
ét ats</w>
desp ite</w>
B ill</w>
gr o</w>
Head quarters</w>
num erous</w>
f low
profession als</w>
sp ending</w>
tari ff</w>
is és</w>
stor age</w>
la c</w>
ecti f</w>
rem placement</w>
o zone</w>
permet tr
app elle</w>
Z e
compag nie</w>
concern ées</w>
mach ines</w>
accoun ting</w>
Coordin ation</w>
al ph
EC D</w>
tradi tionnels</w>
c éré
Ch in
énonc és</w>
fer a</w>
op ening</w>
inter rog
up dated</w>
ide a</w>
sid ential</w>
hô p
ti tres</w>
compl ex
mentionn é</w>
gr an
Dem ande</w>
r ound</w>
relation ships</w>
cell ules</w>
ad vis
CO R
deci de</w>
correspon d</w>
am pl
i ons</w>
custom ers</w>
tempér ature</w>
in ée</w>
M D
pan el</w>
âg ées</w>
Th ird</w>
conform es</w>
S ession</w>
10 1</w>
ten sion</w>
L ors</w>
cong é</w>
im ports</w>
indic ations</w>
L L
exc éd
O m
ré p
im pu
Lond on</w>
p aci
reconna ît</w>
exist antes</w>
SERV IC
ni ght</w>
T I</w>
Wash ington</w>
g er
è ce</w>
ach et
In dex</w>
ar t
d ite</w>
in tr
hear d</w>
utilis e</w>
Carib bean</w>
i dé
investig ations</w>
so il</w>
tempor aire</w>
aéri en</w>
dimen sions</w>
C AR
ent ail</w>
expli que</w>
ste in</w>
8 5
20 11</w>
anim als</w>
uc tu
ch ing</w>
v égét
Bur undi</w>
é po
Ori ent</w>
off ence</w>
no tion</w>
humanit aires</w>
olog ne</w>
or g
1 10</w>
constitu er</w>
judici aires</w>
ai ment</w>
concep ts</w>
cust oms</w>
W ar</w>
e able</w>
Ad d
enjo y</w>
eng ager</w>
f ers</w>
car tes</w>
spe aking</w>
destin é</w>
fr ancoph
to wn</w>
ac knowledg
Col lege</w>
propos ée</w>
jug es</w>
intéress és</w>
l aid</w>
r ol
G ra
vo ies</w>
car bon</w>
k o
reven ue</w>
oun ding</w>
ag nes</w>
po issons</w>
s elling</w>
Vic tori
mobil isation</w>
écopi eur</w>
proper ly</w>
re si
a ises</w>
Belgi um</w>
déc ou
Se a</w>
Hon ourable</w>
autoris é</w>
in jury</w>
s end</w>
J ord
effectu ée</w>
inscri re</w>
W illi
experi ences</w>
temper ature</w>
oc ation</w>
P ress</w>
vi deo</w>
préc iser</w>
omm aire</w>
milli ers</w>
Sci ences</w>
Fac il
Inte gr
G L
t on
apparten ant</w>
dipl ô
sé jour</w>
Sm all</w>
ment ale</w>
er ance</w>
FA O</w>
esp ère</w>
form ule</w>
è gues</w>
Infr astruc
n it
B re
ter ing</w>
fer me</w>
dé tenus</w>
9 00</w>
compl exe</w>
cop ie</w>
vis ent</w>
we alth</w>
fu tures</w>
gan da</w>
ch ance</w>
mi ti
rati o</w>
bud sman</w>
provi ders</w>
M er
form ed</w>
Cham ber</w>
doll ar</w>
domm ages</w>
crimin ation</w>
coll ègues</w>
t ative</w>
qu ick
e ties</w>
compl exes</w>
inté gré</w>
ow ned</w>
visi ble</w>
T é
is ons</w>
certific ate</w>
priv acy</w>
C z
Invest ment</w>
honor able</w>
priv és</w>
conc rè
commerci alisation</w>
B asi
at em
étro ite</w>
appreci ation</w>
indi quent</w>
fif th</w>
vi end
A no
vari ables</w>
fish eries</w>
techn ological</w>
Issu es</w>
in dependence</w>
E gy
lear n</w>
S B
gener ation</w>
im ag
expos és</w>
c er</w>
exten d</w>
satis faire</w>
dom icile</w>
do or</w>
au lt</w>
propos ées</w>
contrô les</w>
oc curr
lim iter</w>
incorpor ated</w>
P ass
é b
répond ants</w>
F er
démar che</w>
s ond
tour ism</w>
viv ant</w>
obstac le</w>
ing ing</w>
C NU
B L
considér ablement</w>
Qu ality</w>
extra ordinaire</w>
rec ycl
met tent</w>
ab u
nom s</w>
th eless</w>
in o</w>
Di ff
contin ent</w>
améric ain</w>
e br
attach ed</w>
ever theless</w>
dou anes</w>
Cul ture</w>
invol ve</w>
th u
co opér
ban ks</w>
P U
fer red</w>
direc ted</w>
head ing</w>
pr ennent</w>
star ted</w>
re placed</w>
acc éder</w>
proch ain</w>
sum mer</w>
é mission</w>
dig ital</w>
assu jet
ext rem
raci ale</w>
S UR</w>
Nor th
Belgi que</w>
gé ographique</w>
ide as</w>
c m</w>
affir mé</w>
m ou
valid ité</w>
complain ant</w>
exemp tion</w>
dra wn</w>
Ac tiv
organiz ational</w>
effectu és</w>
effecti vement</w>
É tant</w>
mo t</w>
nor thern</w>
S o</w>
t ourn
sû r</w>
du les</w>
reconna ître</w>
cons entement</w>
ad ic
alloc ated</w>
re sidents</w>
n ur
Gu atem
clin ical</w>
D istr
enseign ants</w>
ap e</w>
consci ence</w>
É valuation</w>
li ability</w>
Pr acti
B et
ti veness</w>
suiv ent</w>
it ée</w>
de pos
in gu
am b
acquit ter</w>
franç aise</w>
Ro ad</w>
R ed</w>
8 8
ab road</w>
L ear
F ree</w>
Pers ons</w>
spe ed</w>
recru itment</w>
man ie</w>
Su dan</w>
pers ist
radio diffusion</w>
rou tes</w>
in sul
n esses</w>
V ene
Syst ems</w>
fi duci
Nor way</w>
ouver ts</w>
ul l</w>
b anc
M ENT</w>
men aces</w>
rédu it</w>
e v</w>
li es</w>
perfecti onnement</w>
L aw
d an
accord é</w>
fic it</w>
l our
in no
tion ally</w>
targ eted</w>
b us</w>
réalis é</w>
M I</w>
I s</w>
H R
accum ul
De part
dis ability</w>
demonstr ated</w>
at l
travail lent</w>
pro che</w>
contribu ting</w>
rej ected</w>
san ds</w>
ail ing</w>
Ano ther</w>
recogni ze</w>
M AN
mo tion</w>
T ob
E conom
pre gn
eas y</w>
Gr ande</w>
quar ter</w>
extrê mement</w>
disponi bilité</w>
cro ss
dé cri
en ship</w>
chois ir</w>
Gr âce</w>
manufac tur
In cre
str i
flo or</w>
onn é</w>
Analy sis</w>
internation ally</w>
pério des</w>
4 0
o to</w>
Mic ro
Scienti fic</w>
Sup pl
elec toral</w>
Pi erre</w>
C I</w>
constat é</w>
Déc ision</w>
sou tenu</w>
pren ant</w>
bri dge</w>
Classi fication</w>
flu x</w>
struc tion</w>
t ête</w>
all em
c ell</w>
exp ect
O ECD</w>
p p</w>
ag és</w>
00 1</w>
électr icité</w>
bri ef
00 7</w>
entrepren eurs</w>
ecti fs</w>
initi ated</w>
compos é</w>
orient ations</w>
per form</w>
Em erg
W al
inter governmental</w>
m asse</w>
Th ose</w>
Tou te</w>
sou ght</w>
compét entes</w>
K B</w>
E v
priv ées</w>
th ly</w>
Res olution</w>
trad uction</w>
ow nership</w>
demonstr ate</w>
worksh ops</w>
heal thy</w>
K az
a tre</w>
Priv acy</w>
N I
continu era</w>
inv ité</w>
mal gré</w>
Mark et</w>
UR E</w>
univers al</w>
ent entes</w>
ple ine</w>
IT Y</w>
calend rier</w>
esti val</w>
ful f
identi fying</w>
ann ul
al ties</w>
Mad ame</w>
198 1</w>
f ailed</w>
re forms</w>
Mol do
particip ated</w>
a trices</w>
vér itable</w>
Im migration</w>
matéri aux</w>
chec k</w>
off ences</w>
peri odic</w>
Y our</w>
réc ente</w>
P endant</w>
offici els</w>
re p
u min
cris es</w>
Sing ap
lim itation</w>
isl am
mort alité</w>
friend ly</w>
améric aine</w>
mouv ement</w>
back ground</w>
j un
graph ie</w>
f res
er aient</w>
journ ée</w>
emb all
li c</w>
G iv
Victori a</w>
enti ty</w>
extrem ely</w>
aut our</w>
déf i</w>
th es
indic ates</w>
or es</w>
de fault</w>
ain ts</w>
lo st</w>
ci ties</w>
pré voy
G h
restaur ant</w>
tur b
dev aient</w>
Austri a</w>
épo que</w>
bi ologique</w>
ré sidents</w>
ment ation</w>
Chair person</w>
ar c
der a</w>
Li brary</w>
facil ement</w>
dynam ique</w>
Comm unities</w>
re group
sm enti
ci des</w>
m él
onn age</w>
om b
fur n
val id</w>
ph r
pow er
su smenti
eu sement</w>
P eter</w>
gr ants</w>
fel t</w>
Un der
appro ches</w>
Bang lad
po isson</w>
N RC</w>
re ve
20 1</w>
catastroph es</w>
industri elle</w>
L iste</w>
pass ant</w>
suppli es</w>
threat s</w>
inform atique</w>
compl et
distribu ted</w>
particip ent</w>
En cour
S e</w>
equ ity</w>
charg ed</w>
s qu
dro gue</w>
bir th</w>
A tt
us h</w>
modi fied</w>
del iver</w>
re b
musi que</w>
pap ier</w>
infir mi
budg etary</w>
Stand ard</w>
fix e</w>
adver se</w>
requér ant</w>
N AT
consac ré</w>
AC T</w>
Ren seignements</w>
ol der</w>
comp il
Ré seau</w>
équip ements</w>
public ité</w>
Organ iz
F il
un il
ré action</w>
Re ques
end ors
der ing</w>
un g</w>
pétro le</w>
fédér ales</w>
ber g</w>
Stu dies</w>
Islam ic</w>
T it
ti an</w>
exprim é</w>
Dis crimination</w>
pê ches</w>
Fr anc
G al
Su ite</w>
li é</w>
read ing</w>
Sp anish</w>
É R
blioth èque</w>
min orities</w>
voy ag
coordin ated</w>
e ded</w>
s on
ici ans</w>
éri a</w>
dispu te</w>
manufac turing</w>
Guatem ala</w>
y n
inst amment</w>
out lined</w>
I voire</w>
ten d</w>
reç ues</w>
mo teur</w>
cou p
quick ly</w>
AG E</w>
exclu sive</w>
ax ée</w>
uni versity</w>
professionn elles</w>
ry th
estim ations</w>
si xième</w>
ra i</w>
out standing</w>
L iv
h aps</w>
reven ues</w>
un employment</w>
aéri enne</w>
étrang ère</w>
g ence</w>
rais ing</w>
program mation</w>
Infrastruc ture</w>
Micha el</w>
iss ait</w>
mark ed</w>
cour riel</w>
appare il</w>
N et</w>
arrang ement</w>
prélimin aire</w>
m oun
Sen ior</w>
In come</w>
S et
P rés
inscr its</w>
amélior ations</w>
ad ing</w>
dé mo
sp i
fi able</w>
Im prov
Cer tain
Cont ents</w>
télé communications</w>
vr aiment</w>
octro i</w>
en rich
int ol
fir m</w>
Rom ania</w>
migr ant</w>
inc enti
blo od</w>
lat est</w>
ch al
l ob
cl air</w>
employ eurs</w>
sent ence</w>
accid ent</w>
Pl ans</w>
palestini en</w>
exp ul
o tes</w>
lic ens
m aire</w>
Distr ict</w>
Est ablis
l ecture</w>
consider ing</w>
Banglad esh</w>
requ ises</w>
T él
cli ent
accep ter</w>
N ATI
en jeux</w>
Tur k
strong ly</w>
sep tième</w>
W G
é vo
val ence</w>
Radi o</w>
AN CE</w>
un anim
ven us</w>
R appelant</w>
expl an
Fin land</w>
habitu ellement</w>
transfer red</w>
men u</w>
clai med</w>
dé lin
T U
pres er
g ol
fac ing</w>
carb one</w>
î le</w>
ne ws</w>
num érique</w>
ari o</w>
é vidence</w>
1 60</w>
th èmes</w>
ent endre</w>
ois eaux</w>
B ah
dis closure</w>
musi c</w>
bu ts</w>
P ort</w>
Ch ang
am ples</w>
sol v
c ard</w>
dit ors</w>
st ade</w>
En ter
w ait</w>
st ood</w>
care er</w>
IN E</w>
fu r</w>
ex cl
manifest ations</w>
ver e
lis ts</w>
vo tes</w>
S EC
scre ening</w>
échantill ons</w>
Proc ess</w>
Nor v
M A</w>
tob acco</w>
experi enced</w>
considé rer</w>
proch aines</w>
barri ers</w>
simul tan
C adre</w>
S an</w>
inv ités</w>
voy ages</w>
fo rec
Pro duction</w>
ê t
én um
inter net</w>
some times</w>
ro les</w>
Trans ports</w>
pe tr
Canadi ennes</w>
cor po
Li ens</w>
éri r</w>
arg uments</w>
Cz ech</w>
dec line</w>
Mil itary</w>
is ée</w>
bi d
J ames</w>
k en</w>
On ly</w>
carri ère</w>
enh ancing</w>
Cro wn</w>
Pe ace
Pol and</w>
maxim ale</w>
w ater
sugg est</w>
lim ité</w>
8 19</w>
mon étaire</w>
G DP</w>
nom mé</w>
Moldo va</w>
Ter r
Cour riel</w>
car di
st op</w>
respon dents</w>
inter n
mi d</w>
j a</w>
r ent
demand eur</w>
men é</w>
di ed</w>
jeun esse</w>
govern ing</w>
volun te
Fun ding</w>
rac isme</w>
incid ent</w>
cl é</w>
aci d</w>
R S</w>
É S</w>
decre ase</w>
mak ers</w>
ten eur</w>
dis cre
alis ée</w>
fac es</w>
enn a</w>
dra w</w>
bl oc
Au tric
éri e</w>
Man ager</w>
pou ss
Mad rid</w>
B ell</w>
é sie</w>
prior itaires</w>
prim aire</w>
tocht one</w>
gr and
bi ologiques</w>
ther ap
Particip ation</w>
Gaz a</w>
posi t</w>
re iter
measu red</w>
modifi ée</w>
ordin ary</w>
argu ment</w>
amén agement</w>
teach ers</w>
dev ice</w>
Ho sp
ograph ic</w>
se ems</w>
AL E</w>
ré sumé</w>
excep tions</w>
p o</w>
TI C</w>
direc ts</w>
plen ary</w>
aff airs</w>
simil aires</w>
adv anced</w>
valu able</w>
im pression</w>
D A
S em
Activ ités</w>
opti mis
Con sum
fé rer</w>
Uti lis
Dis tribu
v an</w>
Norv ège</w>
n d</w>
ld wide</w>
Vene zu
Govern or</w>
S truc
pre me</w>
Throu gh</w>
gro s</w>
4 5
réglement aires</w>
contribu e</w>
a it
appel é</w>
car bur
mi lieux</w>
est y</w>
mondi alisation</w>
Asi an</w>
fac ile</w>
rivi ère</w>
Car aï
cli matique</w>
0 1
déc isi
st aff
s ays</w>
ali tion</w>
Q ue</w>
r ance</w>
n in
Bo th</w>
cont empor
g ave</w>
es ia</w>
S én
Contribu tions</w>
v ont</w>
judg es</w>
déplo i
dev ez</w>
ass es</w>
del ay</w>
e ant</w>
équ ival
PI B</w>
c ouverture</w>
Moy en</w>
expl ained</w>
spécialis ées</w>
pléni ère</w>
Gaz ette</w>
all ou
Rou manie</w>
médec ins</w>
vit esse</w>
fr uits</w>
cons is
prof ess
formul ées</w>
Chap itre</w>
appl ying</w>
e igh
in er</w>
con version</w>
Trav el</w>
Recommend ation</w>
Res ource</w>
star ting</w>
am ine</w>
s or</w>
limin ation</w>
acul ture</w>
arm ées</w>
Autric he</w>
func tioning</w>
m agn
Com man
cul tiv
piè ce</w>
établi t</w>
remerci er</w>
pil ote</w>
archit ecture</w>
O rig
Dru gs</w>
struc tural</w>
Rec alling</w>
ar ising</w>
TI C
s emb
hel ping</w>
contribu ent</w>
stress ed</w>
considé rés</w>
ré el</w>
par ler</w>
K no
becom ing</w>
vers ement</w>
IT É</w>
inf érieur</w>
P as
prév isions</w>
val s</w>
ON N
initi ale</w>
fé min
M D</w>
Caraï bes</w>
Ph ase</w>
Bo li
Ky oto</w>
R CMP</w>
S D
mort ality</w>
W o
D eux</w>
exprim er</w>
al and</w>
sup érieurs</w>
ple ased</w>
Ch r
rapp elle</w>
Li fe</w>
peace ful</w>
ap parti
obj ets</w>
s chedule</w>
adap ter</w>
deploy ment</w>
dispos al</w>
extr a</w>
ab us</w>
annu els</w>
hist orical</w>
fil ing</w>
échantill on</w>
é lo
fer ro
Giv en</w>
Corpor ate</w>
raci al</w>
enti té</w>
em placement</w>
Sp ace</w>
ho l</w>
effecti fs</w>
re medi
pr int</w>
tr ack</w>
employ ers</w>
intéress ées</w>
The ir</w>
é pi
s per
évén ement</w>
atti tude</w>
u rer</w>
CE D</w>
G ST</w>
Bos nie</w>
en tres</w>
const ant</w>
cell s</w>
S hi
brev et</w>
un able</w>
g ènes</w>
UN CT
F O
inst e
Geor ge</w>
er ation</w>
th érap
198 3</w>
Loc al</w>
b a
descri p
li r</w>
su itable</w>
Stand ing</w>
in su
fin ale</w>
secon de</w>
as er</w>
inst aur
bi ological</w>
UN F
Comm uni
atl anti
lead er</w>
Tr an
Prop o
visit eurs</w>
er reur</w>
fran ch
M ag
R ica</w>
there by</w>
G RC</w>
organ ic</w>
ad mission</w>
wat ers</w>
compéti tivité</w>
progres si
W ar
produc tivité</w>
1 25</w>
re y</w>
infl ation</w>
fai bles</w>
di ab
surve ys</w>
illic ite</w>
distinc t</w>
Let ter</w>
T B
bur den</w>
P D</w>
enn eté</w>
habit ats</w>
IS O</w>
loc ations</w>
show ed</w>
proven ance</w>
vi vre</w>
En tre
tl ements</w>
na issance</w>
G O</w>
Con ditions</w>
Parli amentary</w>
par k</w>
N A</w>
essenti elles</w>
s ommet</w>
dépu tés</w>
tex ti
let tres</w>
P ologne</w>
recei pt</w>
Stu dy</w>
au tochtone</w>
administr atifs</w>
soi xante</w>
z z
Ar ts</w>
gro ss
parti s</w>
cho ose</w>
im mobili
vi vent</w>
vi es</w>
chaî ne</w>
Consul tations</w>
fourni es</w>
pai r</w>
Ze aland</w>
sou ver
D G</w>
comb ination</w>
UNCT AD</w>
second aires</w>
améric ains</w>
every one</w>
vi able</w>
up date</w>
Po st</w>
ann once</w>
proc é
0 8
Innov ation</w>
coun ter</w>
Par cs</w>
Fon dation</w>
poss ède</w>
ab st
O B
D u</w>
calcul ated</w>
Venezu ela</w>
dic tions</w>
l ying</w>
commenc er</w>
labor atoire</w>
Rap ports</w>
engag é</w>
ho c</w>
e vi
avanc és</w>
r ich</w>
accro issement</w>
w estern</w>
bi om
essenti elle</w>
énonc ées</w>
fon dées</w>
mé mo
sal u
CN RC</w>
combus ti
for tement</w>
marg in
P PE</w>
ch rom
cro y
rev end
opérationn elles</w>
invol ves</w>
le aux</w>
10 4</w>
co her
reg ister</w>
Proced ure</w>
u la</w>
ser vers</w>
men ac
o k
appropri és</w>
qu ants</w>
flexi bility</w>
té moins</w>
Si x
ma p</w>
Oc eans</w>
iss ante</w>
exempl aires</w>
é do
expli quer</w>
ass embl
réc entes</w>
I D</w>
fichi er</w>
safe gu
arriv ée</w>
Chin ese</w>
Fin ancing</w>
rap id</w>
Bos nia</w>
élarg issement</w>
itu de</w>
PO UR</w>
sél ecti
arri ve</w>
S ri</w>
cover ing</w>
T our
sur r
asi le</w>
e ous</w>
off res</w>
prepar ing</w>
mé th
Coun try</w>
allow ing</w>
ext re
de vient</w>
OC DE</w>
ag ues</w>
incl us</w>
Reques ts</w>
T PS</w>
œu r</w>
dur ation</w>
iti ème</w>
technologi que</w>
décl are</w>
C TION</w>
dé cre
E th
On ce</w>
S A
Sou dan</w>
Jam a
parlement aires</w>
C enter</w>
1 30</w>
rel s</w>
v es
re affir
det ail</w>
Fin lande</w>
p esti
ari e</w>
opé rer</w>
ap ti
désign é</w>
ampl eur</w>
pu issance</w>
Ag ainst</w>
physi ques</w>
Sy ri
E ar
cum ul
accue ill
législ atif</w>
B ack
proli feration</w>
flexi ble</w>
donn ent</w>
institu tionnels</w>
rég issant</w>
suscepti ble</w>
V ir
Vo ici</w>
go v</w>
T EN
M ater
conserv er</w>
an che</w>
ine a</w>
For t</w>
un s</w>
ma îtr
ov ine</w>
A ide</w>
bin ding</w>
limit ations</w>
ferro vi
concer t</w>
fourn issent</w>
im port</w>
SM Es</w>
honn eur</w>
Ol ymp
arm ée</w>
acc élé
UN EP</w>
Tr ust</w>
ER S</w>
S é
continu ous</w>
Addi tional</w>
de ad
He ad</w>
N é
Si ège</w>
thou ght</w>
AT E</w>
H om
ministéri elle</w>
P s</w>
conform ity</w>
capit aux</w>
d am</w>
r ats</w>
Rec ogni
estim ate</w>
exam ens</w>
exp iration</w>
seg ment</w>
prescri ptions</w>
avi ation</w>
Certain es</w>
réd action</w>
constitu é</w>
evalu ate</w>
off ert</w>
sec ution</w>
Pap er</w>
médec ine</w>
lear ned</w>
S he
l ec
br inging</w>
Com peti
ain tes</w>
ru p
buil dings</w>
Bro ad
pr un
inste ad</w>
sh op</w>
inter pr
produc tivity</w>
wid ely</w>
regis tre</w>
ag ées</w>
aw ard</w>
satis fied</w>
énonc é</w>
mes urer</w>
ret ard</w>
ap er
m ère</w>
Program mes</w>
K ar
Kaz akh
regul arly</w>
bor n</w>
Ã© e</w>
bo x</w>
ag ée</w>
con çu</w>
apport ées</w>
Go als</w>
teach ing</w>
Fr ancoph
man aging</w>
û ment</w>
D esp
repres enting</w>
ab ord
am ination</w>
10 9</w>
j ing</w>
IT S</w>
1 40</w>
ent ale</w>
spe ak</w>
Br us
UR L</w>
S TR
lati ne</w>
boo ks</w>
e in
mach ine</w>
form ations</w>
tradi tionnelles</w>
c ali
gu ay</w>
larg ely</w>
considér able</w>
pré judice</w>
for tun
min er
Su preme</w>
Ch ef</w>
fourniss eur</w>
P ower</w>
alleg ed</w>
inser tion</w>
autonom ie</w>
affec ting</w>
liv raison</w>
défin i</w>
univer sities</w>
Meas ures</w>
ex ecutive</w>
vis its</w>
B ei
eur op
fix é</w>
x y
jou e</w>
li vre</w>
vari ation</w>
Kazakh stan</w>
p om
gr ain</w>
197 8</w>
aci er</w>
inten s
cha p</w>
ess els</w>
industri els</w>
puis qu</w>
ed ly</w>
indépend ants</w>
dat s</w>
s ements</w>
joint ement</w>
protec ting</w>
tern s</w>
CR A</w>
Mari e</w>
délég u
J ac
I M</w>
Is lands</w>
qui pe</w>
posi tifs</w>
C le
Vi enna</w>
i b
wel comes</w>
accommo dation</w>
cu t</w>
do ws</w>
comm ande</w>
let ters</w>
év entail</w>
go v
sou tient</w>
esp agno
Tel ephone</w>
is ées</w>
G U
av al</w>
G M</w>
ven u</w>
emp s</w>
estim ation</w>
where as</w>
beh ind</w>
sp ent</w>
M and
compar able</w>
nation alité</w>
Pr ai
fu tur
remplac er</w>
El ec
cu is
applic ants</w>
utilis ent</w>
Fin al</w>
explo iter</w>
fau dra</w>
inter dit</w>
sal aire</w>
cri tique</w>
col le
pr ê
dic ated</w>
tr end</w>
vi ème</w>
p te</w>
complément aires</w>
N H
observ ateurs</w>
Vi ol
indi quant</w>
Ad vis
comm ence</w>
rap portant</w>
My an
écl air
indemn ité</w>
ra y</w>
ail lée</w>
P hy
l uc
ed back</w>
all ed</w>
clai mant</w>
te ams</w>
encour aging</w>
har d
C lu
Myan mar</w>
Om budsman</w>
so vere
répon du</w>
ouver tes</w>
Gre ece</w>
K e
déf aut</w>
acc r
view ing</w>
concrè tes</w>
Sim il
197 9</w>
résul tant</w>
hib it</w>
facult atif</w>
enz a</w>
m ale</w>
n ar
pai rs</w>
fil ms</w>
acces sibles</w>
mo tif</w>
ru bri
N O</w>
Pre vious</w>
Desp ite</w>
D o</w>
B ase</w>
schem e</w>
préserv er</w>
ex ter
Me dic
strength ened</w>
ad visory</w>
Exper ts</w>
M I
Plann ed</w>
conseill er</w>
personn elles</w>
hu itième</w>
ni es</w>
exce ed</w>
Re qui
free doms</w>
vo ting</w>
pres sions</w>
tox ic
cul p
déci der</w>
termin ation</w>
accep té</w>
Bei jing</w>
ang le</w>
Par ten
mo ving</w>
déploi ement</w>
con jointement</w>
benef ici
Georgi a</w>
dem ands</w>
w ai
pos ent</w>
ro c
tel ec
E X</w>
travail le</w>
développ és</w>
L ast</w>
ar rest
stu dent</w>
in com
atti tudes</w>
précis ément</w>
enc ing</w>
sign al</w>
ber cul
adi es</w>
certain ty</w>
Lan ka</w>
vis ites</w>
danger euses</w>
ber t</w>
P ê
E I</w>
measu rement</w>
or ts</w>
IC T</w>
proxim ité</w>
t t</w>
de z</w>
sol d</w>
ach ev
dg es</w>
Auc une</w>
qu ête</w>
Tan z
correspon ding</w>
0 7
on ally</w>
acqui red</w>
W at
pro secu
cap abilities</w>
serv ing</w>
allég ations</w>
emor andum</w>
const ate</w>
Statisti que</w>
combat tre</w>
Ch y
re habilitation</w>
N ext</w>
dispos er</w>
OM S</w>
visu al</w>
ref ers</w>
sustain ability</w>
exist ent</w>
vidé o</w>
Pa trimoine</w>
év olu
Leban on</w>
defin e</w>
Den mark</w>
ai des</w>
vari able</w>
Brus sels</w>
it eur</w>
supr ême</w>
classi fied</w>
Al l
farm ers</w>
dis aster</w>
gi r</w>
ou bli
en nie</w>
eli gi
in ess</w>
cl ean</w>
grat u
éc art</w>
ne au</w>
op ened</w>
c ast</w>
S everal</w>
L ine</w>
mas sive</w>
de grad
th r
don ors</w>
p é
ici de</w>
f air
è dent</w>
For m</w>
comm od
ent ure</w>
Territ ory</w>
U ru
enf in</w>
ear ing</w>
der ived</w>
industri el</w>
pl ate</w>
exhau sti
dis placed</w>
3 5
av ance</w>
hy per
coordonn er</w>
sem ination</w>
B rit
B on
w as
volon taires</w>
con figur
elimin ate</w>
diagno stic</w>
wish es</w>
reg ret
occu pe</w>
nor th</w>
M oun
Lic ence</w>
requ ête</w>
Int ellectu
Add ress</w>
lac unes</w>
ab led</w>
Pri e</w>
ga ret
om an</w>
Sal v
ci garet
ban que</w>
AU T
resol ve</w>
six th</w>
so ft</w>
insp ections</w>
expect ations</w>
ve z</w>
restric tion</w>
gouvernement al</w>
here in
g g
vers er</w>
att acks</w>
C IS
ard ous</w>
pré sid
réus site</w>
dét aillée</w>
k ept</w>
L at
formul er</w>
béné vo
ais ons</w>
invent ory</w>
in c</w>
restric ted</w>
Cy pr
futur s</w>
end ent</w>
pro stitution</w>
s age</w>
constitu tional</w>
li s</w>
Ques tion</w>
em ission</w>
x elles</w>
herein after</w>
exig ence</w>
contrô ler</w>
S CI
ethni que</w>
competi tiveness</w>
sub j
E li
tch èque</w>
C lim
f ar
sol dats</w>
Bec ause</w>
Bul letin</w>
discu ter</w>
imm eu
rés istance</w>
continu é</w>
10 3</w>
fourni e</w>
Cypr us</w>
er ons</w>
easi ly</w>
reç us</w>
é rées</w>
per s</w>
S a</w>
lo s</w>
neu vième</w>
re prise</w>
loss es</w>
acc el
titul aires</w>
vari ations</w>
G ender</w>
them e</w>
E EC</w>
technologi ques</w>
ang er</w>
don or</w>
dur ables</w>
spo ke</w>
clini ques</w>
Arc tic</w>
accomp ani
histori c</w>
neu tr
Bru xelles</w>
du quel</w>
capac ities</w>
norm ally</w>
Vi enne</w>
Ti me</w>
Op tional</w>
gé o
to ward</w>
Reg is
Re fu
Gu inea</w>
J er
avoc at</w>
dis semination</w>
appli quées</w>
Langu age</w>
prés ents</w>
Pro jects</w>
Mar tin</w>
associ é</w>
f al
F as
Herz ég
Govern ing</w>
min ing</w>
wor ldwide</w>
in deed</w>
consult ants</w>
cont amination</w>
Langu ages</w>
Résul tats</w>
broad er</w>
ach ats</w>
n ine</w>
import ed</w>
pos é</w>
mi que</w>
assu me</w>
advertis ing</w>
per mitted</w>
lib ération</w>
pl ain</w>
CANAD I
ev oir</w>
C ER
Egy pt</w>
z o
Herzég ovine</w>
uni ons</w>
histori ques</w>
organis ationn
s oll
Bi o
Po sition</w>
preven ting</w>
sym pt
reco gn
go la</w>
f arm</w>
défin is</w>
Régi on</w>
serv ant</w>
tot alité</w>
contr ary</w>
UN O
comb ating</w>
In clu
M ON
Fi eld</w>
compar aison</w>
fac ed</w>
client èle</w>
pro te
shar es</w>
ill age</w>
consider ations</w>
Gr èce</w>
pass agers</w>
ressor tiss
so i</w>
Gh ana</w>
communi qué</w>
cons ists</w>
si c</w>
To day</w>
ti ères</w>
H or
ti fic
qual it
sy ner
em prun
SERVIC ES</w>
hel ped</w>
Al tern
gene tic</w>
gro ss</w>
autoris ée</w>
h our</w>
corpor ations</w>
dispos ent</w>
Mo del</w>
è n
ren contre</w>
C U
IC ATION</w>
ran g</w>
liv res</w>
inter im</w>
mandat ory</w>
T op</w>
CT MR</w>
pouv aient</w>
um entation</w>
cir cu
Produc t</w>
3 6
o ted</w>
fonctionn aire</w>
zi ème</w>
ré cup
Nu clear</w>
Dan emark</w>
occu pied</w>
T PS
P ension</w>
remo ved</w>
v ements</w>
enti el</w>
10 6</w>
co vers</w>
la red</w>
contrô l
accompani ed</w>
T EC
10 8</w>
Conserv ation</w>
pursu e</w>
10 7</w>
t te</w>
Dro its</w>
Cor r</w>
V ari
génér ation</w>
Ed ward</w>
eu rement</w>
interven ir</w>
becom es</w>
Ap p
obj ection</w>
dé tection</w>
att le</w>
discipl ine</w>
M ess
D O</w>
Prof essional</w>
att endre</w>
lin ing</w>
accur ate</w>
pl antes</w>
en dum</w>
Uru guay</w>
f light</w>
transl ation</w>
S écur
197 0</w>
naturel s</w>
C entres</w>
compar ison</w>
deal t</w>
Re porting</w>
mér ite</w>
sou th</w>
ch és</w>
Mal gré</w>
a sion</w>
dep th</w>
P WG
révis é</w>
In sp
moder ne</w>
Té l</w>
réalis ations</w>
inf ecti
An g
i red</w>
photo graph
réglement aire</w>
S port</w>
vol et</w>
Sy n
Op port
islam ique</w>
ter ly</w>
moy ennes</w>
A y
parli amentary</w>
jou é</w>
Minis terial</w>
sec ours</w>
wor th</w>
propos er</w>
Recomman dation</w>
compren ant</w>
Wor ks</w>
encour ages</w>
Ci tiz
pen alty</w>
deli ber
e gov
ag ner</w>
ministéri el</w>
PWG SC</w>
C ir
li f
au rer</w>
assi n</w>
pr ouv
pl ais
issu s</w>
aéron efs</w>
per ç
An gola</w>
direc tions</w>
construc tive</w>
EN CE</w>
enab ling</w>
enregistr és</w>
né anmoins</w>
dec lared</w>
nu it</w>
v essels</w>
occ asi
disciplin ary</w>
dép end</w>
G én
sm aller</w>
seu ls</w>
St ock
thou sands</w>
plac ements</w>
Herz egov
phénom ène</w>
hom olog
fr uit</w>
r am
po ol</w>
sp ectr
Mon day</w>
t ér
it ch
geograph ical</w>
bul letin</w>
re di</w>
ati vely</w>
des tro
Argen tine</w>
Bel ar
speak ers</w>
opérationn el</w>
1 00
âg és</w>
pass ed</w>
ograph ie</w>
l istes</w>
ve get
sou thern</w>
élector ale</w>
AI RE</w>
Herzegov ina</w>
ré flexi
souhait ent</w>
acqu érir</w>
Let tre</w>
charac ter</w>
re trait</w>
f le
Ã© es</w>
13 73</w>
B as
ai mer
ordin ateur</w>
extern es</w>
li br
surveill er</w>
Indon esia</w>
F I</w>
engag és</w>
10 2</w>
D eli
Cam bo
différ ends</w>
oper ators</w>
conduc ting</w>
agg reg
tr ente</w>
exis ts</w>
Sécur ité</w>
di ents</w>
spi rit</w>
w arr
equip ped</w>
soli de</w>
Croati a</w>
M B</w>
mor al</w>
indépend ante</w>
r ailway</w>
E limination</w>
SC T</w>
propos és</w>
it eurs</w>
Rec ords</w>
perc eption</w>
Respon se</w>
cel ebr
Pay ments</w>
re ality</w>
we ak
refl ects</w>
étro itement</w>
trouv é</w>
logici el</w>
ev ol
DF O</w>
éri eurement</w>
Slo ven
DN D</w>
attemp t</w>
cor rig
sub vention</w>
mauv ais</w>
ph ases</w>
s cap
class ement</w>
tr ained</w>
encour age
requi ring</w>
at o
r on</w>
tur ation</w>
ch ement</w>
TPS GC</w>
entrepr endre</w>
Initi atives</w>
I tali
complet ely</w>
tradi tions</w>
less ons</w>
ress ort</w>
par a
sol di
ver sions</w>
provinci ales</w>
fréqu ence</w>
télé phon
prob able</w>
wel fare</w>
o dy</w>
Acc ord
capit ale</w>
mon ter</w>
Mun icip
sp ect
Pro du
jug ement</w>
permettr ont</w>
ethni ques</w>
trad ing</w>
For m
T og
de dicated</w>
annu ally</w>
lanc ement</w>
C in
L og
manufactu rer</w>
1 11</w>
S pending</w>
streng th</w>
c œur</w>
5 9
I X</w>
no thing</w>
modern isation</w>
pr int
Z im
én or
car rier</w>
for table</w>
de hors</w>
E ven</w>
dé placement</w>
rappel er</w>
pour suites</w>
to s</w>
Ch ur
il la</w>
Bo x</w>
pro file</w>
handicap és</w>
alph ab
Lev el</w>
concern ent</w>
pl ing</w>
as yl
chois i</w>
H C</w>
l ou
excessi ve</w>
att entes</w>
heure usement</w>
ga ther
Y ou
is o
cam ps</w>
É quipe</w>
ét endue</w>
1 15</w>
r ain
cro is</w>
19 67</w>
pat terns</w>
mic ro</w>
solidar ité</w>
CNU CED</w>
dr am
scol aires</w>
Bulg aria</w>
We b
Propo sition</w>
curr ency</w>
arti stes</w>
RE L
Gu inée</w>
recueilli r</w>
permet trait</w>
spécialis és</w>
ajou té</w>
danger ous</w>
North west</w>
on a</w>
è ques</w>
ou ve</w>
arab es</w>
Emerg ency</w>
pré fér
bre ak</w>
sub sequently</w>
rit ure</w>
pos ed</w>
D IS
analy ser</w>
in vention</w>
Res erve</w>
dépend ance</w>
épi démi
allow ance</w>
gener ated</w>
b ac
adjust ment</w>
mouv ements</w>
lo be</w>
Str eng
consi gn
H ong
ré paration</w>
M P</w>
o c</w>
Indi genous</w>
lo ans</w>
ar ity</w>
jo in</w>
y c
mac ro
Maj or</w>
R ight</w>
con ten
bénéfici aire</w>
Op en</w>
utilis ateur</w>
uti n</w>
préc é
t esti
semb lent</w>
WH O</w>
fo ster</w>
ici an</w>
p ass</w>
au ses</w>
re place</w>
m it
an i</w>
dre w</w>
SO CI
Cap ac
Clim ate</w>
Trans fer</w>
journ al</w>
occu per</w>
mag az
reço ivent</w>
ho sti
ré tablissement</w>
L abor
Argen tina</w>
se where</w>
Loc ation</w>
ci ble</w>
diver se</w>
endro its</w>
ste el</w>
sub missions</w>
alco ol</w>
I bid</w>
prot é
A A</w>
produc ing</w>
hy gi
pho to</w>
exist ant</w>
jug é</w>
sh el
attribu tion</w>
offici euses</w>
sh ore</w>
sp read</w>
Accord ingly</w>
awar ded</w>
sum mari
sol s</w>
refuge e</w>
b ons</w>
r ôles</w>
Pers onnel</w>
pens er</w>
cohér ence</w>
S it
en sive</w>
juridic tion</w>
ven til
dé tec
Refu ge
it ées</w>
tion ed</w>
rest er</w>
sav ings</w>
h iver</w>
ph il
asyl um</w>
join dre</w>
adul ts</w>
voyag eurs</w>
décre t</w>
bel ong
incom be</w>
J e
eu ille</w>
phr ase</w>
ag ences</w>
reli able</w>
intro duce</w>
hosp ital</w>
entre mise</w>
Ch ile</w>
alis te</w>
S ar
fichi ers</w>
Institu tions</w>
success fully</w>
enter prise</w>
bâti ment</w>
médec in</w>
M ob
ow ner</w>
renseign ement</w>
func tional</w>
Esti mates</w>
leg ally</w>
Ex plo
N A
l ang</w>
believ es</w>
ur ities</w>
he avy</w>
work place</w>
Fin ances</w>
SI S</w>
propri étaire</w>
smo king</w>
sam ples</w>
bound ary</w>
compag nies</w>
is sez</w>
alis ed</w>
assess ing</w>
pe ines</w>
t ait</w>
conseill ers</w>
B arb
médic al</w>
co as
compet ence</w>
ter i
transfer ts</w>
ga p</w>
s our
potenti els</w>
préc ises</w>
Kno wle
P ai
sé ment</w>
w age</w>
Manufac turing</w>
Establis h
publi és</w>
RE G
att ended</w>
ow n
Ã© r
Con struction</w>
Auc un</w>
ren voy
Ambass ador</w>
L ac
p y
juris prudence</w>
per haps</w>
é tri
Li ban</w>
recomm end</w>
situ és</w>
off ering</w>
CI DA</w>
j ard
Croati e</w>
neigh bour
fe a
è vent</w>
convic tion</w>
onn ée</w>
w ent</w>
lad ite</w>
ag o
expl ore</w>
d ûment</w>
prob ably</w>
att ente</w>
pres ents</w>
condu it</w>
am end</w>
Cor rec
th or
î les</w>
staff ing</w>
serv ent</w>
prof ession</w>
top ics</w>
exp and</w>
ep i
param ètres</w>
C eci</w>
L and
T EL
T H</w>
UN D
Mus ée</w>
cre di
danger eux</w>
inc urred</w>
For ms</w>
ligh ts</w>
A mon
pr Ã©
be au
NAT O</w>
dou ani
tu r</w>
Chy pre</w>
v ité</w>
ne i
b enz
posi tif</w>
considé rées</w>
signal é</w>
illic it</w>
audi o
pl om
apport é</w>
3 4
pl ication</w>
pr or
pres s
off rant</w>
expand ed</w>
ell s</w>
sev enth</w>
ré fér
compos ante</w>
super fici
at om
method ology</w>
per p
hon our</w>
G ener
t s
is s</w>
re productive</w>
Knowle dge</w>
enqu ê
privil égi
w r
Gre en</w>
qual ités</w>
Hun gary</w>
serv i</w>
do tation</w>
Per i
D eu
déf ici
alo gues</w>
D euxième</w>
t ested</w>
ful fil</w>
mach in
sou mises</w>
tr ag
ann exes</w>
contin u</w>
fall ait</w>
constat er</w>
Do ha</w>
UN HCR</w>
Ser bia</w>
stock age</w>
to w
resp ir
mobil ité</w>
re vue</w>
flow s</w>
A mé
H er</w>
Bulg arie</w>
y i
inf ections</w>
broad casting</w>
With in</w>
administr ateurs</w>
18 0</w>
ber g
ist age</w>
Conclu sions</w>
head quarters</w>
Pat ent</w>
es té</w>
intéri maire</w>
regul ated</w>
Lear ning</w>
reço it</w>
h am</w>
ré sident</w>
Terr oris
universit aires</w>
F A</w>
rest ent</w>
Pers onal</w>
secré taire</w>
hes ion</w>
sup pression</w>
Imp act</w>
vol s</w>
20 4</w>
there of</w>
b all</w>
sur plus</w>
sal ary</w>
renouv ellement</w>
S un
fr anc
ress ource</w>
ordin aires</w>
under stood</w>
tiss ement</w>
oll ing</w>
gar der</w>
Fri day</w>
guarante es</w>
academ ic</w>
inclu ant</w>
indemn isation</w>
s ait</w>
es po
re pose</w>
compos antes</w>
exper im
legi timate</w>
div isions</w>
camp agnes</w>
progres sive</w>
dr y</w>
PR É
cotis ations</w>
Sm ith</w>
accor de</w>
ab order</w>
b ing</w>
ig u
œu vres</w>
expres sément</w>
ré col
re médi
m 2</w>
sub paragraph</w>
retur ned</w>
onc tion</w>
appe ared</w>
S O</w>
dev enu</w>
cle an
VI II</w>
r ail</w>
par avant</w>
accep tance</w>
e ived</w>
correc tion</w>
3 9
périodi que</w>
rec ou
mo dule</w>
depend ing</w>
ne arly</w>
déb ou
sc en
app ing</w>
num éro
custom er</w>
prec ed
associ ée</w>
F S</w>
mon thly</w>
b ound</w>
g ame</w>
sel l</w>
ré elle</w>
m ètres</w>
soli des</w>
quanti tés</w>
3 2
Que en</w>
sc ène</w>
o re
Str as
min or</w>
J eux</w>
col um
S ans</w>
it ables</w>
in dre</w>
échel on</w>
ob serve</w>
photo s</w>
trans mettre</w>
al em</w>
R os
cir cons
An ti
trav er
Amé li
favor ables</w>
v 01</w>
inf érieure</w>
expl ain</w>
f ou
C AN</w>
appli quée</w>
M ur
dev oir</w>
necess arily</w>
radi ation</w>
cy cles</w>
US A</w>
T É
exter ne</w>
197 7</w>
fi gh
sond age</w>
U s</w>
g ent
adul t</w>
de posit</w>
wh ite</w>
pay é</w>
Stras bourg</w>
4 4
Com b
répon d</w>
sal aires</w>
maj eure</w>
sa isie</w>
logici els</w>
mon etary</w>
isl and</w>
accue illi
intég rés</w>
Belar us</w>
inter actions</w>
co operate</w>
c ence</w>
dev en
S Y
ab outi
envoy er</w>
Reg ul
trans fers</w>
vois ins</w>
afric ains</w>
d less</w>
id rc</w>
bal anced</w>
Rich ard</w>
r d</w>
personn elle</w>
ES T</w>
Ré sumé</w>
blan c</w>
conn ected</w>
m em
consul t</w>
3 8
M AT
A G</w>
Integr ated</w>
l ation</w>
prof iter</w>
réguli ère</w>
exp ect</w>
hand ling</w>
norm alement</w>
at ories</w>
CO P</w>
bâti ments</w>
fin ition</w>
è tent</w>
m in</w>
réus si</w>
organis ées</w>
spr ing</w>
f i</w>
ro se</w>
Nig eria</w>
mémo ire</w>
highligh ted</w>
Hong rie</w>
fisc ale</w>
ti tu
relev ance</w>
F M</w>
bru t</w>
sev ere</w>
con vo
as ters</w>
é man
ra f
alis ées</w>
ili zation</w>
Salv ador</w>
autom ne</w>
Val ue</w>
us alem</w>
rel ate</w>
M M</w>
gu i
Po in
ré tro
ref us</w>
compét ents</w>
p assi
ait i</w>
tou che</w>
3 7
approfon die</w>
ic an</w>
f it</w>
UN ECE</w>
si fs</w>
assum er</w>
g lis
re vision</w>
de au</w>
rac ism</w>
ré elles</w>
mondi aux</w>
1 12</w>
A viation</w>
provinci ale</w>
Co st</w>
ell er</w>
foli o</w>
élev ées</w>
w al</w>
ch ain</w>
expres sions</w>
cop yright</w>
crit ère</w>
avi ons</w>
oper ated</w>
great est</w>
joint ly</w>
dang ers</w>
TI R</w>
min ér
remo val</w>
ch air</w>
su m</w>
est ation</w>
li re</w>
É gy
S us
ag grav
ret ourn
Reg istration</w>
analy s
désign és</w>
top ic</w>
Amon g</w>
n eur
K ing</w>
wee k
V IS
har v
ad o</w>
tis sus</w>
rej et
pu s</w>
dis semin
Med iterran
défin ies</w>
opérationn elle</w>
Gén ér
situ ée</w>
out i</w>
réalis ées</w>
ish ing</w>
Azerb ai
ouv r
Rom a</w>
in age</w>
ren dus</w>
aut rement</w>
coun sel</w>
accel er
W ater
ad eur</w>
or a</w>
donn ant</w>
rég ul
fondam ental</w>
bi an</w>
ex u
co hésion</w>
l é
L akes</w>
bro ch
ri d
soci o
20 13</w>
aérop ort</w>
Ser bie</w>
labor atory</w>
met al</w>
six ty</w>
vis a</w>
u k</w>
sugges ts</w>
B U
cho sen</w>
V O
demand eurs</w>
inf o</w>
diminu é</w>
déplac ées</w>
S UL
E quip
w all</w>
add resses</w>
con fusion</w>
systé matique</w>
emphasi zed</w>
clini que</w>
admis sibilité</w>
Indon ésie</w>
H TM
po table</w>
and er</w>
Li thu
m onn
H all</w>
seas on</w>
minist er</w>
sais i</w>
prohib ited</w>
Z él
y an</w>
isi ble</w>
ambi ti
AR TIC
AT S</w>
intel ligence</w>
Hel p</w>
exclusi vement</w>
s ens
s li
ju dge</w>
sembl ables</w>
Pê ches</w>
éc rite</w>
intéress ant</w>
Intellectu al</w>
ex er
bour ses</w>
POR T</w>
responsabil isation</w>
certain ly</w>
occup é</w>
re change</w>
here by</w>
H ong</w>
sp ap
EP P</w>
Ret ur
mari age</w>
tion ary</w>
ex tradition</w>
G N
H ô
Insp ection</w>
arch ives</w>
êt ements</w>
tab lir</w>
mobil ity</w>
0 9
électri que</w>
tu bercul
am bass
automob ile</w>
occ o</w>
men su
bi g</w>
veill ance</w>
UN IT
op he</w>
In ter</w>
nav ire</w>
Tari ff</w>
Bur k
Su iv
r ul
F L
quali fication</w>
remo te</w>
Cam p
ajout ée</w>
cl ô
si a</w>
D r
ci ens</w>
constr uire</w>
be ar</w>
e ing</w>
bl é</w>
bénéfici ent</w>
observ é</w>
confir mé</w>
we ather</w>
l èvement</w>
recouv rement</w>
certi tude</w>
mis si
Th ree</w>
bor ne</w>
associ ées</w>
Y es</w>
sui vie</w>
nécess airement</w>
Ou tre</w>
we ï
poin te</w>
head s</w>
pri é</w>
jeun er</w>
élo ign
reach ing</w>
In deed</w>
it ablement</w>
civili ans</w>
CC C</w>
MP O</w>
Égy pte</w>
suppli ers</w>
Chil i</w>
Mediterran ean</w>
cou leur</w>
difficul té</w>
g al
4 7
ém erg
expos ed</w>
ex act
t ants</w>
al ise</w>
w inter</w>
ar agu
Colom bia</w>
pertin ent</w>
AC DI</w>
annivers aire</w>
mé d
visit ors</w>
mati s
en su
Al ors</w>
vic time</w>
Zim bab
tin s</w>
facil itation</w>
atti rer</w>
N ai
fu tur</w>
touch és</w>
att ants</w>
house hold</w>
é par
c ouvrir</w>
tis ts</w>
h im
Con gress</w>
S at
pour suiv
m am
dynam ic</w>
altern atives</w>
conclu de</w>
laun ch</w>
P P
modifi ant</w>
T re
T M</w>
confir mation</w>
cl aire</w>
V EN
A li
Zél ande</w>
frequ ently</w>
ser vir
S G</w>
l â€™
proce ed</w>
b assin</w>
lin k
she et</w>
ell ers</w>
si n</w>
ess ence</w>
Ex emp
acti ves</w>
Ré solution</w>
perman ents</w>
NATI ONAL</w>
C s</w>
b orders</w>
chem icals</w>
G ames</w>
assur ances</w>
for th</w>
cré di
cri tiques</w>
HTM L</w>
ti enne</w>
d ness</w>
S D</w>
quel con
b al</w>
3 60</w>
de ep</w>
AN N
impos er</w>
Mo z
Curr ent</w>
nation als</w>
sub jects</w>
argu ed</w>
es el</w>
D er
M ov
ass ain
K ir
sor t</w>
el la</w>
Pre sidency</w>
20 15</w>
w oman</w>
ff s</w>
ser re</w>
QU ES</w>
consac rée</w>
propri étaires</w>
system atic</w>
dé bu
soli d</w>
g az
o v</w>
opérationn els</w>
prop ag
sign s</w>
re prises</w>
ho li
appe ar
pren antes</w>
In str
spect ac
in tim
lo an</w>
É co
esp ér
adminis tered</w>
be aring</w>
requ ise</w>
alloc ations</w>
il lis
Go ods</w>
Î le</w>
tis ation</w>
considér ables</w>
lo ts</w>
sec ret</w>
métho d
than ks</w>
a g</w>
Mo d
5 5
co opérer</w>
6 7
la ise</w>
ér ité</w>
appli qué</w>
im bur
cuis ine</w>
soll ic
m 3</w>
atmo sphere</w>
L am
termin er</w>
pesti cides</w>
avanc ement</w>
K ong</w>
cat aly
remerci e</w>
Fre e
por tu
a î
i ents</w>
Mor occo</w>
parti el</w>
ach e</w>
Né anmoins</w>
Autor ité</w>
frequ ency</w>
ab ol
bil ingu
OT AN</w>
mo ther</w>
enh ouse</w>
3 50</w>
mét aux</w>
s aison</w>
fais ait</w>
autoris és</w>
horizon tal</w>
equ itable</w>
inc en
pl ays</w>
Contribu tion</w>
prim aires</w>
197 5</w>
con grat
recomm an
valid ation</w>
agricul teurs</w>
R R
sensibil iser</w>
dis mis
Z am
re ply</w>
join ed</w>
L este</w>
exécu ter</w>
i ed</w>
trans mitted</w>
ann ex
compos és</w>
Ac tivity</w>
jus tification</w>
Q C</w>
dé cide</w>
a f</w>
og en
ass et</w>
B CE</w>
struc tur
8 7
vill ages</w>
sau ve
ren due</w>
H O
ten stein</w>
tari fs</w>
manufac ture</w>
fi ant</w>
comm en
ti mat
Com par
consis ten
A I</w>
Institu tional</w>
ÁÁ ÁÁ
exclu ded</w>
eas tern</w>
g ne</w>
he at</w>
Comm ents</w>
parten aire</w>
t ente</w>
El ectronic</w>
it ali
Con stitu
reser vation</w>
pro of</w>
MIN U
dép it</w>
proper ties</w>
H aving</w>
relev é</w>
G ab
se as</w>
EC A</w>
TA WA</w>
electr icity</w>
a w</w>
enti ère</w>
Brit ain</w>
Eff ective</w>
at ar</w>
Develop ing</w>
go es</w>
chiff re</w>
d ating</w>
M erc
v rai</w>
spir itu
universit aire</w>
ail les</w>
veri fication</w>
ri ve</w>
charg er</w>
migr ations</w>
H ST</w>
Consul tation</w>
S G
Ar my</w>
Lis bon</w>
spéci alement</w>
al izing</w>
Cop yright</w>
T Y</w>
part ager</w>
eigh th</w>
san g</w>
accélé rer</w>
OT TAWA</w>
auth ors</w>
remédi er</w>
lo y
b ra
sec toral</w>
as i</w>
alco hol</w>
Burk ina</w>
G éor
Olymp ic</w>
compét ente</w>
sustain ed</w>
recogni zes</w>
coll ections</w>
MIN IS
qu et</w>
Li ech
Ré pon
Pu b
so le</w>
const ante</w>
Ã ª
tab leaux</w>
lic enci
aï d
constitu tes</w>
r in
EC B</w>
quanti ty</w>
Stat ut</w>
Sur veillance</w>
cô te</w>
C B</w>
é mis</w>
appr endre</w>
y me</w>
Be fore</w>
sa w</w>
h auteur</w>
aqu aculture</w>
prestat aire</w>
f ill</w>
197 3</w>
n ette</w>
fo i</w>
distric ts</w>
nei ther</w>
S il
ob tention</w>
1 23</w>
ici les</w>
Oc éans</w>
su me</w>
p ir
élar gir</w>
reser ves</w>
form ats</w>
Sa har
Zimbab we</w>
cess ation</w>
port és</w>
tari faire</w>
chim ique</w>
muni tions</w>
A ch
fl uctu
ant ation</w>
ass or
financ és</w>
N OR
sem i</w>
scr utin</w>
rati fied</w>
Mar oc</w>
S AR
lingu istique</w>
M éti
défin it</w>
every thing</w>
Liech tenstein</w>
197 6</w>
J O</w>
tern al</w>
victi m</w>
hel ps</w>
in side</w>
rapid ly</w>
mandat es</w>
gestionn aire</w>
C el
contr adic
adéqu ate</w>
En h
w anted</w>
log ements</w>
accr u</w>
Fas o</w>
mo dé
net to
ob servers</w>
sur vie</w>
En tre</w>
d op
ag ence</w>
f ils</w>
V éri
a b</w>
descri be</w>
éco systèmes</w>
ow ing</w>
rig oure
MD N</w>
Particip ants</w>
1 18</w>
eng ineering</w>
Fif th</w>
timat ely</w>
Bret agne</w>
Tit le</w>
Tél écopieur</w>
print emps</w>
municip alités</w>
UR S</w>
homolog ation</w>
197 1</w>
ver t</w>
dis charge</w>
demeur ent</w>
audi o</w>
Au jourd</w>
facilit ating</w>
el sewhere</w>
désign ation</w>
M H
over view</w>
territori aux</w>
lanc er</w>
quelcon que</w>
A re</w>
pro fil</w>
Nic aragu
f oundation</w>
P os
réc ep
OR S</w>
fr ame</w>
fiduci e</w>
Lis bonne</w>
san itaires</w>
ame ters</w>
integr ate</w>
jun ction</w>
adop tés</w>
c élé
sol de</w>
or isation</w>
ext érieure</w>
rappel é</w>
U V
R ural</w>
vers ées</w>
véri fic
veu lent</w>
icul um</w>
inter view</w>
fix és</w>
reconn us</w>
mar ins</w>
st one</w>
pun ishment</w>
TI NG</w>
dé riv
appli qu
occup ational</w>
Recommend ations</w>
cou p</w>
di ments</w>
im pres
adress er</w>
faç ons</w>
E thi
Indi vidu
investiss eurs</w>
for ums</w>
particip e</w>
AR C</w>
anticip ated</w>
w are</w>
Ad op
Géor gie</w>
elim ination</w>
G all
inter views</w>
j i</w>
TR AN
er cial</w>
volon taire</w>
i ra
us h
AC E</w>
equ ally</w>
examin ées</w>
e te</w>
endors ed</w>
fon ci
per petr
solidar ity</w>
um b
sc én
pil otes</w>
ext érieures</w>
li que</w>
dec ade</w>
am i</w>
judg ment</w>
univers elle</w>
C ross</w>
M édi
jou ent</w>
défini tive</w>
préoccup é</w>
diff iciles</w>
atlanti que</w>
TV H</w>
W ed
orient ed</w>
par cs</w>
har m</w>
nin th</w>
entraî ner</w>
prov ed</w>
conform er</w>
Indi ens</w>
Con grès</w>
dé montré</w>
te en</w>
T E
vie illis
ves sel</w>
tot alement</w>
signific ative</w>
M IS
T AB
trans porteur</w>
Char les</w>
Pro secu
fe ature</w>
mar ge</w>
al ing</w>
am is</w>
as ser
air port</w>
lég ères</w>
réalis ée</w>
bri ef</w>
Itali an</w>
au paravant</w>
cour rier</w>
CR C</w>
s équ
alleg ations</w>
Techn ologies</w>
reg istr
ari os</w>
vo ter</w>
détaill ées</w>
Equip ment</w>
ré ci
trim estre</w>
ron de</w>
R A</w>
précé demment</w>
T P</w>
fau ne</w>
o king</w>
rob i</w>
lon gueur</w>
L IS
réflexi on</w>
è tement</w>
el ing</w>
bil an</w>
coll ect</w>
diff user</w>
Sen ate</w>
a ths</w>
Mal i</w>
human ité</w>
Co ordonn
Consum er</w>
pl af
Th urs
6 0
achiev ements</w>
aci de</w>
B ER
sep h</w>
se em</w>
contr acting</w>
Nai robi</w>
civ il
t endant</w>
mét éor
4 50</w>
plaign ant</w>
p rece
uni es</w>
a head</w>
F estival</w>
g aps</w>
si des</w>
C rit
T ES</w>
pap ers</w>
Pre par
suffis ant</w>
nomin ations</w>
k istan</w>
me ets</w>
G ul
conver gence</w>
as t
re sum
suffis ante</w>
occ urs</w>
g agn
bo t
Con ventions</w>
sub i</w>
h c</w>
co te</w>
ré pression</w>
progress er</w>
remo ve</w>
att ack</w>
b ritannique</w>
P oll
ré ussi
sc ru
IN T</w>
fo ods</w>
Consi dér
Distribu tion</w>
Jo seph</w>
kil om
shor t
1 22</w>
quar ante</w>
minu te</w>
signific ance</w>
Pri x</w>
v ary</w>
I l
Qu and</w>
rap porteurs</w>
C r
ay ed</w>
Vol un
je une</w>
lingu istiques</w>
av o
seu il</w>
9 9
Azerbai jan</w>
cer a</w>
N evertheless</w>
We ap
en see</w>
ad ication</w>
thir ty</w>
inclu sive</w>
S eu
aliné as</w>
v ations</w>
O U</w>
L et</w>
An ti</w>
subsidi ary</w>
discrimin atory</w>
Ar rang
arrê té</w>
Con c
exemp t</w>
chang é</w>
cop e</w>
fortun ately</w>
Q u</w>
anci enne</w>
multi pli
Wh ite</w>
Sub ject</w>
op ping</w>
mandat s</w>
dépos ée</w>
asp ir
An ne</w>
Fin ancement</w>
ci bles</w>
port ées</w>
sp her
dr inking</w>
UNF PA</w>
campai gn
matéri els</w>
au dits</w>
Ar men
fabric ant</w>
administr ateur</w>
Europ é
ang laise</w>
op hy
aper çu</w>
ARTIC LE</w>
Benef its</w>
avoc ats</w>
fi li
S ommaire</w>
eu di</w>
Dis armament</w>
pi ques</w>
em ail</w>
1 13</w>
â tre</w>
RO M</w>
audi ences</w>
advant ages</w>
Be au
destin ée</w>
O ui</w>
mén ages</w>
de vi
laiss er</w>
bénéf ices</w>
rubri que</w>
IN D
cap ables</w>
accep tation</w>
Territ oires</w>
Peop les</w>
Propos al</w>
rel ates</w>
Sloven ia</w>
os oph
Thurs day</w>
at aires</w>
P SC</w>
soci eties</w>
aéri ens</w>
Thom as</w>
arb on</w>
Ar r
Princip les</w>
pa th
goslav ie</w>
rés ol
pollu ants</w>
B ir
tu m
carbur ant</w>
divul gation</w>
J os
Treat ment</w>
B or
play ing</w>
gener ate</w>
P L</w>
H arb
em pris
divi ded</w>
M aster</w>
e av
You goslavie</w>
sib ly</w>
arr y</w>
ant érieure</w>
er reurs</w>
prépar atoire</w>
gén étiques</w>
heure ux</w>
n ul
di lu
dis cours</w>
Excell ence</w>
marri age</w>
dis abled</w>
soldi ers</w>
qu est</w>
passeng er</w>
in her
sh o
re imbur
médic ale</w>
Wil dlife</w>
Comm ercial</w>
regar dless</w>
assain issement</w>
trans mis</w>
y eux</w>
innov ations</w>
hom es</w>
cont ents</w>
révél é</w>
Form at</w>
comport ements</w>
pl a
dispu tes</w>
conjoin te</w>
fi quement</w>
mo indre</w>
lib res</w>
T B</w>
R ailway</w>
travaill é</w>
Minis tres</w>
resol ved</w>
L ong</w>
précéd entes</w>
Con sequently</w>
coll aborer</w>
trait ées</w>
al er
arg o</w>
th res
serv es</w>
fi ables</w>
termin é</w>
concern é</w>
t old</w>
int érieure</w>
err or</w>
trou bles</w>
res istance</w>
a éro
Th an
per mission</w>
N GO</w>
communic ate</w>
urb ain</w>
cro ire</w>
es tors</w>
ul s
équ ivalent</w>
o ke</w>
i ous</w>
Sel ection</w>
Willi am</w>
gre en</w>
phen om
b out</w>
p éd
sur g
enc oun
Laur ent</w>
Al ex
dis t
ro gation</w>
t ack
ç a</w>
it aux</w>
c ens
compos ed</w>
Yu goslav
fix er</w>
p H</w>
A d</w>
T op
trouver ez</w>
lem en</w>
Ste ph
fl éch
Pl ace</w>
Chr ist
Yugoslav ia</w>
hol m</w>
ren for
occurr ence</w>
Procu reur</w>
correc tement</w>
log istique</w>
ne ts</w>
cap ability</w>
Com pu
N e</w>
cré és</w>
i ors</w>
authori zation</w>
Sel f</w>
7 50</w>
per çu</w>
syn thèse</w>
re placement</w>
configur ation</w>
defin itions</w>
dom mage</w>
it arian</w>
util ité</w>
fabric ants</w>
y e</w>
doub t</w>
Speci fic</w>
ed onia</w>
st ands</w>
satis fais
com portant</w>
e di
s ever
str ict</w>
Nicaragu a</w>
ju ven
coordin ate</w>
13 5</w>
al umin
tax payer</w>
Priv ate</w>
eligi bility</w>
discipl ines</w>
d ites</w>
ak er</w>
A K
sen sible</w>
Wed n
rem is</w>
Mul ti
sémin aires</w>
to m</w>
délin quants</w>
Ex ternal</w>
défini tions</w>
Opport unities</w>
Méti s</w>
Sit uation</w>
sav oirs</w>
s év
pré ven
exerc ices</w>
renew al</w>
believ ed</w>
exig er</w>
supprim er</w>
draf ting</w>
gén étique</w>
spati ale</w>
Hum an
dép istage</w>
expul sion</w>
inter medi
Régi me</w>
Q atar</w>
post ed</w>
E s
vers é</w>
bat eaux</w>
ligh tly</w>
T ax
Ch all
under lying</w>
b ag
w o
R am
mentionn és</w>
enc ein
contr aintes</w>
perm its</w>
dign ité</w>
minis ters</w>
vend redi</w>
vers al</w>
communi qués</w>
Franç ais</w>
N R
op tique</w>
ag ements</w>
trouver a</w>
arri ère</w>
S ources</w>
influ enza</w>
Four th</w>
statu tory</w>
Sou thern</w>
chil d
obj ect</w>
Comm entaires</w>
tol erance</w>
re ductions</w>
COMM IS
renew able</w>
part ements</w>
p ts</w>
SI D
G RO
2 nd</w>
lib ell
eng ine</w>
ver si
ID RC</w>
it or</w>
R AP
déliv rance</w>
autor iser</w>
guarante ed</w>
p ill
xi èmement</w>
8 6
b ill</w>
inqui ry</w>
In formal</w>
man ager</w>
Bal k
restaur ants</w>
G A</w>
avi on</w>
plac ing</w>
mo ved</w>
8 4
tri p</w>
augment e</w>
rati f</w>
mi e</w>
D ani
manu el</w>
Comp ag
qu ot
gen u
colle agues</w>
lo ir</w>
decre ased</w>
tari f</w>
verb al</w>
substanti ally</w>
Wedn esday</w>
e ast</w>
mul tin
acc used</w>
Au tre</w>
fi re
é rée</w>
Phy s
B lack</w>
Sy m
recip ient</w>
A venue</w>
l o</w>
individu els</w>
uni versité</w>
ment ally</w>
indic ating</w>
EP A</w>
d ress
form é</w>
foc using</w>
ap port</w>
affir m
mari times</w>
reti rement</w>
Chem ical</w>
re sidential</w>
arri ver</w>
F NU
l undi</w>
Terroris m</w>
o la</w>
ér ations</w>
Co opération</w>
S uc
assur ant</w>
1 16</w>
citiz enship</w>
engag ées</w>
H E
ri ons</w>
voul ons</w>
ign es</w>
cont rer</w>
espagno l</w>
gh ts</w>
tionn ement</w>
aut on
comprom is</w>
Doc umentation</w>
1 21</w>
cam p</w>
en ver
espo ir</w>
nation ality</w>
ch air
war ning</w>
pré sidents</w>
consult ative</w>
Lithu ania</w>
Com pl
in direct</w>
civi les</w>
Exper t</w>
T N
No w</w>
w on
ax é</w>
G ren
bless ures</w>
1 17</w>
périodi ques</w>
ri ver</w>
re mettre</w>
Sub stances</w>
weap on</w>
regar ded</w>
Tu esday</w>
fac ul
fer met
popul ar</w>
atmosph ère</w>
révis ée</w>
ing éni
or ateurs</w>
pi p
satis fait</w>
spati ales</w>
C A
Depart mental</w>
re dev
sor tie</w>
ay e</w>
ame works</w>
get ting</w>
cl auses</w>
ach eter</w>
recens ement</w>
produ isent</w>
quar tier</w>
IT E</w>
ressortiss ants</w>
mar che</w>
S pr
ach ing</w>
port ef
n esty</w>
charg ement</w>
Deli very</w>
approuv és</w>
S c
1 14</w>
org ans</w>
ol ine</w>
candidat ure</w>
pre ad</w>
fi bres</w>
integr al</w>
décid eurs</w>
et es</w>
dé pass
ES C</w>
Win dows</w>
Qu ant</w>
Clu b</w>
Com mon
incenti ves</w>
4 9
pror og
T ru
compt abilité</w>
Ad resse</w>
protoc ol</w>
out put</w>
Hosp ital</w>
cre di</w>
Coordin ator</w>
catastr ophe</w>
Ex p
join te</w>
Ac tu
T R</w>
su n
terroris te</w>
N am</w>
constr aints</w>
atta quer</w>
Slo vé
assur é</w>
S har
compl éter</w>
attein ts</w>
organis ed</w>
manufactur ers</w>
liter ature</w>
fe edback</w>
conn exi
ma isons</w>
AR D</w>
el ev
1 000</w>
prof its</w>
V olume</w>
depend s</w>
con junction</w>
uls ory</w>
off enders</w>
entrepren eur
k l
ograph y</w>
ant érieures</w>
cro issante</w>
appar ent</w>
inst aurer</w>
Oc cup
ing re
Organiz ations</w>
he ar</w>
sou mise</w>
IN FORM
Investi g
h ect
l ist
sib lement</w>
Slové nie</w>
rus se</w>
inten sive</w>
gl u
refer ences</w>
fondament ale</w>
te enth</w>
wi der</w>
ou d</w>
N av
Pur su
potenti ally</w>
renouvel ables</w>
fri ends</w>
combus tion</w>
Syri an</w>
pertin ence</w>
glob alization</w>
législ ative</w>
ét endre</w>
epi dem
ent ary</w>
prépar é</w>
w in</w>
pr o</w>
es comp
s h</w>
Or dre</w>
M ONU
raisonn ables</w>
k y</w>
maîtr ise</w>
at us</w>
PAR TI
ar ise</w>
luc ratif</w>
tain ment</w>
nat ur
gi ques</w>
trans frontali
annu elles</w>
inv entaire</w>
di r</w>
semin ars</w>
k i
B il
mor ning</w>
territori ales</w>
conting ents</w>
éc ologique</w>
clos er</w>
B our
bir ds</w>
G S</w>
avai l</w>
se at</w>
minim al</w>
vol umes</w>
run ning</w>
calend ar</w>
re tenue</w>
20 12</w>
H ere</w>
ear nings</w>
juris dictions</w>
compar ative</w>
Fr aser</w>
au gh
par king</w>
des c
considér ations</w>
limit ées</w>
C ali
tt on</w>
examin és</w>
D V
ari ties</w>
brief ing</w>
Ch arg
shi ft</w>
H and
préc ision</w>
appe als</w>
usu al</w>
consommat eur</w>
µ g</w>
vi abilité</w>
mar qu
senti ment</w>
Comm ittees</w>
lit tér
inter gouvernementales</w>
institu tionnel</w>
impli que</w>
cré ée</w>
in sufficient</w>
mix te</w>
démocrati ques</w>
c â
en r
tak ings</w>
justi fied</w>
Dro it</w>
roy ale</w>
Ex change</w>
établiss ant</w>
Ku wait</w>
car c
ici ens</w>
Fo rest</w>
situ ated</w>
ou red</w>
ou i</w>
prepar ations</w>
i ting</w>
Ber lin</w>
par ameters</w>
procé dés</w>
ind ice</w>
conven tional</w>
urg ed</w>
Th ail
sel ect</w>
mor ale</w>
centr ales</w>
su st
B iss
suff ering</w>
t ell</w>
lev er</w>
practi tion
rest rein
ban des</w>
investig ate</w>
succ e
Sup plement</w>
m ill
r are</w>
protoc oles</w>
p â
R I</w>
ST A</w>
dri ven</w>
influ enc
Stock holm</w>
Ber n
Basi c</w>
viol ences</w>
de priv
impos ées</w>
citiz en</w>
y ou
affec tés</w>
not ably</w>
arti sti
O S</w>
L DC
N S</w>
Weap ons</w>
ré ellement</w>
tri als</w>
retur ns</w>
contamin ants</w>
ad ed</w>
extre me</w>
col onne</w>
adjust ments</w>
4 16</w>
fin ally</w>
dec ades</w>
orient ale</w>
Mal ay
infr ing
travaill ant</w>
dou ard</w>
call ing</w>
si zed</w>
rec re
new ly</w>
de fici
ren voi</w>
cont ac
ambi que</w>
For mation</w>
K i
Thail and</w>
T OT
ten sions</w>
bran ches</w>
Pro gress</w>
prior itaire</w>
ign ty</w>
appel ante</w>
M L</w>
Dur ant</w>
compr ises</w>
pho sph
Tro is</w>
an o
la v</w>
rel èvent</w>
M a</w>
ig g
oc y
bien fais
k et</w>
ou x</w>
dé libér
con tiennent</w>
m eu
lev ée</w>
schem es</w>
conna ît</w>
it a</w>
tox ic</w>
Common wealth</w>
Moz ambique</w>
propri étés</w>
eu tiques</w>
En quête</w>
par as</w>
nor ms</w>
gr ati
seri ously</w>
tr ying</w>
pro fond
numéro s</w>
acc ru
ak ia</w>
e en</w>
g ent</w>
Sec teur</w>
viend rait</w>
publi ée</w>
r ence</w>
ter ait</w>
ain eté</w>
comb attants</w>
haz ardous</w>
quot as</w>
éventu ellement</w>
T est</w>
an ne</w>
Hon dur
recou rir</w>
feu ille</w>
exce eding</w>
organ iques</w>
p asse
es pread</w>
Gr ands</w>
for ty</w>
Pan ama</w>
thes is</w>
man n</w>
ple as
ag i
Fu ture</w>
thé matiques</w>
dép ôts</w>
déplac ements</w>
acc réd
cap ture</w>
oc é
produ ites</w>
in ary</w>
couv re</w>
respon dent</w>
197 4</w>
Tra ff
Go od</w>
signal er</w>
différ ente</w>
f ice</w>
pa tr
st ers</w>
conv inc
or ph
tr o</w>
Simil arly</w>
diplom atic</w>
onn iers</w>
fisc ales</w>
Agricul tural</w>
Com pli
Mich el</w>
IC E</w>
Des ign
D R</w>
bienfais ance</w>
for ment</w>
duc t</w>
ed ge</w>
Orig inal</w>
plur i
remplac é</w>
compl ètement</w>
c af
gent lemen</w>
Y oung</w>
cré anci
play ers</w>
D ig
coas tal</w>
au to</w>
Elec toral</w>
mo dules</w>
g auche</w>
w an</w>
fourn itures</w>
électri ques</w>
re action</w>
F ile</w>
véri fications</w>
collabor ative</w>
Som alia</w>
ac o</w>
br anch</w>
pour suit</w>
fi ants</w>
si ves</w>
vo té</w>
wh at
Wh it
déb it</w>
IP C</w>
E very</w>
adi ly</w>
mon op
dé signe</w>
end eav
ferrovi aire</w>
H en
thè ses</w>
gro w</w>
campaign s</w>
offici ellement</w>
fres h</w>
re ts</w>
tax able</w>
them es</w>
tain e</w>
W est
adequ ately</w>
exec u
Azerb aïd
V ille</w>
CR DI</w>
phil osoph
speci fy</w>
M ay
milli ard</w>
excep tional</w>
IC S</w>
dé montrer</w>
norm ale</w>
ar tists</w>
13 2</w>
prison ment</w>
b it</w>
adj ac
ini on</w>
d ited</w>
urg es</w>
re viewing</w>
explan ation</w>
ét al
CB SA</w>
charg ées</w>
Hist ori
ab ond
aff ér
ol y
expli qué</w>
envoy é</w>
consisten cy</w>
on ais</w>
occup ent</w>
éch app
s ors</w>
ter ont</w>
Ex pl
over sight</w>
cont ex
mul ticul
ajou te</w>
in sec
séri eux</w>
7 20</w>
partic ules</w>
b y
clari fy</w>
viol ent</w>
adap ted</w>
dign ity</w>
Compag nie</w>
il ton</w>
produc er</w>
eu tenant</w>
AP PL
accompl i</w>
financ é</w>
perform ances</w>
combin aison</w>
intégr ante</w>
Hist ory</w>
évi dent</w>
M embre</w>
rec ti
atta ques</w>
L ignes</w>
H aï
Ann ée</w>
gu ides</w>
pl age</w>
Pho to</w>
fourn issant</w>
TR A
p es
A ward</w>
condu ire</w>
dis tor
li a</w>
h es</w>
hôp itaux</w>
ent am
cont est
pat tern</w>
voc ational</w>
a er
AS S
com bler</w>
entraî ne</w>
pris ons</w>
ev entu
péri l</w>
To k
évalu é</w>
S ir</w>
E duc
ro alimentaire</w>
OP IC</w>
2 e</w>
du al</w>
déc rites</w>
qu ad
dri ve</w>
sub ven
D ES
enjo y
Reg istry</w>
conç us</w>
réc ents</w>
l ay</w>
UN IF
IL O</w>
Joh n
gran ting</w>
attén uation</w>
ow ners</w>
imp ér
f alls</w>
plais ir</w>
arbitr age</w>
sol ely</w>
exig ent</w>
exc ess</w>
arm ing</w>
Ã© t
Cer tific
ou ts</w>
C inqui
remar qu
Ambass adeur</w>
AC P</w>
Dur ée</w>
surviv al</w>
emball age</w>
citoy enneté</w>
am p
in jur
P O</w>
care fully</w>
In spec
congrat ul
v ap
K h
par cours</w>
répon dent</w>
territori ale</w>
Ex pend
sais ir</w>
effectu e</w>
mondi ales</w>
20 20</w>
trad u
Azerbaïd jan</w>
Competi tion</w>
pertin ente</w>
ab sol
dra wing</w>
work force</w>
éventu els</w>
stream ing</w>
Per u</w>
Pr int</w>
evalu ated</w>
ach em
Z one</w>
si èges</w>
13 8</w>
uni forme</w>
see ks</w>
imp ôts</w>
Alg eria</w>
direc trice</w>
E ss
V in
H aiti</w>
ad vised</w>
h ands</w>
hy bri
r h
Rel ease</w>
méc an
détaill é</w>
col our</w>
inclu t</w>
souver aineté</w>
vo it</w>
vis ited</w>
ch ent</w>
I A
Th er
hau ts</w>
a quie</w>
lu x
berg ement</w>
déf endre</w>
dur al</w>
accompli r</w>
ab ore</w>
1 28</w>
af ter
vo ice</w>
Agre ements</w>
remar quer</w>
Ko weï
mag istr
S W
vieillis sement</w>
strong er</w>
Manu el</w>
T itre</w>
Ph one</w>
dri ving</w>
ew er</w>
Inst ance</w>
vi du</w>
d ons</w>
comprom ise</w>
sub regional</w>
6 04</w>
p pe</w>
dépos er</w>
sign es</w>
fond ement</w>
cham ps</w>
vo ted</w>
mon d</w>
s lightly</w>
Regul atory</w>
refl ète</w>
dec lar
L itu
co ast</w>
op ia</w>
francoph ones</w>
fin ds</w>
wid espread</w>
F abr
tox iques</w>
Lou is</w>
str u
U ganda</w>
z en</w>
bénévo les</w>
ad er</w>
surr ounding</w>
ann on
pro secution</w>
Ri o</w>
pré sidente</w>
perform ing</w>
cu tting</w>
L AN
arti fici
industri elles</w>
et tre</w>
Appl ic
Stat ute</w>
Ap pro
it ons</w>
Pursu ant</w>
under takings</w>
rel les</w>
a o</w>
s able</w>
e k
Compli ance</w>
aut és</w>
telec ommunications</w>
extr action</w>
mati c</w>
r al</w>
de aths</w>
D RO
ad y</w>
prom p
Mon go
b act
m ur
ill ness</w>
ex pe
ut ants</w>
im prisonment</w>
É N
Vi et</w>
Don ald</w>
ti eth</w>
Pri orities</w>
dro ite</w>
conn ue</w>
feu illes</w>
C ou
ic on
re min
fr ameworks</w>
cher cher</w>
prison ers</w>
ox ide</w>
clô ture</w>
acknowledg ed</w>
justi fier</w>
répond ant</w>
Co ast</w>
difficul ty</w>
accum ulation</w>
inter esting</w>
propos es</w>
4 8
199 0s</w>
défin ie</w>
am ph
géo graphiques</w>
des ir
ob taining</w>
In struc
coun t</w>
FNU AP</w>
stabil isation</w>
gre enhouse</w>
M T</w>
G I</w>
B lo
indi vidu</w>
oper ator</w>
Mad am</w>
du ire</w>
cigaret tes</w>
Hondur as</w>
inter face</w>
tis su
fin ales</w>
intég rées</w>
présent ations</w>
u tes</w>
con fin
curr iculum</w>
exp ir
pa tri
pa tho
obj ects</w>
consoli dated</w>
amend ing</w>
ag issait</w>
confir m</w>
c ited</w>
great ly</w>
attén uer</w>
Ex port</w>
1 27</w>
sovere ignty</w>
annivers ary</w>
chi ment</w>
f ounded</w>
stu died</w>
TB S</w>
Biss au</w>
dep end</w>
ven cy</w>
reason ably</w>
Vo tre</w>
fores ts</w>
land scap
E sc
scienti sts</w>
suffici ently</w>
H RC</w>
wil dlife</w>
ouv re</w>
Law rence</w>
A th
14 3</w>
reser vations</w>
naturel le</w>
ex erce</w>
ati quement</w>
AS FC</w>
pré con
contr aign
colum n</w>
Fol low</w>
an ese</w>
res ts</w>
bat ter
mentionn ées</w>
t rem
accord ingly</w>
Eng ineering</w>
ass isting</w>
Koweï t</w>
atmosph érique</w>
dr ome</w>
con tro
auton ome</w>
produc tions</w>
ve ille</w>
nour riture</w>
assign ment</w>
ass isted</w>
CF P</w>
adop ting</w>
17 0</w>
T ex
aci ón</w>
tu red</w>
pic ture</w>
descri ptions</w>
r al
voul u</w>
ti mi
D S
respec ting</w>
entraîn é</w>
Journ ée</w>
b ét
d â€™
V ol</w>
thr op
respecti fs</w>
N ami
Litu anie</w>
new spap
Over view</w>
D j
G EN
machin ery</w>
fa ith</w>
Tun isi
so in</w>
S es</w>
alis tic</w>
t ar
passeng ers</w>
Medic ine</w>
w illing</w>
it enti
di esel</w>
indi ennes</w>
comp tables</w>
foot note</w>
sou l
G am
r av
cri ptions</w>
Cat eg
co ff
li tion</w>
L TD</w>
sémin aire</w>
ap porte</w>
Rev enu</w>
exp ense</w>
archit ec
ti rés</w>
answ ers</w>
revend ications</w>
over come</w>
1 19</w>
défici ence</w>
en g</w>
tol érance</w>
cro issant</w>
bilatér aux</w>
P il
s and</w>
dégrad ation</w>
rev anche</w>
W L
dis play</w>
emb ar
miti g
enti rely</w>
le aving</w>
ad ding</w>
show ing</w>
Nouv elles</w>
F ish</w>
No ti
certi fied</w>
cr y
netto y
withdra wal</w>
per taining</w>
CS A</w>
proc essed</w>
pro sper
refu se</w>
T ai
ten e
convainc u</w>
Produ its</w>
Tour ism</w>
moder nes</w>
comm and</w>
illic ites</w>
Bul l</w>
p ain
sal les</w>
blan chiment</w>
EM ENTS</w>
re pli
par ental</w>
S AR</w>
v i</w>
uni form
sen sibles</w>
Obj ectifs</w>
N ON</w>
do ses</w>
stre et</w>
Slov akia</w>
TOT AL</w>
D ès</w>
C AP</w>
r attach
intéress é</w>
tot ales</w>
conclu t</w>
197 2</w>
iss ements</w>
monn aie</w>
provi der</w>
land ais</w>
Ve ter
dem i</w>
Pub lish
enti elle</w>
E V
F lo
B ack</w>
compar ativement</w>
N L</w>
enni al</w>
as ts</w>
valid ity</w>
ér in
Éco le</w>
Ve hic
attein tes</w>
13 3</w>
di o</w>
com fortable</w>
co hesion</w>
Ethi opia</w>
E O</w>
satisfac tory</w>
parall el</w>
mid dle</w>
hi er</w>
pare dness</w>
Val ley</w>
N AF
Broad casting</w>
re conciliation</w>
municip alities</w>
Requi rements</w>
mon ie</w>
prévo ient</w>
quali fiés</w>
mi di</w>
ordin ateurs</w>
tex ts</w>
l its</w>
solv abilité</w>
correspon dent</w>
gén é
dg ed</w>
ac ute</w>
par as
P ow
Bo t
Reg ina</w>
Pré c
or ateur</w>
ch eurs</w>
indi quées</w>
2 10</w>
mi le</w>
ti um</w>
mo tor</w>
organis és</w>
é ma</w>
in adequate</w>
d ul
so red</w>
z er</w>
k er
con tenus</w>
nég lig
Trav aux</w>
c ue</w>
expéri ment
compr ise</w>
An t
6 5
suffis antes</w>
dis asters</w>
Com plain
utilis ations</w>
sign ing</w>
ap h
fe ed</w>
financ ed</w>
O J</w>
gu er</w>
appuy é</w>
ide al</w>
D ep
dis h</w>
ic y
m aster</w>
v ar
ryth me</w>
Coll ection</w>
ne z</w>
Appl ications</w>
P EN
Mon tene
inter val
v êtements</w>
comp ulsory</w>
it Ã©</w>
B est</w>
re pas</w>
ec ological</w>
4 3
car ds</w>
negoti ation</w>
Poin ts</w>
semin ar</w>
sup érieures</w>
gé nie</w>
envis age</w>
publi ées</w>
contr ast</w>
promo ted</w>
im pe
diversi fication</w>
conclu ding</w>
assum ed</w>
14 1</w>
Cap e</w>
ani an</w>
Alg érie</w>
f asse</w>
lab el</w>
accoun table</w>
dro p</w>
Leg isl
elec tric</w>
acc red
acces sibilité</w>
With out</w>
ag as
on ing</w>
Ac adem
H al
fer ti
Malay sia</w>
chann els</w>
sembl able</w>
formul aires</w>
acc él
sp ouse</w>
L U
sou s
h arm
i on
ens ures</w>
Bi bliothèque</w>
CI C</w>
exclusi vely</w>
respon ding</w>
coun selling</w>
enc ad
T AR
apparti ent</w>
sol vency</w>
Qu el
matern elle</w>
bl ack</w>
offici ers</w>
fav ourable</w>
É douard</w>
inter active</w>
mati n</w>
PRO GR
Lat via</w>
adjust ed</w>
ti end
G as</w>
europ a</w>
eth ics</w>
st y
Back ground</w>
ét age</w>
IN F</w>
trans fé
nam ed</w>
terres tres</w>
ill on</w>
f ère</w>
us ine</w>
dép asse</w>
rédu ite</w>
R ec</w>
cul ar</w>
Slov aquie</w>
tionn ellement</w>
T aking</w>
Over all</w>
eff lu
rec our
renew ed</w>
Oper ation</w>
eli hood</w>
approuv er</w>
house holds</w>
1 24</w>
C alls</w>
Som alie</w>
consul tant</w>
Me tho
ré jou
médic ament</w>
tr ation</w>
Ret our</w>
law ful</w>
or m
reques ting</w>
complex ité</w>
K O</w>
On t</w>
conven ed</w>
sc rites</w>
dé jeuner</w>
Liber ia</w>
tro ops</w>
Joh ann
Ear th</w>
pri e</w>
étiqu etage</w>
famili ales</w>
K in
Règ les</w>
sp ices</w>
adop te</w>
appoint ments</w>
auth enti
re fin
exp édi
o de</w>
secu red</w>
ev e</w>
mo vements</w>
É qu
portef euille</w>
uni ème</w>
examin ée</w>
beau ti
ent ering</w>
ég ales</w>
w ind</w>
qu asi</w>
Re gar
work er</w>
Telec ommunications</w>
espér ons</w>
7 7
Rec ord</w>
h aut
Arc tique</w>
S K</w>
sign er</w>
M el
certain ement</w>
R SS</w>
ik istan</w>
si f</w>
Cinqui ème</w>
Tr in
mor ph
dou ane</w>
Am nesty</w>
lis ting</w>
acti onn
représent er</w>
mer it</w>
garanti ss
le tins</w>
Dis cus
en tions</w>
comm andes</w>
sim ples</w>
exclu ding</w>
ar isation</w>
Dé cide</w>
v in</w>
S ha
Considér ant</w>
sup pose</w>
resp ected</w>
Har mon
de par
domin ant</w>
chron ic</w>
g ure</w>
Mac edonia</w>
aid é</w>
Com ple
arb res</w>
dev oted</w>
easi er</w>
reti rer</w>
P erc
clari fication</w>
lead s</w>
cre dits</w>
ré conciliation</w>
ing ré
Prosecu tor</w>
5 14</w>
ous se</w>
autom atically</w>
cru ci
velop pe</w>
spati al</w>
opport un</w>
Contin u
commiss aires</w>
appara ît</w>
consac rés</w>
Ã¨ re</w>
D D</w>
Haï ti</w>
lo gique</w>
li brary</w>
evalu ations</w>
ret ail</w>
appréci ation</w>
em ic</w>
Th aï
est ate</w>
cour te</w>
Chris tian</w>
investi r</w>
bi blioth
scre en</w>
Tro isième</w>
fi ent</w>
vol ati
dé ficit</w>
précis é</w>
Streng th
x én
descrip tif</w>
É E</w>
des ire</w>
him self</w>
A h
A qu
al k
maj eur</w>
suff ered</w>
eth ical</w>
mat ur
th inking</w>
PN UE</w>
rap proch
él u</w>
at aire</w>
pre mises</w>
grad ing</w>
INFORM ATION</w>
cou che</w>
pat h</w>
G loss
E F
b ench
low est</w>
í a</w>
chin ois</w>
inj ection</w>
pre sidency</w>
Cre ek</w>
foc uses</w>
libér alisation</w>
rec ording</w>
some one</w>
we igh
indemn ités</w>
acc ise</w>
pres cription</w>
ministéri els</w>
génér ations</w>
pos és</w>
confir mer</w>
doc tr
c f
ré férences</w>
o th</w>
y es</w>
exempl aire</w>
b om
se ed</w>
preven tive</w>
TR O
ot age</w>
Analy se</w>
I e</w>
ré actions</w>
P AR</w>
so ign
19 60</w>
compati bles</w>
univer sel</w>
N on
hel p
paci fique</w>
tor ney</w>
Jac ques</w>
ad hé
incorpor ate</w>
Val eur</w>
déc ouvrir</w>
Repres ent
autonom es</w>
me ant</w>
un d</w>
T aux</w>
Agr i</w>
Human itarian</w>
hom olo
P éro
tr au
C W
et own</w>
hou ses</w>
a isie</w>
Montene gro</w>
S ainte</w>
He al
sen siblement</w>
cat alogue</w>
Est onia</w>
améric aines</w>
no on</w>
Comp ens
Inter governmental</w>
Lac s</w>
Péro u</w>
consequ ence</w>
frau d</w>
Por t
S ites</w>
aband on</w>
ro ads</w>
introdu ire</w>
fu els</w>
Mac édo
remedi es</w>
Jord an</w>
grap h</w>
Bar cel
ch asse</w>
Thaï lande</w>
Ju d
profond eur</w>
seu les</w>
coordin ating</w>
R og
vacc ination</w>
2 20</w>
al i</w>
pl ic
comp ounds</w>
psy cho
el abor
cross ing</w>
US D</w>
indi qués</w>
spéci fiquement</w>
éventu elle</w>
En forcement</w>
calcul ation</w>
kil ome
mo teurs</w>
en seignements</w>
décl arer</w>
loc k</w>
o a</w>
sam pling</w>
Macédo ine</w>
Singap ore</w>
C all</w>
im mobil
cham pi
protég és</w>
Fif ty</w>
appear ance</w>
re integration</w>
H au
retur ning</w>
ou ter</w>
them atic</w>
réclam ations</w>
regis tres</w>
Mc G
conc evoir</w>
1 29</w>
me d
trad uit</w>
sh ape</w>
ul aires</w>
mean ing
toxic om
E G
P AC</w>
p ère</w>
rev ê
pers on
rec alled</w>
restruc turation</w>
por no
étudi é</w>
dépos ant</w>
Chur ch</w>
part ly</w>
Cop enh
Tran si
intéri m</w>
O FF
Turk ish</w>
licens ing</w>
Re affir
famili al</w>
hu ge</w>
u ph
m ène</w>
forc ing</w>
Des ign</w>
É T
N ep
ol eum</w>
Maur ice</w>
aw i</w>
confidenti al</w>
ig ni
cor ro
rang ing</w>
Comm ons</w>
eu t</w>
enjoy ment</w>
indic ator</w>
quanti tative</w>
An gl
ret ain</w>
is sion
empris onnement</w>
r ain</w>
om es</w>
amen er</w>
Jus qu</w>
f it
p l</w>
dead line</w>
au str
st ory</w>
confidenti alité</w>
ask a</w>
c our</w>
tal k</w>
lég èrement</w>
di fication</w>
subj ected</w>
élec teurs</w>
las ting</w>
ch l
Conse iller</w>
autom atiquement</w>
p h</w>
Eur o</w>
res titu
n ant</w>
h i</w>
is si
ré nov
ré els</w>
cro p</w>
Air port</w>
20 2</w>
proj ections</w>
ch ir
propor tion
favor ise</w>
Peri od</w>
sec urities</w>
O w
ré ductions</w>
affir mant</w>
ol ing</w>
c esse</w>
adap tés</w>
E cu
appuy ant</w>
any one</w>
ch ant</w>
religi eux</w>
dési r
car s</w>
dis ant</w>
soi res</w>
17 5</w>
ep tions</w>
br ation</w>
figh ting</w>
p ire</w>
dispar ition</w>
environnement al</w>
Work shop</w>
C ap</w>
hô te</w>
B I
Viol ence</w>
mauv aise</w>
t onie</w>
s n
docum ented</w>
vo il
S ales</w>
M ack
ré insertion</w>
UN I
minim ale</w>
ar i</w>
ing ue</w>
avanc er</w>
religi euses</w>
ira qui
d ations</w>
ori de</w>
Armen ia</w>
su icide</w>
pro hibition</w>
D on</w>
k illed</w>
Prof essor</w>
la isse</w>
complément aire</w>
n el</w>
in scrites</w>
acqui re</w>
h ex
eco systems</w>
ath l
pre sident</w>
Gr ants</w>
Auth orities</w>
Fr ais</w>
en ophob
équi lib
export ateurs</w>
p eux</w>
Pl at
Cont ac
any thing</w>
ann ulation</w>
ai gu
enver gure</w>
T OR
au spices</w>
termin al</w>
bas ée</w>
14 6</w>
4 6
S H</w>
Direc tives</w>
des er
aw ards</w>
enz ie</w>
C lic
éc ologiques</w>
Dec isions</w>
tr ans</w>
h in
Cor ps</w>
contribu tes</w>
C lin
inv estors</w>
pos sibly</w>
ad mis</w>
Bet ween</w>
fon dés</w>
ol on
Balk ans</w>
Proc essus</w>
m o</w>
ex on
témo in</w>
cons isting</w>
mar king</w>
Provi de</w>
mat ure</w>
dét ent
situ ées</w>
Me asu
rev it
T ch
lu min
cou ple</w>
Retur n</w>
appli quant</w>
subs équ
instaur ation</w>
B A</w>
favoris ant</w>
él us</w>
vari été</w>
am mon
Tr avail</w>
v endre</w>
ain ees</w>
me tres</w>
oblig atoires</w>
in hib
accueilli r</w>
dess ins</w>
Stat ements</w>
Cl au
préc isions</w>
it res</w>
Nig éria</w>
individu elles</w>
bo ards</w>
vou loir</w>
Let tonie</w>
mo stly</w>
simil aire</w>
F a
rele ases</w>
co eur</w>
Harb our</w>
er o</w>
mis sionn
Par agu
intro ducing</w>
Mont éné
p neu
Ch ec
suppli ed</w>
Ira q
pu le</w>
stu pé
meas uring</w>
p av
w on</w>
sur monter</w>
vo is</w>
present ations</w>
F em
Com pre
en largement</w>
Ham ilton</w>
PU BL
dét éri
pre fer
k in</w>
t ap
go s
ar me</w>
ent our
E co
contribu able</w>
bo î
5 7
main s</w>
conn us</w>
au d</w>
p ont</w>
ass ment</w>
c ils</w>
approuv ée</w>
H A</w>
j ap
ass ent</w>
sauv etage</w>
Pai ements</w>
Conclu sion</w>
5 6
Parten ariat</w>
pen alties</w>
app end
hydro carb
syndic ats</w>
9 02</w>
gu rer</w>
L C
Peace keeping</w>
El ection</w>
contin uation</w>
reve aled</w>
spon sored</w>
ag isme</w>
bu ff
Im portant</w>
monit ored</w>
bénéf ice</w>
S TI
P ic
ri ya</w>
superfici e</w>
Mon aco</w>
D eci
Di alogue</w>
incorpor ation</w>
multilatér aux</w>
lo ading</w>
m ass
consul ted</w>
fo rest
Constitu tional</w>
cl ick</w>
fonctionn e</w>
13 6</w>
urb aines</w>
il ing</w>
dev enue</w>
Monténé gro</w>
ins ist
n onc
ach èvement</w>
cl oth
emb ry
dam es</w>
Grou ps</w>
per su
intern ally</w>
rel ess</w>
flu or
vers és</w>
Industr ies</w>
suppl ementary</w>
adress ées</w>
ang u
geograph ic</w>
Ar mé
sc op
belong ing</w>
m L</w>
accoun ted</w>
DN A</w>
ro ot</w>
mobil iser</w>
deploy ed</w>
et al</w>
consist ant</w>
install ed</w>
Sw iss</w>
ri enne</w>
im er</w>
Est onie</w>
beli ef</w>
3 rd</w>
Capac ity</w>
h r</w>
kin ds</w>
COMMIS SION</w>
gu ests</w>
14 9</w>
i ères</w>
ã o</w>
te au</w>
pre judice</w>
do tés</w>
clos ing</w>
el er</w>
suff it</w>
plac er</w>
D im
Ac tual</w>
2 33</w>
en tic
advoc acy</w>
Speci es</w>
i tin
stand ardi
Mo der
ax és</w>
receiv es</w>
pl esse</w>
U sing</w>
om a</w>
Pro tec
précéd ents</w>
5 8
conc entrer</w>
él ève</w>
exec ution</w>
I cel
ul timately</w>
P ren
g one</w>
affir mer</w>
rel le</w>
Bu d
Uni versal</w>
clu b</w>
men és</w>
Ho c</w>
ur ance</w>
horizon t
Struc ture</w>
s omm
décri re</w>
c eci</w>
conting ent</w>
oppos ed</w>
medic ine</w>
suppli er</w>
Cam er
mél ange</w>
in i</w>
hospit als</w>
bénéfici é</w>
squ are</w>
O P</w>
In dependent</w>
PM A</w>
cust ody</w>
vis iter</w>
trans it
14 5</w>
1 26</w>
frau de</w>
Gre en
M essi
y mes</w>
m eur
direc tor</w>
Gall ery</w>
D own
Mari time</w>
op ped</w>
B élar
col d</w>
noti fied</w>
Identi fication</w>
for th
mis sing</w>
f ewer</w>
f en
cré e</w>
Res p
Can cer</w>
kilom ètres</w>
indi quée</w>
ani um</w>
subsi dies</w>
mol éc
indic ateur</w>
bure auc
end ance</w>
rec eption</w>
inv asion</w>
met tra</w>
poss éd
pos sibilities</w>
dom ain</w>
Ex peri
F ull</w>
Budg etary</w>
bot tom</w>
Propos ed</w>
E I
arbitr al</w>
A O</w>
int ends</w>
f ts</w>
Col on
S tor
ato on</w>
x y</w>
rel ax
merc ure</w>
W OR
AS E</w>
touch ées</w>
up per</w>
do w</w>
É thi
trans porteurs</w>
o ise</w>
re int</w>
cho ices</w>
b ath
résul te</w>
A ge</w>
Compens ation</w>
o sis</w>
Air lines</w>
AD N</w>
prof essions</w>
plac é</w>
14 2</w>
s p</w>
W he
mo derni
Dar fur</w>
re pos
Reg istr
AUT ONU
essenti ally</w>
absolu ment</w>
pén ales</w>
S M</w>
Cre dit</w>
14 7</w>
arri val</w>
minis terial</w>
AUTONU M</w>
Publ ication</w>
ré sum
break fast</w>
Mal ta</w>
Oper ating</w>
hôp ital</w>
Paragu ay</w>
rul ing</w>
fonctionn er</w>
Compre hensive</w>
cour ants</w>
Accoun tability</w>
Excell ency</w>
AN D
utili zation</w>
Mal aisie</w>
ad hér
poss èdent</w>
per du</w>
Pe ti
T ext</w>
In tel
rej eté</w>
assi mil
datab ases</w>
is ement</w>
ass ister</w>
ol l</w>
R N
Pri ority</w>
inform atiques</w>
F aire</w>
S mo
v ast</w>
in cu
Cali for
M ach
l adies</w>
pres erve</w>
det ection</w>
noti fy</w>
tre es</w>
A Y</w>
S CR
ex changes</w>
ré fléch
quo ta</w>
di c</w>
Qu ar
UN CI
bio diversity</w>
restaur ation</w>
médi ation</w>
labor atoires</w>
préserv ation</w>
U l
mar in</w>
concl us</w>
clam ation</w>
att aque</w>
progres sion</w>
ar rest</w>
15 7</w>
aci des</w>
pré co
go t</w>
help ful</w>
progressi vement</w>
Bélar us</w>
caus é</w>
at al</w>
dec lined</w>
ré examen</w>
engag ée</w>
li able</w>
lac s</w>
automob iles</w>
ﬁ n
Ch er
écr an</w>
den ied</w>
speci fications</w>
xén ophob
déc ennie</w>
entraîn ement</w>
lis ation</w>
occid entale</w>
ob tenues</w>
oc éans</w>
eg al</w>
El ections</w>
Micro soft</w>
sou plesse</w>
typ ically</w>
Au tom
nom més</w>
st ar</w>
command ant</w>
Refuge es</w>
M os
compar e</w>
R H</w>
chann el</w>
explo it
contract antes</w>
Wh y</w>
G ene
13 4</w>
offer tes</w>
autoris ées</w>
bu y</w>
constr u
estionn aire</w>
descri bes</w>
genu ine</w>
vac ances</w>
H ill</w>
hypo thèse</w>
n one</w>
onn ements</w>
produ ite</w>
hi riya</w>
uti ves</w>
certific ats</w>
1 31</w>
lib rement</w>
consist ently</w>
Déc ret</w>
fisc aux</w>
MONU C</w>
Sau di</w>
inter gouvernemental</w>
correspond ance</w>
aux ili
beauti ful</w>
gouvern eur</w>
Represent atives</w>
wit nesses</w>
H az
Per sp
In uits</w>
nég atifs</w>
législ atifs</w>
hygi ène</w>
médic ales</w>
Issu e</w>
ne ig
bilingu al</w>
Qu i</w>
re as</w>
Jama hiriya</w>
el low
Deu xièmement</w>
analy tical</w>
di ent</w>
immédi ate</w>
Ser ies</w>
V an</w>
serv ants</w>
insp ir
b arg
prosp érité</w>
introdu it</w>
in capacité</w>
un certainty</w>
E B</w>
Dom in
éventu elles</w>
A sp
souha iter
esti c</w>
Em ail</w>
harm ful</w>
Gul f</w>
organis ms</w>
Ren ew
ali an</w>
Steph en</w>
différ ent</w>
Princip es</w>
considér ant</w>
Éthi opie</w>
Accoun ts</w>
félic iter</w>
design ation</w>
fer ont</w>
appr ouve</w>
lingu istic</w>
M iss
mati quement</w>
Direc tors</w>
en on</w>
bio technologie</w>
V en
respon ded</w>
mer ely</w>
cou tu
manu al</w>
recip ients</w>
protég ées</w>
comm ission
Re form</w>
interpre ted</w>
carri ers</w>
Av ail
ster dam</w>
Gro w
ar ticul
journ aux</w>
organ ise</w>
désign ée</w>
cor ré
SO R</w>
produc teur</w>
int érieures</w>
m erg
péd ago
prin ted</w>
gi bles</w>
adap t</w>
F ER
de teri
autoris ations</w>
s avons</w>
me at</w>
dérou l
Res id
St ation</w>
ho t</w>
fréqu emment</w>
op ath
rend ent</w>
vi ande</w>
sk illed</w>
M on</w>
restruc turing</w>
power ful</w>
m â
some what</w>
renforc é</w>
negoti ating</w>
V EL
ax ées</w>
accur acy</w>
ro w
exprim ées</w>
19 0</w>
pour rez</w>
amélior é</w>
Lond res</w>
ref user</w>
forec ast</w>
Contac tez</w>
adv ances</w>
Am sterdam</w>
addi tionnels</w>
Dar four</w>
tiv ely</w>
19 68</w>
bact éri
fermet ure</w>
por tera</w>
net tement</w>
prom ul
in validité</w>
prepar atory</w>
pregn ancy</w>
constitu tionnelle</w>
D EM
è se</w>
È RE</w>
vulnér abilité</w>
appropri ations</w>
18 2</w>
N F
Procu rement</w>
ti ll
Diff er
f rapp
sti pule</w>
Pol ici
re me
fix ation</w>
C ent
ré adaptation</w>
conna issent</w>
Armé nie</w>
D at
Tr ad
en ch</w>
succ essi
sugg éré</w>
entr av
allem and</w>
Manu al</w>
A k
S her
for êt</w>
Sask atoon</w>
lo v
C M</w>
re porter</w>
Th ir
proce dural</w>
con vi
d é</w>
ô mes</w>
wal k</w>
15 5</w>
spectr um</w>
CON F</w>
vers ements</w>
ev olution</w>
cher che</w>
gar çons</w>
haut ement</w>
rou l
Off icers</w>
13 7</w>
on t
ur a</w>
R ound</w>
hop ed</w>
recueilli es</w>
autor ise</w>
ve ter
Rou ge</w>
15 1</w>
Mad agas
M ary</w>
appel ée</w>
re tention</w>
prote in</w>
consult atifs</w>
complex ity</w>
safegu ards</w>
form ing</w>
az ote</w>
pour suivi</w>
t entative</w>
Mark eting</w>
intol érance</w>
tab led</w>
connexi on</w>
Govern ance</w>
consac rées</w>
tan gible</w>
Mon ter
T arg
20 5</w>
ajust ement</w>
n ative</w>
br ings</w>
16 5</w>
PRO DU
link ages</w>
ra w</w>
ap point</w>
Practi ce</w>
Ay ant</w>
div or
im per
rem un
Madagas car</w>
banc aire</w>
in désir
He ads</w>
polici ers</w>
reç ue</w>
di d
main streaming</w>
Mov ement</w>
acces soires</w>
T OPIC</w>
fair ly</w>
No ting</w>
Enter prise</w>
ai dera</w>
M arg
vers ée</w>
B E</w>
Inter est</w>
public ly</w>
re jet</w>
al lo
con tenues</w>
oxy de</w>
dép ens
ord ered</w>
impl ic
int ent</w>
A ver
stupé fiants</w>
sur faces</w>
M as
gener ations</w>
join ts</w>
tis me</w>
Au ditor</w>
sexu els</w>
issu ance</w>
s aurait</w>
Polici es</w>
bre ach</w>
N ature</w>
Mar k</w>
ex act</w>
environ ments</w>
isol ated</w>
miti gation</w>
st ab
proce eding</w>
chauff age</w>
M ir
Occup ational</w>
occup ant</w>
Consi deration</w>
thres hold</w>
de viennent</w>
pos ées</w>
6 6
j ac
prece ding</w>
d ant</w>
Dev elop</w>
compét ent</w>
quotidi enne</w>
Ou ganda</w>
reconn ue</w>
se ats</w>
sou ci</w>
expand ing</w>
o gram
isi rs</w>
Fun ds</w>
con tres</w>
out reach</w>
red ress
har c
Pro jets</w>
reme dy</w>
tri ed</w>
détermin és</w>
satell ites</w>
grand ement</w>
èg ue</w>
Off ices</w>
Sub committee</w>
combusti ble</w>
absor ption</w>
I V
spe ech</w>
j um
ra ff
defin ing</w>
grav ité</w>
constat ations</w>
l un
seg ments</w>
intens ité</w>
establish es</w>
prévoy ant</w>
M ech
id en
tra its</w>
sch ol
car go</w>
Lin ks</w>
re alization</w>
oper ates</w>
Re duction</w>
tab agisme</w>
cre w</w>
3 06</w>
atis ation</w>
Strength ening</w>
ap art
Sub section</w>
ext érieurs</w>
o st
with standing</w>
perc eived</w>
p el
co alition</w>
terr ains</w>
détermin ées</w>
beg un</w>
mi ques</w>
re ux</w>
it ly</w>
S N
tr uly</w>
ab eth</w>
AI S</w>
énerg étiques</w>
ER E
organiz e</w>
esti ment</w>
dri ver</w>
fr action</w>
lo g</w>
nécess ite</w>
vari e</w>
co operative</w>
g as
D ANS</w>
prati quement</w>
perf ect</w>
conc ré
inf ec
ri ère</w>
loo ked</w>
rati fié</w>
isi tions</w>
extr ême</w>
v ity</w>
Lu ci
att endant</w>
b aie</w>
colon ies</w>
Dani el</w>
w rite</w>
eco system</w>
Clic k</w>
Dis ease</w>
our selves</w>
rol l</w>
injur ies</w>
aî nés</w>
st ore</w>
pétro li
cr ops</w>
O IT</w>
const amment</w>
provis oires</w>
é tisation</w>
G od</w>
l an
Ph armac
import er</w>
stake holder</w>
Legisl ative</w>
H ousing</w>
plat form</w>
er ly</w>
accep te</w>
posi tives</w>
ANN EX
ban king</w>
éman ant</w>
D estin
F oc
l y
œu v
D onnées</w>
envis aged</w>
systé matiquement</w>
cl ear
U M</w>
ref used</w>
N EP
convinc ed</w>
pré sum
Alban ia</w>
cons éc
légi time</w>
mech an
spon sors</w>
procu rer</w>
rou ge</w>
Web site</w>
off set</w>
em o
caract ères</w>
Mari a</w>
audio visu
u vi
Re al</w>
Eth ics</w>
vi ously</w>
differ enti
b es
initi ally</w>
A E</w>
f ear</w>
é preuve</w>
Ecu ador</w>
succ ession</w>
F arm</w>
K el
set tlements</w>
D al
gross esse</w>
sp end</w>
exhausti ve</w>
br om
To x
garanti t</w>
eng end
déc entr
g gl
Bo dy</w>
far deau</w>
si as
pu tting</w>
constitu ée</w>
allég ation</w>
aéri ennes</w>
Johann es
Aus si</w>
concre ts</w>
représent é</w>
consul ting</w>
susp ended</w>
Ex hibit</w>
p ain</w>
ris quent</w>
s low</w>
dg ing</w>
Deci des</w>
L as
mag ni
Pur pose</w>
transi tional</w>
proce eds</w>
citoy en</w>
de ep
calcul er</w>
j eudi</w>
re tained</w>
individu elle</w>
Di eu</w>
emb argo</w>
do s</w>
Direc trice</w>
oi les</w>
Institu tion</w>
u l</w>
REL ATI
Eff ects</w>
Con fl
consider ably</w>
in ég
et t</w>
Co alition</w>
desir able</w>
appu ient</w>
la m</w>
cour age</w>
attribu able</w>
sug gestion</w>
15 3</w>
m ²</w>
refl ecting</w>
A wards</w>
us ées</w>
Suppl ément</w>
qu ait</w>
aspir ations</w>
publi er</w>
An im
sk in</w>
jug és</w>
gro wn</w>
coû t
Tunisi a</w>
vé ni
questionn aires</w>
form ula</w>
ne aux</w>
Re quest</w>
Telec om</w>
15 2</w>
he ight</w>
pay ing</w>
Ste ering</w>
mix ed</w>
do ter</w>
wit ness</w>
Deleg ations</w>
2 25</w>
S av
chrom os
Rec o
J an</w>
M t</w>
mor andum</w>
gé no
entre vues</w>
affec té</w>
se paration</w>
dé passer</w>
UN ID
R P</w>
Tob acco</w>
ali ers</w>
dé partement</w>
touch ent</w>
gr ound
Sh ould</w>
délégu és</w>
fa itement</w>
9 57</w>
C are
G RE
CH R</w>
therap y</w>
ex positions</w>
cl os</w>
vi vement</w>
disciplin aire</w>
L T</w>
proj ected</w>
O il</w>
libell é</w>
port es</w>
sauv ages</w>
Messi eurs</w>
pay és</w>
govern ed</w>
Acc ès</w>
vo ient</w>
gl y
stimul er</w>
to ires</w>
L eur</w>
ir ait</w>
pu its</w>
vulner ability</w>
SP EC
enni es</w>
R PP</w>
posi um</w>
distribu er</w>
3 e</w>
I ES</w>
fer mement</w>
Practi ces</w>
mol ec
banc aires</w>
impos ent</w>
Recomman dations</w>
L IM
com bien</w>
S ti
att ent
er adication</w>
en ables</w>
Nu tri
absolu te</w>
ob vious</w>
recommand er</w>
texti le</w>
Regi ons</w>
Inter im</w>
c able</w>
mutu elle</w>
inv est</w>
délibér ations</w>
2 30</w>
Hô tel</w>
aci al</w>
sk y</w>
W ind
Alber t</w>
CR P</w>
rap ides</w>
install er</w>
sit ue</w>
salari és</w>
hé bergement</w>
af gh
Ste w
harc èlement</w>
l ay
vi ve</w>
sexu elles</w>
rog en</w>
san itaire</w>
pon c
développ é</w>
Char lo
en voi</w>
par faitement</w>
al le
we ar</w>
ard ship</w>
accommo date</w>
pon ent</w>
tradi tionnelle</w>
re pu
march es</w>
pu r</w>
can al</w>
diminu er</w>
dépu té</w>
ec es</w>
c ab
concern ée</w>
réguli er</w>
ak a</w>
trans fér
compl ementary</w>
Tr adi
diplom atique</w>
gu il
échantill onnage</w>
B order</w>
fish ery</w>
psy chi
sou mission</w>
Po verty</w>
sanc tion</w>
Observ ations</w>
s ave</w>
M ouv
Johannes burg</w>
del ays</w>
x x
Employ ees</w>
plac és</w>
contin ental</w>
no ting</w>
Singap our</w>
C auc
command ement</w>
COM P
manufactu red</w>
ou n</w>
W D</w>
AC TI
fin alement</w>
dét ach
f eux</w>
psych ological</w>
mar ines</w>
2 1
di al</w>
déc ennies</w>
g ing</w>
laun dering</w>
juven ile</w>
ré cent</w>
dé ment</w>
t ely</w>
par rain
el se</w>
zer o</w>
attemp ts</w>
c es
le çons</w>
fo ssi
Prai ries</w>
lab elling</w>
mobi les</w>
D ue</w>
gratu itement</w>
P un
in solvabilité</w>
l av
Mal te</w>
gl and</w>
Obj ectif</w>
DA W</w>
li abilities</w>
w ine</w>
b ol
g agner</w>
on ds</w>
ét oiles</w>
sum mit</w>
in comb
C AD</w>
qu e
accueill i</w>
meaning ful</w>
fond ant</w>
r ares</w>
in certitude</w>
Ar mée</w>
eu s</w>
Mé tho
high light</w>
visi bles</w>
pê cheurs</w>
4 03</w>
an om
refus al</w>
pack aging</w>
Fabr ication</w>
rap atri
speci alists</w>
Qu elles</w>
atte ign
A reas</w>
dé mon
respec te</w>
M emorandum</w>
re vient</w>
pre valence</w>
For mul
Compu ter</w>
Reg ister</w>
N iv
ent é</w>
v ant</w>
p ili
Un ité</w>
approuv ées</w>
AI RES</w>
Ter ms</w>
protoc ols</w>
arrê ter</w>
fai bl
vo iture</w>
classi ques</w>
t ter
E B
déc r
degrad ation</w>
Discus sion</w>
or i</w>
S CH
é mie</w>
port folio</w>
acqu ise</w>
character ized</w>
Iraq i</w>
re trouve</w>
palestini enne</w>
deman der
re voir</w>
f illed</w>
w ished</w>
ab und
pe er</w>
coher ent</w>
accep tables</w>
auth oris
Sén égal</w>
réun ir</w>
cohér ente</w>
en comp
Inf o</w>
bio diversité</w>
z b
ra just
O pen
bo x
Oper ational</w>
éc arts</w>
g ained</w>
biblioth èques</w>
adéqu at</w>
Tog o</w>
NEP AD</w>
CANADI AN</w>
13 9</w>
w ill
norm alisation</w>
s aine</w>
pursu ed</w>
st ering</w>
ali er</w>
16 6</w>
rad ic
depos ited</w>
religi ons</w>
institu ts</w>
parti al</w>
gos lav</w>
L y
iden tical</w>
tw ice</w>
ver tical</w>
ag isse</w>
NAF TA</w>
sh ap
m ées</w>
post al</w>
compt abil
peri or</w>
Mon etary</w>
certific ates</w>
Mes dames</w>
té l</w>
typ ical</w>
re tro
B N</w>
b ad</w>
enophob ia</w>
unil atér
chem ins</w>
Par ti</w>
contr av
c oc
s aying</w>
h eur
prim or
insul aires</w>
P IC</w>
eng lob
W ol
Yu goslav</w>
Educ ational</w>
an throp
Cer tain</w>
w ages</w>
examin ing</w>
SO UR
phenom enon</w>
ro tation</w>
sw it
ack ed</w>
Fil m</w>
d red</w>
liti ge</w>
Ag ent</w>
appropri ation</w>
constitu ted</w>
sul ph
man dated</w>
Ch o
texti les</w>
so dium</w>
pack ages</w>
L ind
ind ices</w>
ex tin
de als</w>
assemb ly</w>
pré férence</w>
Ap pu
b o</w>
micro bi
Tun isie</w>
comm ises</w>
e a</w>
occup és</w>
CE DAW</w>
ai dent</w>
br is</w>
negoti ated</w>
Dom estic</w>
num ériques</w>
US T</w>
ord res</w>
inscr ite</w>
G ri
environ mentally</w>
Noti ces</w>
c on</w>
rec over
w ording</w>
in compatible</w>
re n</w>
N ur
uni form</w>
Ar b
PO S
fas hi
lon gues</w>
am as</w>
D or
S itu
hu ile</w>
trans national</w>
9 6
bal ances</w>
journ alistes</w>
memb ran
communi quées</w>
cu ité</w>
Categ ory</w>
direc tes</w>
AI T</w>
ur ge</w>
Alban ie</w>
Prés entation</w>
b le
loo ks</w>
UNID O</w>
C SC</w>
ris ing</w>
hect ares</w>
Jos é</w>
l ake</w>
intermédi aires</w>
demand ent</w>
Mus li
st ance</w>
So li
practition ers</w>
ai der
Maur it
sw ana</w>
ou ses</w>
nettoy age</w>
intensi fier</w>
idé al</w>
activ ation</w>
D EC
respec tent</w>
Respon sible</w>
minim ize</w>
autom atique</w>
E arly</w>
épar gne</w>
Facil ity</w>
comm é
M em
Gu y
comm it</w>
N ice</w>
2 40</w>
pass ation</w>
Répon se</w>
s cor
tél éc
m ales</w>
14 4</w>
Do es</w>
Clo sed</w>
addi tionnel</w>
ach ed</w>
compl ement</w>
fix ée</w>
Sco tt</w>
é changer</w>
pres cr
Sen egal</w>
deliver ing</w>
gosl ave</w>
00 2</w>
re pair</w>
requér ante</w>
evi dent</w>
N ation
ari ans</w>
tempor aires</w>
palestini ens</w>
immobili ers</w>
réguli ers</w>
aqu atic</w>
en ever</w>
prec ise</w>
ag on
h r
An dre
volunte ers</w>
dé tru
O D</w>
diplô me</w>
É ducation</w>
inform és</w>
plan ète</w>
C AT
él ég
probl é
graph y</w>
rej ets</w>
arm é</w>
separ ately</w>
Monter rey</w>
s én
W aste</w>
Oc ean</w>
observ ateur</w>
Ap propri
A CO
Tor ture</w>
e dition</w>
enab led</w>
ri gi
S cre
consoli der</w>
de puty</w>
Regis tre</w>
Civi li
E quality</w>
Rev en
assemb lée</w>
b ord
tox icity</w>
consul té</w>
for tes</w>
at ori
resum ed</w>
G ES</w>
de ficit</w>
jug er</w>
where by</w>
pe au</w>
S and
loc u
dis cré
cent er</w>
sec t</w>
caus és</w>
r ss</w>
strat es</w>
sat ur
Ur ban</w>
ad vise</w>
H AR
fi gurer</w>
bo ys</w>
UR ES</w>
bénéfici e</w>
bur y</w>
st at</w>
par ks</w>
qualit ative</w>
t es
immobil isations</w>
Mo ham
S ul
MAT TER</w>
cent aines</w>
ant a</w>
spher ic</w>
détermin e</w>
P F
ON E</w>
reven ir</w>
bi bliothèque</w>
v itr
H OM
ci es</w>
dur abilité</w>
préal ables</w>
sy l
acces sibility</w>
Lib éria</w>
Bot swana</w>
multilatér al</w>
sou p
ANNEX E</w>
D M
r and
compl ément</w>
spécialis ée</w>
Con tre</w>
p son</w>
16 2</w>
St atistical</w>
9 0
é no
20 3</w>
Ac ting</w>
La c</w>
G ati
fores try</w>
Fre der
z be
expos ées</w>
s é</w>
IM F</w>
coordonn ées</w>
h auss
déf ens
contamin ated</w>
C EN
week ly</w>
anci es</w>
Commun autés</w>
purch ased</w>
bre eding</w>
K am
accus é</w>
Mouv ement</w>
fam ous</w>
détaill és</w>
simpli fication</w>
appel er</w>
in ent</w>
ic op
abr i</w>
origin ally</w>
pharmaceu tiques</w>
provi ennent</w>
Leg islation</w>
coll ectives</w>
b i</w>
amb igu
gl ace</w>
der ed</w>
der ly</w>
lati tude</w>
Sén at</w>
bre f</w>
prépar atifs</w>
C G
Rob er
ad her
ouv rage</w>
no w
motiv ation</w>
dem ographic</w>
Set tlement</w>
désign er</w>
do té</w>
OR D
m ères</w>
dou bl
err ors</w>
main tains</w>
pl ed</w>
Measu rement</w>
calcul é</w>
T T</w>
ar ités</w>
judici ary</w>
i p</w>
recycl age</w>
scol arité</w>
vacc ine</w>
représent és</w>
av enue</w>
ati cs</w>
décr its</w>
r ating</w>
urb aine</w>
ré par
hear ings</w>
Proc e
Médi ateur</w>
ir o</w>
you goslave</w>
gradu ate</w>
foc al</w>
ren contrer</w>
quotidi en</w>
merc ury</w>
profess eur</w>
eu e</w>
cau sing</w>
C it
s u</w>
entrepren eur</w>
16 9</w>
harmon ization</w>
Statisti ques</w>
Y et</w>
subs cri
Regar ding</w>
pp m</w>
subven tionn
V A</w>
all ons</w>
pr endra</w>
at tenti
thé âtre</w>
Jap anese</w>
Accoun t</w>
it ability</w>
fin itions</w>
lev er
se es</w>
ter ie</w>
T N</w>
neigh b
trad uire</w>
broad cas
Wor kers</w>
appli qués</w>
promo tes</w>
grati tude</w>
pr ête</w>
establish ments</w>
har assment</w>
avanc ées</w>
subs istance</w>
bil lets</w>
D un
magaz ine</w>
prononc er</w>
neighbour ing</w>
ser s</w>
Ma p</w>
J ur
ri c</w>
benef icial</w>
ke y
6 4
agré ment</w>
V ision</w>
e i</w>
correc tions</w>
L it
sa ou
Out come</w>
in aug
appro ve</w>
ult érieurement</w>
Bro wn</w>
vari ed</w>
inform el</w>
v ét
pos age</w>
esp Ã¨
d ité</w>
asi de</w>
aimer ais</w>
immeu ble</w>
re prendre</w>
An dr
20 7</w>
m assi
comm only</w>
accue ille</w>
sub stitution</w>
syner gies</w>
xénophob ie</w>
gh ly</w>
Gr ant</w>
terres tre</w>
con fisc
dé lic
compos ants</w>
institu tionnelles</w>
discre tion</w>
ac king</w>
c ann
ish ments</w>
min ors</w>
refus é</w>
contract ante</w>
depar ture</w>
ch arbon</w>
lég ale</w>
tox icité</w>
Nep al</w>
ag en</w>
Comm it
dens ité</w>
15 6</w>
minim ales</w>
King ston</w>
g el</w>
a tr
N ar
c ouverts</w>
Mal awi</w>
cer ner</w>
dirig é</w>
17 2</w>
19 69</w>
Icel and</w>
h o</w>
p isc
réclam ation</w>
ret omb
Recogni zing</w>
pr ouver</w>
v in
trou pes</w>
Co sts</w>
négoci er</w>
manifest ation</w>
adap té</w>
ti rées</w>
apparten ance</w>
compl ets</w>
pu p
M G</w>
A W
assur ée</w>
MH z</w>
cer em
é s
inst ant</w>
19 49</w>
es tri
sul f
mé tri
con tenir</w>
attr act</w>
farm ing</w>
Gati neau</w>
R EN
ex acti
y o</w>
OR G
M ES</w>
ré cip
maxim al</w>
At torney</w>
tom b
forth coming</w>
fe eding</w>
al ti
ouvr ages</w>
individu el</w>
gre ff
vig il
lo se</w>
reg imes</w>
contr actual</w>
human ity</w>
assur és</w>
cre ative</w>
es ter
promo teur</w>
Im mun
7 5
2 70</w>
the tic</w>
pén itenti
prélimin aires</w>
mil k</w>
chi ef</w>
to il
Mess age</w>
Î les</w>
is ely</w>
ori enter</w>
veri fy</w>
s le
aqu atiques</w>
Mi gration</w>
quali fié</w>
heal th
R ac
evalu ating</w>
Lead er</w>
appr ais
l ait</w>
achev é</w>
isi bles</w>
iss ants</w>
mu sul
al t
encourage ant</w>
fa ther</w>
b ain</w>
C ur
V AL
Mu sic</w>
av oirs</w>
f at</w>
entre vue</w>
b att
fau te</w>
phys icians</w>
san itation</w>
Under standing</w>
coher ence</w>
Co ût</w>
contempor ary</w>
N I</w>
d ol
v rais
sé paration</w>
n ée</w>
aff ects</w>
É tude</w>
L ord</w>
Re fer
inno cuité</w>
T ali
ren contres</w>
É v
Obj ectives</w>
lo ve</w>
F our</w>
attach e</w>
hab itation</w>
preser vation</w>
es a</w>
liqui d</w>
appar ition</w>
guid ed</w>
J uli
benefici aries</w>
m el
g on
Secon dly</w>
Jord anie</w>
av a</w>
So i
bas é</w>
IA EA</w>
E rit
inf ected</w>
quali fy</w>
arm ements</w>
Pour quoi</w>
con serve</w>
M éd
identi ques</w>
dec entr
Premi èrement</w>
parti ellement</w>
Coun sel</w>
Res er
consac rer</w>
matern ité</w>
g ames</w>
vi t</w>
mer credi</w>
in timi
hun dred</w>
facil ité</w>
lit toral</w>
circul ated</w>
S EP
rec all</w>
pre ferred</w>
ad os</w>
vol ets</w>
D urban</w>
éch ec</w>
P ris
affec ter</w>
Utilis ation</w>
sauve garde</w>
c k</w>
er b
a qui
us ines</w>
subm its</w>
miner al</w>
parti tion</w>
ai g
Comp anies</w>
in puts</w>
7 0
g old</w>
F MI</w>
éché ance</w>
vas tes</w>
combusti bles</w>
Nig er</w>
mat ch</w>
soulev ées</w>
k es</w>
7 80</w>
On line</w>
recogn ised</w>
Tanz ania</w>
Coun ty</w>
bound aries</w>
Chang es</w>
M ail</w>
Ex erc
persist ent</w>
20 8</w>
mi r
Ass urance</w>
O C</w>
2 35</w>
dem ain</w>
tradi tionnel</w>
rur ale</w>
constitu tionnel</w>
fluctu ations</w>
r assemb
De b
Observ er</w>
Clau de</w>
Part ners</w>
vér itablement</w>
er ion</w>
Ob lig
PO SI
Ar ms</w>
I O</w>
eu tic</w>
Employ er</w>
altern ate</w>
perman entes</w>
rest oration</w>
in forme</w>
c ession</w>
pl ates</w>
prosp ects</w>
Palestini ens</w>
s oph
2 26</w>
lég al</w>
en cl
v eux</w>
pour tant</w>
AN TS</w>
Afgh an</w>
R ole</w>
crimin els</w>
he imer</w>
liter acy</w>
contribu era</w>
Grow th</w>
C arri
S B</w>
so ir</w>
SID ENT</w>
al t</w>
cour ante</w>
inten tions</w>
rich es</w>
c abinet</w>
Pal ais</w>
assist é</w>
ré agir</w>
infirmi ères</w>
icon que</w>
D ét
McG ill</w>
18 5</w>
sépar ément</w>
fix ées</w>
compos ée</w>
commod ity</w>
in sé
str ation</w>
rou tière</w>
what ever</w>
Territ orial</w>
LDC s</w>
encour agé</w>
investig ated</w>
S N</w>
AR Y</w>
f ail</w>
défini tif</w>
fum eurs</w>
oblig ed</w>
di ligence</w>
tor at</w>
arch iv
mar qué</w>
ci um</w>
Mo ts</w>
ici ous</w>
Is lande</w>
Commit ments</w>
cons ist</w>
intel lig
dens ity</w>
H S</w>
Mon tant</w>
satis fy</w>
Labor atory</w>
élabor és</w>
ai red</w>
ti ré</w>
Reco very</w>
electr ical</w>
F E</w>
effici ence</w>
testi mon
5 4
TR IB
vis as</w>
ç on</w>
re port
Con sen
GRO U
Qu els</w>
Benef it</w>
Dig ital</w>
chal eur</w>
abu dg
safegu ard</w>
In cid
B and</w>
urb ains</w>
identi fiés</w>
lu es</w>
G E
offer te</w>
quanti ties</w>
anti ème</w>
arm y</w>
rend ered</w>
cri tic
corrig er</w>
Direc t</w>
Curr ently</w>
P B
gr ains</w>
législ ations</w>
insuffis ance</w>
In qui
p ine</w>
équi page</w>
S ix</w>
g are</w>
sen iors</w>
aff ord
agre es</w>
coopér atives</w>
pres sing</w>
remun eration</w>
it ors</w>
mar di</w>
mo thers</w>
avanc ée</w>
O x
6 3
communic ated</w>
élector ales</w>
TEL US</w>
en orm
zi p</w>
H i
ré tablir</w>
pi eds</w>
abor ig
po t
min orité</w>
ent ôt</w>
conven us</w>
T RE
circons cription</w>
gar anti</w>
credi bility</w>
rati onn
AM END
ver sus</w>
norm ales</w>
iterran é
apport ée</w>
L IN
er res</w>
tre at</w>
teach er</w>
re alistic</w>
adap tées</w>
travail leur</w>
ag an</w>
inv iter</w>
happ en</w>
ni r</w>
remar ks</w>
proc ède</w>
direc tors</w>
Consen sus</w>
8 0
exp ensive</w>
wish ing</w>
in du
inc iter</w>
T own</w>
profon de</w>
AI R</w>
CON SUL
dépos ées</w>
prestat aires</w>
Exam ples</w>
fem ales</w>
c c
contac ter</w>
explo sifs</w>
integr ating</w>
ed y</w>
prim er</w>
manif este</w>
ac tor</w>
vacc ins</w>
pi ece</w>
pr oud</w>
s ommaire</w>
des ired</w>
SU M
jard ins</w>
impli quant</w>
cri pt</w>
f ères</w>
c élè
sug ar</w>
ill us
bat eau</w>
ex porter</w>
dé ser
W ell
renforc ée</w>
assur ent</w>
fl am
coordonn ateur</w>
imprim able</w>
br and</w>
AT TEN
Mal heureusement</w>
éc rites</w>
he av
s letter</w>
apti tude</w>
concer tation</w>
graph ic</w>
tri b
sal mon</w>
ear ned</w>
B at
landscap e</w>
co l</w>
N a
repe ated</w>
deliber ations</w>
prov en</w>
16 1</w>
pré judici
L un
ill égale</w>
Econom y</w>
En gland</w>
organiz ing</w>
dépos és</w>
fo ot</w>
Équ ateur</w>
ex hor
confidenti ality</w>
as king</w>
Mon c
Sahar a</w>
h us
reconna issant</w>
emplo ie</w>
Gre ek</w>
L S</w>
q l</w>
con viendrait</w>
broad cast</w>
ro ots</w>
ré it
be ings</w>
récup ération</w>
op t
ri ers</w>
Em plo
grat eful</w>
sac ri
eventu ally</w>
apport és</w>
termin e</w>
fi abilité</w>
SI DA</w>
A id</w>
sit ting</w>
appara ître</w>
con dem
di xième</w>
C eux</w>
met als</w>
alumin ium</w>
bl ock</w>
aj out</w>
AD R</w>
afric ain</w>
conn ec
5 06</w>
opér ateurs</w>
prosper ity</w>
octro y
O ld</w>
J EC
mag as
entre posage</w>
per turb
accor dés</w>
EM B
C AS</w>
Equ ity</w>
ss es</w>
r at</w>
peri o
origin ating</w>
mentionn er</w>
14 8</w>
attribu é</w>
e ply</w>
Registr ar</w>
pres ti
souha itable</w>
ship ping</w>
conjoin ts</w>
ad vers
exacti tude</w>
inter dire</w>
occurr ing</w>
chois is</w>
AA AA
clu bs</w>
identi fies</w>
n y</w>
B E
P ay</w>
T ON</w>
U D
élev age</w>
8 9
Nav ig
power ment</w>
déc rite</w>
eli er</w>
str ai
B un
ext ending</w>
multilatér ales</w>
formul é</w>
destro yed</w>
UN E</w>
cess é</w>
ol it
S ev
am ong
clu ster</w>
tur ned</w>
au dit
f s
enti els</w>
Di versi
out puts</w>
amen de</w>
High way</w>
dé favoris
lo isirs</w>
se c</w>
Concer ning</w>
recher cher</w>
offici er</w>
cau ser</w>
Tob ago</w>
Po st
car to
sympt ômes</w>
prob abilité</w>
R eci
dé pense</w>
UNIF EM</w>
C AP
ing ness</w>
compil ation</w>
br ité</w>
proté ines</w>
among st</w>
E ver
Wh o</w>
comport ent</w>
ist ent</w>
compr ising</w>
o ks</w>
19 1</w>
com pose</w>
inf anti
rou tine</w>
Up date</w>
pens ons</w>
M en
F ar
isol ation</w>
LO G
re tenues</w>
cour antes</w>
det ained</w>
con fort</w>
attribu table</w>
habit ant</w>
harmon iser</w>
min i</w>
Mack enzie</w>
im pai
Ju dg
ov as
maj or
quit ter</w>
inten se</w>
us agers</w>
initi ate</w>
Moun tain</w>
OH CHR</w>
Inter pre
ent i</w>
missi les</w>
R C
pro ches</w>
wai ting</w>
N ative</w>
f ell</w>
T om
we ak</w>
Hy dr
TEC H
J O
ew s</w>
ten ing</w>
sol ic
Bo ok</w>
tionn aire</w>
ren ov
méthod ologie</w>
aler te</w>
an alogues</w>
déc ouverte</w>
mark et
f assent</w>
wid th</w>
Dj ib
atri c</w>
sc ore</w>
o types</w>
gr ades</w>
APPL ICATION</w>
Rem ar
Cambo dia</w>
ex porters</w>
int ure</w>
con vers
t ac
handic ap</w>
st ored</w>
ni er</w>
crédi bilité</w>
franc s</w>
ar sen
si er</w>
gi c</w>
re produced</w>
hi ér
ym piques</w>
mo des
pl ane</w>
P in
ér ant</w>
B ag
b arr
W ing</w>
oun ce</w>
Qu atri
anis me</w>
grat uit</w>
modifi és</w>
structu red</w>
avi k</w>
Pri mary</w>
fo yer</w>
he b
rein force</w>
ch oc
paci fiques</w>
immeu bles</w>
rédig é</w>
appreci ate</w>
Tari f</w>
retomb ées</w>
gl as</w>
eu il</w>
A perçu</w>
décou lent</w>
Exc ise</w>
origin aires</w>
w ag
si que</w>
bi entôt</w>
chec ks</w>
constitu ant</w>
g ases</w>
form ally</w>
law yers</w>
k it</w>
quanti t
enregistr ées</w>
exerc ent</w>
P G</w>
S ON</w>
aff ron
En voy
form és</w>
kl ore</w>
ho sted</w>
Ren forcement</w>
inclu ent</w>
ter ia</w>
rencontr é</w>
Bi ological</w>
pregn ant</w>
Al z
adéqu ates</w>
Tali ban</w>
ponc tu
pres crit</w>
R est
Pho to
c iter</w>
ag i</w>
Dec ade</w>
aérop orts</w>
Arab ie</w>
Vi et
J ér
ST AT
deci des</w>
plaf ond</w>
d inal</w>
è che</w>
b ail</w>
2 60</w>
em en</w>
recogni zing</w>
an ch
append ice</w>
commenc ement</w>
circu it</w>
prév ision</w>
DO C</w>
reiter ated</w>
I R</w>
famili ar</w>
é ments</w>
m ans</w>
do is</w>
ut ch</w>
Au ditors</w>
A bu
t ours</w>
Nor mes</w>
visi onal</w>
enregist rer</w>
un acceptable</w>
bio technology</w>
extr abudg
IN S</w>
Austr alian</w>
ministéri elles</w>
Destin ation</w>
C 6</w>
nég atives</w>
5 3
Indic ators</w>
Un fortunately</w>
spon sor
ju red</w>
AL ES</w>
l akes</w>
Con soli
sh are
représent ante</w>
minis tries</w>
K O
phys ician</w>
iss age</w>
exploit ants</w>
évalu ées</w>
not able</w>
liqui de</w>
propor tionn
In d
ﬁ c
t acti
ab str
infecti euses</w>
ais ses</w>
16 3</w>
contain er</w>
an ten
will ingness</w>
min ière</w>
démo graphiques</w>
Djib outi</w>
c f</w>
doctr ine</w>
Guid ance</w>
ass istant</w>
élec toral</w>
susp ected</w>
bo issons</w>
el ectron
p ace</w>
privil eg
me ts</w>
threat ened</w>
P re</w>
del eted</w>
B ar</w>
e ously</w>
congratul ate</w>
CON SE
Lead ership</w>
col oni
L aun
acc ou
sub ir</w>
medi ation</w>
Op inion</w>
t ree</w>
Sign ed</w>
disciplin aires</w>
der iv
rend er</w>
Par all
I TI
Citiz enship</w>
dou ze</w>
exp édition</w>
diver g
oll er</w>
Envir on</w>
P la
abo lition</w>
see ing</w>
ign or
Up on</w>
dé duction</w>
cor rid
Appe als</w>
ay a</w>
Proced ures</w>
propag ation</w>
F ive</w>
out line</w>
Proc éd
hiér arch
Tanz anie</w>
l or</w>
pi eces</w>
encour agement</w>
spec tre</w>
T ow
U zbe
reconn ues</w>
m emorandum</w>
col l</w>
municip alité</w>
Di versity</w>
cro it</w>
et és</w>
étudi ant</w>
é puis
correspond ants</w>
coun cil</w>
Vi ew</w>
grav ement</w>
trans mit</w>
sou tenue</w>
ali en</w>
AI EA</w>
Incre ased</w>
th o</w>
ex hibition</w>
aï que</w>
per dre</w>
adv ancement</w>
c ité</w>
Met tre</w>
o ting</w>
happ y</w>
Communi qué</w>
Arab ia</w>
18 9</w>
p ér
reli és</w>
cou leurs</w>
exer çant</w>
ri ez</w>
tw el
A Z
El ectr
Fac ul
p in</w>
ai da</w>
D os
the ast</w>
Part nerships</w>
H ague</w>
y oun
fea sibility</w>
sécur itaire</w>
benefici ary</w>
ren onc
N PT</w>
ritanni ques</w>
Arch it
port euse</w>
allow ances</w>
plom b</w>
chaî nes</w>
récol te</w>
ur anium</w>
rési dus</w>
frequ ent</w>
Qu oi</w>
SB STA</w>
roc k</w>
oci de</w>
reg ist
PL O
fle et</w>
pris onniers</w>
or row</w>
exist ait</w>
élarg i</w>
speci ally</w>
dev rions</w>
é clai
15 4</w>
préci eux</w>
tél écopieur</w>
er al</w>
fais aient</w>
thé ori
ri re</w>
F lor
parall èle</w>
P V</w>
sign ée</w>
é met
empê che</w>
trans férer</w>
esp aces</w>
isi es</w>
iss antes</w>
d son</w>
m its</w>
AN DE</w>
autom atic</w>
VI R
4 th</w>
comm entaire</w>
attribu ted</w>
f lights</w>
por tive</w>
cumul ative</w>
sor tir</w>
ch ur
mo tor
D H</w>
arrest ed</w>
N W
no y
press ures</w>
For mer</w>
demand ant</w>
v éc
trav elling</w>
trouv ant</w>
dé rogation</w>
construc ted</w>
dom ad
P sy
Organ e</w>
Cro ix</w>
vari ent</w>
N °</w>
distinc ts</w>
broch ure</w>
Intel ligence</w>
E c
sid y</w>
appr is</w>
eu rer</w>
nit rogen</w>
y n</w>
ech es</w>
Pe ter
i fication</w>
différ enci
An der
Det ails</w>
fédér ation</w>
déclar és</w>
sou terr
judg ement</w>
nour r
SEC TION</w>
f alling</w>
hum ides</w>
barg aining</w>
A do
is ite</w>
n evertheless</w>
Six th</w>
le aves</w>
refer ring</w>
francoph one</w>
adjac ent</w>
hom mage</w>
wr ong</w>
cré ant</w>
smo ke</w>
pa trim
doc s</w>
Li eu</w>
M C
B P</w>
Au t
fi d
EN TI
Cat ég
re actions</w>
c ouvert</w>
se iz
ess ay
impl ication</w>
év ac
hor se</w>
carri age</w>
ONU DI</w>
licens ed</w>
X I</w>
financ ées</w>
17 7</w>
rév èle</w>
necess ity</w>
B Y</w>
sal aries</w>
diab ète</w>
refl ètent</w>
tari f
soph is
U p</w>
ici des</w>
an on
el derly</w>
r ated</w>
8 3
or ale</w>
Ré serve</w>
trac king</w>
C ensus</w>
m ont</w>
imprim er</w>
Suppl ementary</w>
tr ains</w>
évi demment</w>
Diversi fication</w>
Vo te</w>
Free dom</w>
compl eting</w>
unanim ité</w>
he ating</w>
Coll ège</w>
B ush</w>
enregist rements</w>
st ories</w>
enregistr ée</w>
loc ked</w>
tu bes</w>
profon dément</w>
affec tées</w>
politi ci
occid ental</w>
obj ections</w>
20 6</w>
win dow</w>
Vin cent</w>
ati vité</w>
19 2</w>
ord on</w>
fur ent</w>
ex ported</w>
UN M
in hér
for ts</w>
el low</w>
compar ables</w>
2 51</w>
Véri fication</w>
L ight</w>
ch auss
An dor
contain ers</w>
ang es</w>
avi er</w>
v ite</w>
ju dic
ici en</w>
Ev ents</w>
Prai rie</w>
thé matique</w>
ég aux</w>
ass ass
dre ds</w>
S ound</w>
sau mon</w>
at om</w>
16 4</w>
ick el</w>
r ète</w>
s low
let es</w>
prouv é</w>
N is
F IR
in directly</w>
pass ée</w>
rev êt</w>
15 8</w>
v s</w>
excell ente</w>
S ho
un employed</w>
bo v
mét alli
oc ean</w>
protec tive</w>
al ter
Ar th
juridic tions</w>
préco ce</w>
00 0
infl am
Me th
EL LE</w>
religi euse</w>
contr olling</w>
dis ent</w>
Tel evision</w>
heb domad
compl ètes</w>
asi ve</w>
adhé rer</w>
enti tlement</w>
Ex amin
exemp tions</w>
Asp ects</w>
rest reint</w>
trans former</w>
nég ative</w>
pub lish</w>
optim al</w>
né er
re adily</w>
tal ks</w>
bu m</w>
pén ur
nation ally</w>
Jer usalem</w>
19 61</w>
En sure</w>
décisi onnel</w>
lik elihood</w>
amélior ée</w>
WH ERE
Sign ature</w>
hibi tions</w>
p in
L D</w>
in solvency</w>
effici ently</w>
C FC</w>
furn iture</w>
dam ages</w>
T empor
val able</w>
explic itly</w>
AC I</w>
16 8</w>
éc ar
chev au
légi tim
distribu é</w>
procu reur</w>
Academ y</w>
li ban
ell ation</w>
Fr ont</w>
tric k</w>
no ir</w>
ven ues</w>
parl é</w>
Cam ero
w ants</w>
ob tenue</w>
17 1</w>
hé pati
détermin ant</w>
moun tain</w>
r iche</w>
or ge</w>
D ORS</w>
im men
uc k</w>
suff er</w>
V an
att ending</w>
discrimin atoire</w>
éventu el</w>
pip eline</w>
Quel ques</w>
St ar
démo graphique</w>
O k
redev ances</w>
sex o
glis e</w>
encein tes</w>
pi les</w>
pré valence</w>
plani fier</w>
sti g
mar quée</w>
cl aires</w>
res sive</w>
inég alités</w>
municip ales</w>
r ental</w>
Monc ton</w>
arri ved</w>
diff er</w>
fre ely</w>
ass er</w>
Ach iev
in ated</w>
Histori c</w>
Ado be</w>
Alz heimer</w>
proc ré
dri vers</w>
Wind sor</w>
s olu
at u
inf lig
comp tent</w>
du plication</w>
cess er</w>
consid èrent</w>
di que</w>
M É
fe der
ac et
t onne</w>
Rel eases</w>
minor itaires</w>
étiqu ette</w>
Canadi en</w>
encoun tered</w>
ir ing</w>
quel qu</w>
Laur ier</w>
vo itures</w>
h 00</w>
tour istique</w>
Li eutenant</w>
sectori elles</w>
com fort</w>
correc tive</w>
sugg ère</w>
k ru
Cin quante</w>
gr as</w>
hum ans</w>
ic aine</w>
dériv és</w>
Pers onne</w>
vis ait</w>
IN AC</w>
class és</w>
or ous</w>
b lement</w>
f ices</w>
Pu is
Ã©t Ã©</w>
st resses</w>
liber ty</w>
D um
dé partements</w>
sy rienne</w>
sou ches</w>
H U
R eli
at o</w>
met a</w>
Pol y
UNIT AR</w>
b en
H ave</w>
9 8
b ell</w>
trans nationale</w>
tubercul ose</w>
météor ologiques</w>
H Q</w>
Gu erre</w>
s co
Chris t</w>
Qu elle</w>
Min im
consul tez</w>
arbitr ation</w>
ti ble</w>
cre ates</w>
visi bilité</w>
D utch</w>
spéci fic
vét érin
re alized</w>
Prepar atory</w>
indépend amment</w>
Niv eau</w>
Ex penses</w>
H ear
spéci fications</w>
[...]
