{"<pad>":0,"<unk>":1,"<bos>":2,"<eos>":3,"!":4,"\"":5,"#":6,"$":7,"%":8,"&":9,"'":10,"(":11,")":12,"*":13,"+":14,",":15,"-":16,".":17,"/":18,"0":19,"1":20,"2":21,"3":22,"4":23,"5":24,"6":25,"7":26,"8":27,"9":28,":":29,";":30,"<":31,"=":32,">":33,"?":34,"@":35,"A":36,"B":37,"C":38,"D":39,"E":40,"F":41,"G":42,"H":43,"I":44,"J":45,"K":46,"L":47,"M":48,"N":49,"O":50,"P":51,"Q":52,"R":53,"S":54,"T":55,"U":56,"V":57,"W":58,"X":59,"Y":60,"Z":61,"[":62,"\\":63,"]":64,"^":65,"_":66,"`":67,"a":68,"b":69,"c":70,"d":71,"e":72,"f":73,"g":74,"h":75,"i":76,"j":77,"k":78,"l":79,"m":80,"n":81,"o":82,"p":83,"q":84,"r":85,"s":86,"t":87,"u":88,"v":89,"w":90,"x":91,"y":92,"z":93,"{":94,"|":95,"}":96,"~":97,"¡":98,"¢":99,"£":100,"¤":101,"¥":102,"¦":103,"§":104,"¨":105,"©":106,"ª":107,"«":108,"¬":109,"®":110,"¯":111,"°":112,"±":113,"²":114,"³":115,"´":116,"µ":117,"¶":118,"·":119,"¸":120,"¹":121,"º":122,"»":123,"¼":124,"½":125,"¾":126,"¿":127,"À":128,"Á":129,"Â":130,"Ã":131,"Ä":132,"Å":133,"Æ":134,"Ç":135,"È":136,"É":137,"Ê":138,"Ë":139,"Ì":140,"Í":141,"Î":142,"Ï":143,"Ð":144,"Ñ":145,"Ò":146,"Ó":147,"Ô":148,"Õ":149,"Ö":150,"×":151,"Ø":152,"Ù":153,"Ú":154,"Û":155,"Ü":156,"Ý":157,"Þ":158,"ß":159,"à":160,"á":161,"â":162,"ã":163,"ä":164,"å":165,"æ":166,"ç":167,"è":168,"é":169,"ê":170,"ë":171,"ì":172,"í":173,"î":174,"ï":175,"ð":176,"ñ":177,"ò":178,"ó":179,"ô":180,"õ":181,"ö":182,"÷":183,"ø":184,"ù":185,"ú":186,"û":187,"ü":188,"ý":189,"þ":190,"ÿ":191,"Ā":192,"ā":193,"Ă":194,"ă":195,"Ą":196,"ą":197,"Ć":198,"ć":199,"Ċ":200,"ċ":201,"Č":202,"č":203,"ď":204,"Đ":205,"đ":206,"Ē":207,"ē":208,"ĕ":209,"Ė":210,"ė":211,"Ę":212,"ę":213,"Ě":214,"ě":215,"Ğ":216,"ğ":217,"Ġ":218,"ġ":219,"Ģ":220,"ģ":221,"ħ":222,"Ī":223,"ī":224,"į":225,"İ":226,"ı":227,"ķ":228,"ĺ":229,"ļ":230,"Ľ":231,"ľ":232,"Ł":233,"ł":234,"Ń":235,"ń":236,"Ņ":237,"ņ":238,"ň":239,"ō":240,"ŏ":241,"Ő":242,"ő":243,"Œ":244,"œ":245,"ŕ":246,"Ř":247,"ř":248,"Ś":249,"ś":250,"Ş":251,"ş":252,"Š":253,"š":254,"Ţ":255,"ţ":256,"ť":257,"Ū":258,"ū":259,"ŭ":260,"Ů":261,"ů":262,"ű":263,"Ų":264,"ų":265,"Ŷ":266,"Ÿ":267,"Ź":268,"ź":269,"Ż":270,"ż":271,"Ž":272,"ž":273,"Ɔ":274,"ƒ":275,"ƙ":276,"ơ":277,"ư":278,"ǎ":279,"ǫ":280,"Ǻ":281,"ȣ":282,"ɓ":283,"ɔ":284,"ɗ":285,"ə":286,"ɛ":287,"ɲ":288,"ɶ":289,"ʔ":290,"ʹ":291,"ʺ":292,"ʼ":293,"ˆ":294,"ˇ":295,"˘":296,"˙":297,"˚":298,"˛":299,"˜":300,"˝":301,"˾":302,"̀":303,"́":304,"̂":305,"̌":306,"̨":307,"̱":308,";":309,"΄":310,"Ά":311,"·":312,"Έ":313,"Α":314,"Β":315,"Γ":316,"Δ":317,"Ε":318,"Η":319,"Θ":320,"Ι":321,"Κ":322,"Λ":323,"Μ":324,"Ν":325,"Ο":326,"Π":327,"Ρ":328,"Σ":329,"Τ":330,"Υ":331,"Φ":332,"Χ":333,"Ψ":334,"Ω":335,"ά":336,"έ":337,"ή":338,"ί":339,"α":340,"β":341,"γ":342,"δ":343,"ε":344,"ζ":345,"η":346,"θ":347,"ι":348,"κ":349,"λ":350,"μ":351,"ν":352,"ξ":353,"ο":354,"π":355,"ρ":356,"ς":357,"σ":358,"τ":359,"υ":360,"φ":361,"χ":362,"ψ":363,"ω":364,"ϊ":365,"ό":366,"ύ":367,"ώ":368,"ϑ":369,"ϒ":370,"ϕ":371,"Ё":372,"Ђ":373,"Ѓ":374,"Є":375,"І":376,"Ї":377,"Ј":378,"Љ":379,"Њ":380,"Ћ":381,"Ќ":382,"Ў":383,"Џ":384,"А":385,"Б":386,"В":387,"Г":388,"Д":389,"Е":390,"Ж":391,"З":392,"И":393,"Й":394,"К":395,"Л":396,"М":397,"Н":398,"О":399,"П":400,"Р":401,"С":402,"Т":403,"У":404,"Ф":405,"Х":406,"Ц":407,"Ч":408,"Ш":409,"Ъ":410,"Ы":411,"Э":412,"Ю":413,"Я":414,"а":415,"б":416,"в":417,"г":418,"д":419,"е":420,"ж":421,"з":422,"и":423,"й":424,"к":425,"л":426,"м":427,"н":428,"о":429,"п":430,"р":431,"с":432,"т":433,"у":434,"ф":435,"х":436,"ц":437,"ч":438,"ш":439,"щ":440,"ъ":441,"ы":442,"ь":443,"э":444,"ю":445,"я":446,"ё":447,"ѓ":448,"є":449,"ѕ":450,"і":451,"ї":452,"ј":453,"љ":454,"ў":455,"Ґ":456,"ґ":457,"ң":458,"א":459,"ב":460,"ג":461,"ד":462,"ה":463,"ו":464,"ט":465,"י":466,"ל":467,"ם":468,"מ":469,"נ":470,"ע":471,"פ":472,"ק":473,"ר":474,"ש":475,"ת":476,"،":477,"؛":478,"ء":479,"آ":480,"أ":481,"إ":482,"ئ":483,"ا":484,"ب":485,"ة":486,"ت":487,"ث":488,"ج":489,"ح":490,"خ":491,"د":492,"ذ":493,"ر":494,"ز":495,"س":496,"ش":497,"ص":498,"ض":499,"ط":500,"ظ":501,"ع":502,"غ":503,"ـ":504,"ف":505,"ق":506,"ك":507,"ل":508,"م":509,"ن":510,"ه":511,"و":512,"ى":513,"ي":514,"ً":515,"َ":516,"ُ":517,"ِ":518,"ّ":519,"ْ":520,"٠":521,"١":522,"٢":523,"٣":524,"٤":525,"٥":526,"٦":527,"٧":528,"٨":529,"٩":530,"ٱ":531,"ڤ":532,"ک":533,"ی":534,"ก":535,"ค":536,"ง":537,"ด":538,"ท":539,"น":540,"บ":541,"ป":542,"พ":543,"ม":544,"ย":545,"ร":546,"ล":547,"ว":548,"ศ":549,"ส":550,"ห":551,"อ":552,"ะ":553,"ั":554,"า":555,"ิ":556,"ี":557,"ื":558,"เ":559,"แ":560,"่":561,"้":562,"ဪ":563,"ၡ":564,"ၱ":565,"Ⴑ":566,"Ⴞ":567,"ᐃ":568,"ᐅ":569,"ᐊ":570,"ᐠ":571,"ᐣ":572,"ᐦ":573,"ᐧ":574,"ᐯ":575,"ᐱ":576,"ᐳ":577,"ᐸ":578,"ᑉ":579,"ᑌ":580,"ᑎ":581,"ᑐ":582,"ᑕ":583,"ᑖ":584,"ᑦ":585,"ᑫ":586,"ᑭ":587,"ᑮ":588,"ᑯ":589,"ᑲ":590,"ᒃ":591,"ᒋ":592,"ᒍ":593,"ᒐ":594,"ᒥ":595,"ᒧ":596,"ᒪ":597,"ᒻ":598,"ᓂ":599,"ᓄ":600,"ᓇ":601,"ᓈ":602,"ᓐ":603,"ᓕ":604,"ᓗ":605,"ᓚ":606,"ᓪ":607,"ᓯ":608,"ᓰ":609,"ᓱ":610,"ᓴ":611,"ᔑ":612,"ᔨ":613,"ᔪ":614,"ᔭ":615,"ᔾ":616,"ᕆ":617,"ᕈ":618,"ᕋ":619,"ᕐ":620,"ᕕ":621,"ᕗ":622,"ᕙ":623,"ᕿ":624,"ᖃ":625,"ᖅ":626,"ᖏ":627,"ᖓ":628,"ᖕ":629,"ḏ":630,"ầ":631,"Ế":632,"ế":633,"ệ":634,"ộ":635,"‐":636,"‑":637,"–":638,"—":639,"―":640,"‘":641,"’":642,"‚":643,"‛":644,"“":645,"”":646,"„":647,"‟":648,"†":649,"‡":650,"•":651,"…":652,"‰":653,"′":654,"″":655,"‹":656,"›":657,"※":658,"⁄":659,"₤":660,"€":661,"⃞":662,"ℓ":663,"№":664,"™":665,"Ω":666,"⅓":667,"←":668,"↑":669,"→":670,"↓":671,"↔":672,"⇒":673,"⇓":674,"⇔":675,"∂":676,"∃":677,"∅":678,"∆":679,"∈":680,"∑":681,"−":682,"∗":683,"∙":684,"√":685,"∝":686,"∞":687,"∫":688,"∼":689,"≈":690,"≠":691,"≡":692,"≤":693,"≥":694,"⊂":695,"⋅":696,"⌦":697,"⌧":698,"〈":699,"〉":700,"⌫":701,"⎛":702,"⎜":703,"⎟":704,"⎮":705,"⎯":706,"─":707,"━":708,"│":709,"└":710,"█":711,"■":712,"□":713,"▪":714,"▬":715,"▲":716,"▸":717,"►":718,"▼":719,"◄":720,"◆":721,"◊":722,"○":723,"●":724,"◗":725,"◘":726,"◦":727,"★":728,"☐":729,"♀":730,"♂":731,"♒":732,"♣":733,"♥":734,"♦":735,"♪":736,"♲":737,"✐":738,"✓":739,"✔":740,"✗":741,"✦":742,"❍":743,"❏":744,"❑":745,"❒":746,"❖":747,"❙":748,"❚":749,"➔":750,"➛":751,"➟":752,"➠":753,"➢":754,"➣":755,"➤":756,"➥":757,"➧":758,"➪":759,"➾":760,"、":761,"。":762,"〈":763,"』":764,"【":765,"】":766,"い":767,"で":768,"の":769,"カ":770,"ル":771,"ン":772,"・":773,"ー":774,"一":775,"上":776,"下":777,"不":778,"业":779,"中":780,"为":781,"主":782,"了":783,"事":784,"于":785,"亚":786,"产":787,"人":788,"以":789,"件":790,"会":791,"体":792,"作":793,"保":794,"信":795,"元":796,"克":797,"公":798,"共":799,"关":800,"其":801,"内":802,"决":803,"出":804,"分":805,"划":806,"利":807,"办":808,"加":809,"务":810,"动":811,"勒":812,"包":813,"占":814,"及":815,"发":816,"可":817,"合":818,"名":819,"员":820,"和":821,"国":822,"在":823,"地":824,"域":825,"处":826,"多":827,"大":828,"委":829,"定":830,"家":831,"对":832,"工":833,"巴":834,"年":835,"或":836,"所":837,"报":838,"拉":839,"拿":840,"提":841,"支":842,"政":843,"数":844,"文":845,"斯":846,"日":847,"明":848,"月":849,"有":850,"本":851,"权":852,"案":853,"次":854,"比":855,"民":856,"法":857,"洲":858,"济":859,"海":860,"物":861,"理":862,"生":863,"用":864,"的":865,"目":866,"知":867,"社":868,"第":869,"简":870,"算":871,"管":872,"系":873,"组":874,"织":875,"经":876,"美":877,"联":878,"行":879,"要":880,"語":881,"證":882,"计":883,"议":884,"设":885,"证":886,"费":887,"资":888,"通":889,"金":890,"项":891,"领":892,"글":893,"년":894,"한":895,"ﬀ":896,"ﬁ":897,"ﬂ":898,"ﬃ":899,"ﰲ":900,"ﱪ":901,"ﲔ":902,"ﳋ":903,"ﳌ":904,"﷓":905,"ﹰ":906,"ﺀ":907,"ﺃ":908,"ﺄ":909,"ﺅ":910,"ﺆ":911,"ﺇ":912,"ﺋ":913,"ﺌ":914,"ﺍ":915,"ﺎ":916,"ﺏ":917,"ﺐ":918,"ﺑ":919,"ﺒ":920,"ﺓ":921,"ﺔ":922,"ﺕ":923,"ﺗ":924,"ﺘ":925,"ﺜ":926,"ﺞ":927,"ﺟ":928,"ﺠ":929,"ﺢ":930,"ﺣ":931,"ﺤ":932,"ﺦ":933,"ﺧ":934,"ﺨ":935,"ﺩ":936,"ﺪ":937,"ﺫ":938,"ﺬ":939,"ﺭ":940,"ﺮ":941,"ﺯ":942,"ﺰ":943,"ﺱ":944,"ﺳ":945,"ﺴ":946,"ﺷ":947,"ﺸ":948,"ﺹ":949,"ﺻ":950,"ﺼ":951,"ﻀ":952,"ﻁ":953,"ﻄ":954,"ﻅ":955,"ﻇ":956,"ﻈ":957,"ﻉ":958,"ﻊ":959,"ﻋ":960,"ﻌ":961,"ﻐ":962,"ﻑ":963,"ﻒ":964,"ﻓ":965,"ﻔ":966,"ﻕ":967,"ﻗ":968,"ﻘ":969,"ﻛ":970,"ﻜ":971,"ﻞ":972,"ﻟ":973,"ﻠ":974,"ﻡ":975,"ﻢ":976,"ﻣ":977,"ﻤ":978,"ﻥ":979,"ﻦ":980,"ﻧ":981,"ﻨ":982,"ﻩ":983,"ﻪ":984,"ﻫ":985,"ﻬ":986,"ﻭ":987,"ﻮ":988,"ﻰ":989,"ﻱ":990,"ﻲ":991,"ﻳ":992,"ﻴ":993,"ﻷ":994,"ﻹ":995,"ﻻ":996,"ﻼ":997,"（":998,"）":999,"＊":1000,"，":1001,"：":1002,"［":1003,"8</w>":1004,"3</w>":1005,"e</w>":1006,"s</w>":1007,"0</w>":1008,"4</w>":1009,"a</w>":1010,"š</w>":1011,"t</w>":1012,"b</w>":1013,"5</w>":1014,"i</w>":1015,"2</w>":1016,"c</w>":1017,"1</w>":1018,"h</w>":1019,"l</w>":1020,"S</w>":1021,"H</w>":1022,"u</w>":1023,"A</w>":1024,"P</w>":1025,"R</w>":1026,"E</w>":1027,"9</w>":1028,"D</w>":1029,"n</w>":1030,"T</w>":1031,"α</w>":1032,"o</w>":1033,"r</w>":1034,"k</w>":1035,"m</w>":1036,"6</w>":1037,"η</w>":1038,"é</w>":1039,"F</w>":1040,"d</w>":1041,"x</w>":1042,"7</w>":1043,"ง</w>":1044,"y</w>":1045,"ﺔ</w>":1046,"M</w>":1047,"C</w>":1048,"z</w>":1049,"L</w>":1050,"Ν</w>":1051,"´</w>":1052,"g</w>":1053,"B</w>":1054,"V</w>":1055,"v</w>":1056,"p</w>":1057,"O</w>":1058,"I</w>":1059,"G</w>":1060,"¬</w>":1061,"à</w>":1062,"N</w>":1063,"U</w>":1064,"м</w>":1065,"ä</w>":1066,"©</w>":1067,"ę</w>":1068,"w</w>":1069,"́</w>":1070,"á</w>":1071,"j</w>":1072,"Î</w>":1073,"ö</w>":1074,"Z</w>":1075,"Y</w>":1076,"о</w>":1077,"ě</w>":1078,"f</w>":1079,"X</w>":1080,"□</w>":1081,"È</w>":1082,"®</w>":1083,"ì</w>":1084,"°</w>":1085,"Q</w>":1086,"и</w>":1087,"я</w>":1088,"W</w>":1089,"ã</w>":1090,"Ð</w>":1091,"Œ</w>":1092,"ˆ</w>":1093,"Ç</w>":1094,"ž</w>":1095,"ê</w>":1096,"²</w>":1097,"q</w>":1098,"K</w>":1099,"Ã</w>":1100,"í</w>":1101,"ν</w>":1102,"н</w>":1103,"À</w>":1104,"е</w>":1105,"Ê</w>":1106,"J</w>":1107,"ë</w>":1108,"€</w>":1109,"û</w>":1110,"Á</w>":1111,"ή</w>":1112,"ï</w>":1113,"в</w>":1114,"ˇ</w>":1115,"Æ</w>":1116,"х</w>":1117,"ل</w>":1118,"й</w>":1119,"½</w>":1120,"т</w>":1121,"å</w>":1122,"õ</w>":1123,"ر</w>":1124,"É</w>":1125,"ο</w>":1126,"¢</w>":1127,"ы</w>":1128,"س</w>":1129,"µ</w>":1130,"ﺎ</w>":1131,"ی</w>":1132,"ς</w>":1133,"¹</w>":1134,"Ì</w>":1135,"Â</w>":1136,"ă</w>":1137,"ﺕ</w>":1138,"÷</w>":1139,"Ù</w>":1140,"Ò</w>":1141,"¯</w>":1142,"у</w>":1143,"æ</w>":1144,"Í</w>":1145,"â</w>":1146,"ό</w>":1147,"а</w>":1148,"ú</w>":1149,"ю</w>":1150,"™</w>":1151,"β</w>":1152,"ó</w>":1153,"ь</w>":1154,"ι</w>":1155,"Õ</w>":1156,"¦</w>":1157,"ù</w>":1158,"Û</w>":1159,"−</w>":1160,"³</w>":1161,"ü</w>":1162,"Å</w>":1163,"√</w>":1164,"ᖅ</w>":1165,"ƒ</w>":1166,"С</w>":1167,"¼</w>":1168,"ė</w>":1169,"∗</w>":1170,"ت</w>":1171,"ﻊ</w>":1172,"ف</w>":1173,"ي</w>":1174,"ﺼ</w>":1175,"ﻥ</w>":1176,"ى</w>":1177,"Ý</w>":1178,"±</w>":1179,"■</w>":1180,"≈</w>":1181,"£</w>":1182,"¾</w>":1183,"δ</w>":1184,"Б</w>":1185,"ة</w>":1186,"Τ</w>":1187,"º</w>":1188,"Ä</w>":1189,"ı</w>":1190,"ﻞ</w>":1191,"è</w>":1192,"П</w>":1193,"ᑦ</w>":1194,"Ø</w>":1195,"к</w>":1196,"ų</w>":1197,"ç</w>":1198,"ş</w>":1199,"٣</w>":1200,"ô</w>":1201,"⌦</w>":1202,"ﺩ</w>":1203,"Ö</w>":1204,"Α</w>":1205,"م</w>":1206,"ﻪ</w>":1207,"Č</w>":1208,"č</w>":1209,"σ</w>":1210,"î</w>":1211,"ý</w>":1212,"د</w>":1213,"έ</w>":1214,"Þ</w>":1215,"þ</w>":1216,"Ó</w>":1217,"ū</w>":1218,"ﻘ</w>":1219,"λ</w>":1220,"ﻡ</w>":1221,"ﻕ</w>":1222,"ᐠ</w>":1223,"œ</w>":1224,"ј</w>":1225,"的</w>":1226,"ÿ</w>":1227,"Ż</w>":1228,"体</w>":1229,"證</w>":1230,"ò</w>":1231,"ł</w>":1232,"ø</w>":1233,"Д</w>":1234,"В</w>":1235,"ﺀ</w>":1236,"г</w>":1237,"ά</w>":1238,"ß</w>":1239,"ɔ</w>":1240,"Ü</w>":1241,"ª</w>":1242,"ʼ</w>":1243,"ð</w>":1244,"ﻲ</w>":1245,"ā</w>":1246,"Г</w>":1247,"ί</w>":1248,"Ú</w>":1249,"¥</w>":1250,"ć</w>":1251,"ń</w>":1252,"¨</w>":1253,"Š</w>":1254,"ʔ</w>":1255,"ψ</w>":1256,"¸</w>":1257,"×</w>":1258,"Ë</w>":1259,"ϑ</w>":1260,"∂</w>":1261,"ż</w>":1262,"Ž</w>":1263,"Ÿ</w>":1264,"Ñ</w>":1265,"ύ</w>":1266,"٩</w>":1267,"Ô</w>":1268,"⎯</w>":1269,"ñ</w>":1270,"д</w>":1271,"į</w>":1272,"ő</w>":1273,"Ω</w>":1274,"ا</w>":1275,"ﺏ</w>":1276,"л</w>":1277,"◆</w>":1278,"˚</w>":1279,"б</w>":1280,"Ï</w>":1281,"≠</w>":1282,"˜</w>":1283,"ن</w>":1284,"ε</w>":1285,"ī</w>":1286,"Σ</w>":1287,"ą</w>":1288,"ﻢ</w>":1289,"ф</w>":1290,"ذ</w>":1291,"ﺓ</w>":1292,"ᒃ</w>":1293,"̂</w>":1294,"̀</w>":1295,"∈</w>":1296,"¤</w>":1297,"♀</w>":1298,"ﻰ</w>":1299,"Ρ</w>":1300,"ﺭ</w>":1301,"ğ</w>":1302,"ʹ</w>":1303,"ρ</w>":1304,"Κ</w>":1305,"●</w>":1306,"٦</w>":1307,"♣</w>":1308,"Ю</w>":1309,"с</w>":1310,"Ą</w>":1311,"θ</w>":1312,"π</w>":1313,"ก</w>":1314,"р</w>":1315,"п</w>":1316,"̱</w>":1317,"ů</w>":1318,"ɛ</w>":1319,"ᐃ</w>":1320,"ш</w>":1321,"Ο</w>":1322,"≤</w>":1323,"อ</w>":1324,"ﻉ</w>":1325,"Ё</w>":1326,"ᑉ</w>":1327,"ǫ</w>":1328,"˘</w>":1329,"Е</w>":1330,"ʺ</w>":1331,"ว</w>":1332,"ﻼ</w>":1333,"ج</w>":1334,"ж</w>":1335,"ﻠ</w>":1336,"ר</w>":1337,"计</w>":1338,"Ґ</w>":1339,"ﻨ</w>":1340,"٧</w>":1341,"ﺦ</w>":1342,"ţ</w>":1343,"ﺫ</w>":1344,"Ŷ</w>":1345,"Ā</w>":1346,"行</w>":1347,"٨</w>":1348,"ْ</w>":1349,"υ</w>":1350,"ם</w>":1351,"˾</w>":1352,"μ</w>":1353,"ȣ</w>":1354,"ң</w>":1355,"і</w>":1356,"カ</w>":1357,"ŕ</w>":1358,"法</w>":1359,"ه</w>":1360,"の</w>":1361,"Ć</w>":1362,"ו</w>":1363,"ُ</w>":1364,"ﺹ</w>":1365,"ה</w>":1366,"Ţ</w>":1367,"ℓ</w>":1368,"İ</w>":1369,"‡</w>":1370,"◦</w>":1371,"Ă</w>":1372,"τ</w>":1373,"ﻑ</w>":1374,"ᐣ</w>":1375,"ű</w>":1376,"Ι</w>":1377,"ź</w>":1378,"ع</w>":1379,"Η</w>":1380,"ﻦ</w>":1381,"ў</w>":1382,"管</w>":1383,"년</w>":1384,"І</w>":1385,"ē</w>":1386,"ť</w>":1387,"ω</w>":1388,"ﺱ</w>":1389,"ص</w>":1390,"ﺰ</w>":1391,"ζ</w>":1392,"Ќ</w>":1393,"ﻁ</w>":1394,"ﬁ</w>":1395,"щ</w>":1396,"ċ</w>":1397,"ﻩ</w>":1398,"ب</w>":1399,"⎜</w>":1400,"י</w>":1401,"ม</w>":1402,"١</w>":1403,"ﺞ</w>":1404,"ﺮ</w>":1405,"Й</w>":1406,"ﺬ</w>":1407,"У</w>":1408,"ц</w>":1409,"ᓐ</w>":1410,"Є</w>":1411,"ﲔ</w>":1412,"ō</w>":1413,"ᔨ</w>":1414,"Ђ</w>":1415,"ح</w>":1416,"ﺢ</w>":1417,"Я</w>":1418,"ء</w>":1419,"К</w>":1420,"з</w>":1421,"ﻒ</w>":1422,"٤</w>":1423,"-</w>":1424,"⌫</w>":1425,"و</w>":1426,"ﺯ</w>":1427,"ك</w>":1428,"Β</w>":1429,"ー</w>":1430,"ี</w>":1431,"ᖓ</w>":1432,"ﺐ</w>":1433,"γ</w>":1434,"М</w>":1435,"ᒥ</w>":1436,"业</w>":1437,"٢</w>":1438,"➥</w>":1439,"ِ</w>":1440,"Π</w>":1441,"Ћ</w>":1442,"ᓇ</w>":1443,"ٱ</w>":1444,"ث</w>":1445,"ض</w>":1446,"ﺍ</w>":1447,"ظ</w>":1448,"ﺪ</w>":1449,"ﬀ</w>":1450,"ל</w>":1451,"◄</w>":1452,"ᓗ</w>":1453,"ế</w>":1454,"♦</w>":1455,"่</w>":1456,"ї</w>":1457,"主</w>":1458,"ﺜ</w>":1459,"ق</w>":1460,"ə</w>":1461,"Ѓ</w>":1462,"Х</w>":1463,"Р</w>":1464,"χ</w>":1465,"Т</w>":1466,"ၱ</w>":1467,"Θ</w>":1468,"φ</w>":1469,"分</w>":1470,"∞</w>":1471,"ξ</w>":1472,"ļ</w>":1473,"Њ</w>":1474,"А</w>":1475,"Ε</w>":1476,"ش</w>":1477,"Δ</w>":1478,"И</w>":1479,"♂</w>":1480,"Υ</w>":1481,"Ė</w>":1482,"ת</w>":1483,"↓</w>":1484,"Ų</w>":1485,"ň</w>":1486,"ķ</w>":1487,"←</w>":1488,"ś</w>":1489,"ľ</w>":1490,"→</w>":1491,"工</w>":1492,"ز</w>":1493,"Γ</w>":1494,"Ч</w>":1495,"♒</w>":1496,"$</w>":1497,"家</w>":1498,"ط</w>":1499,"ᑕ</w>":1500,"О</w>":1501,"٥</w>":1502,"Ś</w>":1503,"─</w>":1504,"ř</w>":1505,"发</w>":1506,"Φ</w>":1507,"ﰲ</w>":1508,"Љ</w>":1509,"ᓂ</w>":1510,"خ</w>":1511,"和</w>":1512,"ﺸ</w>":1513,"⅓</w>":1514,"权</w>":1515,"（</w>":1516,"~</w>":1517,"+</w>":1518,"Ş</w>":1519,"˝</w>":1520,"⊂</w>":1521,"联</w>":1522,"₤</w>":1523,"κ</w>":1524,"ย</w>":1525,"社</w>":1526,"˙</w>":1527,"พ</w>":1528,"Ў</w>":1529,"ѕ</w>":1530,"ဪ</w>":1531,"[</w>":1532,"»</w>":1533,"ً</w>":1534,"ﻱ</w>":1535,"Ċ</w>":1536,"⁄</w>":1537,"†</w>":1538,"ᐊ</w>":1539,"ǎ</w>":1540,"א</w>":1541,"า</w>":1542,"ġ</w>":1543,"ـ</w>":1544,"ﻗ</w>":1545,"語</w>":1546,"ŭ</w>":1547,"น</w>":1548,"ч</w>":1549,"Μ</w>":1550,"ᑯ</w>":1551,"ņ</w>":1552,"ᑌ</w>":1553,"ק</w>":1554,"ด</w>":1555,"Э</w>":1556,")</w>":1557,"№</w>":1558,"・</w>":1559,"َ</w>":1560,"○</w>":1561,"З</w>":1562,"［</w>":1563,"΄</w>":1564,"٠</w>":1565,"出</w>":1566,"➪</w>":1567,"支</w>":1568,"海</w>":1569,"Н</w>":1570,"ᒋ</w>":1571,"∆</w>":1572,"物</w>":1573,"ﻮ</w>":1574,"’</w>":1575,"ע</w>":1576,"Ы</w>":1577,"克</w>":1578,"日</w>":1579,"̨</w>":1580,"ё</w>":1581,"Л</w>":1582,"定</w>":1583,"ﱪ</w>":1584,"∫</w>":1585,"└</w>":1586,"`</w>":1587,"►</w>":1588,"领</w>":1589,"次</w>":1590,"ᓱ</w>":1591,"∑</w>":1592,"ک</w>":1593,"Ē</w>":1594,"≥</w>":1595,"民</w>":1596,"ư</w>":1597,"¶</w>":1598,"│</w>":1599,"أ</w>":1600,"ئ</w>":1601,"ĕ</w>":1602,"有</w>":1603,"ส</w>":1604,"Ц</w>":1605,"(</w>":1606,"】</w>":1607,"证</w>":1608,"ᒪ</w>":1609,"є</w>":1610,"作</w>":1611,"ﻭ</w>":1612,"⋅</w>":1613,";</w>":1614,"·</w>":1615,"➧</w>":1616,"ґ</w>":1617,"غ</w>":1618,"Χ</w>":1619,"♥</w>":1620,"用</w>":1621,"〈</w>":1622,"้</w>":1623,"ѓ</w>":1624,":</w>":1625,"פ</w>":1626,"ᓪ</w>":1627,"љ</w>":1628,"Ǻ</w>":1629,"⃞</w>":1630,"≡</w>":1631,"♲</w>":1632,"ﺤ</w>":1633,"Ę</w>":1634,"下</w>":1635,"▼</w>":1636,"ᓯ</w>":1637,"*</w>":1638,"ะ</w>":1639,"Ω</w>":1640,"明</w>":1641,"ᑎ</w>":1642,"ศ</w>":1643,"บ</w>":1644,"要</w>":1645,"ﻅ</w>":1646,"处</w>":1647,"Ř</w>":1648,"Ń</w>":1649,"で</w>":1650,"✔</w>":1651,"›</w>":1652,"件</w>":1653,"Ї</w>":1654,"ώ</w>":1655,"•</w>":1656,"❚</w>":1657,"★</w>":1658,"➟</w>":1659,"ﬂ</w>":1660,"ď</w>":1661,"ﺇ</w>":1662,"以</w>":1663,"ﻻ</w>":1664,"➢</w>":1665,"Ġ</w>":1666,"ב</w>":1667,"Ł</w>":1668,"Ⴑ</w>":1669,"ّ</w>":1670,"❏</w>":1671,"∼</w>":1672,"Λ</w>":1673,"˛</w>":1674,"·</w>":1675,"ン</w>":1676,"⎮</w>":1677,";</w>":1678,"글</w>":1679,"></w>":1680,"Ī</w>":1681,"Ū</w>":1682,"比</w>":1683,"议</w>":1684,"–</w>":1685,"Ф</w>":1686,"勒</w>":1687,"ᑲ</w>":1688,"﷓</w>":1689,"信</w>":1690,"⎛</w>":1691,"国</w>":1692,"ĺ</w>":1693,"洲</w>":1694,"ט</w>":1695,"↑</w>":1696,"ϕ</w>":1697,"Ψ</w>":1698,"ᑖ</w>":1699,"Đ</w>":1700,"한</w>":1701,"い</w>":1702,"đ</w>":1703,"Ů</w>":1704,"”</w>":1705,"=</w>":1706,"∝</w>":1707,"设</w>":1708,"♪</w>":1709,"ơ</w>":1710,"…</w>":1711,"ộ</w>":1712,"❖</w>":1713,"➔</w>":1714,"多</w>":1715,"中</w>":1716,"ル</w>":1717,"ᒍ</w>":1718,"※</w>":1719,"提</w>":1720,"政</w>":1721,"系</w>":1722,"′</w>":1723,"؛</w>":1724,"ъ</w>":1725,"会</w>":1726,"所</w>":1727,"◗</w>":1728,"Ⴞ</w>":1729,"ᓕ</w>":1730,"ש</w>":1731,"，</w>":1732,"ד</w>":1733,"月</w>":1734,"亚</w>":1735,"ﹰ</w>":1736,"❒</w>":1737,"加</w>":1738,"ﻴ</w>":1739,"Ж</w>":1740,"ﺳ</w>":1741,"ᐯ</w>":1742,"◘</w>":1743,"_</w>":1744,"关</w>":1745,"ג</w>":1746,"ﺗ</w>":1747,"ᒧ</w>":1748,"э</w>":1749,"为</w>":1750,"▪</w>":1751,"━</w>":1752,"ᐱ</w>":1753,"✗</w>":1754,"报</w>":1755,"!</w>":1756,"Ɔ</w>":1757,"ᔑ</w>":1758,"可</w>":1759,"ﻀ</w>":1760,"Ј</w>":1761,"＊</w>":1762,"ﺷ</w>":1763,"@</w>":1764,"➤</w>":1765,"办</w>":1766,"∙</w>":1767,"简</w>":1768,"）</w>":1769,"″</w>":1770,"务</w>":1771,"§</w>":1772,"ﻤ</w>":1773,"ﻜ</w>":1774,"一</w>":1775,"‟</w>":1776,"金</w>":1777,"ᕙ</w>":1778,"ᓄ</w>":1779,"Ш</w>":1780,"➛</w>":1781,"}</w>":1782,"מ</w>":1783,"Џ</w>":1784,"巴</w>":1785,",</w>":1786,"⇓</w>":1787,"保</w>":1788,"拉</w>":1789,"✐</w>":1790,"✓</w>":1791,"➣</w>":1792,"‚</w>":1793,"◊</w>":1794,"项</w>":1795,"ﻧ</w>":1796,"ᑭ</w>":1797,"对</w>":1798,"ﺠ</w>":1799,"เ</w>":1800,"Ľ</w>":1801,"➠</w>":1802,"不</w>":1803,"'</w>":1804,"Ő</w>":1805,"ڤ</w>":1806,"̌</w>":1807,"决</w>":1808,"年</w>":1809,"]</w>":1810,"«</w>":1811,"∃</w>":1812,"理</w>":1813,"第</w>":1814,"斯</w>":1815,"ᑫ</w>":1816,"目</w>":1817,"„</w>":1818,"▲</w>":1819,"ﺃ</w>":1820,"美</w>":1821,"〉</w>":1822,"\\</w>":1823,"\"</w>":1824,"包</w>":1825,"/</w>":1826,"“</w>":1827,"利</w>":1828,"Ế</w>":1829,"大</w>":1830,"ﻟ</w>":1831,"拿</w>":1832,"|</w>":1833,"划</w>":1834,"ħ</w>":1835,"ᒻ</w>":1836,"Ě</w>":1837,"ᔪ</w>":1838,"ﻋ</w>":1839,"【</w>":1840,"‑</w>":1841,"‘</w>":1842,"、</w>":1843,"生</w>":1844,"ၡ</w>":1845,"于</w>":1846,"&</w>":1847,"‛</w>":1848,"公</w>":1849,"ﻳ</w>":1850,"ᓚ</w>":1851,"‰</w>":1852,"ᑐ</w>":1853,"ᕆ</w>":1854,"经</w>":1855,"名</w>":1856,"¿</w>":1857,"资</w>":1858,".</w>":1859,"〈</w>":1860,"ŏ</w>":1861,"占</w>":1862,"济</w>":1863,"』</w>":1864,"ﺄ</w>":1865,"。</w>":1866,"^</w>":1867,"或</w>":1868,"<</w>":1869,"ร</w>":1870,"ﺴ</w>":1871,"ᕗ</w>":1872,"上</w>":1873,"⎟</w>":1874,"ﺘ</w>":1875,"数</w>":1876,"ϊ</w>":1877,"❍</w>":1878,"合</w>":1879,"Ź</w>":1880,"―</w>":1881,"了</w>":1882,"ᕐ</w>":1883,"{</w>":1884,"▬</w>":1885,"ﬃ</w>":1886,"⇔</w>":1887,"人</w>":1888,"،</w>":1889,"案</w>":1890,"↔</w>":1891,"通</w>":1892,"█</w>":1893,"本</w>":1894,"ệ</w>":1895,"ﻐ</w>":1896,"¡</w>":1897,"产</w>":1898,"域</w>":1899,"地</w>":1900,"元</w>":1901,"%</w>":1902,"▸</w>":1903,"委</w>":1904,"❙</w>":1905,"共</w>":1906,"ิ</w>":1907,"：</w>":1908,"ﻓ</w>":1909,"算</w>":1910,"‐</w>":1911,"动</w>":1912,"组</w>":1913,"‹</w>":1914,"⌧</w>":1915,"➾</w>":1916,"#</w>":1917,"ᔾ</w>":1918,"内</w>":1919,"及</w>":1920,"ᖕ</w>":1921,"其</w>":1922,"∅</w>":1923,"ท</w>":1924,"费</w>":1925,"事</w>":1926,"ɶ</w>":1927,"—</w>":1928,"在</w>":1929,"✦</w>":1930,"?</w>":1931,"员</w>":1932,"ﻬ</w>":1933,"ϒ</w>":1934,"⇒</w>":1935,"织</w>":1936,"文</w>":1937,"❑</w>":1938,"ป</w>":1939,"知</w>":1940,"☐</w>":1941,"es</w>":1942,"ti":1943,"en":1944,"an":1945,"on":1946,"in":1947,"th":1948,"on</w>":1949,"er":1950,"de</w>":1951,"re":1952,"ou":1953,"ati":1954,"or":1955,"the</w>":1956,"ar":1957,"is":1958,"it":1959,"pr":1960,"le</w>":1961,"ent</w>":1962,"tr":1963,"qu":1964,"em":1965,"of</w>":1966,"om":1967,"er</w>":1968,"et</w>":1969,"es":1970,"al":1971,"la</w>":1972,"ation</w>":1973,"ic":1974,"ur":1975,"and</w>":1976,"ed</w>":1977,"les</w>":1978,"at":1979,"ai":1980,"al</w>":1981,"des</w>":1982,"ac":1983,"con":1984,"si":1985,"ec":1986,"el":1987,"to</w>":1988,"su":1989,"pro":1990,"ons</w>":1991,"ts</w>":1992,"en</w>":1993,"au":1994,"li":1995,"in</w>":1996,"un":1997,"tion</w>":1998,"ing</w>":1999,"di":2000,"ce</w>":2001,"re</w>":2002,"pl":2003,"or</w>":2004,"is</w>":2005,"com":2006,"il":2007,"que</w>":2008,"as":2009,"ap":2010,"ci":2011,"ch":2012,"ement</w>":2013,"ab":2014,"op":2015,"du</w>":2016,"at</w>":2017,"ag":2018,"ol":2019,"am":2020,"as</w>":2021,"av":2022,"ex":2023,"ad":2024,"ent":2025,"par":2026,"st":2027,"ré":2028,"dé":2029,"eu":2030,"ant</w>":2031,"an</w>":2032,"ro":2033,"ter":2034,"ri":2035,"po":2036,"our</w>":2037,"por":2038,"ff":2039,"ans</w>":2040,"te</w>":2041,"res":2042,"me</w>":2043,"00":2044,"vi":2045,"ations</w>":2046,"for":2047,"ment</w>":2048,"gr":2049,"ar</w>":2050,"ev":2051,"au</w>":2052,"tre</w>":2053,"for</w>":2054,"200":2055,"ul":2056,"im":2057,"Th":2058,"se</w>":2059,"our":2060,"et":2061,"du":2062,"ver":2063,"aux</w>":2064,"un</w>":2065,"és</w>":2066,"ents</w>":2067,"per":2068,"une</w>":2069,"ain":2070,"ét":2071,"pour</w>":2072,"no":2073,"ve</w>":2074,"dans</w>":2075,"ont</w>":2076,"est</w>":2077,"onn":2078,"that</w>":2079,"it</w>":2080,"ité</w>":2081,"cl":2082,"res</w>":2083,"us":2084,"eur":2085,"ces</w>":2086,"sur</w>":2087,"ér":2088,"tin":2089,"oc":2090,"tions</w>":2091,"ly</w>":2092,"sion</w>":2093,"The</w>":2094,"end":2095,"gi":2096,"fi":2097,"comm":2098,"form":2099,"ous</w>":2100,"ation":2101,"ser":2102,"ni":2103,"se":2104,"min":2105,"Com":2106,"ity</w>":2107,"emb":2108,"par</w>":2109,"ne</w>":2110,"eur</w>":2111,"wh":2112,"ance</w>":2113,"pré":2114,"ence</w>":2115,"ée</w>":2116,"mo":2117,"ir</w>":2118,"qui</w>":2119,"ate</w>":2120,"pu":2121,"ig":2122,"ure</w>":2123,"us</w>":2124,"ers</w>":2125,"Can":2126,"ith</w>":2127,"be</w>":2128,"rec":2129,"its</w>":2130,"oun":2131,"ou</w>":2132,"so":2133,"by</w>":2134,"tu":2135,"inter":2136,"dis":2137,"ob":2138,"ait</w>":2139,"um":2140,"with</w>":2141,"el</w>":2142,"nation":2143,"il</w>":2144,"ées</w>":2145,"tic":2146,"aire</w>":2147,"str":2148,"are</w>":2149,"bu":2150,"Con":2151,"mis":2152,"co":2153,"eurs</w>":2154,"ten":2155,"sh":2156,"19":2157,"sp":2158,"ques</w>":2159,"ale</w>":2160,"In":2161,"port":2162,"lo":2163,"acc":2164,"able</w>":2165,"mes</w>":2166,"age</w>":2167,"de":2168,"pos":2169,"ist":2170,"serv":2171,"port</w>":2172,"le":2173,"duc":2174,"ada</w>":2175,"ven":2176,"ma":2177,"ds</w>":2178,"be":2179,"tri":2180,"Canada</w>":2181,"ang":2182,"iv":2183,"ties</w>":2184,"ay":2185,"isi":2186,"ess":2187,"fin":2188,"tes</w>":2189,"ég":2190,"ting</w>":2191,"elop":2192,"ouv":2193,"cer":2194,"ice</w>":2195,"qu</w>":2196,"elle</w>":2197,"én":2198,"ted</w>":2199,"eff":2200,"rel":2201,"man":2202,"th</w>":2203,"lis":2204,"ld</w>":2205,"comp":2206,"the":2207,"ari":2208,"gan":2209,"ère</w>":2210,"dev":2211,"ants</w>":2212,"ere</w>":2213,"me":2214,"Le</w>":2215,"te":2216,"ther</w>":2217,"éri":2218,"adi":2219,"ication</w>":2220,"rap":2221,"ord":2222,"enti":2223,"ter</w>":2224,"sti":2225,"aires</w>":2226,"él":2227,"national</w>":2228,"vern":2229,"all</w>":2230,"ne":2231,"pub":2232,"ass":2233,"rom</w>":2234,"éc":2235,"acti":2236,"ated</w>":2237,"ch</w>":2238,"plus</w>":2239,"ue</w>":2240,"ements</w>":2241,"pre":2242,"der":2243,"cip":2244,"été</w>":2245,"wor":2246,"out</w>":2247,"from</w>":2248,"gram":2249,"ite</w>":2250,"ary</w>":2251,"tat":2252,"sont</w>":2253,"tec":2254,"bi":2255,"do":2256,"soci":2257,"ra":2258,"pon":2259,"ould</w>":2260,"sec":2261,"vo":2262,"mon":2263,"formation</w>":2264,"ss":2265,"ices</w>":2266,"ici":2267,"ess</w>":2268,"not</w>":2269,"pas</w>":2270,"to":2271,"té</w>":2272,"pers":2273,"199":2274,"ses</w>":2275,"ecti":2276,"Les</w>":2277,"ans":2278,"mar":2279,"st</w>":2280,"and":2281,"ep":2282,"parti":2283,"ave</w>":2284,"ures</w>":2285,"proc":2286,"Pro":2287,"ités</w>":2288,"clu":2289,"plo":2290,"organ":2291,"was</w>":2292,"ès</w>":2293,"this</w>":2294,"mi":2295,"ill</w>":2296,"sy":2297,"ec</w>":2298,"ves</w>":2299,"sul":2300,"pres":2301,"ich</w>":2302,"gh":2303,"pe":2304,"prés":2305,"mission</w>":2306,"fr":2307,"tres</w>":2308,"ann":2309,"Re":2310,"qui":2311,"publi":2312,"fac":2313,"which</w>":2314,"ales</w>":2315,"avec</w>":2316,"ding</w>":2317,"La</w>":2318,"ak":2319,"have</w>":2320,"ill":2321,"Ch":2322,"cri":2323,"stitu":2324,"ay</w>":2325,"program":2326,"go":2327,"der</w>":2328,"ine</w>":2329,"val":2330,"will</w>":2331,"oll":2332,"ais</w>":2333,"elles</w>":2334,"commun":2335,"ear":2336,"rou":2337,"ase</w>":2338,"avai":2339,"eux</w>":2340,"posi":2341,"trans":2342,"sib":2343,"être</w>":2344,"int":2345,"ays</w>":2346,"dro":2347,"ain</w>":2348,"vis":2349,"ard</w>":2350,"lement</w>":2351,"ori":2352,"sub":2353,"enc":2354,"iss":2355,"dem":2356,"af":2357,"one</w>":2358,"so</w>":2359,"ette</w>":2360,"Par":2361,"ative</w>":2362,"off":2363,"ens</w>":2364,"pri":2365,"els</w>":2366,"ore</w>":2367,"rer</w>":2368,"ir":2369,"has</w>":2370,"ad</w>":2371,"olu":2372,"Un":2373,"gu":2374,"ect</w>":2375,"sup":2376,"Comm":2377,"uc":2378,"anc":2379,"id":2380,"ren":2381,"fon":2382,"all":2383,"si</w>":2384,"ge</w>":2385,"syst":2386,"reg":2387,"conom":2388,"information</w>":2389,"ture</w>":2390,"ision</w>":2391,"prov":2392,"vir":2393,"présent":2394,"ques":2395,"onal</w>":2396,"entre</w>":2397,"olo":2398,"tor":2399,"concer":2400,"ie</w>":2401,"uti":2402,"their</w>":2403,"Commission</w>":2404,"sid":2405,"ve":2406,"proj":2407,"ments</w>":2408,"00</w>":2409,"sou":2410,"tribu":2411,"tro":2412,"iz":2413,"Uni":2414,"personn":2415,"ème</w>":2416,"import":2417,"ph":2418,"services</w>":2419,"Ac":2420,"memb":2421,"part":2422,"cre":2423,"ise</w>":2424,"tra":2425,"In</w>":2426,"we":2427,"ener":2428,"ited</w>":2429,"inv":2430,"peu":2431,"ace</w>":2432,"ru":2433,"diff":2434,"respon":2435,"fo":2436,"Nations</w>":2437,"gén":2438,"eci":2439,"other</w>":2440,"fer":2441,"Sec":2442,"ally</w>":2443,"ens":2444,"uni":2445,"ju":2446,"ours</w>":2447,"emplo":2448,"isation</w>":2449,"istr":2450,"ing":2451,"red</w>":2452,"inclu":2453,"tats</w>":2454,"des":2455,"Eur":2456,"coun":2457,"ement":2458,"ic</w>":2459,"appl":2460,"ins</w>":2461,"ment":2462,"son</w>":2463,"10</w>":2464,"ticle</w>":2465,"bo":2466,"dic":2467,"aient</w>":2468,"esti":2469,"app":2470,"vention</w>":2471,"develop":2472,"uation</w>":2473,"provi":2474,"direc":2475,"leur</w>":2476,"autres</w>":2477,"abil":2478,"pe</w>":2479,"can":2480,"ach":2481,"mil":2482,"tain":2483,"gn":2484,"génér":2485,"aff":2486,"Europ":2487,"tou":2488,"produc":2489,"fl":2490,"contr":2491,"sions</w>":2492,"pays</w>":2493,"non</w>":2494,"also</w>":2495,"cu":2496,"velop":2497,"rit":2498,"tech":2499,"cons":2500,"ign":2501,"la":2502,"ences</w>":2503,"poli":2504,"fu":2505,"cial</w>":2506,"oir</w>":2507,"been</w>":2508,"che</w>":2509,"velopp":2510,"déc":2511,"chang":2512,"ources</w>":2513,"fs</w>":2514,"ded</w>":2515,"grou":2516,"ress":2517,"partic":2518,"ouvern":2519,"exam":2520,"travai":2521,"ow":2522,"Ar":2523,"appro":2524,"ères</w>":2525,"eng":2526,"sit":2527,"Il</w>":2528,"work</w>":2529,"od</w>":2530,"international</w>":2531,"int</w>":2532,"met":2533,"emp":2534,"cor":2535,"mé":2536,"cap":2537,"were</w>":2538,"développ":2539,"ors</w>":2540,"particip":2541,"activ":2542,"est":2543,"ew</w>":2544,"donn":2545,"cette</w>":2546,"fication</w>":2547,"bl":2548,"alement</w>":2549,"king</w>":2550,"hum":2551,"ire</w>":2552,"En":2553,"olution</w>":2554,"public</w>":2555,"ini":2556,"ande</w>":2557,"um</w>":2558,"doc":2559,"Canadi":2560,"he":2561,"ty</w>":2562,"Al":2563,"Su":2564,"cul":2565,"compl":2566,"ely</w>":2567,"envir":2568,"concern":2569,"ets</w>":2570,"ese</w>":2571,"oper":2572,"incip":2573,"car":2574,"leurs</w>":2575,"dec":2576,"ret":2577,"obj":2578,"enne</w>":2579,"mat":2580,"contin":2581,"nom":2582,"sur":2583,"am</w>":2584,"igh":2585,"wi":2586,"ell":2587,"nous</w>":2588,"St":2589,"anti":2590,"consi":2591,"pol":2592,"tho":2593,"organis":2594,"itte":2595,"als</w>":2596,"fic":2597,"mes":2598,"ome</w>":2599,"ail":2600,"arg":2601,"utilis":2602,"more</w>":2603,"exp":2604,"United</w>":2605,"tak":2606,"atives</w>":2607,"cont":2608,"nouv":2609,"ks</w>":2610,"should</w>":2611,"low":2612,"ember</w>":2613,"alth</w>":2614,"comme</w>":2615,"righ":2616,"ust</w>":2617,"Inter":2618,"seil</w>":2619,"développement</w>":2620,"Stat":2621,"aut":2622,"princip":2623,"ances</w>":2624,"En</w>":2625,"any</w>":2626,"fa":2627,"eneral</w>":2628,"ages</w>":2629,"ablis":2630,"régi":2631,"gl":2632,"2005</w>":2633,"fait</w>":2634,"employ":2635,"coll":2636,"atin":2637,"indi":2638,"ittee</w>":2639,"agrap":2640,"ique</w>":2641,"he</w>":2642,"ils</w>":2643,"2006</w>":2644,"ong</w>":2645,"An":2646,"conn":2647,"protec":2648,"are":2649,"mati":2650,"Coun":2651,"politi":2652,"tionn":2653,"gouvern":2654,"prom":2655,"ear</w>":2656,"ris":2657,"ating</w>":2658,"dur":2659,"TI":2660,"entr":2661,"sible</w>":2662,"dom":2663,"adop":2664,"rement</w>":2665,"ession</w>":2666,"would</w>":2667,"Ass":2668,"ov":2669,"ical</w>":2670,"speci":2671,"sa</w>":2672,"sel":2673,"ministr":2674,"tant</w>":2675,"struc":2676,"ports</w>":2677,"2004</w>":2678,"gh</w>":2679,"produ":2680,"resp":2681,"Min":2682,"ables</w>":2683,"action</w>":2684,"but</w>":2685,"dat":2686,"programme</w>":2687,"vers":2688,"pour":2689,"ho":2690,"termin":2691,"Conseil</w>":2692,"contribu":2693,"près</w>":2694,"position</w>":2695,"qual":2696,"dg":2697,"loc":2698,"enn":2699,"part</w>":2700,"san":2701,"such</w>":2702,"can</w>":2703,"main":2704,"em</w>":2705,"under</w>":2706,"droits</w>":2707,"Committee</w>":2708,"paragrap":2709,"ies</w>":2710,"ean</w>":2711,"États</w>":2712,"act</w>":2713,"pend":2714,"alis":2715,"12</w>":2716,"suiv":2717,"ez</w>":2718,"article</w>":2719,"vernment</w>":2720,"ulation</w>":2721,"issu":2722,"requi":2723,"entre":2724,"lig":2725,"ON":2726,"eg":2727,"finan":2728,"techn":2729,"bet":2730,"ms</w>":2731,"Ex":2732,"agement</w>":2733,"2007</w>":2734,"teur</w>":2735,"tive</w>":2736,"abor":2737,"recomm":2738,"sident</w>":2739,"bre</w>":2740,"ante</w>":2741,"had</w>":2742,"travail</w>":2743,"dustr":2744,"we</w>":2745,"Ad":2746,"ory</w>":2747,"eu</w>":2748,"lu":2749,"strat":2750,"States</w>":2751,"shi":2752,"Di":2753,"This</w>":2754,"with":2755,"rapport</w>":2756,"tur":2757,"cher":2758,"ed":2759,"vous</w>":2760,"conc":2761,"2003</w>":2762,"cil</w>":2763,"15</w>":2764,"ologi":2765,"ast</w>":2766,"internation":2767,"hi":2768,"lev":2769,"Qu":2770,"ainsi</w>":2771,"peut</w>":2772,"AN":2773,"ke</w>":2774,"time</w>":2775,"Council</w>":2776,"ises</w>":2777,"Go":2778,"stat":2779,"11</w>":2780,"mê":2781,"new</w>":2782,"Ser":2783,"ant":2784,"num":2785,"ased</w>":2786,"may</w>":2787,"faire</w>":2788,"ach</w>":2789,"institu":2790,"ther":2791,"impl":2792,"Co":2793,"économ":2794,"development</w>":2795,"It</w>":2796,"opér":2797,"Am":2798,"fir":2799,"lim":2800,"initi":2801,"cré":2802,"ell</w>":2803,"aine</w>":2804,"ection</w>":2805,"sc":2806,"IN":2807,"ects</w>":2808,"2002</w>":2809,"Ag":2810,"tous</w>":2811,"20</w>":2812,"écur":2813,"fun":2814,"Canadian</w>":2815,"end</w>":2816,"également</w>":2817,"you</w>":2818,"opé":2819,"Or":2820,"tries</w>":2821,"propos":2822,"tari":2823,"èg":2824,"ues</w>":2825,"Pre":2826,"session</w>":2827,"use</w>":2828,"att":2829,"cho":2830,"they</w>":2831,"spé":2832,"000</w>":2833,"év":2834,"protection</w>":2835,"condi":2836,"ew":2837,"2001</w>":2838,"objecti":2839,"ourn":2840,"30</w>":2841,"General</w>":2842,"ges":2843,"tout</w>":2844,"sécur":2845,"consul":2846,"sign":2847,"ational</w>":2848,"Convention</w>":2849,"administr":2850,"asi":2851,"sus</w>":2852,"13</w>":2853,"ia</w>":2854,"ES</w>":2855,"ency</w>":2856,"leg":2857,"ications</w>":2858,"these</w>":2859,"fonc":2860,"Ré":2861,"santé</w>":2862,"peri":2863,"ber</w>":2864,"cad":2865,"Tr":2866,"isions</w>":2867,"éd":2868,"uments</w>":2869,"ber":2870,"enf":2871,"europé":2872,"endre</w>":2873,"og":2874,"ame</w>":2875,"fol":2876,"ente</w>":2877,"fér":2878,"olog":2879,"2000</w>":2880,"ble</w>":2881,"milli":2882,"pen":2883,"UN":2884,"dér":2885,"no</w>":2886,"EN":2887,"sécurité</w>":2888,"Au":2889,"mais</w>":2890,"ument</w>":2891,"pop":2892,"inform":2893,"De":2894,"Res":2895,"éli":2896,"Assemb":2897,"ree</w>":2898,"view</w>":2899,"application</w>":2900,"tor</w>":2901,"Comité</w>":2902,"pai":2903,"canadi":2904,"service</w>":2905,"date</w>":2906,"membres</w>":2907,"même</w>":2908,"European</w>":2909,"programmes</w>":2910,"deux</w>":2911,"ween</w>":2912,"vent</w>":2913,"cour":2914,"ord</w>":2915,"mise</w>":2916,"eau</w>":2917,"report</w>":2918,"hom":2919,"effor":2920,"aw":2921,"ps</w>":2922,"countries</w>":2923,"tw":2924,"cas</w>":2925,"rem":2926,"aly":2927,"compr":2928,"Serv":2929,"Off":2930,"throu":2931,"entrepr":2932,"between</w>":2933,"activités</w>":2934,"tional</w>":2935,"reat":2936,"jus":2937,"urr":2938,"place</w>":2939,"éval":2940,"seign":2941,"than</w>":2942,"auss":2943,"uli":2944,"imp":2945,"lég":2946,"contre</w>":2947,"isl":2948,"eli":2949,"industr":2950,"embre</w>":2951,"regi":2952,"Bu":2953,"into</w>":2954,"Grou":2955,"sibil":2956,"prof":2957,"support</w>":2958,"teurs</w>":2959,"droit</w>":2960,"ili":2961,"point</w>":2962,"os":2963,"ards</w>":2964,"bil":2965,"rait</w>":2966,"commer":2967,"plac":2968,"jo":2969,"fem":2970,"question</w>":2971,"men":2972,"élé":2973,"rés":2974,"ines</w>":2975,"ordin":2976,"sous</w>":2977,"tt":2978,"avoir</w>":2979,"étu":2980,"Mar":2981,"organiz":2982,"including</w>":2983,"urity</w>":2984,"air":2985,"particuli":2986,"dont</w>":2987,"cours</w>":2988,"projet</w>":2989,"who</w>":2990,"cadre</w>":2991,"arm":2992,"incre":2993,"ty":2994,"vre</w>":2995,"certain":2996,"identi":2997,"aussi</w>":2998,"fam":2999,"ey</w>":3000,"ducation</w>":3001,"ever</w>":3002,"Pr":3003,"recher":3004,"représent":3005,"br":3006,"mesures</w>":3007,"ON</w>":3008,"tical</w>":3009,"ective</w>":3010,"antes</w>":3011,"hel":3012,"14</w>":3013,"icul":3014,"earch</w>":3015,"made</w>":3016,"mental</w>":3017,"questions</w>":3018,"ected</w>":3019,"exc":3020,"march":3021,"nat":3022,"order</w>":3023,"premi":3024,"néc":3025,"tal</w>":3026,"doit</w>":3027,"must</w>":3028,"capac":3029,"égi":3030,"per</w>":3031,"personnes</w>":3032,"nécess":3033,"fe":3034,"priv":3035,"nor":3036,"rights</w>":3037,"For":3038,"conomic</w>":3039,"2008</w>":3040,"Unies</w>":3041,"Mr</w>":3042,"ound</w>":3043,"chil":3044,"50</w>":3045,"ince</w>":3046,"aur":3047,"amment</w>":3048,"crimin":3049,"Union</w>":3050,"gestion</w>":3051,"Organ":3052,"well</w>":3053,"forc":3054,"Direc":3055,"out":3056,"spéci":3057,"ings</w>":3058,"nive":3059,"icy</w>":3060,"ates</w>":3061,"only</w>":3062,"ship</w>":3063,"important</w>":3064,"erc":3065,"He":3066,"inst":3067,"Mon":3068,"situation</w>":3069,"constitu":3070,"pur":3071,"ress</w>":3072,"sum":3073,"through</w>":3074,"shall</w>":3075,"vari":3076,"promo":3077,"there</w>":3078,"establis":3079,"ters</w>":3080,"Bo":3081,"auth":3082,"tat</w>":3083,"CO":3084,"partie</w>":3085,"pes</w>":3086,"ft</w>":3087,"omen</w>":3088,"bre":3089,"mul":3090,"health</w>":3091,"resul":3092,"esp":3093,"site</w>":3094,"Dans</w>":3095,"ause</w>":3096,"probl":3097,"eting</w>":3098,"fore</w>":3099,"plan</w>":3100,"ability</w>":3101,"18</w>":3102,"ôle</w>":3103,"mettre</w>":3104,"ementation</w>":3105,"follow":3106,"year</w>":3107,"lic":3108,"fois</w>":3109,"up</w>":3110,"viol":3111,"those</w>":3112,"possible</w>":3113,"20":3114,"ems</w>":3115,"tation</w>":3116,"ats</w>":3117,"Pl":3118,"ol</w>":3119,"matière</w>":3120,"actu":3121,"social</w>":3122,"dit</w>":3123,"25</w>":3124,"positions</w>":3125,"afin</w>":3126,"present":3127,"ison</w>":3128,"ER":3129,"analy":3130,"if</w>":3131,"under":3132,"On</w>":3133,"publique</w>":3134,"ption</w>":3135,"16</w>":3136,"mis</w>":3137,"général</w>":3138,"vities</w>":3139,"198":3140,"onnement</w>":3141,"pi":3142,"conditions</w>":3143,"rati":3144,"équ":3145,"system</w>":3146,"plu":3147,"istance</w>":3148,"dre":3149,"stand":3150,"not":3151,"ety</w>":3152,"budg":3153,"données</w>":3154,"soit</w>":3155,"No":3156,"particul":3157,"parties</w>":3158,"Europe</w>":3159,"fic</w>":3160,"very</w>":3161,"oi</w>":3162,"moy":3163,"day</w>":3164,"essi":3165,"ases</w>":3166,"atis":3167,"autor":3168,"auc":3169,"clar":3170,"appli":3171,"orig":3172,"try</w>":3173,"Wor":3174,"bien</w>":3175,"fied</w>":3176,"cro":3177,"nu":3178,"used</w>":3179,"tention</w>":3180,"èmes</w>":3181,"nombre</w>":3182,"ference</w>":3183,"était</w>":3184,"peop":3185,"moins</w>":3186,"International</w>":3187,"efforts</w>":3188,"ars</w>":3189,"nov":3190,"AR":3191,"entes</w>":3192,"about</w>":3193,"aines</w>":3194,"alité</w>":3195,"ateurs</w>":3196,"après</w>":3197,"ci</w>":3198,"gram</w>":3199,"bec":3200,"ears</w>":3201,"cid":3202,"ple</w>":3203,"sans</w>":3204,"tenir</w>":3205,"Man":3206,"Ã©":3207,"tain</w>":3208,"lin":3209,"jur":3210,"vue</w>":3211,"occu":3212,"compte</w>":3213,"ful":3214,"système</w>":3215,"Program":3216,"continu":3217,"II</w>":3218,"IC":3219,"vement</w>":3220,"On":3221,"conna":3222,"number</w>":3223,"résul":3224,"pouv":3225,"two</w>":3226,"over</w>":3227,"pose</w>":3228,"17</w>":3229,"change</w>":3230,"ali":3231,"ght</w>":3232,"ene":3233,"Fr":3234,"activities</w>":3235,"cus":3236,"ong":3237,"vers</w>":3238,"offici":3239,"prim":3240,"mark":3241,"concernant</w>":3242,"sig":3243,"recherche</w>":3244,"autre</w>":3245,"years</w>":3246,"oblig":3247,"Pour</w>":3248,"préc":3249,"pass":3250,"kno":3251,"19</w>":3252,"Act</w>":3253,"gar":3254,"produits</w>":3255,"consider":3256,"ille</w>":3257,"tice</w>":3258,"stu":3259,"aut</w>":3260,"within</w>":3261,"oire</w>":3262,"human</w>":3263,"femmes</w>":3264,"ors":3265,"meas":3266,"Minist":3267,"férence</w>":3268,"ech":3269,"demande</w>":3270,"financi":3271,"ever":3272,"agre":3273,"21</w>":3274,"où</w>":3275,"sé":3276,"El":3277,"Government</w>":3278,"where</w>":3279,"arge</w>":3280,"Dec":3281,"trav":3282,"ones</w>":3283,"respons":3284,"section</w>":3285,"seu":3286,"ressources</w>":3287,"provide</w>":3288,"low</w>":3289,"oris":3290,"règ":3291,"politique</w>":3292,"jour</w>":3293,"associ":3294,"enfants</w>":3295,"most</w>":3296,"modi":3297,"fav":3298,"don":3299,"lang":3300,"péri":3301,"ority</w>":3302,"terr":3303,"ellement</w>":3304,"appropri":3305,"ivent</w>":3306,"some</w>":3307,"Dev":3308,"tés</w>":3309,"financ":3310,"duction</w>":3311,"operation</w>":3312,"temp":3313,"abilité</w>":3314,"document</w>":3315,"Mo":3316,"Dé":3317,"31</w>":3318,"vidu":3319,"ge":3320,"respect</w>":3321,"his</w>":3322,"addi":3323,"Article</w>":3324,"œu":3325,"1999</w>":3326,"dra":3327,"répon":3328,"ext</w>":3329,"production</w>":3330,"lieu</w>":3331,"Ap":3332,"RE":3333,"territ":3334,"ww":3335,"différ":3336,"itation</w>":3337,"first</w>":3338,"ites</w>":3339,"requ":3340,"dren</w>":3341,"ta":3342,"iques</w>":3343,"grap":3344,"peuvent</w>":3345,"iter</w>":3346,"améli":3347,"establish":3348,"eso":3349,"fé":3350,"www</w>":3351,"population</w>":3352,"aci":3353,"étab":3354,"exerc":3355,"ément</w>":3356,"come</w>":3357,"people</w>":3358,"24</w>":3359,"toutes</w>":3360,"your</w>":3361,"notamment</w>":3362,"Sp":3363,"form</w>":3364,"gouvernement</w>":3365,"mod":3366,"ectr":3367,"maj":3368,"Pré":3369,"reau</w>":3370,"dr":3371,"ectu":3372,"ish":3373,"Office</w>":3374,"So":3375,"Commun":3376,"No</w>":3377,"Reg":3378,"politiques</w>":3379,"10":3380,"inté":3381,"curr":3382,"cent</w>":3383,"conform":3384,"indic":3385,"environ":3386,"IS":3387,"examin":3388,"individu":3389,"DE</w>":3390,"observ":3391,"État</w>":3392,"Secret":3393,"ulations</w>":3394,"We</w>":3395,"niveau</w>":3396,"truc":3397,"ile</w>":3398,"ail</w>":3399,"cli":3400,"rest":3401,"stratégi":3402,"générale</w>":3403,"derni":3404,"institutions</w>":3405,"mu":3406,"do</w>":3407,"doivent</w>":3408,"essus</w>":3409,"ca</w>":3410,"Nous</w>":3411,"exemp":3412,"process</w>":3413,"lée</w>":3414,"usin":3415,"ount</w>":3416,"when</w>":3417,"women</w>":3418,"anis":3419,"bun":3420,"investi":3421,"sci":3422,"tel</w>":3423,"ainst</w>":3424,"air</w>":3425,"State</w>":3426,"22</w>":3427,"beso":3428,"ater</w>":3429,"Po":3430,"cha":3431,"seignements</w>":3432,"rece":3433,"dy</w>":3434,"arr":3435,"level</w>":3436,"base</w>":3437,"policy</w>":3438,"aining</w>":3439,"management</w>":3440,"pay":3441,"cat":3442,"atif</w>":3443,"appu":3444,"accord":3445,"exper":3446,"avail":3447,"gration</w>":3448,"Fin":3449,"actions</w>":3450,"Is":3451,"Pu":3452,"personnel</w>":3453,"pério":3454,"Programme</w>":3455,"based</w>":3456,"internationale</w>":3457,"Gu":3458,"post":3459,"mani":3460,"effic":3461,"processus</w>":3462,"éch":3463,"following</w>":3464,"ently</w>":3465,"need</w>":3466,"ole</w>":3467,"ital</w>":3468,"era</w>":3469,"dam":3470,"being</w>":3471,"Wh":3472,"del":3473,"wn</w>":3474,"tors</w>":3475,"Af":3476,"sive</w>":3477,"EC":3478,"land</w>":3479,"Develop":3480,"hol":3481,"aboration</w>":3482,"ches</w>":3483,"sen":3484,"paragraphe</w>":3485,"secon":3486,"23</w>":3487,"hy":3488,"Per":3489,"way</w>":3490,"Li":3491,"Me":3492,"évaluation</w>":3493,"law</w>":3494,"economic</w>":3495,"take</w>":3496,"technologi":3497,"ui</w>":3498,"tob":3499,"comb":3500,"assu":3501,"Health</w>":3502,"eure</w>":3503,"provin":3504,"emble</w>":3505,"discus":3506,"them</w>":3507,"tenu</w>":3508,"minist":3509,"fur":3510,"provided</w>":3511,"mondi":3512,"minis":3513,"add":3514,"opération</w>":3515,"quer</w>":3516,"ack</w>":3517,"suc":3518,"tien</w>":3519,"many</w>":3520,"assistance</w>":3521,"eaux</w>":3522,"country</w>":3523,"facil":3524,"against</w>":3525,"vol":3526,"homme</w>":3527,"Ro":3528,"issues</w>":3529,"tique</w>":3530,"dre</w>":3531,"ended</w>":3532,"bles</w>":3533,"temps</w>":3534,"could</w>":3535,"agr":3536,"ateur</w>":3537,"déclar":3538,"suff":3539,"owever</w>":3540,"avant</w>":3541,"documents</w>":3542,"Fe":3543,"signi":3544,"avait</w>":3545,"puis</w>":3546,"ner":3547,"économique</w>":3548,"issance</w>":3549,"fourn":3550,"poin":3551,"dou":3552,"long</w>":3553,"As</w>":3554,"fric":3555,"right</w>":3556,"doll":3557,"participation</w>":3558,"Secré":3559,"exe</w>":3560,"européenne</w>":3561,"pa":3562,"ra</w>":3563,"For</w>":3564,"ensure</w>":3565,"exis":3566,"vie</w>":3567,"omm":3568,"techni":3569,"accep":3570,"az":3571,"igh</w>":3572,"prati":3573,"AC":3574,"charg":3575,"ide</w>":3576,"measures</w>":3577,"orer</w>":3578,"tis":3579,"civi":3580,"gro":3581,"ology</w>":3582,"conclu":3583,"annu":3584,"ATI":3585,"resolution</w>":3586,"procéd":3587,"sal":3588,"children</w>":3589,"aide</w>":3590,"TR":3591,"résolution</w>":3592,"government</w>":3593,"occup":3594,"implementation</w>":3595,"60</w>":3596,"détermin":3597,"Ontari":3598,"both</w>":3599,"sera</w>":3600,"ban":3601,"equ":3602,"sement</w>":3603,"net</w>":3604,"Ontario</w>":3605,"explo":3606,"each</w>":3607,"succ":3608,"Nor":3609,"during</w>":3610,"ful</w>":3611,"differ":3612,"bli":3613,"renseignements</w>":3614,"basi":3615,"Loi</w>":3616,"ext":3617,"40</w>":3618,"enef":3619,"forme</w>":3620,"ennes</w>":3621,"œuvre</w>":3622,"examen</w>":3623,"encour":3624,"Rec":3625,"nee":3626,"data</w>":3627,"26</w>":3628,"total</w>":3629,"ource</w>":3630,"har":3631,"Member</w>":3632,"OR":3633,"suite</w>":3634,"usiness</w>":3635,"parten":3636,"ign</w>":3637,"28</w>":3638,"National</w>":3639,"erg":3640,"available</w>":3641,"année</w>":3642,"résultats</w>":3643,"Development</w>":3644,"01</w>":3645,"ains</w>":3646,"relev":3647,"xim":3648,"professi":3649,"ef</w>":3650,"défin":3651,"ying</w>":3652,"represent":3653,"ization</w>":3654,"cir":3655,"toute</w>":3656,"consult":3657,"sol":3658,"ouver":3659,"medi":3660,"financial</w>":3661,"govern":3662,"orities</w>":3663,"ject</w>":3664,"équi":3665,"essenti":3666,"alisation</w>":3667,"tric":3668,"27</w>":3669,"loi</w>":3670,"29</w>":3671,"after</w>":3672,"ss</w>":3673,"graph":3674,"ple":3675,"veill":3676,"Col":3677,"CI":3678,"faç":3679,"subst":3680,"up":3681,"Dis":3682,"ution</w>":3683,"col":3684,"jou":3685,"research</w>":3686,"make</w>":3687,"médi":3688,"ariat</w>":3689,"importance</w>":3690,"glob":3691,"aid</w>":3692,"cet</w>":3693,"selon</w>":3694,"tural</w>":3695,"dollars</w>":3696,"Centre</w>":3697,"ient</w>":3698,"je</w>":3699,"itted</w>":3700,"très</w>":3701,"period</w>":3702,"secteur</w>":3703,"related</w>":3704,"case</w>":3705,"members</w>":3706,"Assembly</w>":3707,"ands</w>":3708,"trait":3709,"mor":3710,"table</w>":3711,"érieur</w>":3712,"clai":3713,"Im":3714,"op</w>":3715,"ial</w>":3716,"meeting</w>":3717,"oi":3718,"bunal</w>":3719,"act":3720,"cal":3721,"recommand":3722,"déf":3723,"security</w>":3724,"raient</w>":3725,"sor":3726,"ner</w>":3727,"pli":3728,"buil":3729,"partment</w>":3730,"aug":3731,"travail":3732,"work":3733,"line</w>":3734,"gs</w>":3735,"set</w>":3736,"budget</w>":3737,"toc":3738,"ich":3739,"Rap":3740,"ani":3741,"eures</w>":3742,"ission</w>":3743,"renforc":3744,"areas</w>":3745,"CE":3746,"décision</w>":3747,"instr":3748,"resources</w>":3749,"decision</w>":3750,"Cor":3751,"De</w>":3752,"tures</w>":3753,"fin</w>":3754,"organisations</w>":3755,"Assemblée</w>":3756,"islation</w>":3757,"reli":3758,"Ou":3759,"reven":3760,"18":3761,"suppl":3762,"discrimin":3763,"infr":3764,"coordin":3765,"assi":3766,"We":3767,"accès</w>":3768,"RO":3769,"mun":3770,"taken</w>":3771,"lui</w>":3772,"fédér":3773,"benef":3774,"taire</w>":3775,"expres":3776,"ving</w>":3777,"ning</w>":3778,"communi":3779,"Service</w>":3780,"ily</w>":3781,"dge</w>":3782,"invol":3783,"paragraph</w>":3784,"groupe</w>":3785,"Tri":3786,"100</w>":3787,"jours</w>":3788,"applic":3789,"Un</w>":3790,"tenti":3791,"bec</w>":3792,"community</w>":3793,"1998</w>":3794,"ament</w>":3795,"gen":3796,"over":3797,"AT":3798,"hab":3799,"établis":3800,"établi":3801,"Ce</w>":3802,"coopération</w>":3803,"mesure</w>":3804,"ls</w>":3805,"access</w>":3806,"four":3807,"exig":3808,"particular</w>":3809,"continue</w>":3810,"jet</w>":3811,"période</w>":3812,"demand":3813,"ame":3814,"tl":3815,"inf":3816,"multi":3817,"nec":3818,"adv":3819,"votre</w>":3820,"notre</w>":3821,"titre</w>":3822,"milit":3823,"Cette</w>":3824,"note</w>":3825,"Envir":3826,"IT":3827,"cription</w>":3828,"tern":3829,"fonctionn":3830,"tement</w>":3831,"façon</w>":3832,"sieurs</w>":3833,"Oc":3834,"appr":3835,"reas":3836,"construc":3837,"ai</w>":3838,"sm":3839,"sed</w>":3840,"origin":3841,"Une</w>":3842,"projets</w>":3843,"dies</w>":3844,"environnement</w>":3845,"entreprises</w>":3846,"missions</w>":3847,"distribu":3848,"vic":3849,"mal":3850,"see</w>":3851,"cin":3852,"ose</w>":3853,"AD":3854,"Services</w>":3855,"tiques</w>":3856,"det":3857,"art</w>":3858,"sep":3859,"further</w>":3860,"chaque</w>":3861,"som":3862,"lors":3863,"permet":3864,"deral</w>":3865,"type</w>":3866,"voy":3867,"prog":3868,"same</w>":3869,"ela</w>":3870,"determin":3871,"utilisation</w>":3872,"voir</w>":3873,"New</w>":3874,"quality</w>":3875,"xi":3876,"prév":3877,"training</w>":3878,"certain</w>":3879,"trois</w>":3880,"Groupe</w>":3881,"réuni":3882,"Bureau</w>":3883,"étr":3884,"organizations</w>":3885,"asp":3886,"fier</w>":3887,"Ab":3888,"necess":3889,"signific":3890,"Président</w>":3891,"fe</w>":3892,"President</w>":3893,"olutions</w>":3894,"entation</w>":3895,"onc":3896,"Se":3897,"ack":3898,"Organisation</w>":3899,"assurer</w>":3900,"om</w>":3901,"êt</w>":3902,"Br":3903,"rements</w>":3904,"iev":3905,"augment":3906,"fil":3907,"ural</w>":3908,"ectiv":3909,"particulier</w>":3910,"ections</w>":3911,"Group</w>":3912,"AI":3913,"quelle</w>":3914,"ôt</w>":3915,"administration</w>":3916,"atifs</w>":3917,"As":3918,"alim":3919,"dispositions</w>":3920,"pendant</w>":3921,"Institu":3922,"tiv":3923,"three</w>":3924,"ight</w>":3925,"Sy":3926,"emploi</w>":3927,"acts</w>":3928,"area</w>":3929,"assess":3930,"Pol":3931,"occ":3932,"ok</w>":3933,"practi":3934,"ensemble</w>":3935,"regional</w>":3936,"project</w>":3937,"ories</w>":3938,"je":3939,"hist":3940,"transport</w>":3941,"CE</w>":3942,"compris</w>":3943,"ved</w>":3944,"legal</w>":3945,"Secretary</w>":3946,"coû":3947,"communication</w>":3948,"exéc":3949,"own</w>":3950,"domaine</w>":3951,"flu":3952,"compét":3953,"initiatives</w>":3954,"required</w>":3955,"tic</w>":3956,"qué</w>":3957,"années</w>":3958,"prendre</w>":3959,"recommend":3960,"before</w>":3961,"met</w>":3962,"local</w>":3963,"organismes</w>":3964,"intér":3965,"personne</w>":3966,"égard</w>":3967,"Hum":3968,"Cour":3969,"Board</w>":3970,"13":3971,"andes</w>":3972,"ow</w>":3973,"what</w>":3974,"high":3975,"candi":3976,"avant":3977,"satis":3978,"devrait</w>":3979,"face</w>":3980,"Ces</w>":3981,"Trans":3982,"her":3983,"achiev":3984,"nationale</w>":3985,"ods</w>":3986,"éné":3987,"taux</w>":3988,"million</w>":3989,"informations</w>":3990,"communaut":3991,"hic":3992,"qualité</w>":3993,"ager</w>":3994,"thou":3995,"opport":3996,"exist":3997,"effective</w>":3998,"ish</w>":3999,"ais":4000,"force</w>":4001,"objectifs</w>":4002,"avi":4003,"régl":4004,"Jo":4005,"inte":4006,"vision</w>":4007,"potenti":4008,"dence</w>":4009,"ta</w>":4010,"ocrati":4011,"peti":4012,"there":4013,"relevant</w>":4014,"rais":4015,"encore</w>":4016,"bro":4017,"active</w>":4018,"tu</w>":4019,"perform":4020,"fy</w>":4021,"arly</w>":4022,"exemple</w>":4023,"ectron":4024,"ES":4025,"certains</w>":4026,"jud":4027,"htt":4028,"aff</w>":4029,"less</w>":4030,"centr":4031,"enci":4032,"èrement</w>":4033,"arri":4034,"exte</w>":4035,"os</w>":4036,"view":4037,"Afric":4038,"due</w>":4039,"http</w>":4040,"Si</w>":4041,"program</w>":4042,"of":4043,"marché</w>":4044,"société</w>":4045,"AL":4046,"Str":4047,"Gr":4048,"include</w>":4049,"sim":4050,"étaient</w>":4051,"issue</w>":4052,"expl":4053,"situ":4054,"versity</w>":4055,"Je</w>":4056,"ous":4057,"oph":4058,"possibil":4059,"ton</w>":4060,"Le":4061,"penses</w>":4062,"regul":4063,"auv":4064,"mater":4065,"atory</w>":4066,"efficac":4067,"fig":4068,"habit":4069,"trol</w>":4070,"zed</w>":4071,"sem":4072,"fications</w>":4073,"proced":4074,"To</w>":4075,"ven</w>":4076,"SI":4077,"clear</w>":4078,"education</w>":4079,"plusieurs</w>":4080,"soli":4081,"tradi":4082,"assur":4083,"ols</w>":4084,"times</w>":4085,"review</w>":4086,"dation</w>":4087,"étrang":4088,"Fo":4089,"ze</w>":4090,"cooperation</w>":4091,"impact</w>":4092,"saf":4093,"Ter":4094,"Pri":4095,"Des</w>":4096,"tab":4097,"rôle</w>":4098,"estim":4099,"high</w>":4100,"Minister</w>":4101,"person</w>":4102,"eption</w>":4103,"outh</w>":4104,"endant</w>":4105,"ten</w>":4106,"ordre</w>":4107,"tent</w>":4108,"cou":4109,"cos":4110,"egi":4111,"If</w>":4112,"groupes</w>":4113,"terroris":4114,"millions</w>":4115,"cel":4116,"market</w>":4117,"Au</w>":4118,"let":4119,"ental</w>":4120,"confl":4121,"specific</w>":4122,"Em":4123,"Tribunal</w>":4124,"then</w>":4125,"ête</w>":4126,"water</w>":4127,"business</w>":4128,"intro":4129,"dét":4130,"ennent</w>":4131,"depend":4132,"ples</w>":4133,"read":4134,"cam":4135,"lead":4136,"1997</w>":4137,"present</w>":4138,"déb":4139,"Secrétaire</w>":4140,"ature</w>":4141,"auté</w>":4142,"présent</w>":4143,"fonction</w>":4144,"nos</w>":4145,"subm":4146,"porting</w>":4147,"working</w>":4148,"effectu":4149,"like</w>":4150,"discrimination</w>":4151,"whe":4152,"02</w>":4153,"nég":4154,"prob":4155,"ights</w>":4156,"ayant</w>":4157,"necessary</w>":4158,"approv":4159,"defin":4160,"nouveau</w>":4161,"prior":4162,"ceux</w>":4163,"réalis":4164,"how</w>":4165,"Security</w>":4166,"wle":4167,"béné":4168,"région</w>":4169,"sis</w>":4170,"paix</w>":4171,"Speci":4172,"amend":4173,"receiv":4174,"atte":4175,"asse</w>":4176,"visant</w>":4177,"conven":4178,"eth":4179,"conformément</w>":4180,"now</w>":4181,"phy":4182,"vertu</w>":4183,"stain":4184,"Par</w>":4185,"travaux</w>":4186,"man</w>":4187,"tenant</w>":4188,"contain":4189,"fici":4190,"quement</w>":4191,"basis</w>":4192,"15":4193,"To":4194,"amework</w>":4195,"région":4196,"14":4197,"world</w>":4198,"manière</w>":4199,"sk":4200,"Republic</w>":4201,"ater":4202,"contrôle</w>":4203,"Unis</w>":4204,"nombre":4205,"ported</w>":4206,"sex":4207,"crit":4208,"appropriate</w>":4209,"long":4210,"key</w>":4211,"ality</w>":4212,"group</w>":4213,"acqu":4214,"di</w>":4215,"Bi":4216,"commerci":4217,"affaires</w>":4218,"relatives</w>":4219,"Human</w>":4220,"points</w>":4221,"because</w>":4222,"role</w>":4223,"ploy":4224,"cr":4225,"conduc":4226,"without</w>":4227,"Information</w>":4228,"donc</w>":4229,"avons</w>":4230,"appe":4231,"gc</w>":4232,"jeun":4233,"violence</w>":4234,"EM":4235,"page</w>":4236,"effet</w>":4237,"rée</w>":4238,"concerne</w>":4239,"large</w>":4240,"tran":4241,"Conference</w>":4242,"plans</w>":4243,"eld</w>":4244,"tics</w>":4245,"Department</w>":4246,"seront</w>":4247,"197":4248,"perman":4249,"ticles</w>":4250,"corpor":4251,"ask":4252,"République</w>":4253,"cau":4254,"general</w>":4255,"esses</w>":4256,"hal":4257,"fer</w>":4258,"conse":4259,"financement</w>":4260,"lign":4261,"Rights</w>":4262,"engag":4263,"onne</w>":4264,"Publi":4265,"clos":4266,"urg":4267,"draft</w>":4268,"requirements</w>":4269,"acy</w>":4270,"quel":4271,"install":4272,"fourni":4273,"EU</w>":4274,"UR":4275,"justice</w>":4276,"promotion</w>":4277,"05</w>":4278,"Parli":4279,"Nov":4280,"rés</w>":4281,"December</w>":4282,"AC</w>":4283,"AP":4284,"ilities</w>":4285,"human":4286,"nature</w>":4287,"eric":4288,"astruc":4289,"ass</w>":4290,"Parties</w>":4291,"participants</w>":4292,"future</w>":4293,"règlement</w>":4294,"03</w>":4295,"estin":4296,"17":4297,"présente</w>":4298,"Tra":4299,"lors</w>":4300,"04</w>":4301,"Agency</w>":4302,"ître</w>":4303,"Aff":4304,"nouvelles</w>":4305,"tion":4306,"inc":4307,"foc":4308,"does</w>":4309,"CR":4310,"Ban":4311,"rier</w>":4312,"sector</w>":4313,"2009</w>":4314,"quel</w>":4315,"needs</w>":4316,"trade</w>":4317,"Pe":4318,"There</w>":4319,"changes</w>":4320,"Public</w>":4321,"toch":4322,"considér":4323,"sug":4324,"UE</w>":4325,"xième</w>":4326,"among</w>":4327,"AS":4328,"depuis</w>":4329,"décembre</w>":4330,"care</w>":4331,"ins":4332,"cy":4333,"idi":4334,"VI":4335,"However</w>":4336,"besoins</w>":4337,"even</w>":4338,"results</w>":4339,"attention</w>":4340,"prises</w>":4341,"Associ":4342,"These</w>":4343,"porte</w>":4344,"évalu":4345,"ist</w>":4346,"mer</w>":4347,"established</w>":4348,"soient</w>":4349,"alog":4350,"première</w>":4351,"nom</w>":4352,"staff</w>":4353,"gener":4354,"rapports</w>":4355,"held</w>":4356,"side</w>":4357,"gouvernement":4358,"products</w>":4359,"groups</w>":4360,"avis</w>":4361,"enda</w>":4362,"difficul":4363,"trouv":4364,"1996</w>":4365,"reç":4366,"self</w>":4367,"Americ":4368,"laquelle</w>":4369,"ination</w>":4370,"political</w>":4371,"certi":4372,"regard</w>":4373,"conséqu":4374,"métho":4375,"tocht":4376,"uses</w>":4377,"monde</w>":4378,"élev":4379,"Environ":4380,"scienti":4381,"increase</w>":4382,"treat":4383,"tit":4384,"lut":4385,"Commis":4386,"Div":4387,"destin":4388,"knowle":4389,"term</w>":4390,"gé":4391,"improv":4392,"délég":4393,"polici":4394,"exclu":4395,"propri":4396,"16":4397,"tax":4398,"June</w>":4399,"persons</w>":4400,"arb":4401,"accord</w>":4402,"different</w>":4403,"adap":4404,"AL</w>":4405,"while</w>":4406,"ue":4407,"developing</w>":4408,"jusqu</w>":4409,"publ":4410,"06</w>":4411,"grow":4412,"streng":4413,"organisation</w>":4414,"abr":4415,"grande</w>":4416,"nes</w>":4417,"istes</w>":4418,"canadienne</w>":4419,"minim":4420,"prot":4421,"êts</w>":4422,"raison</w>":4423,"oration</w>":4424,"véri":4425,"Elle</w>":4426,"ately</w>":4427,"rédu":4428,"ogni":4429,"confi":4430,"ver</w>":4431,"OM":4432,"ators</w>":4433,"her</w>":4434,"adopted</w>":4435,"abo":4436,"radi":4437,"isc":4438,"cent":4439,"serve</w>":4440,"compar":4441,"coordination</w>":4442,"fix":4443,"ux</w>":4444,"prise</w>":4445,"Gouvern":4446,"life</w>":4447,"réc":4448,"log":4449,"langu":4450,"dent</w>":4451,"EC</w>":4452,"agne</w>":4453,"cases</w>":4454,"alogue</w>":4455,"since</w>":4456,"airs</w>":4457,"ition</w>":4458,"fonds</w>":4459,"issent</w>":4460,"interven":4461,"tim":4462,"construction</w>":4463,"IP":4464,"enqu":4465,"diver":4466,"35</w>":4467,"ade</w>":4468,"TH":4469,"problèmes</w>":4470,"poni":4471,"Cl":4472,"whether</w>":4473,"systems</w>":4474,"juin</w>":4475,"just":4476,"mois</w>":4477,"initiative</w>":4478,"tre":4479,"professionn":4480,"means</w>":4481,"porteur</w>":4482,"provisions</w>":4483,"ange</w>":4484,"original</w>":4485,"systèmes</w>":4486,"employe":4487,"ina</w>":4488,"mom":4489,"accordance</w>":4490,"ules</w>":4491,"premier</w>":4492,"lib":4493,"risk</w>":4494,"améliorer</w>":4495,"ussi":4496,"qua":4497,"eval":4498,"nam":4499,"cop":4500,"anim":4501,"Comp":4502,"given</w>":4503,"vou":4504,"experi":4505,"Web</w>":4506,"seulement</w>":4507,"Char":4508,"tly</w>":4509,"canadien</w>":4510,"employment</w>":4511,"innov":4512,"enh":4513,"issant</w>":4514,"obligations</w>":4515,"relations</w>":4516,"Des":4517,"juridi":4518,"encies</w>":4519,"current</w>":4520,"Indi":4521,"faut</w>":4522,"Fun":4523,"ha":4524,"istan</w>":4525,"nouveaux</w>":4526,"experts</w>":4527,"55</w>":4528,"contribution</w>":4529,"disponi":4530,"refl":4531,"ler</w>":4532,"Internet</w>":4533,"proper":4534,"outre</w>":4535,"ke":4536,"sujet</w>":4537,"commerce</w>":4538,"capacity</w>":4539,"ening</w>":4540,"ER</w>":4541,"exercice</w>":4542,"projects</w>":4543,"uring</w>":4544,"monit":4545,"savoir</w>":4546,"affir":4547,"help</w>":4548,"ste":4549,"Amend":4550,"Tou":4551,"ered</w>":4552,"gation</w>":4553,"ément":4554,"éducation</w>":4555,"ept":4556,"dée</w>":4557,"enreg":4558,"ii</w>":4559,"main</w>":4560,"design":4561,"my</w>":4562,"Program</w>":4563,"paration</w>":4564,"second</w>":4565,"dépenses</w>":4566,"caract":4567,"terme</w>":4568,"police</w>":4569,"oring</w>":4570,"judici":4571,"adoption</w>":4572,"oires</w>":4573,"gre":4574,"ministre</w>":4575,"chem":4576,"full</w>":4577,"ders</w>":4578,"état</w>":4579,"pow":4580,"uly</w>":4581,"considered</w>":4582,"ex</w>":4583,"proposed</w>":4584,"bri":4585,"gie</w>":4586,"oth":4587,"surveill":4588,"compli":4589,"tefois</w>":4590,"At</w>":4591,"Fir":4592,"Protoc":4593,"CH":4594,"Plan</w>":4595,"reign</w>":4596,"awa</w>":4597,"reques":4598,"using</w>":4599,"investiss":4600,"bur":4601,"fais":4602,"party</w>":4603,"médic":4604,"45</w>":4605,"étude</w>":4606,"subject</w>":4607,"Court</w>":4608,"control</w>":4609,"public":4610,"quali":4611,"Parliament</w>":4612,"migr":4613,"ords</w>":4614,"dép":4615,"tariat</w>":4616,"ort</w>":4617,"special</w>":4618,"IV</w>":4619,"egy</w>":4620,"bru":4621,"incid":4622,"Acc":4623,"larg":4624,"moyen</w>":4625,"result</w>":4626,"90</w>":4627,"traitement</w>":4628,"appui</w>":4629,"infrastruc":4630,"insp":4631,"example</w>":4632,"valeur</w>":4633,"tives</w>":4634,"environmental</w>":4635,"said</w>":4636,"manu":4637,"March</w>":4638,"ATION</w>":4639,"Mal":4640,"chez</w>":4641,"cause</w>":4642,"correspon":4643,"compos":4644,"ird</w>":4645,"strategi":4646,"global</w>":4647,"menti":4648,"Community</w>":4649,"nouvelle</w>":4650,"extr":4651,"Research</w>":4652,"ests</w>":4653,"Jan":4654,"cham":4655,"abs":4656,"net":4657,"alestin":4658,"prix</w>":4659,"pourrait</w>":4660,"ordonn":4661,"ized</w>":4662,"porter</w>":4663,"early</w>":4664,"major</w>":4665,"rend":4666,"bour":4667,"ligne</w>":4668,"80</w>":4669,"policies</w>":4670,"meill":4671,"Vi":4672,"iser</w>":4673,"contributions</w>":4674,"technologies</w>":4675,"mars</w>":4676,"func":4677,"études</w>":4678,"tochtones</w>":4679,"rent</w>":4680,"jà</w>":4681,"33</w>":4682,"Gouvernement</w>":4683,"iter":4684,"éléments</w>":4685,"expéri":4686,"amount</w>":4687,"formul":4688,"levels</w>":4689,"agricul":4690,"quent</w>":4691,"maxim":4692,"objet</w>":4693,"Minis":4694,"char":4695,"const":4696,"rir</w>":4697,"Code</w>":4698,"sein</w>":4699,"européen</w>":4700,"ict</w>":4701,"ering</w>":4702,"addition</w>":4703,"communications</w>":4704,"rate</w>":4705,"montant</w>":4706,"déjà</w>":4707,"med</w>":4708,"ograph":4709,"though</w>":4710,"ward</w>":4711,"ator</w>":4712,"certaines</w>":4713,"ths</w>":4714,"oy":4715,"tal":4716,"Sept":4717,"fique</w>":4718,"cle</w>":4719,"relative</w>":4720,"reports</w>":4721,"1995</w>":4722,"Association</w>":4723,"CC":4724,"ga":4725,"charge</w>":4726,"versité</w>":4727,"articles</w>":4728,"Parlement</w>":4729,"norm":4730,"humanit":4731,"nie</w>":4732,"lab":4733,"May</w>":4734,"Mme</w>":4735,"hen":4736,"dat</w>":4737,"méc":4738,"recogni":4739,"various</w>":4740,"activité</w>":4741,"member</w>":4742,"instruments</w>":4743,"grès</w>":4744,"provides</w>":4745,"aspects</w>":4746,"federal</w>":4747,"oci":4748,"deb":4749,"compe":4750,"joint</w>":4751,"First</w>":4752,"Ministère</w>":4753,"chi":4754,"quant</w>":4755,"standing</w>":4756,"collaboration</w>":4757,"esse</w>":4758,"fron":4759,"Management</w>":4760,"opini":4761,"approach</w>":4762,"account</w>":4763,"ends</w>":4764,"ological</w>":4765,"produit</w>":4766,"ène</w>":4767,"celle</w>":4768,"Qué":4769,"oms</w>":4770,"ense</w>":4771,"costs</w>":4772,"World</w>":4773,"quip":4774,"internationales</w>":4775,"refer":4776,"concentr":4777,"Ott":4778,"ws</w>":4779,"AM":4780,"uit</w>":4781,"obtenir</w>":4782,"ept</w>":4783,"illet</w>":4784,"aint</w>":4785,"September</w>":4786,"rése":4787,"Report</w>":4788,"ut</w>":4789,"hau":4790,"nécessaire</w>":4791,"techniques</w>":4792,"moment</w>":4793,"tif</w>":4794,"RC</w>":4795,"making</w>":4796,"agreement</w>":4797,"scho":4798,"pris</w>":4799,"developed</w>":4800,"ways</w>":4801,"sources</w>":4802,"bal":4803,"pre</w>":4804,"pén":4805,"Ottawa</w>":4806,"soutien</w>":4807,"programs</w>":4808,"candidat":4809,"vient</w>":4810,"Strat":4811,"six</w>":4812,"gues</w>":4813,"matéri":4814,"sites</w>":4815,"LE</w>":4816,"63</w>":4817,"Car":4818,"go</w>":4819,"ll</w>":4820,"environment</w>":4821,"opérations</w>":4822,"address</w>":4823,"effici":4824,"sibility</w>":4825,"jeunes</w>":4826,"sept":4827,"bel":4828,"culture</w>":4829,"Section</w>":4830,"dém":4831,"Doc":4832,"cultu":4833,"normes</w>":4834,"sustain":4835,"pratiques</w>":4836,"tem":4837,"regar":4838,"télé":4839,"bili":4840,"32</w>":4841,"invest":4842,"Québec</w>":4843,"septembre</w>":4844,"analyse</w>":4845,"framework</w>":4846,"ness</w>":4847,"aving</w>":4848,"fully</w>":4849,"AN</w>":4850,"les":4851,"Sub":4852,"dépend":4853,"cen":4854,"étant</w>":4855,"tern</w>":4856,"Jus":4857,"étudi":4858,"économiques</w>":4859,"tée</w>":4860,"version</w>":4861,"famili":4862,"quar":4863,"deli":4864,"industry</w>":4865,"tan":4866,"devraient</w>":4867,"fins</w>":4868,"Règ":4869,"ics</w>":4870,"cher</w>":4871,"ax":4872,"call":4873,"expos":4874,"celui</w>":4875,"nécessaires</w>":4876,"Conférence</w>":4877,"zone</w>":4878,"capacité</w>":4879,"nex</w>":4880,"Ob":4881,"Russi":4882,"centre</w>":4883,"distin":4884,"ici</w>":4885,"Bri":4886,"serait</w>":4887,"entreprise</w>":4888,"tings</w>":4889,"SO":4890,"Fon":4891,"ouse</w>":4892,"building</w>":4893,"tient</w>":4894,"transi":4895,"illes</w>":4896,"ril</w>":4897,"conserv":4898,"rique</w>":4899,"liv":4900,"attein":4901,"ix</w>":4902,"carri":4903,"appel":4904,"soins</w>":4905,"peu</w>":4906,"car</w>":4907,"ender</w>":4908,"liber":4909,"received</w>":4910,"US</w>":4911,"venir</w>":4912,"competi":4913,"knowledge</w>":4914,"57</w>":4915,"performance</w>":4916,"Sup":4917,"portant</w>":4918,"direct</w>":4919,"did</w>":4920,"France</w>":4921,"influ":4922,"auprès</w>":4923,"07</w>":4924,"ek</w>":4925,"unities</w>":4926,"integr":4927,"La":4928,"annexe</w>":4929,"half</w>":4930,"region</w>":4931,"commit":4932,"chall":4933,"good</w>":4934,"terms</w>":4935,"euxième</w>":4936,"ready</w>":4937,"Octob":4938,"70</w>":4939,"garanti":4940,"ners</w>":4941,"descri":4942,"ENT</w>":4943,"iste</w>":4944,"Agre":4945,"Date</w>":4946,"Division</w>":4947,"correc":4948,"July</w>":4949,"Apr":4950,"che":4951,"plann":4952,"everal</w>":4953,"établissement</w>":4954,"risque</w>":4955,"assessment</w>":4956,"recommandations</w>":4957,"above</w>":4958,"interest</w>":4959,"progress</w>":4960,"érique</w>":4961,"donné</w>":4962,"Memb":4963,"éco":4964,"types</w>":4965,"affec":4966,"avaient</w>":4967,"suffis":4968,"common</w>":4969,"Ko":4970,"dated</w>":4971,"enseign":4972,"Premi":4973,"euses</w>":4974,"SC</w>":4975,"jan":4976,"hé":4977,"dom</w>":4978,"moyens</w>":4979,"mondiale</w>":4980,"tification</w>":4981,"vidence</w>":4982,"vier</w>":4983,"Av":4984,"spe":4985,"April</w>":4986,"anci":4987,"ET</w>":4988,"tiz":4989,"effecti":4990,"forces</w>":4991,"consultations</w>":4992,"Eng":4993,"Economic</w>":4994,"therefore</w>":4995,"fre":4996,"Special</w>":4997,"fiques</w>":4998,"sion":4999,"gueur</w>":5000,"durable</w>":5001,"guid":5002,"field</w>":5003,"technical</w>":5004,"34</w>":5005,"tifs</w>":5006,"funding</w>":5007,"tels</w>":5008,"Social</w>":5009,"cost</w>":5010,"authorities</w>":5011,"création</w>":5012,"respec":5013,"Ho":5014,"fau":5015,"besoin</w>":5016,"réunion</w>":5017,"celles</w>":5018,"bénéfici":5019,"titul":5020,"structure</w>":5021,"October</w>":5022,"58</w>":5023,"oeu":5024,"itable</w>":5025,"small</w>":5026,"61</w>":5027,"deleg":5028,"EL":5029,"technology</w>":5030,"cit":5031,"décisions</w>":5032,"ry</w>":5033,"56</w>":5034,"vé":5035,"Inc</w>":5036,"child</w>":5037,"technique</w>":5038,"allow":5039,"lutte</w>":5040,"domaines</w>":5041,"pursu":5042,"ustr":5043,"mécanis":5044,"procédure</w>":5045,"co</w>":5046,"ST":5047,"direction</w>":5048,"elop</w>":5049,"capital</w>":5050,"effets</w>":5051,"èle</w>":5052,"rig":5053,"November</w>":5054,"prove</w>":5055,"ind":5056,"mai</w>":5057,"isse</w>":5058,"08</w>":5059,"juillet</w>":5060,"mi</w>":5061,"59</w>":5062,"industrie</w>":5063,"individual</w>":5064,"legislation</w>":5065,"exploitation</w>":5066,"Ma":5067,"ick</w>":5068,"avril</w>":5069,"Sel":5070,"etc</w>":5071,"Regi":5072,"Administr":5073,"pho":5074,"great":5075,"négoci":5076,"significant</w>":5077,"tées</w>":5078,"fact</w>":5079,"intérêt</w>":5080,"standards</w>":5081,"trou":5082,"put</w>":5083,"increased</w>":5084,"heures</w>":5085,"confir":5086,"octob":5087,"additional</w>":5088,"ref":5089,"Industr":5090,"preu":5091,"particularly</w>":5092,"lorsque</w>":5093,"octobre</w>":5094,"ni</w>":5095,"accoun":5096,"ping</w>":5097,"distribution</w>":5098,"solution</w>":5099,"recommendations</w>":5100,"set":5101,"value</w>":5102,"41</w>":5103,"dialogue</w>":5104,"environn":5105,"sociale</w>":5106,"super":5107,"grand</w>":5108,"vul":5109,"private</w>":5110,"élaboration</w>":5111,"Asi":5112,"Isra":5113,"reconna":5114,"Syst":5115,"placement</w>":5116,"bia</w>":5117,"found</w>":5118,"objectif</w>":5119,"econom":5120,"pati":5121,"lais</w>":5122,"jour":5123,"dang":5124,"simil":5125,"natu":5126,"atisti":5127,"They</w>":5128,"autom":5129,"Cont":5130,"suivi</w>":5131,"novembre</w>":5132,"uary</w>":5133,"souha":5134,"dire</w>":5135,"liste</w>":5136,"January</w>":5137,"tax</w>":5138,"fournir</w>":5139,"ule</w>":5140,"occa":5141,"Alber":5142,"rées</w>":5143,"36</w>":5144,"portation</w>":5145,"1994</w>":5146,"09</w>":5147,"appel</w>":5148,"37</w>":5149,"OF</w>":5150,"irs</w>":5151,"pertin":5152,"hand":5153,"Chil":5154,"renforcer</w>":5155,"study</w>":5156,"quels</w>":5157,"surveillance</w>":5158,"led</w>":5159,"fisc":5160,"included</w>":5161,"Tech":5162,"communities</w>":5163,"mech":5164,"nationales</w>":5165,"consultation</w>":5166,"food</w>":5167,"dépos":5168,"Other</w>":5169,"All</w>":5170,"fran":5171,"four</w>":5172,"déclaration</w>":5173,"UR</w>":5174,"Nouv":5175,"PO":5176,"Gre":5177,"sexu":5178,"75</w>":5179,"quanti":5180,"48</w>":5181,"alors</w>":5182,"transfer":5183,"vote</w>":5184,"beg":5185,"ei":5186,"DS</w>":5187,"lar":5188,"eted</w>":5189,"tel":5190,"autorités</w>":5191,"pouvoir</w>":5192,"44</w>":5193,"taking</w>":5194,"alestini":5195,"ails</w>":5196,"Ann":5197,"cell":5198,"démocrati":5199,"janvier</w>":5200,"impos":5201,"Rel":5202,"sw":5203,"ope</w>":5204,"anni":5205,"alités</w>":5206,"source</w>":5207,"org</w>":5208,"income</w>":5209,"oup</w>":5210,"ron":5211,"equip":5212,"régions</w>":5213,"reté</w>":5214,"agenda</w>":5215,"cela</w>":5216,"acces":5217,"éro</w>":5218,"bon</w>":5219,"migration</w>":5220,"light</w>":5221,"restric":5222,"avantage</w>":5223,"CON":5224,"formes</w>":5225,"armes</w>":5226,"ared</w>":5227,"beli":5228,"âce</w>":5229,"Govern":5230,"inten":5231,"aged</w>":5232,"communauté</w>":5233,"goods</w>":5234,"mari":5235,"attribu":5236,"ministère</w>":5237,"Afrique</w>":5238,"utive</w>":5239,"wards</w>":5240,"existing</w>":5241,"frais</w>":5242,"minu":5243,"wel":5244,"Tor":5245,"ked</w>":5246,"coûts</w>":5247,"final</w>":5248,"mieux</w>":5249,"jug":5250,"ti</w>":5251,"classi":5252,"itre</w>":5253,"bed</w>":5254,"fai":5255,"tenue</w>":5256,"croissance</w>":5257,"environnement":5258,"retur":5259,"Règlement</w>":5260,"rules</w>":5261,"aider</w>":5262,"éti":5263,"religi":5264,"grad":5265,"family</w>":5266,"39</w>":5267,"ake</w>":5268,"icip":5269,"nationaux</w>":5270,"Mission</w>":5271,"rég":5272,"représentants</w>":5273,"illi":5274,"growth</w>":5275,"id</w>":5276,"hô":5277,"pens":5278,"third</w>":5279,"organization</w>":5280,"ète</w>":5281,"concerned</w>":5282,"risques</w>":5283,"Ver":5284,"contact</w>":5285,"42</w>":5286,"ership</w>":5287,"espè":5288,"1er</w>":5289,"gy</w>":5290,"atoire</w>":5291,"develop</w>":5292,"prest":5293,"permis</w>":5294,"maladi":5295,"Cour</w>":5296,"protég":5297,"employés</w>":5298,"quelles</w>":5299,"lear":5300,"51</w>":5301,"cover":5302,"supplément":5303,"lat":5304,"Organization</w>":5305,"still</w>":5306,"til</w>":5307,"Agreement</w>":5308,"nership</w>":5309,"tot":5310,"autochtones</w>":5311,"goti":5312,"upon</w>":5313,"Working</w>":5314,"consum":5315,"facilit":5316,"pat":5317,"progrès</w>":5318,"ross</w>":5319,"rev":5320,"Tur":5321,"collectiv":5322,"last</w>":5323,"entaires</w>":5324,"pression</w>":5325,"quatre</w>":5326,"spécial</w>":5327,"clients</w>":5328,"ependant</w>":5329,"hui</w>":5330,"request</w>":5331,"property</w>":5332,"deuxième</w>":5333,"journ":5334,"submitted</w>":5335,"toujours</w>":5336,"aucoup</w>":5337,"électron":5338,"étés</w>":5339,"treatment</w>":5340,"isme</w>":5341,"Affairs</w>":5342,"Techn":5343,"sibles</w>":5344,"University</w>":5345,"éner":5346,"bie</w>":5347,"aucune</w>":5348,"Nord</w>":5349,"enir</w>":5350,"concerning</w>":5351,"chap":5352,"remain":5353,"ouvoir</w>":5354,"jourd</w>":5355,"better</w>":5356,"pap":5357,"safety</w>":5358,"catég":5359,"62</w>":5360,"transpar":5361,"iné":5362,"intention</w>":5363,"yer</w>":5364,"potential</w>":5365,"cultural</w>":5366,"audi":5367,"intéress":5368,"43</w>":5369,"society</w>":5370,"Table</w>":5371,"Bel":5372,"US":5373,"proposition</w>":5374,"free</w>":5375,"54</w>":5376,"trad":5377,"nal</w>":5378,"item</w>":5379,"duced</w>":5380,"best</w>":5381,"49</w>":5382,"ouvent</w>":5383,"préoccup":5384,"TS</w>":5385,"Cer":5386,"ran":5387,"just</w>":5388,"38</w>":5389,"several</w>":5390,"moder":5391,"directive</w>":5392,"trait</w>":5393,"ban</w>":5394,"poll":5395,"stratégie</w>":5396,"eria</w>":5397,"list</w>":5398,"gré</w>":5399,"improve</w>":5400,"stitution</w>":5401,"ablement</w>":5402,"bio":5403,"Africa</w>":5404,"font</w>":5405,"Contr":5406,"operations</w>":5407,"responsabilité</w>":5408,"ace":5409,"élimin":5410,"ssi":5411,"ailleurs</w>":5412,"tude</w>":5413,"San":5414,"demandes</w>":5415,"going</w>":5416,"ellectu":5417,"opinion</w>":5418,"proce":5419,"agencies</w>":5420,"tiers</w>":5421,"province</w>":5422,"mechanis":5423,"leau</w>":5424,"67</w>":5425,"ot</w>":5426,"Op":5427,"domesti":5428,"établir</w>":5429,"ationn":5430,"them":5431,"proch":5432,"thern</w>":5433,"PR":5434,"arch":5435,"ot":5436,"stoc":5437,"vigueur</w>":5438,"provincial</w>":5439,"etings</w>":5440,"rest</w>":5441,"aver":5442,"cinq</w>":5443,"denti":5444,"Canadians</w>":5445,"energy</w>":5446,"mandat</w>":5447,"responsible</w>":5448,"benefits</w>":5449,"AG":5450,"agit</w>":5451,"enting</w>":5452,"procédures</w>":5453,"objectives</w>":5454,"plani":5455,"dents</w>":5456,"principes</w>":5457,"Si":5458,"III</w>":5459,"previ":5460,"He</w>":5461,"noted</w>":5462,"civil</w>":5463,"Parti":5464,"pauv":5465,"five</w>":5466,"ond":5467,"tenus</w>":5468,"procedures</w>":5469,"52</w>":5470,"elines</w>":5471,"pê":5472,"Dem":5473,"appar":5474,"entaire</w>":5475,"Num":5476,"Que":5477,"centres</w>":5478,"mit</w>":5479,"gouvernements</w>":5480,"infrastructure</w>":5481,"hear":5482,"IM":5483,"least</w>":5484,"asse":5485,"docum":5486,"partir</w>":5487,"problems</w>":5488,"address":5489,"much</w>":5490,"suivre</w>":5491,"views</w>":5492,"CN</w>":5493,"promote</w>":5494,"already</w>":5495,"issions</w>":5496,"atic</w>":5497,"istry</w>":5498,"65</w>":5499,"ération</w>":5500,"ned</w>":5501,"revenu</w>":5502,"ève</w>":5503,"pan":5504,"syn":5505,"mer":5506,"Her":5507,"Regulations</w>":5508,"ships</w>":5509,"oeuvre</w>":5510,"peace</w>":5511,"populations</w>":5512,"language</w>":5513,"figur":5514,"citoy":5515,"ound":5516,"Air</w>":5517,"arrang":5518,"tection</w>":5519,"PRO":5520,"membre</w>":5521,"exi":5522,"comple":5523,"susp":5524,"fié</w>":5525,"Proc":5526,"dispos":5527,"12":5528,"déterminer</w>":5529,"state</w>":5530,"beaucoup</w>":5531,"PC":5532,"discussion</w>":5533,"itr":5534,"trim":5535,"venant</w>":5536,"den</w>":5537,"Action</w>":5538,"problème</w>":5539,"règles</w>":5540,"dical</w>":5541,"euse</w>":5542,"différents</w>":5543,"works</w>":5544,"nombreux</w>":5545,"cas":5546,"yl":5547,"poste</w>":5548,"calcul":5549,"join":5550,"érieure</w>":5551,"Aboriginal</w>":5552,"Treat":5553,"days</w>":5554,"erre</w>":5555,"intérieur</w>":5556,"however</w>":5557,"andis":5558,"targ":5559,"office</w>":5560,"Roy":5561,"Cu":5562,"consideration</w>":5563,"recru":5564,"Alberta</w>":5565,"ront</w>":5566,"forms</w>":5567,"fondam":5568,"500</w>":5569,"efficacité</w>":5570,"Ger":5571,"consist":5572,"Ms</w>":5573,"applicable</w>":5574,"zation</w>":5575,"here</w>":5576,"53</w>":5577,"disposition</w>":5578,"permettre</w>":5579,"providing</w>":5580,"meet</w>":5581,"Policy</w>":5582,"ût</w>":5583,"ège</w>":5584,"cust":5585,"administrative</w>":5586,"negoti":5587,"termes</w>":5588,"prévention</w>":5589,"Soci":5590,"EP":5591,"promouvoir</w>":5592,"95</w>":5593,"practices</w>":5594,"another</w>":5595,"resse</w>":5596,"activity</w>":5597,"comes</w>":5598,"propor":5599,"tered</w>":5600,"té":5601,"Joh":5602,"unity</w>":5603,"culturel":5604,"mic":5605,"response</w>":5606,"47</w>":5607,"issement</w>":5608,"mises</w>":5609,"Sal":5610,"Inv":5611,"EN</w>":5612,"rs</w>":5613,"An</w>":5614,"ht":5615,"COM":5616,"aison</w>":5617,"status</w>":5618,"Gen":5619,"agn":5620,"cum":5621,"donner</w>":5622,"analysis</w>":5623,"Rapport</w>":5624,"dru":5625,"biens</w>":5626,"capacités</w>":5627,"Add</w>":5628,"46</w>":5629,"course</w>":5630,"Por":5631,"souvent</w>":5632,"onto</w>":5633,"99</w>":5634,"Director</w>":5635,"tour":5636,"clé":5637,"alloc":5638,"involved</w>":5639,"famille</w>":5640,"secteurs</w>":5641,"iture</w>":5642,"changements</w>":5643,"séri":5644,"depart":5645,"enfant</w>":5646,"principal</w>":5647,"ously</w>":5648,"aliné":5649,"obligation</w>":5650,"effect</w>":5651,"ma</w>":5652,"Total</w>":5653,"DP</w>":5654,"commercial</w>":5655,"THE</w>":5656,"proposal</w>":5657,"exécution</w>":5658,"apply</w>":5659,"next</w>":5660,"limin":5661,"exigences</w>":5662,"ask</w>":5663,"harmon":5664,"With</w>":5665,"lish</w>":5666,"internationaux</w>":5667,"utiliser</w>":5668,"marchés</w>":5669,"ive</w>":5670,"CT":5671,"DI":5672,"distinc":5673,"exes</w>":5674,"régime</w>":5675,"iver</w>":5676,"économie</w>":5677,"meetings</w>":5678,"duce</w>":5679,"Canadiens</w>":5680,"Sci":5681,"référence</w>":5682,"niti":5683,"publication</w>":5684,"ills</w>":5685,"lent</w>":5686,"believ":5687,"ending</w>":5688,"provinces</w>":5689,"context</w>":5690,"Commission":5691,"approche</w>":5692,"concurr":5693,"égalité</w>":5694,"engagement</w>":5695,"1990</w>":5696,"considé":5697,"AS</w>":5698,"monitoring</w>":5699,"purpose</w>":5700,"partenaires</w>":5701,"aucun</w>":5702,"Initi":5703,"citiz":5704,"permanent</w>":5705,"particulièrement</w>":5706,"ST</w>":5707,"suivants</w>":5708,"bonne</w>":5709,"ll":5710,"existe</w>":5711,"sustainable</w>":5712,"environ</w>":5713,"ONU</w>":5714,"increas":5715,"examiner</w>":5716,"ecutive</w>":5717,"governmental</w>":5718,"Jap":5719,"enni":5720,"experience</w>":5721,"permet</w>":5722,"LA</w>":5723,"old</w>":5724,"decisions</w>":5725,"toge":5726,"IR":5727,"ury</w>":5728,"autoris":5729,"étro":5730,"intég":5731,"ak</w>":5732,"Colom":5733,"exten":5734,"together</w>":5735,"accro":5736,"sidence</w>":5737,"élec":5738,"regarding</w>":5739,"énergie</w>":5740,"devant</w>":5741,"réduire</w>":5742,"evidence</w>":5743,"substanti":5744,"second":5745,"Sh":5746,"Law</w>":5747,"Fonds</w>":5748,"offre</w>":5749,"ine":5750,"solutions</w>":5751,"provision</w>":5752,"établiss":5753,"Febru":5754,"NU":5755,"aste</w>":5756,"February</w>":5757,"délégation</w>":5758,"hon":5759,"manufac":5760,"Cam":5761,"mobil":5762,"equipment</w>":5763,"annual</w>":5764,"Trade</w>":5765,"issances</w>":5766,"assurance</w>":5767,"municip":5768,"responsibility</w>":5769,"relati":5770,"product</w>":5771,"lorsqu</w>":5772,"strategy</w>":5773,"aujourd</w>":5774,"technologie</w>":5775,"anies</w>":5776,"ath":5777,"absence</w>":5778,"poses</w>":5779,"neu":5780,"évrier</w>":5781,"foreign</w>":5782,"class":5783,"enter</w>":5784,"acte</w>":5785,"raft</w>":5786,"Ira":5787,"relation</w>":5788,"suit</w>":5789,"back</w>":5790,"approuv":5791,"New":5792,"législation</w>":5793,"dependent</w>":5794,"condu":5795,"Cro":5796,"wide</w>":5797,"ax</w>":5798,"64</w>":5799,"favoris":5800,"usion</w>":5801,"Fund</w>":5802,"Ir":5803,"Sum":5804,"édi":5805,"ane</w>":5806,"prét":5807,"oirs</w>":5808,"aun":5809,"Agence</w>":5810,"représentant</w>":5811,"Rapporteur</w>":5812,"unique</w>":5813,"condition</w>":5814,"metho":5815,"zones</w>":5816,"séance</w>":5817,"niveaux</w>":5818,"occasion</w>":5819,"expérience</w>":5820,"envis":5821,"ism</w>":5822,"territori":5823,"ville</w>":5824,"reporting</w>":5825,"relating</w>":5826,"arti":5827,"Fren":5828,"efficace</w>":5829,"ox":5830,"investment</w>":5831,"dits</w>":5832,"arian</w>":5833,"mon</w>":5834,"Aug":5835,"preuve</w>":5836,"AU":5837,"industri":5838,"plupart</w>":5839,"nuclé":5840,"Secretariat</w>":5841,"having</w>":5842,"enquête</w>":5843,"dernier</w>":5844,"essions</w>":5845,"mondial</w>":5846,"continued</w>":5847,"grav":5848,"législ":5849,"become</w>":5850,"domestic</w>":5851,"reported</w>":5852,"pil":5853,"conf":5854,"ettes</w>":5855,"substances</w>":5856,"persp":5857,"justi":5858,"dossi":5859,"agreed</w>":5860,"TION</w>":5861,"evaluation</w>":5862,"aï":5863,"véhic":5864,"phase</w>":5865,"ED</w>":5866,"éric":5867,"rates</w>":5868,"authority</w>":5869,"da</w>":5870,"Environment</w>":5871,"employees</w>":5872,"range</w>":5873,"février</w>":5874,"down</w>":5875,"sing</w>":5876,"grâce</w>":5877,"auteur</w>":5878,"ana</w>":5879,"lease</w>":5880,"test</w>":5881,"1993</w>":5882,"greater</w>":5883,"publics</w>":5884,"AND</w>":5885,"êtes</w>":5886,"tish</w>":5887,"men</w>":5888,"IC</w>":5889,"naturel":5890,"Employ":5891,"Cap":5892,"lik":5893,"especi":5894,"expected</w>":5895,"emerg":5896,"French</w>":5897,"months</w>":5898,"2010</w>":5899,"fédéral</w>":5900,"financière</w>":5901,"li</w>":5902,"tained</w>":5903,"accue":5904,"Toronto</w>":5905,"consider</w>":5906,"agents</w>":5907,"commission</w>":5908,"réserv":5909,"territoire</w>":5910,"désign":5911,"especially</w>":5912,"texte</w>":5913,"planning</w>":5914,"augmentation</w>":5915,"réduction</w>":5916,"regis":5917,"she</w>":5918,"agent</w>":5919,"ind</w>":5920,"élection</w>":5921,"conflict</w>":5922,"every</w>":5923,"cannot</w>":5924,"Comme</w>":5925,"vehic":5926,"ONS</w>":5927,"ador</w>":5928,"dix</w>":5929,"court</w>":5930,"give</w>":5931,"identified</w>":5932,"adopté</w>":5933,"soulign":5934,"crime</w>":5935,"veness</w>":5936,"lish":5937,"lit</w>":5938,"seri":5939,"précéd":5940,"com</w>":5941,"Santé</w>":5942,"diction</w>":5943,"vey</w>":5944,"once</w>":5945,"principe</w>":5946,"effects</w>":5947,"instruc":5948,"file</w>":5949,"personal</w>":5950,"recours</w>":5951,"attach":5952,"200</w>":5953,"applications</w>":5954,"lit":5955,"voie</w>":5956,"66</w>":5957,"pratique</w>":5958,"Ge":5959,"entu":5960,"Be":5961,"funds</w>":5962,"Women</w>":5963,"actuellement</w>":5964,"ground</w>":5965,"clim":5966,"towards</w>":5967,"dées</w>":5968,"military</w>":5969,"licence</w>":5970,"acting</w>":5971,"susc":5972,"former</w>":5973,"Fi":5974,"rac":5975,"minimum</w>":5976,"ailed</w>":5977,"propriété</w>":5978,"statisti":5979,"Ils</w>":5980,"PS":5981,"recent</w>":5982,"Atl":5983,"aging</w>":5984,"challeng":5985,"dés":5986,"representatives</w>":5987,"tend":5988,"1992</w>":5989,"obst":5990,"Rev":5991,"British</w>":5992,"lanc":5993,"sugges":5994,"Lu":5995,"South</w>":5996,"73</w>":5997,"décid":5998,"faveur</w>":5999,"davantage</w>":6000,"PD":6001,"observations</w>":6002,"focus</w>":6003,"plain":6004,"referred</w>":6005,"cô":6006,"IL":6007,"origine</w>":6008,"reser":6009,"rè":6010,"rapp":6011,"ere":6012,"consac":6013,"intellectu":6014,"hommes</w>":6015,"paragraph":6016,"secré":6017,"Treaty</w>":6018,"principles</w>":6019,"Commissioner</w>":6020,"Cri":6021,"guar":6022,"divers</w>":6023,"GR":6024,"telles</w>":6025,"positive</w>":6026,"often</w>":6027,"Corpor":6028,"quelques</w>":6029,"nav":6030,"chac":6031,"representative</w>":6032,"pourraient</w>":6033,"altern":6034,"mess":6035,"nécessité</w>":6036,"option</w>":6037,"tled</w>":6038,"sociaux</w>":6039,"tox":6040,"oung</w>":6041,"ateral</w>":6042,"conclusions</w>":6043,"paid</w>":6044,"humaines</w>":6045,"lem</w>":6046,"comité</w>":6047,"inter</w>":6048,"opportunities</w>":6049,"pris":6050,"telle</w>":6051,"alized</w>":6052,"AP</w>":6053,"ably</w>":6054,"enseignement</w>":6055,"ur</w>":6056,"situations</w>":6057,"procedure</w>":6058,"ide":6059,"icer</w>":6060,"PL":6061,"Mc":6062,"compens":6063,"DES</w>":6064,"hensive</w>":6065,"across</w>":6066,"benefit</w>":6067,"dri":6068,"sommes</w>":6069,"planification</w>":6070,"fondament":6071,"Gl":6072,"Sask":6073,"élic":6074,"indépend":6075,"importante</w>":6076,"trices</w>":6077,"possibilité</w>":6078,"traite</w>":6079,"fabr":6080,"concl":6081,"97</w>":6082,"98</w>":6083,"vise</w>":6084,"va</w>":6085,"marchandis":6086,"purposes</w>":6087,"Force</w>":6088,"abilities</w>":6089,"Sud</w>":6090,"parl":6091,"adequ":6092,"milieu</w>":6093,"aill":6094,"eront</w>":6095,"laration</w>":6096,"contexte</w>":6097,"lands</w>":6098,"Ren":6099,"Val":6100,"natural</w>":6101,"traî":6102,"atch":6103,"awar":6104,"satisfac":6105,"agreements</w>":6106,"anced</w>":6107,"ao":6108,"volon":6109,"bureau</w>":6110,"partners</w>":6111,"franç":6112,"Dr</w>":6113,"maintien</w>":6114,"77</w>":6115,"parents</w>":6116,"Protection</w>":6117,"compétences</w>":6118,"practice</w>":6119,"head":6120,"Ne":6121,"Toutefois</w>":6122,"quoi</w>":6123,"tra</w>":6124,"ease</w>":6125,"agric":6126,"Description</w>":6127,"alization</w>":6128,"statement</w>":6129,"CAN":6130,"pay</w>":6131,"FC</w>":6132,"off</w>":6133,"NO":6134,"name</w>":6135,"dy":6136,"below</w>":6137,"gender</w>":6138,"innovation</w>":6139,"Justice</w>":6140,"équip":6141,"réseau</w>":6142,"touch":6143,"président</w>":6144,"civile</w>":6145,"viv":6146,"mont":6147,"juridique</w>":6148,"official</w>":6149,"ah":6150,"vely</w>":6151,"visory</w>":6152,"aurait</w>":6153,"alinéa</w>":6154,"canadiennes</w>":6155,"Mad":6156,"Sur":6157,"créer</w>":6158,"Pers":6159,"méthodes</w>":6160,"Cham":6161,"Institute</w>":6162,"lack</w>":6163,"répondre</w>":6164,"prepar":6165,"tempor":6166,"Chair":6167,"matter</w>":6168,"admis":6169,"fond":6170,"96</w>":6171,"vos</w>":6172,"réponse</w>":6173,"verty</w>":6174,"accomp":6175,"différentes</w>":6176,"charac":6177,"Appl":6178,"fonctions</w>":6179,"tôt</w>":6180,"reference</w>":6181,"principaux</w>":6182,"qués</w>":6183,"maximum</w>":6184,"intervention</w>":6185,"rej":6186,"August</w>":6187,"1991</w>":6188,"open</w>":6189,"contrô":6190,"Sou":6191,"might</w>":6192,"needed</w>":6193,"excell":6194,"ested</w>":6195,"présenté</w>":6196,"Afgh":6197,"ert</w>":6198,"individuals</w>":6199,"ritanni":6200,"Vous</w>":6201,"toral</w>":6202,"améric":6203,"Yu":6204,"liés</w>":6205,"behalf</w>":6206,"ming</w>":6207,"limited</w>":6208,"Forum</w>":6209,"phys":6210,"durée</w>":6211,"indiqué</w>":6212,"African</w>":6213,"includes</w>":6214,"maintenant</w>":6215,"either</w>":6216,"amin":6217,"directement</w>":6218,"parce</w>":6219,"demandé</w>":6220,"aborer</w>":6221,"placed</w>":6222,"priority</w>":6223,"enz":6224,"85</w>":6225,"PE</w>":6226,"Agr":6227,"rendement</w>":6228,"sym":6229,"613</w>":6230,"montr":6231,"responsabil":6232,"prévo":6233,"instrument</w>":6234,"stre":6235,"itu":6236,"Rep":6237,"Bul":6238,"nations</w>":6239,"sau":6240,"isième</w>":6241,"remo":6242,"limit":6243,"Quebec</w>":6244,"show":6245,"concern</w>":6246,"consoli":6247,"anglais</w>":6248,"Annex</w>":6249,"bodies</w>":6250,"échelle</w>":6251,"marchandises</w>":6252,"school</w>":6253,"success":6254,"ize</w>":6255,"allow</w>":6256,"réunions</w>":6257,"What</w>":6258,"sing":6259,"renforcement</w>":6260,"institution</w>":6261,"entraî":6262,"ectively</w>":6263,"mentionn":6264,"English</w>":6265,"dés</w>":6266,"intégr":6267,"suivant</w>":6268,"discussions</w>":6269,"ff</w>":6270,"relatifs</w>":6271,"tionnels</w>":6272,"past</w>":6273,"transition</w>":6274,"rendre</w>":6275,"dex</w>":6276,"univers":6277,"priorités</w>":6278,"central</w>":6279,"Non</w>":6280,"eries</w>":6281,"intérêts</w>":6282,"visi":6283,"Secrétariat</w>":6284,"Yor":6285,"suivantes</w>":6286,"commenc":6287,"requested</w>":6288,"AD</w>":6289,"conférence</w>":6290,"68</w>":6291,"enregist":6292,"power</w>":6293,"associated</w>":6294,"présenter</w>":6295,"sens</w>":6296,"cipl":6297,"companies</w>":6298,"problem</w>":6299,"North</w>":6300,"fish":6301,"ier</w>":6302,"itob":6303,"elec":6304,"higher</w>":6305,"importants</w>":6306,"prépar":6307,"financières</w>":6308,"libre</w>":6309,"opportunity</w>":6310,"AB":6311,"eness</w>":6312,"suffici":6313,"def":6314,"holders</w>":6315,"guli":6316,"ard":6317,"compon":6318,"Paci":6319,"orie</w>":6320,"ick":6321,"combin":6322,"août</w>":6323,"ologie</w>":6324,"atistics</w>":6325,"haut</w>":6326,"changement</w>":6327,"postes</w>":6328,"intégration</w>":6329,"alia</w>":6330,"compre":6331,"mary</w>":6332,"lois</w>":6333,"communautaire</w>":6334,"Atlanti":6335,"crit</w>":6336,"pt</w>":6337,"amélioration</w>":6338,"contained</w>":6339,"called</w>":6340,"species</w>":6341,"connaissances</w>":6342,"lequel</w>":6343,"vérification</w>":6344,"HIV</w>":6345,"mus":6346,"Lors":6347,"today</w>":6348,"avanc":6349,"Amérique</w>":6350,"Ph":6351,"94</w>":6352,"others</w>":6353,"Consul":6354,"Fur":6355,"AR</w>":6356,"facteurs</w>":6357,"régional</w>":6358,"free":6359,"text</w>":6360,"mark</w>":6361,"body</w>":6362,"cru":6363,"Bank</w>":6364,"workers</w>":6365,"valeurs</w>":6366,"sociétés</w>":6367,"space</w>":6368,"caractér":6369,"veu":6370,"financiers</w>":6371,"ré</w>":6372,"lem":6373,"iti":6374,"currently</w>":6375,"surance</w>":6376,"PA</w>":6377,"post</w>":6378,"travailleurs</w>":6379,"circul":6380,"Mex":6381,"Manitob":6382,"onnes</w>":6383,"York</w>":6384,"matériel</w>":6385,"hu":6386,"ologiques</w>":6387,"directeur</w>":6388,"capit":6389,"rel</w>":6390,"agriculture</w>":6391,"directly</w>":6392,"EF</w>":6393,"diffusion</w>":6394,"juris":6395,"sl":6396,"That</w>":6397,"ond</w>":6398,"ligh":6399,"outi":6400,"den":6401,"constitue</w>":6402,"issued</w>":6403,"When</w>":6404,"Federal</w>":6405,"oles</w>":6406,"elling</w>":6407,"aux":6408,"privé</w>":6409,"Ci":6410,"mé</w>":6411,"QU":6412,"obstac":6413,"establishment</w>":6414,"find</w>":6415,"ery</w>":6416,"forcement</w>":6417,"ling</w>":6418,"hile</w>":6419,"olume</w>":6420,"accords</w>":6421,"ym":6422,"gouvernementales</w>":6423,"histori":6424,"commitment</w>":6425,"recev":6426,"hib":6427,"broad":6428,"sidents</w>":6429,"exprim":6430,"diverses</w>":6431,"pauvreté</w>":6432,"Manitoba</w>":6433,"istiques</w>":6434,"ep</w>":6435,"réguli":6436,"91</w>":6437,"atti":6438,"participer</w>":6439,"ID":6440,"critères</w>":6441,"physi":6442,"sieur</w>":6443,"lez</w>":6444,"ped</w>":6445,"One</w>":6446,"establish</w>":6447,"stances</w>":6448,"ival":6449,"ior</w>":6450,"esting</w>":6451,"PM":6452,"company</w>":6453,"liées</w>":6454,"manif":6455,"ologique</w>":6456,"atique</w>":6457,"mag":6458,"approved</w>":6459,"known</w>":6460,"road</w>":6461,"émissions</w>":6462,"début</w>":6463,"ically</w>":6464,"tex":6465,"etary</w>":6466,"rapid":6467,"92</w>":6468,"regulations</w>":6469,"complete</w>":6470,"Direction</w>":6471,"Oper":6472,"ante":6473,"relation":6474,"Territ":6475,"évaluer</w>":6476,"standard</w>":6477,"débat</w>":6478,"équipe</w>":6479,"Constitution</w>":6480,"énonc":6481,"American</w>":6482,"ake":6483,"until</w>":6484,"éro":6485,"contrat</w>":6486,"agers</w>":6487,"propositions</w>":6488,"88</w>":6489,"bor":6490,"oned</w>":6491,"signed</w>":6492,"pursuant</w>":6493,"Stand":6494,"strategic</w>":6495,"ood</w>":6496,"od":6497,"dimen":6498,"pared</w>":6499,"St</w>":6500,"migrants</w>":6501,"icile</w>":6502,"disponibles</w>":6503,"aise</w>":6504,"thé":6505,"effort</w>":6506,"demon":6507,"cherch":6508,"traité</w>":6509,"citoyens</w>":6510,"dit":6511,"Accor":6512,"Executive</w>":6513,"asu":6514,"code</w>":6515,"comment</w>":6516,"land":6517,"ît</w>":6518,"facilities</w>":6519,"publish":6520,"AT</w>":6521,"expli":6522,"rural</w>":6523,"Saint</w>":6524,"discipl":6525,"centage</w>":6526,"faits</w>":6527,"flexi":6528,"réserve</w>":6529,"While</w>":6530,"studies</w>":6531,"media</w>":6532,"oul":6533,"publiques</w>":6534,"hor":6535,"consom":6536,"adul":6537,"avantages</w>":6538,"faisant</w>":6539,"ectives</w>":6540,"PS</w>":6541,"Directive</w>":6542,"know</w>":6543,"étaire</w>":6544,"dings</w>":6545,"eping</w>":6546,"organisme</w>":6547,"établi</w>":6548,"dule</w>":6549,"material</w>":6550,"incorpor":6551,"69</w>":6552,"réglement":6553,"PI</w>":6554,"DU</w>":6555,"électronique</w>":6556,"ethni":6557,"bility</w>":6558,"similar</w>":6559,"victimes</w>":6560,"ided</w>":6561,"félic":6562,"mation</w>":6563,"tré":6564,"ives</w>":6565,"likely</w>":6566,"sure</w>":6567,"America</w>":6568,"done</w>":6569,"SC":6570,"Regulation</w>":6571,"72</w>":6572,"Mill":6573,"sanc":6574,"durant</w>":6575,"Ministry</w>":6576,"entitled</w>":6577,"Selon</w>":6578,"presented</w>":6579,"Note</w>":6580,"categ":6581,"sû":6582,"actes</w>":6583,"Mus":6584,"Del":6585,"lande</w>":6586,"carried</w>":6587,"certific":6588,"mandate</w>":6589,"You</w>":6590,"eter</w>":6591,"DC</w>":6592,"Chap":6593,"Poli":6594,"traff":6595,"TO</w>":6596,"ops</w>":6597,"Monsieur</w>":6598,"ède</w>":6599,"ect":6600,"investig":6601,"dipl":6602,"challenges</w>":6603,"itaires</w>":6604,"parts</w>":6605,"aéri":6606,"adress":6607,"bilities</w>":6608,"canc":6609,"Party</w>":6610,"nuclear</w>":6611,"hér":6612,"mêmes</w>":6613,"processes</w>":6614,"langue</w>":6615,"ys</w>":6616,"comprehensive</w>":6617,"ened</w>":6618,"Vo":6619,"bes</w>":6620,"Project</w>":6621,"modifications</w>":6622,"ials</w>":6623,"langues</w>":6624,"labour</w>":6625,"aille</w>":6626,"ectronic</w>":6627,"Sen":6628,"few</w>":6629,"nombreuses</w>":6630,"bas":6631,"opérationn":6632,"essential</w>":6633,"conservation</w>":6634,"aries</w>":6635,"sensibil":6636,"ingly</w>":6637,"zer":6638,"previous</w>":6639,"Ste":6640,"states</w>":6641,"ocratic</w>":6642,"permettant</w>":6643,"Ital":6644,"sch":6645,"Pan":6646,"UL":6647,"étap":6648,"trouver</w>":6649,"far</w>":6650,"inqui":6651,"Bur":6652,"Austr":6653,"onom":6654,"dernières</w>":6655,"Iraq</w>":6656,"strength":6657,"Stu":6658,"dernière</w>":6659,"provis":6660,"mak":6661,"tin</w>":6662,"supplémentaires</w>":6663,"mécanismes</w>":6664,"dig":6665,"dus</w>":6666,"implement</w>":6667,"union</w>":6668,"EX":6669,"âge</w>":6670,"sorte</w>":6671,"CF":6672,"ink</w>":6673,"réglementation</w>":6674,"design</w>":6675,"young</w>":6676,"rit</w>":6677,"reçu</w>":6678,"refu":6679,"tionnel</w>":6680,"ritannique</w>":6681,"quo":6682,"addressed</w>":6683,"notes</w>":6684,"follow</w>":6685,"valuation</w>":6686,"Colum":6687,"OS":6688,"sam":6689,"constat":6690,"intitul":6691,"stratégique</w>":6692,"conseil</w>":6693,"modèle</w>":6694,"poverty</w>":6695,"Protocol</w>":6696,"ouver</w>":6697,"embl":6698,"bass":6699,"home</w>":6700,"provinci":6701,"incl":6702,"AIDS</w>":6703,"Auth":6704,"Déclar":6705,"bul":6706,"ply</w>":6707,"cris":6708,"chim":6709,"terrorisme</w>":6710,"itaire</w>":6711,"encourage</w>":6712,"consid":6713,"share</w>":6714,"quées</w>":6715,"emph":6716,"ministères</w>":6717,"consomm":6718,"Or</w>":6719,"Produc":6720,"93</w>":6721,"gible</w>":6722,"ewan</w>":6723,"reduce</w>":6724,"expressed</w>":6725,"réalisation</w>":6726,"epti":6727,"ac</w>":6728,"single</w>":6729,"economy</w>":6730,"circum":6731,"trice</w>":6732,"thing</w>":6733,"Administration</w>":6734,"SE":6735,"Saskatch":6736,"extern":6737,"ajou":6738,"require</w>":6739,"Cela</w>":6740,"Saskatchewan</w>":6741,"compliance</w>":6742,"great</w>":6743,"univer":6744,"sibilities</w>":6745,"lines</w>":6746,"ording</w>":6747,"Brun":6748,"canadiens</w>":6749,"ained</w>":6750,"avez</w>":6751,"reconn":6752,"entrée</w>":6753,"aj":6754,"existence</w>":6755,"conclusion</w>":6756,"understanding</w>":6757,"overall</w>":6758,"ley</w>":6759,"bilité</w>":6760,"mail</w>":6761,"relatif</w>":6762,"tance</w>":6763,"proposals</w>":6764,"bat":6765,"factors</w>":6766,"tle</w>":6767,"ml</w>":6768,"room</w>":6769,"itage</w>":6770,"coût</w>":6771,"aments</w>":6772,"coordonn":6773,"erait</w>":6774,"Colombie</w>":6775,"agno":6776,"close</w>":6777,"hold</w>":6778,"play</w>":6779,"consommat":6780,"victi":6781,"objective</w>":6782,"arrangements</w>":6783,"around</w>":6784,"CM":6785,"amélior":6786,"regions</w>":6787,"violations</w>":6788,"erci":6789,"authori":6790,"Membres</w>":6791,"espèces</w>":6792,"Review</w>":6793,"erie</w>":6794,"phone</w>":6795,"stratégies</w>":6796,"éder</w>":6797,"28":6798,"quée</w>":6799,"DA</w>":6800,"conséquent</w>":6801,"concerns</w>":6802,"pied</w>":6803,"IT</w>":6804,"John</w>":6805,"commun</w>":6806,"appliquer</w>":6807,"bres</w>":6808,"UNIC":6809,"fying</w>":6810,"avenir</w>":6811,"reste</w>":6812,"ventions</w>":6813,"ruption</w>":6814,"responsable</w>":6815,"établissements</w>":6816,"partement</w>":6817,"pul":6818,"urgence</w>":6819,"organes</w>":6820,"fonctionnement</w>":6821,"achieve</w>":6822,"Accord</w>":6823,"satisfaction</w>":6824,"Mac":6825,"Part</w>":6826,"delegation</w>":6827,"spécialis":6828,"chargé</w>":6829,"eté</w>":6830,"micro":6831,"prepared</w>":6832,"estern</w>":6833,"Resources</w>":6834,"lor":6835,"71</w>":6836,"expend":6837,"play":6838,"keeping</w>":6839,"Prop":6840,"King":6841,"took</w>":6842,"Afghan":6843,"structures</w>":6844,"Forces</w>":6845,"Prov":6846,"parmi</w>":6847,"expression</w>":6848,"ghout</w>":6849,"get</w>":6850,"trouve</w>":6851,"emented</w>":6852,"shar":6853,"troisième</w>":6854,"pren":6855,"Ju":6856,"principle</w>":6857,"Cal":6858,"PC</w>":6859,"investissement</w>":6860,"options</w>":6861,"Afghanistan</w>":6862,"integration</w>":6863,"fugi":6864,"Ber":6865,"78</w>":6866,"average</w>":6867,"according</w>":6868,"rea</w>":6869,"OR</w>":6870,"Palestini":6871,"sel</w>":6872,"ised</w>":6873,"committee</w>":6874,"Centr":6875,"AF":6876,"tory</w>":6877,"conducted</w>":6878,"location</w>":6879,"war":6880,"than":6881,"cycle</w>":6882,"dessus</w>":6883,"High</w>":6884,"Amendment</w>":6885,"guarante":6886,"possibilités</w>":6887,"orité</w>":6888,"Budg":6889,"financier</w>":6890,"Environmental</w>":6891,"tâ":6892,"matters</w>":6893,"protéger</w>":6894,"CS":6895,"reduction</w>":6896,"ensus</w>":6897,"prevention</w>":6898,"là</w>":6899,"Chi":6900,"real</w>":6901,"Eff":6902,"lead</w>":6903,"aches</w>":6904,"laun":6905,"chef</w>":6906,"vente</w>":6907,"liberté</w>":6908,"istration</w>":6909,"OT":6910,"strategies</w>":6911,"Respon":6912,"responsables</w>":6913,"VIH</w>":6914,"designed</w>":6915,"compet":6916,"fronti":6917,"via</w>":6918,"atteindre</w>":6919,"internal</w>":6920,"demn":6921,"orient":6922,"élevé</w>":6923,"installations</w>":6924,"communautés</w>":6925,"exchange</w>":6926,"transfer</w>":6927,"protoc":6928,"tom":6929,"prévoit</w>":6930,"applied</w>":6931,"excep":6932,"pres</w>":6933,"Repres":6934,"rue</w>":6935,"basic</w>":6936,"apport":6937,"Leg":6938,"emment</w>":6939,"stake":6940,"déla":6941,"weap":6942,"aura</w>":6943,"citizens</w>":6944,"user</w>":6945,"modifi":6946,"aster</w>":6947,"DI</w>":6948,"UN</w>":6949,"défense</w>":6950,"peace":6951,"coming</w>":6952,"criteria</w>":6953,"itures</w>":6954,"anted</w>":6955,"Déclaration</w>":6956,"76</w>":6957,"Slo":6958,"ême</w>":6959,"érieures</w>":6960,"China</w>":6961,"medical</w>":6962,"priorities</w>":6963,"Regional</w>":6964,"collectivités</w>":6965,"matique</w>":6966,"Business</w>":6967,"atten":6968,"enregistr":6969,"alli":6970,"ouverture</w>":6971,"isted</w>":6972,"stated</w>":6973,"initial</w>":6974,"propre</w>":6975,"return</w>":6976,"sph":6977,"Paragrap":6978,"deration</w>":6979,"rév":6980,"arily</w>":6981,"ata</w>":6982,"faible</w>":6983,"Déc":6984,"valid":6985,"Initiative</w>":6986,"Bien</w>":6987,"usage</w>":6988,"férences</w>":6989,"determine</w>":6990,"Saf":6991,"comport":6992,"prévues</w>":6993,"Columbia</w>":6994,"outside</w>":6995,"increasing</w>":6996,"actuelle</w>":6997,"choix</w>":6998,"puis":6999,"him</w>":7000,"tual</w>":7001,"receive</w>":7002,"demonstr":7003,"ba</w>":7004,"numéro</w>":7005,"zing</w>":7006,"ptions</w>":7007,"décidé</w>":7008,"Coll":7009,"prior</w>":7010,"see":7011,"val</w>":7012,"pension</w>":7013,"ounds</w>":7014,"Bar":7015,"forward</w>":7016,"médias</w>":7017,"réqu":7018,"délai</w>":7019,"aume</w>":7020,"separ":7021,"tori":7022,"kr":7023,"Fac":7024,"Document</w>":7025,"ementing</w>":7026,"values</w>":7027,"model</w>":7028,"élaborer</w>":7029,"SM":7030,"nutri":7031,"bure":7032,"indicated</w>":7033,"convention</w>":7034,"importantes</w>":7035,"fourniss":7036,"itement</w>":7037,"statut</w>":7038,"faciliter</w>":7039,"fores":7040,"Education</w>":7041,"interpre":7042,"transfert</w>":7043,"Commiss":7044,"hours</w>":7045,"éventu":7046,"ames</w>":7047,"payment</w>":7048,"identify</w>":7049,"modification</w>":7050,"whole</w>":7051,"living</w>":7052,"ka</w>":7053,"adequate</w>":7054,"conduct</w>":7055,"rule</w>":7056,"decided</w>":7057,"proposé</w>":7058,"patients</w>":7059,"favor":7060,"export":7061,"regular</w>":7062,"conseils</w>":7063,"Rom":7064,"content</w>":7065,"IS</w>":7066,"Some</w>":7067,"ennium</w>":7068,"conflits</w>":7069,"description</w>":7070,"handic":7071,"directives</w>":7072,"mach":7073,"By</w>":7074,"ya</w>":7075,"approxim":7076,"But</w>":7077,"prevent</w>":7078,"ash":7079,"strong</w>":7080,"Amendement</w>":7081,"impli":7082,"74</w>":7083,"Cependant</w>":7084,"fonctionnaires</w>":7085,"élabor":7086,"employee</w>":7087,"convient</w>":7088,"tionnelle</w>":7089,"selves</w>":7090,"immedi":7091,"réfugi":7092,"TC</w>":7093,"supported</w>":7094,"documentation</w>":7095,"propres</w>":7096,"tise</w>":7097,"Protocole</w>":7098,"events</w>":7099,"rez</w>":7100,"taining</w>":7101,"ister</w>":7102,"correspond":7103,"tableau</w>":7104,"contribute</w>":7105,"hydro":7106,"adresse</w>":7107,"dess":7108,"Food</w>":7109,"fil</w>":7110,"300</w>":7111,"tionnelles</w>":7112,"departments</w>":7113,"sessions</w>":7114,"delivery</w>":7115,"atures</w>":7116,"Université</w>":7117,"ancial</w>":7118,"interests</w>":7119,"terres</w>":7120,"guidelines</w>":7121,"criminal</w>":7122,"toutefois</w>":7123,"create</w>":7124,"aque</w>":7125,"Mari":7126,"Agricul":7127,"beh":7128,"astr":7129,"chapitre</w>":7130,"essing</w>":7131,"reason":7132,"utilisé</w>":7133,"aliments</w>":7134,"governments</w>":7135,"régionales</w>":7136,"évolution</w>":7137,"chois":7138,"dynam":7139,"grandes</w>":7140,"arbitr":7141,"liens</w>":7142,"suppli":7143,"matières</w>":7144,"letter</w>":7145,"throughout</w>":7146,"Arch":7147,"relativement</w>":7148,"ser</w>":7149,"sufficient</w>":7150,"Mor":7151,"supply</w>":7152,"secrétariat</w>":7153,"Home</w>":7154,"aér":7155,"Bro":7156,"sent</w>":7157,"accor":7158,"présence</w>":7159,"materials</w>":7160,"audit</w>":7161,"préci":7162,"étranger</w>":7163,"odi":7164,"utilisés</w>":7165,"étaires</w>":7166,"volume</w>":7167,"mechanisms</w>":7168,"juridiques</w>":7169,"laws</w>":7170,"students</w>":7171,"Ques":7172,"responsabilités</w>":7173,"terrorism</w>":7174,"flo":7175,"définition</w>":7176,"entative</w>":7177,"pu</w>":7178,"science</w>":7179,"régionaux</w>":7180,"dis</w>":7181,"propose</w>":7182,"surtout</w>":7183,"wit":7184,"donne</w>":7185,"aps</w>":7186,"DE":7187,"consultatif</w>":7188,"aqu":7189,"succès</w>":7190,"defined</w>":7191,"tenance</w>":7192,"closure</w>":7193,"SP":7194,"Cul":7195,"affected</w>":7196,"LE":7197,"td</w>":7198,"humanitarian</w>":7199,"offer</w>":7200,"associations</w>":7201,"incidence</w>":7202,"dispens":7203,"garantir</w>":7204,"awareness</w>":7205,"scol":7206,"matiques</w>":7207,"strengthen</w>":7208,"primary</w>":7209,"volun":7210,"leadership</w>":7211,"pêche</w>":7212,"constr":7213,"Pi":7214,"icial</w>":7215,"ides</w>":7216,"tenues</w>":7217,"ists</w>":7218,"Annexe</w>":7219,"completed</w>":7220,"surface</w>":7221,"tiss":7222,"cs</w>":7223,"Journ":7224,"CANAD":7225,"educ":7226,"evalu":7227,"série</w>":7228,"competition</w>":7229,"im</w>":7230,"enter":7231,"Ed":7232,"isol":7233,"event</w>":7234,"lion</w>":7235,"plutôt</w>":7236,"identification</w>":7237,"fif":7238,"aking</w>":7239,"East</w>":7240,"évén":7241,"ising</w>":7242,"anti</w>":7243,"tains</w>":7244,"habitat</w>":7245,"Ã©</w>":7246,"estionn":7247,"consistent</w>":7248,"rog":7249,"meth":7250,"mandat":7251,"thus</w>":7252,"read</w>":7253,"Institut</w>":7254,"committed</w>":7255,"equal</w>":7256,"serious</w>":7257,"danger":7258,"Let":7259,"ounc":7260,"ns</w>":7261,"bou":7262,"moyenne</w>":7263,"suscepti":7264,"échange</w>":7265,"endra</w>":7266,"déclaré</w>":7267,"interne</w>":7268,"LO":7269,"Point</w>":7270,"point":7271,"lower</w>":7272,"comprend</w>":7273,"drug</w>":7274,"armac":7275,"lignes</w>":7276,"emphasi":7277,"too</w>":7278,"83</w>":7279,"transports</w>":7280,"lieux</w>":7281,"circumstances</w>":7282,"négociations</w>":7283,"dum</w>":7284,"ministéri":7285,"unité</w>":7286,"mement</w>":7287,"lin</w>":7288,"étique</w>":7289,"writ":7290,"subsi":7291,"camp":7292,"ancing</w>":7293,"Financial</w>":7294,"genous</w>":7295,"manner</w>":7296,"appare":7297,"subsection</w>":7298,"Royaume</w>":7299,"Under</w>":7300,"annuel</w>":7301,"believe</w>":7302,"accid":7303,"LI":7304,"estime</w>":7305,"itself</w>":7306,"eps</w>":7307,"reti":7308,"fédérale</w>":7309,"médec":7310,"yl</w>":7311,"web":7312,"concurrence</w>":7313,"Montré":7314,"présentation</w>":7315,"rom":7316,"interprét":7317,"semble</w>":7318,"comptes</w>":7319,"commune</w>":7320,"lt</w>":7321,"méthode</w>":7322,"want</w>":7323,"crédit</w>":7324,"inement</w>":7325,"priorité</w>":7326,"professional</w>":7327,"inal</w>":7328,"Central</w>":7329,"grat":7330,"protect</w>":7331,"Montréal</w>":7332,"accroître</w>":7333,"Lim":7334,"minutes</w>":7335,"star":7336,"rather</w>":7337,"stand</w>":7338,"érieurs</w>":7339,"HR</w>":7340,"extent</w>":7341,"raisons</w>":7342,"reform</w>":7343,"publications</w>":7344,"figure</w>":7345,"prévu</w>":7346,"ut":7347,"determined</w>":7348,"catégorie</w>":7349,"association</w>":7350,"atoires</w>":7351,"vit":7352,"ute</w>":7353,"antill":7354,"ult":7355,"aces</w>":7356,"glements</w>":7357,"sectors</w>":7358,"described</w>":7359,"gaz</w>":7360,"BC</w>":7361,"conflit</w>":7362,"consommation</w>":7363,"RI":7364,"ished</w>":7365,"WP</w>":7366,"antly</w>":7367,"psy":7368,"implemented</w>":7369,"enregistrement</w>":7370,"PDF</w>":7371,"immédi":7372,"Ã¨":7373,"methods</w>":7374,"guide</w>":7375,"lam":7376,"published</w>":7377,"guerre</w>":7378,"alimentaire</w>":7379,"jam":7380,"87</w>":7381,"centrale</w>":7382,"afric":7383,"dia</w>":7384,"locaux</w>":7385,"tier</w>":7386,"CO</w>":7387,"réforme</w>":7388,"operational</w>":7389,"damental</w>":7390,"deal":7391,"Mais</w>":7392,"renouv":7393,"concept</w>":7394,"Etats</w>":7395,"pos</w>":7396,"vol</w>":7397,"candidats</w>":7398,"84</w>":7399,"Secon":7400,"pointed</w>":7401,"Loc":7402,"Ouest</w>":7403,"ry":7404,"Since</w>":7405,"fiscal</w>":7406,"board</w>":7407,"Sous</w>":7408,"produced</w>":7409,"piè":7410,"ambi":7411,"mét":7412,"ép":7413,"IPO</w>":7414,"icers</w>":7415,"procu":7416,"Peop":7417,"arms</w>":7418,"PE":7419,"isition</w>":7420,"expertise</w>":7421,"assum":7422,"proportion</w>":7423,"short</w>":7424,"Chine</w>":7425,"81</w>":7426,"independent</w>":7427,"CR</w>":7428,"vised</w>":7429,"seul</w>":7430,"prec":7431,"empê":7432,"consensus</w>":7433,"judg":7434,"turing</w>":7435,"offices</w>":7436,"elements</w>":7437,"debate</w>":7438,"torture</w>":7439,"eil</w>":7440,"caractère</w>":7441,"ania</w>":7442,"covered</w>":7443,"network</w>":7444,"approval</w>":7445,"CN":7446,"age":7447,"contenu</w>":7448,"sélection</w>":7449,"ath</w>":7450,"ring</w>":7451,"79</w>":7452,"team</w>":7453,"price</w>":7454,"fréqu":7455,"atmo":7456,"violation</w>":7457,"partnership</w>":7458,"oles":7459,"poss":7460,"hotel</w>":7461,"balance</w>":7462,"fri":7463,"Est":7464,"demander</w>":7465,"popul":7466,"sa":7467,"hésion</w>":7468,"Do":7469,"RE</w>":7470,"Our</w>":7471,"pack":7472,"complain":7473,"èrent</w>":7474,"Guide</w>":7475,"integrated</w>":7476,"simple</w>":7477,"arab":7478,"hosp":7479,"influence</w>":7480,"n°</w>":7481,"fort</w>":7482,"remain</w>":7483,"character":7484,"claim</w>":7485,"percent</w>":7486,"Vanc":7487,"call</w>":7488,"destruc":7489,"sections</w>":7490,"legisl":7491,"tables</w>":7492,"During</w>":7493,"recherches</w>":7494,"prescri":7495,"reco":7496,"spéciale</w>":7497,"words</w>":7498,"ING</w>":7499,"longer</w>":7500,"orientation</w>":7501,"hou":7502,"militaire</w>":7503,"anch</w>":7504,"contract</w>":7505,"Brunsw":7506,"Sco":7507,"ensuring</w>":7508,"html</w>":7509,"sociales</w>":7510,"client</w>":7511,"diversité</w>":7512,"assist</w>":7513,"climate</w>":7514,"Nouvelle</w>":7515,"militaires</w>":7516,"présentant</w>":7517,"précis":7518,"Princip":7519,"yet</w>":7520,"bir":7521,"entiss":7522,"compati":7523,"secret":7524,"edings</w>":7525,"gy":7526,"échantill":7527,"advant":7528,"continuer</w>":7529,"82</w>":7530,"labor":7531,"intended</w>":7532,"tine</w>":7533,"devons</w>":7534,"âg":7535,"Vancouver</w>":7536,"Number</w>":7537,"along</w>":7538,"requires</w>":7539,"clairement</w>":7540,"rembour":7541,"Declaration</w>":7542,"crimes</w>":7543,"hôtel</w>":7544,"rémun":7545,"Net":7546,"electronic</w>":7547,"engagements</w>":7548,"exception</w>":7549,"mobili":7550,"lier</w>":7551,"resource</w>":7552,"89</w>":7553,"gens</w>":7554,"Brunswick</w>":7555,"hand</w>":7556,"sida</w>":7557,"Prom":7558,"Win":7559,"vo</w>":7560,"éni":7561,"ommet</w>":7562,"department</w>":7563,"maladies</w>":7564,"Glob":7565,"prestations</w>":7566,"Britannique</w>":7567,"difficult</w>":7568,"record</w>":7569,"soumis</w>":7570,"IN</w>":7571,"traités</w>":7572,"sat":7573,"amendments</w>":7574,"indemn":7575,"jury</w>":7576,"élément</w>":7577,"informed</w>":7578,"rant</w>":7579,"purch":7580,"installation</w>":7581,"skills</w>":7582,"statistiques</w>":7583,"conv":7584,"atiques</w>":7585,"Banque</w>":7586,"Cre":7587,"accessible</w>":7588,"reur</w>":7589,"See</w>":7590,"jets</w>":7591,"raisonn":7592,"visit":7593,"care":7594,"eding</w>":7595,"reach":7596,"pp":7597,"EMENT</w>":7598,"Impl":7599,"craft</w>":7600,"humains</w>":7601,"nation</w>":7602,"markets</w>":7603,"wish</w>":7604,"800</w>":7605,"reasons</w>":7606,"collec":7607,"System</w>":7608,"comprendre</w>":7609,"billion</w>":7610,"mates</w>":7611,"86</w>":7612,"Tim":7613,"regulatory</w>":7614,"èque</w>":7615,"français</w>":7616,"facilitate</w>":7617,"élimination</w>":7618,"essentiel</w>":7619,"domin":7620,"adver":7621,"plan":7622,"expert</w>":7623,"locales</w>":7624,"lesquelles</w>":7625,"LES</w>":7626,"GO":7627,"ANS</w>":7628,"Sch":7629,"implementing</w>":7630,"fie</w>":7631,"spécifiques</w>":7632,"consommateurs</w>":7633,"signal":7634,"sav":7635,"ica</w>":7636,"impôt</w>":7637,"WIPO</w>":7638,"fish</w>":7639,"photo":7640,"Har":7641,"stakeholders</w>":7642,"PAR":7643,"illez</w>":7644,"Lo":7645,"alls</w>":7646,"inspection</w>":7647,"tél":7648,"recommended</w>":7649,"Although</w>":7650,"provenant</w>":7651,"Charter</w>":7652,"bation</w>":7653,"dès</w>":7654,"lesquels</w>":7655,"collection</w>":7656,"head</w>":7657,"réfugiés</w>":7658,"investissements</w>":7659,"Te":7660,"preci":7661,"ades</w>":7662,"collective</w>":7663,"Ukr":7664,"asked</w>":7665,"scope</w>":7666,"mage</w>":7667,"tivité</w>":7668,"Haut</w>":7669,"Uni</w>":7670,"civ":7671,"terrain</w>":7672,"nord</w>":7673,"rési":7674,"Belgi":7675,"located</w>":7676,"veiller</w>":7677,"whose</w>":7678,"introduction</w>":7679,"traditional</w>":7680,"passé</w>":7681,"démocratique</w>":7682,"youth</w>":7683,"Meeting</w>":7684,"bar":7685,"véhicules</w>":7686,"chacun</w>":7687,"outils</w>":7688,"cover</w>":7689,"Rob":7690,"ster</w>":7691,"autorité</w>":7692,"urs</w>":7693,"chiff":7694,"travel</w>":7695,"UNICEF</w>":7696,"consequ":7697,"anie</w>":7698,"steps</w>":7699,"perc":7700,"created</w>":7701,"enue</w>":7702,"MIN":7703,"rapidement</w>":7704,"tools</w>":7705,"Wi":7706,"later</w>":7707,"Ri":7708,"ière</w>":7709,"affaire</w>":7710,"comments</w>":7711,"conci":7712,"Kingdom</w>":7713,"enable</w>":7714,"adopter</w>":7715,"participate</w>":7716,"tol":7717,"substance</w>":7718,"fond</w>":7719,"ament":7720,"financing</w>":7721,"web</w>":7722,"scr":7723,"généralement</w>":7724,"créé</w>":7725,"custom":7726,"partenariat</w>":7727,"Part":7728,"provisoire</w>":7729,"efficient</w>":7730,"Industry</w>":7731,"eph":7732,"tlement</w>":7733,"enth</w>":7734,"paper</w>":7735,"noti":7736,"suis</w>":7737,"families</w>":7738,"offrir</w>":7739,"Lab":7740,"Publ":7741,"say</w>":7742,"appuyer</w>":7743,"COMM":7744,"stage</w>":7745,"clearly</w>":7746,"exercise</w>":7747,"prend</w>":7748,"claims</w>":7749,"responsibilities</w>":7750,"maladie</w>":7751,"applique</w>":7752,"Geor":7753,"route</w>":7754,"kon</w>":7755,"alleg":7756,"learning</w>":7757,"Hotel</w>":7758,"recue":7759,"Congo</w>":7760,"operating</w>":7761,"unit</w>":7762,"generally</w>":7763,"acceptable</w>":7764,"critical</w>":7765,"perspective</w>":7766,"classification</w>":7767,"visu":7768,"Paris</w>":7769,"dispar":7770,"oni":7771,"ateli":7772,"viewed</w>":7773,"ef":7774,"pollution</w>":7775,"transmission</w>":7776,"successful</w>":7777,"èles</w>":7778,"issons</w>":7779,"sequ":7780,"loo":7781,"lettre</w>":7782,"Est</w>":7783,"oine</w>":7784,"Manu":7785,"follows</w>":7786,"eas":7787,"prestation</w>":7788,"ote</w>":7789,"Koso":7790,"paiement</w>":7791,"grands</w>":7792,"enjo":7793,"ecture</w>":7794,"remar":7795,"maintenance</w>":7796,"OC":7797,"envoy":7798,"espace</w>":7799,"né":7800,"requests</w>":7801,"subs":7802,"illic":7803,"success</w>":7804,"Autres</w>":7805,"fundamental</w>":7806,"importe</w>":7807,"always</w>":7808,"seule</w>":7809,"éré</w>":7810,"habil":7811,"habitu":7812,"servi":7813,"contribuer</w>":7814,"negotiations</w>":7815,"personnels</w>":7816,"bers</w>":7817,"ough</w>":7818,"promoting</w>":7819,"goals</w>":7820,"Russie</w>":7821,"physical</w>":7822,"Mi":7823,"Lang":7824,"applicant</w>":7825,"radio":7826,"Ltd</w>":7827,"TE</w>":7828,"teach":7829,"quelque</w>":7830,"enhance</w>":7831,"Foreign</w>":7832,"dispose</w>":7833,"revenus</w>":7834,"pouvoirs</w>":7835,"themselves</w>":7836,"candidates</w>":7837,"hors</w>":7838,"04":7839,"atri":7840,"EA</w>":7841,"disposi":7842,"éché":7843,"eds</w>":7844,"distric":7845,"format</w>":7846,"règlements</w>":7847,"obstacles</w>":7848,"clam":7849,"éth":7850,"Communications</w>":7851,"consci":7852,"collabor":7853,"ico</w>":7854,"credit</w>":7855,"job</w>":7856,"istant</w>":7857,"languages</w>":7858,"révis":7859,"resolutions</w>":7860,"IF":7861,"ariats</w>":7862,"éviter</w>":7863,"tability</w>":7864,"sais":7865,"vu</w>":7866,"faite</w>":7867,"intervenants</w>":7868,"compu":7869,"pouvez</w>":7870,"plement</w>":7871,"OP":7872,"achieved</w>":7873,"Ministre</w>":7874,"réper":7875,"command":7876,"exécu":7877,"concentration</w>":7878,"mentioned</w>":7879,"professionnels</w>":7880,"çu</w>":7881,"mort":7882,"dar":7883,"Governments</w>":7884,"remerci":7885,"enforcement</w>":7886,"appeal</w>":7887,"rought</w>":7888,"vacc":7889,"représente</w>":7890,"Chairman</w>":7891,"Mich":7892,"Depuis</w>":7893,"Safety</w>":7894,"wid":7895,"formal</w>":7896,"majority</w>":7897,"urb":7898,"liqui":7899,"restaur":7900,"Advisory</w>":7901,"ap</w>":7902,"extra":7903,"ges</w>":7904,"MO":7905,"perf":7906,"progres":7907,"XX":7908,"navig":7909,"vér":7910,"peuples</w>":7911,"km</w>":7912,"prac":7913,"Kosovo</w>":7914,"meilleure</w>":7915,"creation</w>":7916,"ètres</w>":7917,"sciences</w>":7918,"nucléaires</w>":7919,"constituent</w>":7920,"sent":7921,"composition</w>":7922,"bring</w>":7923,"Corporation</w>":7924,"offer":7925,"profit</w>":7926,"bureaux</w>":7927,"TER":7928,"again</w>":7929,"trimoine</w>":7930,"hibi":7931,"examiné</w>":7932,"icking</w>":7933,"proceedings</w>":7934,"tez</w>":7935,"pleinement</w>":7936,"sanctions</w>":7937,"ministres</w>":7938,"communautaires</w>":7939,"recognized</w>":7940,"Allem":7941,"adéqu":7942,"written</w>":7943,"sugg":7944,"added</w>":7945,"Children</w>":7946,"some":7947,"Assess":7948,"organized</w>":7949,"weapons</w>":7950,"tivity</w>":7951,"Yukon</w>":7952,"eful</w>":7953,"money</w>":7954,"gas</w>":7955,"Contact</w>":7956,"entrepren":7957,"familles</w>":7958,"Strategy</w>":7959,"Lake</w>":7960,"trop</w>":7961,"extérieur</w>":7962,"majorité</w>":7963,"compétence</w>":7964,"elim":7965,"Télé":7966,"istique</w>":7967,"specified</w>":7968,"alistes</w>":7969,"femme</w>":7970,"déclarations</w>":7971,"cide</w>":7972,"400</w>":7973,"statements</w>":7974,"smo":7975,"Hon":7976,"poursuivre</w>":7977,"yle</w>":7978,"adaptation</w>":7979,"operate</w>":7980,"allég":7981,"rich":7982,"lac":7983,"pense</w>":7984,"Cy":7985,"suivante</w>":7986,"Members</w>":7987,"naturelles</w>":7988,"top":7989,"apporter</w>":7990,"Mrs</w>":7991,"look</w>":7992,"Directeur</w>":7993,"ids</w>":7994,"AM</w>":7995,"Voir</w>":7996,"West</w>":7997,"effectiveness</w>":7998,"pourquoi</w>":7999,"Germany</w>":8000,"appell":8001,"inning</w>":8002,"salle</w>":8003,"uits</w>":8004,"efficaces</w>":8005,"étrangères</w>":8006,"chedule</w>":8007,"restrictions</w>":8008,"autorisation</w>":8009,"principales</w>":8010,"raci":8011,"élè":8012,"entissage</w>":8013,"Ty":8014,"travaill":8015,"TA</w>":8016,"para</w>":8017,"immigration</w>":8018,"Transport</w>":8019,"ongoing</w>":8020,"regulation</w>":8021,"minor":8022,"tiennent</w>":8023,"chec":8024,"although</w>":8025,"tribunal</w>":8026,"instance</w>":8027,"Tab":8028,"demand</w>":8029,"interventions</w>":8030,"iii</w>":8031,"survey</w>":8032,"undertaken</w>":8033,"scientifiques</w>":8034,"Après</w>":8035,"destruction</w>":8036,"erce</w>":8037,"acquisition</w>":8038,"Particip":8039,"worksh":8040,"intermédi":8041,"measu":8042,"victims</w>":8043,"clari":8044,"industries</w>":8045,"relationship</w>":8046,"Site</w>":8047,"autonom":8048,"âti":8049,"aller</w>":8050,"connaissance</w>":8051,"ducing</w>":8052,"links</w>":8053,"humanitaire</w>":8054,"thè":8055,"Coordin":8056,"radio</w>":8057,"disponible</w>":8058,"remains</w>":8059,"aimed</w>":8060,"endro":8061,"intellectuelle</w>":8062,"Exam":8063,"maintain</w>":8064,"lingu":8065,"spon":8066,"proli":8067,"wee":8068,"1989</w>":8069,"ities</w>":8070,"ech</w>":8071,"registration</w>":8072,"manifest":8073,"announc":8074,"strengthening</w>":8075,"seraient</w>":8076,"Budget</w>":8077,"employé</w>":8078,"dési":8079,"secu":8080,"deal</w>":8081,"oppos":8082,"puty</w>":8083,"IA</w>":8084,"series</w>":8085,"show</w>":8086,"Asie</w>":8087,"régionale</w>":8088,"riel</w>":8089,"CC</w>":8090,"Chief</w>":8091,"annex</w>":8092,"reach</w>":8093,"Officer</w>":8094,"connection</w>":8095,"armed</w>":8096,"voudr":8097,"Russian</w>":8098,"eum</w>":8099,"estimated</w>":8100,"thy</w>":8101,"difficile</w>":8102,"selection</w>":8103,"airement</w>":8104,"amen":8105,"portée</w>":8106,"Priv":8107,"souhait":8108,"Communauté</w>":8109,"conséquences</w>":8110,"repres":8111,"Vice</w>":8112,"indique</w>":8113,"amoun":8114,"tary</w>":8115,"blo":8116,"sud</w>":8117,"aign":8118,"mécanisme</w>":8119,"urban</w>":8120,"rie</w>":8121,"ension</w>":8122,"index</w>":8123,"Du":8124,"size</w>":8125,"enses</w>":8126,"attr":8127,"Mark":8128,"ONU":8129,"Atlantic</w>":8130,"Partie</w>":8131,"zes</w>":8132,"propos</w>":8133,"ECE</w>":8134,"causes</w>":8135,"items</w>":8136,"Département</w>":8137,"confidenti":8138,"visit</w>":8139,"usu":8140,"EUR</w>":8141,"every":8142,"back":8143,"definition</w>":8144,"exce":8145,"Prof":8146,"ousing</w>":8147,"Bal":8148,"remplac":8149,"judiciaire</w>":8150,"voul":8151,"submit</w>":8152,"sse</w>":8153,"territoires</w>":8154,"dération</w>":8155,"Support</w>":8156,"Tout</w>":8157,"takes</w>":8158,"til":8159,"month</w>":8160,"rapide</w>":8161,"armement</w>":8162,"Agriculture</w>":8163,"apprentissage</w>":8164,"Palestinian</w>":8165,"ential</w>":8166,"sexes</w>":8167,"conference</w>":8168,"improved</w>":8169,"secretariat</w>":8170,"answ":8171,"clés</w>":8172,"ention</w>":8173,"rempli":8174,"River</w>":8175,"rein":8176,"quand</w>":8177,"Ukraine</w>":8178,"Tous</w>":8179,"officials</w>":8180,"SE</w>":8181,"EU":8182,"ago</w>":8183,"Def":8184,"handicap":8185,"territory</w>":8186,"Jean</w>":8187,"WH":8188,"élections</w>":8189,"Lorsque</w>":8190,"conformité</w>":8191,"lien</w>":8192,"Fish":8193,"appoint":8194,"Rou":8195,"chers</w>":8196,"SU":8197,"Room</w>":8198,"civili":8199,"favoriser</w>":8200,"officielles</w>":8201,"recommandation</w>":8202,"parlement":8203,"jamais</w>":8204,"corruption</w>":8205,"dossier</w>":8206,"compensation</w>":8207,"improving</w>":8208,"dan</w>":8209,"Allemagne</w>":8210,"here":8211,"privée</w>":8212,"think</w>":8213,"spati":8214,"Representative</w>":8215,"Dru":8216,"commerciales</w>":8217,"diplom":8218,"fiés</w>":8219,"aisse</w>":8220,"Air":8221,"lad":8222,"directrices</w>":8223,"quarters</w>":8224,"réparti":8225,"difficultés</w>":8226,"vill":8227,"rang":8228,"Analy":8229,"icité</w>":8230,"réseaux</w>":8231,"ordinaire</w>":8232,"registered</w>":8233,"médicaments</w>":8234,"particuliers</w>":8235,"préparation</w>":8236,"isie</w>":8237,"loss</w>":8238,"ël</w>":8239,"refuge":8240,"supérieur</w>":8241,"efs</w>":8242,"décl":8243,"wing</w>":8244,"passer</w>":8245,"Northern</w>":8246,"red":8247,"eases</w>":8248,"image</w>":8249,"ouvrir</w>":8250,"viennent</w>":8251,"leave</w>":8252,"CD</w>":8253,"Technology</w>":8254,"detailed</w>":8255,"ams</w>":8256,"illed</w>":8257,"At":8258,"cong":8259,"Ministers</w>":8260,"assets</w>":8261,"ephone</w>":8262,"Rem":8263,"travailler</w>":8264,"témo":8265,"fax</w>":8266,"respecter</w>":8267,"eure":8268,"shown</w>":8269,"border</w>":8270,"oundation</w>":8271,"approximately</w>":8272,"vehicle</w>":8273,"minal</w>":8274,"why</w>":8275,"mitted</w>":8276,"investigation</w>":8277,"principalement</w>":8278,"alco":8279,"examine</w>":8280,"stratégiques</w>":8281,"utile</w>":8282,"Western</w>":8283,"Fé":8284,"introduced</w>":8285,"functions</w>":8286,"tun":8287,"indicateurs</w>":8288,"House</w>":8289,"conver":8290,"lum":8291,"emissions</w>":8292,"history</w>":8293,"scientific</w>":8294,"blan":8295,"build</w>":8296,"ensuite</w>":8297,"autant</w>":8298,"liation</w>":8299,"Portu":8300,"1988</w>":8301,"actual</w>":8302,"Ara":8303,"eva</w>":8304,"Plann":8305,"officers</w>":8306,"étrangers</w>":8307,"freedom</w>":8308,"chets</w>":8309,"alternative</w>":8310,"ocr":8311,"Decision</w>":8312,"alie</w>":8313,"SA</w>":8314,"ouvert</w>":8315,"oriz":8316,"IP</w>":8317,"Ain":8318,"territorial</w>":8319,"auteurs</w>":8320,"requirement</w>":8321,"juste</w>":8322,"1987</w>":8323,"servir</w>":8324,"And</w>":8325,"Company</w>":8326,"tudes</w>":8327,"02":8328,"spec":8329,"industrial</w>":8330,"puisse</w>":8331,"diri":8332,"Bos":8333,"accompl":8334,"heure</w>":8335,"immun":8336,"chercheurs</w>":8337,"déplac":8338,"agg":8339,"marque</w>":8340,"carb":8341,"combat</w>":8342,"conseill":8343,"live</w>":8344,"Charte</w>":8345,"zi":8346,"Application</w>":8347,"external</w>":8348,"étudiants</w>":8349,"effectively</w>":8350,"gam":8351,"top</w>":8352,"compared</w>":8353,"subsidi":8354,"Perman":8355,"comprom":8356,"die</w>":8357,"users</w>":8358,"mines</w>":8359,"circonst":8360,"FA":8361,"FOR":8362,"Employment</w>":8363,"SP</w>":8364,"deg":8365,"gestionn":8366,"charges</w>":8367,"measure</w>":8368,"garde</w>":8369,"palestini":8370,"uniquement</w>":8371,"ney</w>":8372,"step</w>":8373,"concentrations</w>":8374,"CEE</w>":8375,"commiss":8376,"Mil":8377,"encourager</w>":8378,"risks</w>":8379,"Ainsi</w>":8380,"division</w>":8381,"nerships</w>":8382,"tali":8383,"schools</w>":8384,"insurance</w>":8385,"tations</w>":8386,"défis</w>":8387,"Sm":8388,"Assessment</w>":8389,"limit</w>":8390,"Guid":8391,"function</w>":8392,"appelant</w>":8393,"enge</w>":8394,"Esp":8395,"emplois</w>":8396,"Mes":8397,"agissant</w>":8398,"acqui":8399,"gary</w>":8400,"scale</w>":8401,"classe</w>":8402,"détaill":8403,"thi":8404,"prit</w>":8405,"crisis</w>":8406,"mix":8407,"arm</w>":8408,"vac":8409,"musi":8410,"neg":8411,"terre</w>":8412,"EP</w>":8413,"accompli":8414,"préal":8415,"entraîn":8416,"week</w>":8417,"favour</w>":8418,"gri":8419,"oxy":8420,"Fran":8421,"Fig":8422,"alities</w>":8423,"adjust":8424,"graphi":8425,"scre":8426,"CL":8427,"supporting</w>":8428,"enced</w>":8429,"ague</w>":8430,"petites</w>":8431,"reduced</w>":8432,"double</w>":8433,"faites</w>":8434,"latér":8435,"commitments</w>":8436,"CP</w>":8437,"résolutions</w>":8438,"onie</w>":8439,"ented</w>":8440,"inscri":8441,"lined</w>":8442,"start</w>":8443,"pages</w>":8444,"Federation</w>":8445,"diversity</w>":8446,"fair</w>":8447,"reason</w>":8448,"tard</w>":8449,"transactions</w>":8450,"Environnement</w>":8451,"caractéristiques</w>":8452,"atér":8453,"urred</w>":8454,"Scho":8455,"boo":8456,"ferences</w>":8457,"reasonable</w>":8458,"entente</w>":8459,"respecti":8460,"distance</w>":8461,"compter</w>":8462,"ee</w>":8463,"advice</w>":8464,"ancement</w>":8465,"déploy":8466,"Archives</w>":8467,"payer</w>":8468,"Gaz":8469,"armament</w>":8470,"new":8471,"Premières</w>":8472,"conception</w>":8473,"déposé</w>":8474,"crise</w>":8475,"governance</w>":8476,"communiquer</w>":8477,"pou":8478,"arts</w>":8479,"renew":8480,"equality</w>":8481,"èvement</w>":8482,"cependant</w>":8483,"signature</w>":8484,"euro</w>":8485,"milliards</w>":8486,"ET":8487,"Sur</w>":8488,"Tel":8489,"empl":8490,"mode</w>":8491,"limite</w>":8492,"Page</w>":8493,"legislative</w>":8494,"Accu":8495,"pru":8496,"Mu":8497,"ries</w>":8498,"disease</w>":8499,"leading</w>":8500,"connaître</w>":8501,"Global</w>":8502,"réaliser</w>":8503,"recommendation</w>":8504,"tis</w>":8505,"environnementale</w>":8506,"ock</w>":8507,"pron":8508,"contrac":8509,"cancer</w>":8510,"establishing</w>":8511,"conventions</w>":8512,"frequ":8513,"confiance</w>":8514,"war</w>":8515,"tests</w>":8516,"wise</w>":8517,"pénale</w>":8518,"catégories</w>":8519,"impacts</w>":8520,"Cop":8521,"ger</w>":8522,"soi":8523,"ticul":8524,"peoples</w>":8525,"abord</w>":8526,"CB":8527,"défini":8528,"permettent</w>":8529,"ene</w>":8530,"essai</w>":8531,"soutenir</w>":8532,"ched</w>":8533,"yond</w>":8534,"règle</w>":8535,"observation</w>":8536,"normal</w>":8537,"fail":8538,"ftw":8539,"fund</w>":8540,"six":8541,"website</w>":8542,"actuel</w>":8543,"carry</w>":8544,"Pa":8545,"partenariats</w>":8546,"Permanent</w>":8547,"annonc":8548,"cess":8549,"Authority</w>":8550,"entry</w>":8551,"Over":8552,"fabrication</w>":8553,"érer</w>":8554,"ancoph":8555,"valu":8556,"questionn":8557,"notice</w>":8558,"rendu</w>":8559,"spo":8560,"amended</w>":8561,"Aus":8562,"preparation</w>":8563,"compag":8564,"Framework</w>":8565,"payments</w>":8566,"tru":8567,"délégations</w>":8568,"appreci":8569,"réponses</w>":8570,"OMPI</w>":8571,"Israel</w>":8572,"Fédération</w>":8573,"other":8574,"institutional</w>":8575,"générales</w>":8576,"ret</w>":8577,"approbation</w>":8578,"1985</w>":8579,"ae</w>":8580,"Obj":8581,"poly":8582,"deliver":8583,"obtained</w>":8584,"satell":8585,"connexes</w>":8586,"Contribu":8587,"Asia</w>":8588,"scientifique</w>":8589,"fically</w>":8590,"sexual</w>":8591,"çant</w>":8592,"Fol":8593,"Hel":8594,"publié</w>":8595,"contient</w>":8596,"discussed</w>":8597,"adem":8598,"continues</w>":8599,"chimiques</w>":8600,"ang</w>":8601,"oil</w>":8602,"alling</w>":8603,"enquêtes</w>":8604,"prosp":8605,"listed</w>":8606,"fondée</w>":8607,"Bl":8608,"export</w>":8609,"Japan</w>":8610,"details</w>":8611,"tia</w>":8612,"Dom":8613,"offers</w>":8614,"Ret":8615,"prices</w>":8616,"Official</w>":8617,"Nat":8618,"please</w>":8619,"drogues</w>":8620,"fel":8621,"message</w>":8622,"city</w>":8623,"endu</w>":8624,"efficiency</w>":8625,"According</w>":8626,"répond":8627,"Civi":8628,"dues</w>":8629,"stor":8630,"threat":8631,"Statistics</w>":8632,"prévue</w>":8633,"lot</w>":8634,"sition</w>":8635,"écrit</w>":8636,"little</w>":8637,"pun":8638,"mas":8639,"makes</w>":8640,"VI</w>":8641,"semin":8642,"ED":8643,"récemment</w>":8644,"plas":8645,"station</w>":8646,"mm</w>":8647,"pharmac":8648,"trac":8649,"marine</w>":8650,"voudrais</w>":8651,"développer</w>":8652,"dessous</w>":8653,"agricultural</w>":8654,"kg</w>":8655,"Som":8656,"People</w>":8657,"quie</w>":8658,"sport</w>":8659,"mant</w>":8660,"cross</w>":8661,"manque</w>":8662,"Deleg":8663,"POR":8664,"produire</w>":8665,"cussions</w>":8666,"imes</w>":8667,"Chapter</w>":8668,"03":8669,"nomination</w>":8670,"brought</w>":8671,"exposition</w>":8672,"undi</w>":8673,"From</w>":8674,"maintenir</w>":8675,"désarmement</w>":8676,"records</w>":8677,"Sk":8678,"Training</w>":8679,"Arab</w>":8680,"Recomm":8681,"rapporteur</w>":8682,"aircraft</w>":8683,"paragraphes</w>":8684,"seen</w>":8685,"réus":8686,"Criminal</w>":8687,"expan":8688,"résultat</w>":8689,"Cet</w>":8690,"chron":8691,"histoire</w>":8692,"Panel</w>":8693,"dum":8694,"Indian</w>":8695,"SER":8696,"hypo":8697,"limites</w>":8698,"istics</w>":8699,"Fam":8700,"Lis":8701,"adoles":8702,"After</w>":8703,"eligible</w>":8704,"rur":8705,"administratives</w>":8706,"Journal</w>":8707,"Pacific</w>":8708,"vis</w>":8709,"largement</w>":8710,"orders</w>":8711,"Accoun":8712,"rite</w>":8713,"diagno":8714,"judicial</w>":8715,"Branch</w>":8716,"setting</w>":8717,"illing</w>":8718,"ittees</w>":8719,"treaty</w>":8720,"agu":8721,"chau":8722,"fiée</w>":8723,"dispu":8724,"modifier</w>":8725,"circulation</w>":8726,"How</w>":8727,"cultures</w>":8728,"agricoles</w>":8729,"sumé</w>":8730,"sear":8731,"concep":8732,"Observ":8733,"places</w>":8734,"assess</w>":8735,"Nig":8736,"resses</w>":8737,"intitulé</w>":8738,"thermore</w>":8739,"Régi":8740,"commentaires</w>":8741,"complète</w>":8742,"taxes</w>":8743,"rele":8744,"Prince</w>":8745,"educational</w>":8746,"nér":8747,"mg</w>":8748,"Nom":8749,"Agenda</w>":8750,"concre":8751,"stabilité</w>":8752,"ènes</w>":8753,"Where</w>":8754,"Mul":8755,"Bra":8756,"Iran</w>":8757,"plein</w>":8758,"eless</w>":8759,"indicators</w>":8760,"SS</w>":8761,"dow":8762,"gal</w>":8763,"sauf</w>":8764,"GC</w>":8765,"250</w>":8766,"mal</w>":8767,"hili":8768,"icity</w>":8769,"mouv":8770,"Sim":8771,"employed</w>":8772,"modèles</w>":8773,"mechanism</w>":8774,"na":8775,"consiste</w>":8776,"core</w>":8777,"kind</w>":8778,"ligence</w>":8779,"étape</w>":8780,"recently</w>":8781,"presence</w>":8782,"aim</w>":8783,"paragraphs</w>":8784,"exclusi":8785,"sidente</w>":8786,"vulner":8787,"physique</w>":8788,"souligné</w>":8789,"bis</w>":8790,"anes</w>":8791,"ivalent</w>":8792,"atement</w>":8793,"Pak":8794,"argu":8795,"esprit</w>":8796,"adoptée</w>":8797,"quante</w>":8798,"sensibilisation</w>":8799,"Pop":8800,"processing</w>":8801,"généraux</w>":8802,"accent</w>":8803,"Accueil</w>":8804,"circonstances</w>":8805,"vulnér":8806,"class</w>":8807,"Enfin</w>":8808,"exportation</w>":8809,"election</w>":8810,"agency</w>":8811,"indigenous</w>":8812,"démar":8813,"juge</w>":8814,"introdu":8815,"decre":8816,"Island</w>":8817,"datab":8818,"utilisées</w>":8819,"commo":8820,"CANADA</w>":8821,"avoi":8822,"Réunion</w>":8823,"approvisi":8824,"petits</w>":8825,"applicables</w>":8826,"effectuer</w>":8827,"sembl":8828,"reflect</w>":8829,"dépôt</w>":8830,"agir</w>":8831,"opposition</w>":8832,"appréci":8833,"déchets</w>":8834,"peine</w>":8835,"dossiers</w>":8836,"gradu":8837,"Wil":8838,"deci":8839,"anda</w>":8840,"commerciaux</w>":8841,"growing</w>":8842,"réd":8843,"ourable</w>":8844,"Nu":8845,"complex</w>":8846,"accueil</w>":8847,"dle</w>":8848,"Trav":8849,"semaine</w>":8850,"resol":8851,"Projet</w>":8852,"arrê":8853,"déliv":8854,"behavi":8855,"Geneva</w>":8856,"Questions</w>":8857,"ads</w>":8858,"Consi":8859,"bâti":8860,"professionnelle</w>":8861,"sales</w>":8862,"utilisateurs</w>":8863,"requér":8864,"Implementation</w>":8865,"contamin":8866,"abin":8867,"petit</w>":8868,"ker</w>":8869,"ouverte</w>":8870,"revised</w>":8871,"hope</w>":8872,"Cuba</w>":8873,"conséquence</w>":8874,"privil":8875,"libér":8876,"tandis</w>":8877,"Hist":8878,"Pap":8879,"Israël</w>":8880,"ington</w>":8881,"systé":8882,"mener</w>":8883,"akes</w>":8884,"train</w>":8885,"COM</w>":8886,"écoles</w>":8887,"CP":8888,"globale</w>":8889,"opi":8890,"prop":8891,"death</w>":8892,"tribun":8893,"participé</w>":8894,"ums</w>":8895,"aie</w>":8896,"sev":8897,"sub</w>":8898,"ha</w>":8899,"release</w>":8900,"ro</w>":8901,"catastr":8902,"600</w>":8903,"outcome</w>":8904,"disciplin":8905,"indicate</w>":8906,"duty</w>":8907,"producteurs</w>":8908,"ftware</w>":8909,"calend":8910,"voyage</w>":8911,"goal</w>":8912,"transl":8913,"fournisseurs</w>":8914,"rappel":8915,"debt</w>":8916,"ving":8917,"granted</w>":8918,"dates</w>":8919,"permettra</w>":8920,"AV":8921,"amendment</w>":8922,"pas":8923,"PI":8924,"allocation</w>":8925,"taille</w>":8926,"compéti":8927,"européens</w>":8928,"Tel</w>":8929,"24":8930,"cents</w>":8931,"ah</w>":8932,"animaux</w>":8933,"Tro":8934,"Conform":8935,"graphiques</w>":8936,"prévenir</w>":8937,"Defence</w>":8938,"vehicles</w>":8939,"Sustain":8940,"Strategi":8941,"Society</w>":8942,"agree</w>":8943,"horiz":8944,"beyond</w>":8945,"parti</w>":8946,"elds</w>":8947,"particulière</w>":8948,"conclu</w>":8949,"ecting</w>":8950,"torate</w>":8951,"Cust":8952,"pertinentes</w>":8953,"employer</w>":8954,"affich":8955,"She</w>":8956,"assemb":8957,"origin</w>":8958,"Science</w>":8959,"Plus</w>":8960,"hun":8961,"dirige":8962,"produce</w>":8963,"expansion</w>":8964,"sez</w>":8965,"stocks</w>":8966,"deman":8967,"rely</w>":8968,"Child</w>":8969,"conciliation</w>":8970,"campai":8971,"Co</w>":8972,"imprim":8973,"ion</w>":8974,"Data</w>":8975,"appuy":8976,"puissent</w>":8977,"gosl":8978,"sensi":8979,"acquit":8980,"intensi":8981,"Dar":8982,"Network</w>":8983,"supports</w>":8984,"Lic":8985,"montre</w>":8986,"rémunération</w>":8987,"arriv":8988,"mine</w>":8989,"Labr":8990,"Issu":8991,"raised</w>":8992,"infl":8993,"figurant</w>":8994,"fondamentaux</w>":8995,"ived</w>":8996,"â€":8997,"amentary</w>":8998,"invite</w>":8999,"becom":9000,"method</w>":9001,"files</w>":9002,"11":9003,"contrats</w>":9004,"Up":9005,"variety</w>":9006,"practical</w>":9007,"Such</w>":9008,"éré":9009,"cohér":9010,"essais</w>":9011,"approuvé</w>":9012,"analyses</w>":9013,"préoccupations</w>":9014,"mean":9015,"concluded</w>":9016,"gir":9017,"crédits</w>":9018,"Elles</w>":9019,"recommande</w>":9020,"derniers</w>":9021,"peuple</w>":9022,"parer</w>":9023,"ergy</w>":9024,"attemp":9025,"component</w>":9026,"quatri":9027,"Pau":9028,"Labrador</w>":9029,"gouvernance</w>":9030,"Fax</w>":9031,"ductions</w>":9032,"ois</w>":9033,"determination</w>":9034,"interprétation</w>":9035,"resulting</w>":9036,"stimul":9037,"Nation</w>":9038,"23":9039,"agricole</w>":9040,"Ti":9041,"seg":9042,"espèce</w>":9043,"Tw":9044,"del</w>":9045,"challenge</w>":9046,"Version</w>":9047,"let</w>":9048,"contains</w>":9049,"left</w>":9050,"jurisdiction</w>":9051,"separate</w>":9052,"fourni</w>":9053,"safe</w>":9054,"QUE</w>":9055,"Nun":9056,"presse</w>":9057,"emergency</w>":9058,"City</w>":9059,"Vic":9060,"Joint</w>":9061,"Pakistan</w>":9062,"sol</w>":9063,"attend</w>":9064,"Exper":9065,"guidance</w>":9066,"Pays</w>":9067,"Deputy</w>":9068,"voc":9069,"discu":9070,"reconnaissance</w>":9071,"événements</w>":9072,"ular</w>":9073,"Genève</w>":9074,"book</w>":9075,"authorized</w>":9076,"Furthermore</w>":9077,"multilatér":9078,"forte</w>":9079,"Affaires</w>":9080,"developments</w>":9081,"marg":9082,"maritime</w>":9083,"ees</w>":9084,"rien</w>":9085,"Auc":9086,"Intro":9087,"units</w>":9088,"target</w>":9089,"recevoir</w>":9090,"modalités</w>":9091,"respective</w>":9092,"Stre":9093,"provisi":9094,"Dur":9095,"involving</w>":9096,"condam":9097,"gouvernementaux</w>":9098,"souff":9099,"followed</w>":9100,"Phili":9101,"AU</w>":9102,"principale</w>":9103,"hydr":9104,"commissions</w>":9105,"jouer</w>":9106,"barri":9107,"drait</w>":9108,"Swe":9109,"euros</w>":9110,"parli":9111,"expenses</w>":9112,"obs</w>":9113,"happ":9114,"occupation</w>":9115,"dep":9116,"trafficking</w>":9117,"caus":9118,"duties</w>":9119,"fall</w>":9120,"found":9121,"Cat":9122,"olled</w>":9123,"invited</w>":9124,"quatrième</w>":9125,"notification</w>":9126,"useful</w>":9127,"concours</w>":9128,"tioning</w>":9129,"shor":9130,"approaches</w>":9131,"stable</w>":9132,"intermédiaire</w>":9133,"News</w>":9134,"FR":9135,"leaders</w>":9136,"Please</w>":9137,"humaine</w>":9138,"haute</w>":9139,"révision</w>":9140,"trafic</w>":9141,"DÉ":9142,"réalisés</w>":9143,"closed</w>":9144,"Cooperation</w>":9145,"ark</w>":9146,"150</w>":9147,"préserv":9148,"Labour</w>":9149,"ancy</w>":9150,"Traité</w>":9151,"Publications</w>":9152,"Tax</w>":9153,"ONG</w>":9154,"unités</w>":9155,"don</w>":9156,"Annu":9157,"réun":9158,"donnée</w>":9159,"Promo":9160,"Japon</w>":9161,"bank</w>":9162,"imm":9163,"Ol":9164,"allowed</w>":9165,"échanges</w>":9166,"informal</w>":9167,"Et</w>":9168,"Summit</w>":9169,"fournit</w>":9170,"civils</w>":9171,"capable</w>":9172,"bin":9173,"présentée</w>":9174,"Source</w>":9175,"keep</w>":9176,"enty</w>":9177,"productive</w>":9178,"simpli":9179,"kil":9180,"amounts</w>":9181,"reached</w>":9182,"Ham":9183,"resear":9184,"INC</w>":9185,"aily</w>":9186,"contenant</w>":9187,"CD":9188,"organisé</w>":9189,"argent</w>":9190,"eth</w>":9191,"équipement</w>":9192,"cles</w>":9193,"obtain</w>":9194,"infrastructures</w>":9195,"west</w>":9196,"recettes</w>":9197,"recueilli":9198,"strong":9199,"ala</w>":9200,"Herz":9201,"dependence</w>":9202,"traiter</w>":9203,"mén":9204,"élar":9205,"search</w>":9206,"Bulg":9207,"Croati":9208,"destinés</w>":9209,"chambres</w>":9210,"beginning</w>":9211,"aware</w>":9212,"dimin":9213,"approfon":9214,"vues</w>":9215,"explic":9216,"graves</w>":9217,"More</w>":9218,"isent</w>":9219,"Société</w>":9220,"exclusion</w>":9221,"fédéraux</w>":9222,"components</w>":9223,"inclusion</w>":9224,"fichi":9225,"pressure</w>":9226,"adhésion</w>":9227,"OL":9228,"rooms</w>":9229,"dimension</w>":9230,"ratification</w>":9231,"ATIONS</w>":9232,"Portugal</w>":9233,"tera</w>":9234,"accus":9235,"école</w>":9236,"totale</w>":9237,"embour":9238,"0s</w>":9239,"Second</w>":9240,"stations</w>":9241,"ocracy</w>":9242,"Sign":9243,"clin":9244,"ock":9245,"reasury</w>":9246,"cy</w>":9247,"bois</w>":9248,"marketing</w>":9249,"honor":9250,"périodi":9251,"Work</w>":9252,"conduite</w>":9253,"simul":9254,"exécuti":9255,"Pacte</w>":9256,"transformation</w>":9257,"ero":9258,"aband":9259,"aliser</w>":9260,"Langu":9261,"accum":9262,"degree</w>":9263,"Trés":9264,"bas</w>":9265,"vend":9266,"designated</w>":9267,"conférences</w>":9268,"Appen":9269,"Pur":9270,"détermination</w>":9271,"itant</w>":9272,"ennal</w>":9273,"Tableau</w>":9274,"aspect</w>":9275,"archit":9276,"menées</w>":9277,"volonté</w>":9278,"offered</w>":9279,"grounds</w>":9280,"supplémentaire</w>":9281,"suggested</w>":9282,"préhen":9283,"housing</w>":9284,"broad</w>":9285,"heure":9286,"asp</w>":9287,"Tu":9288,"devait</w>":9289,"containing</w>":9290,"Numéro</w>":9291,"Out":9292,"trust</w>":9293,"accompagn":9294,"tâches</w>":9295,"Appendix</w>":9296,"CA</w>":9297,"bs</w>":9298,"selected</w>":9299,"illustr":9300,"press</w>":9301,"almost</w>":9302,"212</w>":9303,"feu":9304,"DG":9305,"logement</w>":9306,"heal":9307,"Mexico</w>":9308,"venue</w>":9309,"Représentant</w>":9310,"law":9311,"â€™":9312,"genre</w>":9313,"Pho":9314,"observer</w>":9315,"veri":9316,"taxe</w>":9317,"chefs</w>":9318,"load</w>":9319,"understand</w>":9320,"letin</w>":9321,"formulaire</w>":9322,"poor</w>":9323,"htm</w>":9324,"ementary</w>":9325,"aria</w>":9326,"Police</w>":9327,"Also</w>":9328,"Bay</w>":9329,"medium</w>":9330,"instructions</w>":9331,"usinesses</w>":9332,"orded</w>":9333,"Avis</w>":9334,"hospit":9335,"estion</w>":9336,"RÉ":9337,"otherwise</w>":9338,"Nouveau</w>":9339,"electr":9340,"départ</w>":9341,"candidate</w>":9342,"erra</w>":9343,"affect</w>":9344,"statu":9345,"voire</w>":9346,"stability</w>":9347,"kers</w>":9348,"apparten":9349,"group":9350,"Mic":9351,"courts</w>":9352,"rites</w>":9353,"reover</w>":9354,"reat</w>":9355,"Indon":9356,"susceptibles</w>":9357,"Energy</w>":9358,"partnerships</w>":9359,"octro":9360,"pétro":9361,"sequently</w>":9362,"get":9363,"Figure</w>":9364,"mobi":9365,"PCT</w>":9366,"traitements</w>":9367,"stes</w>":9368,"GH":9369,"Radi":9370,"Conformément</w>":9371,"house</w>":9372,"differences</w>":9373,"divi":9374,"Fre":9375,"engage</w>":9376,"pd":9377,"commerciale</w>":9378,"AA":9379,"sharing</w>":9380,"sexe</w>":9381,"mutu":9382,"recommandé</w>":9383,"spéciales</w>":9384,"rad":9385,"communes</w>":9386,"soon</w>":9387,"DN":9388,"Argen":9389,"PNU":9390,"fournis</w>":9391,"atta":9392,"ENT":9393,"Order</w>":9394,"DU":9395,"specifically</w>":9396,"siè":9397,"ycl":9398,"actif</w>":9399,"contracts</w>":9400,"recovery</w>":9401,"fum":9402,"ather</w>":9403,"abuse</w>":9404,"religion</w>":9405,"joint":9406,"diminu":9407,"Control</w>":9408,"Commissaire</w>":9409,"este</w>":9410,"dette</w>":9411,"EL</w>":9412,"définir</w>":9413,"involvement</w>":9414,"idée</w>":9415,"haz":9416,"parle</w>":9417,"tidi":9418,"CF</w>":9419,"any":9420,"1A</w>":9421,"parvenir</w>":9422,"énerg":9423,"Recommend":9424,"pouvant</w>":9425,"frontières</w>":9426,"participating</w>":9427,"jeux</w>":9428,"Trésor</w>":9429,"dirig":9430,"anticip":9431,"communic":9432,"Nova</w>":9433,"movement</w>":9434,"fusion</w>":9435,"Stratégi":9436,"actifs</w>":9437,"parole</w>":9438,"Treasury</w>":9439,"prêts</w>":9440,"accepted</w>":9441,"author</w>":9442,"répartition</w>":9443,"jects</w>":9444,"procéder</w>":9445,"acteurs</w>":9446,"eline</w>":9447,"except</w>":9448,"écl":9449,"évaluations</w>":9450,"represented</w>":9451,"district</w>":9452,"parall":9453,"The":9454,"improvement</w>":9455,"mind</w>":9456,"pourcentage</w>":9457,"perte</w>":9458,"Evaluation</w>":9459,"transparence</w>":9460,"Use</w>":9461,"continuing</w>":9462,"ém":9463,"achat</w>":9464,"possibility</w>":9465,"excellent</w>":9466,"ME</w>":9467,"tradition</w>":9468,"calls</w>":9469,"Legal</w>":9470,"accur":9471,"front</w>":9472,"Unit</w>":9473,"paiements</w>":9474,"indispens":9475,"participant</w>":9476,"Ken":9477,"logici":9478,"sujets</w>":9479,"reviewed</w>":9480,"Region</w>":9481,"ois":9482,"Many</w>":9483,"rÃ©":9484,"atteint</w>":9485,"collectivité</w>":9486,"consulter</w>":9487,"Ambass":9488,"observed</w>":9489,"earlier</w>":9490,"dition</w>":9491,"SS":9492,"semaines</w>":9493,"sionn":9494,"conforme</w>":9495,"trial</w>":9496,"Access</w>":9497,"sauv":9498,"significantly</w>":9499,"suffisamment</w>":9500,"démocratie</w>":9501,"sibilité</w>":9502,"complément":9503,"campagne</w>":9504,"sts</w>":9505,"Democratic</w>":9506,"compt":9507,"Dro":9508,"grave</w>":9509,"sale</w>":9510,"avoc":9511,"prévus</w>":9512,"feu</w>":9513,"blioth":9514,"permanente</w>":9515,"shared</w>":9516,"représentent</w>":9517,"elections</w>":9518,"filed</w>":9519,"Sustainable</w>":9520,"clini":9521,"comprennent</w>":9522,"énaire</w>":9523,"consumer</w>":9524,"testing</w>":9525,"highly</w>":9526,"Ky":9527,"Lond":9528,"deed</w>":9529,"Communication</w>":9530,"deploy":9531,"move</w>":9532,"Rech":9533,"IE</w>":9534,"appointed</w>":9535,"associés</w>":9536,"Italy</w>":9537,"fab":9538,"25":9539,"renouvel":9540,"secondary</w>":9541,"numbers</w>":9542,"ri</w>":9543,"identité</w>":9544,"away</w>":9545,"implications</w>":9546,"alimentation</w>":9547,"réserves</w>":9548,"sept</w>":9549,"near</w>":9550,"stic</w>":9551,"appointment</w>":9552,"Met":9553,"augmenté</w>":9554,"Of</w>":9555,"retraite</w>":9556,"atistical</w>":9557,"doing</w>":9558,"Royal</w>":9559,"MP":9560,"bid</w>":9561,"Perform":9562,"augmenter</w>":9563,"India</w>":9564,"présentés</w>":9565,"élèves</w>":9566,"oli":9567,"subventions</w>":9568,"outcomes</w>":9569,"Appe":9570,"advance</w>":9571,"UNDP</w>":9572,"loss":9573,"announced</w>":9574,"ayer</w>":9575,"passage</w>":9576,"parc</w>":9577,"interested</w>":9578,"recognition</w>":9579,"étiques</w>":9580,"itary</w>":9581,"EM</w>":9582,"consolidation</w>":9583,"sert</w>":9584,"geograph":9585,"1986</w>":9586,"mauv":9587,"psych":9588,"Tun":9589,"Products</w>":9590,"task</w>":9591,"retour</w>":9592,"obtenu</w>":9593,"DC":9594,"agré":9595,"Summary</w>":9596,"nucléaire</w>":9597,"Sing":9598,"Notre</w>":9599,"élarg":9600,"travers</w>":9601,"atmosph":9602,"There":9603,"images</w>":9604,"montré</w>":9605,"democratic</w>":9606,"Documents</w>":9607,"bar</w>":9608,"FOR</w>":9609,"Ress":9610,"fuel</w>":9611,"perspectives</w>":9612,"exempl":9613,"forum</w>":9614,"collecte</w>":9615,"lon":9616,"pourra</w>":9617,"film</w>":9618,"alty</w>":9619,"véhicule</w>":9620,"AF</w>":9621,"ainc":9622,"pièces</w>":9623,"uled</w>":9624,"pdf</w>":9625,"Sommet</w>":9626,"matern":9627,"my":9628,"gue</w>":9629,"évision</w>":9630,"brary</w>":9631,"carte</w>":9632,"sin":9633,"sie</w>":9634,"Mat":9635,"multil":9636,"terial</w>":9637,"things</w>":9638,"ece</w>":9639,"unless</w>":9640,"defence</w>":9641,"riting</w>":9642,"Den":9643,"temper":9644,"auxquels</w>":9645,"err":9646,"moi</w>":9647,"dumping</w>":9648,"européennes</w>":9649,"cup":9650,"elimin":9651,"ethnic</w>":9652,"visées</w>":9653,"lumière</w>":9654,"utilisée</w>":9655,"reço":9656,"meilleur</w>":9657,"Terre</w>":9658,"tribunaux</w>":9659,"Jam":9660,"verb":9661,"Water</w>":9662,"asks</w>":9663,"finance</w>":9664,"phén":9665,"isting</w>":9666,"cur":9667,"affectation</w>":9668,"TRANS</w>":9669,"patient</w>":9670,"ouest</w>":9671,"hood</w>":9672,"textes</w>":9673,"PER":9674,"quotidi":9675,"premiers</w>":9676,"filles</w>":9677,"respond</w>":9678,"PT</w>":9679,"danger</w>":9680,"Limited</w>":9681,"less":9682,"bases</w>":9683,"euve</w>":9684,"copy</w>":9685,"alo":9686,"waste</w>":9687,"exécutif</w>":9688,"accorder</w>":9689,"businesses</w>":9690,"érance</w>":9691,"avoid</w>":9692,"School</w>":9693,"Fisheries</w>":9694,"Ve":9695,"combus":9696,"abinet</w>":9697,"adopt</w>":9698,"ower</w>":9699,"considération</w>":9700,"category</w>":9701,"liminary</w>":9702,"transportation</w>":9703,"minorités</w>":9704,"examination</w>":9705,"chô":9706,"multi</w>":9707,"Fu":9708,"Pay":9709,"Introduction</w>":9710,"partage</w>":9711,"corporate</w>":9712,"chose</w>":9713,"fr</w>":9714,"Maj":9715,"cle":9716,"anmoins</w>":9717,"quantité</w>":9718,"Cas":9719,"culturels</w>":9720,"rob":9721,"exige</w>":9722,"tric</w>":9723,"Heritage</w>":9724,"evision</w>":9725,"Ori":9726,"cadres</w>":9727,"Relations</w>":9728,"schem":9729,"farm":9730,"OSCE</w>":9731,"xembour":9732,"ship":9733,"poids</w>":9734,"welcome</w>":9735,"plainte</w>":9736,"visés</w>":9737,"ardi":9738,"link</w>":9739,"drugs</w>":9740,"aties</w>":9741,"funded</w>":9742,"accommo":9743,"Pacifique</w>":9744,"shows</w>":9745,"dû</w>":9746,"Scotia</w>":9747,"Afin</w>":9748,"applies</w>":9749,"considéré</w>":9750,"orial</w>":9751,"ÁÁ":9752,"fare</w>":9753,"trop":9754,"porté</w>":9755,"Fri":9756,"negative</w>":9757,"statistics</w>":9758,"éliminer</w>":9759,"jobs</w>":9760,"My":9761,"effectué</w>":9762,"grant</w>":9763,"ik":9764,"Ressources</w>":9765,"électr":9766,"fas":9767,"IB":9768,"tie</w>":9769,"Arc":9770,"jan</w>":9771,"unes</w>":9772,"voluntary</w>":9773,"Articles</w>":9774,"échéant</w>":9775,"forced</w>":9776,"Certains</w>":9777,"Nether":9778,"Hy":9779,"hibition</w>":9780,"findings</w>":9781,"Hun":9782,"Ris":9783,"sea</w>":9784,"onnées</w>":9785,"eans</w>":9786,"Administrative</w>":9787,"frau":9788,"cul</w>":9789,"EE</w>":9790,"amén":9791,"OU":9792,"plant</w>":9793,"complet</w>":9794,"planned</w>":9795,"nia</w>":9796,"seau</w>":9797,"alism</w>":9798,"TA":9799,"internes</w>":9800,"Buil":9801,"Italie</w>":9802,"caused</w>":9803,"iles</w>":9804,"dérou":9805,"appara":9806,"Maur":9807,"submission</w>":9808,"sc</w>":9809,"officer</w>":9810,"appear</w>":9811,"networks</w>":9812,"Netherlands</w>":9813,"édition</w>":9814,"highest</w>":9815,"mass</w>":9816,"approvisionnement</w>":9817,"gérer</w>":9818,"provinciaux</w>":9819,"sequent</w>":9820,"enu</w>":9821,"ériques</w>":9822,"senti":9823,"biais</w>":9824,"adoptées</w>":9825,"chlor":9826,"anish</w>":9827,"invo":9828,"lati":9829,"extension</w>":9830,"vr":9831,"Sierra</w>":9832,"tablis":9833,"Mid":9834,"PNUD</w>":9835,"motiv":9836,"exercer</w>":9837,"longue</w>":9838,"Adoption</w>":9839,"vets</w>":9840,"instruction</w>":9841,"lets</w>":9842,"certification</w>":9843,"changed</w>":9844,"Lin":9845,"complaint</w>":9846,"crucial</w>":9847,"Al</w>":9848,"emed</w>":9849,"trouver":9850,"protected</w>":9851,"sen</w>":9852,"Recher":9853,"MAR":9854,"appliquent</w>":9855,"erve</w>":9856,"Gar":9857,"indiquer</w>":9858,"Resul":9859,"Status</w>":9860,"Rules</w>":9861,"online</w>":9862,"div":9863,"Therefore</w>":9864,"leng":9865,"isé</w>":9866,"achieving</w>":9867,"procès</w>":9868,"peacekeeping</w>":9869,"affili":9870,"vaste</w>":9871,"29":9872,"contacts</w>":9873,"factor</w>":9874,"immediately</w>":9875,"forest</w>":9876,"arib":9877,"agé</w>":9878,"Braz":9879,"délais</w>":9880,"Alg":9881,"wat":9882,"Spain</w>":9883,"avut</w>":9884,"solidar":9885,"delegations</w>":9886,"répercussions</w>":9887,"invent":9888,"ama</w>":9889,"ench":9890,"souhaite</w>":9891,"where":9892,"monitor</w>":9893,"convic":9894,"auront</w>":9895,"onnel</w>":9896,"Annual</w>":9897,"détention</w>":9898,"iration</w>":9899,"Each</w>":9900,"aims</w>":9901,"considérée</w>":9902,"row</w>":9903,"down":9904,"discuss</w>":9905,"mean</w>":9906,"expenditures</w>":9907,"alimentaires</w>":9908,"appellant</w>":9909,"portent</w>":9910,"Alli":9911,"Chris":9912,"menace</w>":9913,"Moreover</w>":9914,"infection</w>":9915,"closely</w>":9916,"120</w>":9917,"seek</w>":9918,"tempér":9919,"dépu":9920,"emor":9921,"tically</w>":9922,"universit":9923,"Gestion</w>":9924,"Propos":9925,"utilisant</w>":9926,"acco</w>":9927,"vingt</w>":9928,"HCR</w>":9929,"flow</w>":9930,"PN":9931,"ian</w>":9932,"competitive</w>":9933,"Eas":9934,"pt":9935,"grade</w>":9936,"Nic":9937,"erous</w>":9938,"Pal":9939,"Inuit</w>":9940,"spor":9941,"expenditure</w>":9942,"destination</w>":9943,"tonnes</w>":9944,"writing</w>":9945,"hearing</w>":9946,"exec":9947,"Stratégie</w>":9948,"Finally</w>":9949,"accountability</w>":9950,"mettant</w>":9951,"senior</w>":9952,"partner</w>":9953,"worked</w>":9954,"itié</w>":9955,"software</w>":9956,"Great</w>":9957,"OH":9958,"norme</w>":9959,"acted</w>":9960,"managers</w>":9961,"Prevention</w>":9962,"compréhen":9963,"historique</w>":9964,"présidence</w>":9965,"reland</w>":9966,"inclure</w>":9967,"never</w>":9968,"700</w>":9969,"ira</w>":9970,"devra</w>":9971,"tiens</w>":9972,"permit</w>":9973,"Sam":9974,"ENTS</w>":9975,"merc":9976,"PH":9977,"ailway</w>":9978,"Liber":9979,"entretien</w>":9980,"électroniques</w>":9981,"veloppement</w>":9982,"Media</w>":9983,"demeure</w>":9984,"sex</w>":9985,"intéri":9986,"Inte":9987,"trouvent</w>":9988,"entrer</w>":9989,"isson</w>":9990,"CIHR</w>":9991,"mér":9992,"exportations</w>":9993,"tool</w>":9994,"deo</w>":9995,"casting</w>":9996,"chaî":9997,"inscription</w>":9998,"chargée</w>":9999,"Bang":10000,"avid</w>":10001,"repe":10002,"iterran":10003,"annuelle</w>":10004,"Sol":10005,"onia</w>":10006,"prepare</w>":10007,"côté</w>":10008,"wood</w>":10009,"tendance</w>":10010,"reconnu</w>":10011,"diam":10012,"inscr":10013,"competent</w>":10014,"consequences</w>":10015,"break":10016,"considère</w>":10017,"finances</w>":10018,"Ireland</w>":10019,"porteurs</w>":10020,"word</w>":10021,"focused</w>":10022,"questionnaire</w>":10023,"regime</w>":10024,"plaintes</w>":10025,"itment</w>":10026,"intégrée</w>":10027,"Comment</w>":10028,"Millennium</w>":10029,"reducing</w>":10030,"structu":10031,"turn</w>":10032,"itting</w>":10033,"sépar":10034,"Justification</w>":10035,"sound</w>":10036,"damage</w>":10037,"Rule</w>":10038,"summary</w>":10039,"proxim":10040,"Recom":10041,"demeur":10042,"With":10043,"categories</w>":10044,"Hu":10045,"Vis":10046,"professionnel</w>":10047,"imposition</w>":10048,"knowledg":10049,"Strategic</w>":10050,"budgétaires</w>":10051,"comités</w>":10052,"assez</w>":10053,"importation</w>":10054,"spécifique</w>":10055,"insuffis":10056,"peg</w>":10057,"prochaine</w>":10058,"jurid":10059,"fishing</w>":10060,"dign":10061,"SERV":10062,"culturelles</w>":10063,"Luxembour":10064,"potentiel</w>":10065,"Bru":10066,"stock</w>":10067,"employeur</w>":10068,"WA</w>":10069,"ires</w>":10070,"Curr":10071,"Covenant</w>":10072,"bilatér":10073,"visée</w>":10074,"plat":10075,"provisional</w>":10076,"élector":10077,"virus</w>":10078,"Prime</w>":10079,"Nunavut</w>":10080,"puisque</w>":10081,"inking</w>":10082,"raisonnable</w>":10083,"reconstruction</w>":10084,"MR</w>":10085,"acks</w>":10086,"disabilities</w>":10087,"pending</w>":10088,"eco":10089,"rage</w>":10090,"brevets</w>":10091,"concernés</w>":10092,"yright</w>":10093,"bran":10094,"siècle</w>":10095,"codes</w>":10096,"fields</w>":10097,"petite</w>":10098,"Street</w>":10099,"liaison</w>":10100,"Recomman":10101,"licences</w>":10102,"Assistance</w>":10103,"Chaque</w>":10104,"Directorate</w>":10105,"eci</w>":10106,"félicite</w>":10107,"non":10108,"auquel</w>":10109,"istic</w>":10110,"Turkey</w>":10111,"immédiatement</w>":10112,"Contin":10113,"holder</w>":10114,"copies</w>":10115,"Youth</w>":10116,"Transportation</w>":10117,"dly</w>":10118,"exposure</w>":10119,"prélimin":10120,"departmental</w>":10121,"prononc":10122,"weeks</w>":10123,"Mol":10124,"jet":10125,"mac":10126,"lutter</w>":10127,"withdra":10128,"VER":10129,"fabric":10130,"Park</w>":10131,"fourth</w>":10132,"threat</w>":10133,"easi":10134,"judice</w>":10135,"Conclu":10136,"Bas</w>":10137,"lowing</w>":10138,"bless":10139,"Laur":10140,"mol":10141,"Luxembourg</w>":10142,"aéron":10143,"David</w>":10144,"auraient</w>":10145,"devenir</w>":10146,"Performance</w>":10147,"Foundation</w>":10148,"rend</w>":10149,"messages</w>":10150,"accounts</w>":10151,"souligne</w>":10152,"DF":10153,"50":10154,"consumers</w>":10155,"champ</w>":10156,"Winni":10157,"Provin":10158,"represent</w>":10159,"Pres":10160,"visite</w>":10161,"premières</w>":10162,"interdiction</w>":10163,"thème</w>":10164,"assign":10165,"jeu</w>":10166,"Fl":10167,"Australia</w>":10168,"ony</w>":10169,"prohib":10170,"présentées</w>":10171,"ald</w>":10172,"1980</w>":10173,"TM":10174,"ium</w>":10175,"Timor</w>":10176,"différences</w>":10177,"cinquante</w>":10178,"élevés</w>":10179,"Cli":10180,"évi":10181,"dealing</w>":10182,"race</w>":10183,"Further</w>":10184,"habilitation</w>":10185,"Déf":10186,"usually</w>":10187,"house":10188,"pertinents</w>":10189,"girls</w>":10190,"Premier</w>":10191,"Slov":10192,"weight</w>":10193,"pléni":10194,"Winnipeg</w>":10195,"linked</w>":10196,"habitants</w>":10197,"détail</w>":10198,"dens":10199,"Most</w>":10200,"étudier</w>":10201,"stay</w>":10202,"entire</w>":10203,"Aux</w>":10204,"Type</w>":10205,"Civil</w>":10206,"roy":10207,"gn</w>":10208,"Arab":10209,"primarily</w>":10210,"onnés</w>":10211,"Hab":10212,"creating</w>":10213,"comportement</w>":10214,"patrimoine</w>":10215,"Tari":10216,"medic":10217,"éor":10218,"advantage</w>":10219,"atteinte</w>":10220,"corporation</w>":10221,"proper</w>":10222,"transit</w>":10223,"motifs</w>":10224,"Day</w>":10225,"Addi":10226,"seven</w>":10227,"Monit":10228,"parfois</w>":10229,"contain</w>":10230,"Family</w>":10231,"réclam":10232,"mention</w>":10233,"Même</w>":10234,"audience</w>":10235,"surve":10236,"acquis</w>":10237,"faudrait</w>":10238,"ommun":10239,"maison</w>":10240,"tem</w>":10241,"temporary</w>":10242,"amendements</w>":10243,"Any</w>":10244,"availability</w>":10245,"Mexique</w>":10246,"align":10247,"proactive</w>":10248,"chemical</w>":10249,"modern</w>":10250,"portion</w>":10251,"culturel</w>":10252,"IRSC</w>":10253,"Proper":10254,"possibles</w>":10255,"Ru":10256,"pouvait</w>":10257,"actuelles</w>":10258,"refus":10259,"transparency</w>":10260,"préalable</w>":10261,"nor</w>":10262,"Paragraph</w>":10263,"hausse</w>":10264,"sched":10265,"democracy</w>":10266,"locale</w>":10267,"essentiellement</w>":10268,"system":10269,"perfecti":10270,"researchers</w>":10271,"Dépenses</w>":10272,"sight</w>":10273,"liter":10274,"vice</w>":10275,"bande</w>":10276,"allows</w>":10277,"frag":10278,"percentage</w>":10279,"connu</w>":10280,"nomin":10281,"légi":10282,"delà</w>":10283,"conting":10284,"preven":10285,"she":10286,"Compte</w>":10287,"fees</w>":10288,"previously</w>":10289,"stress</w>":10290,"satellite</w>":10291,"lege</w>":10292,"onner</w>":10293,"Leone</w>":10294,"UK</w>":10295,"exist</w>":10296,"tirer</w>":10297,"Wel":10298,"tir</w>":10299,"profession":10300,"séances</w>":10301,"late</w>":10302,"daily</w>":10303,"ologies</w>":10304,"recommends</w>":10305,"addressing</w>":10306,"climatiques</w>":10307,"subsequent</w>":10308,"sémin":10309,"couv":10310,"juridic":10311,"courses</w>":10312,"indication</w>":10313,"inform</w>":10314,"ester</w>":10315,"consent</w>":10316,"Technical</w>":10317,"Espagne</w>":10318,"contraire</w>":10319,"sets</w>":10320,"Sub</w>":10321,"degré</w>":10322,"Population</w>":10323,"intégrer</w>":10324,"impossible</w>":10325,"ressor":10326,"atrice</w>":10327,"FR</w>":10328,"régimes</w>":10329,"affirme</w>":10330,"taires</w>":10331,"util":10332,"modern":10333,"consumption</w>":10334,"noté</w>":10335,"Pat":10336,"Guidelines</w>":10337,"infraction</w>":10338,"Bret":10339,"exhau":10340,"izing</w>":10341,"innovative</w>":10342,"ètes</w>":10343,"uction</w>":10344,"extended</w>":10345,"vation</w>":10346,"contre":10347,"voi</w>":10348,"sidency</w>":10349,"spéciaux</w>":10350,"commissaire</w>":10351,"facteur</w>":10352,"regards</w>":10353,"thèse</w>":10354,"gains</w>":10355,"compren":10356,"facility</w>":10357,"canada</w>":10358,"sense</w>":10359,"Care</w>":10360,"situé</w>":10361,"Azer":10362,"remboursement</w>":10363,"classes</w>":10364,"territories</w>":10365,"empor":10366,"modifié</w>":10367,"attén":10368,"gestionnaires</w>":10369,"His</w>":10370,"secondaire</w>":10371,"çons</w>":10372,"secure</w>":10373,"TV":10374,"villes</w>":10375,"vious</w>":10376,"enough</w>":10377,"excessi":10378,"restruc":10379,"choice</w>":10380,"Commerce</w>":10381,"prolong":10382,"nouvel</w>":10383,"settlement</w>":10384,"Statisti":10385,"garantie</w>":10386,"établis</w>":10387,"immigrants</w>":10388,"électri":10389,"accrue</w>":10390,"Pour":10391,"comply</w>":10392,"largest</w>":10393,"computer</w>":10394,"Cré":10395,"absolu":10396,"religious</w>":10397,"convainc":10398,"recrutement</w>":10399,"rying</w>":10400,"assure</w>":10401,"quez</w>":10402,"icts</w>":10403,"ographique</w>":10404,"ôts</w>":10405,"confidence</w>":10406,"établie</w>":10407,"gen</w>":10408,"arrêt</w>":10409,"oral</w>":10410,"estimates</w>":10411,"précise</w>":10412,"Parmi</w>":10413,"chemin</w>":10414,"sta</w>":10415,"mainly</w>":10416,"tière</w>":10417,"fourniture</w>":10418,"FP</w>":10419,"doute</w>":10420,"Operations</w>":10421,"utili":10422,"Irlande</w>":10423,"adjoint</w>":10424,"Chair</w>":10425,"limits</w>":10426,"26":10427,"èlement</w>":10428,"Finance</w>":10429,"ression</w>":10430,"érés</w>":10431,"Fif":10432,"Customs</w>":10433,"Sa":10434,"Politique</w>":10435,"Head":10436,"formulation</w>":10437,"typ":10438,"siège</w>":10439,"PP</w>":10440,"Rw":10441,"conç":10442,"diversi":10443,"ste</w>":10444,"vie":10445,"Reports</w>":10446,"chacune</w>":10447,"entement</w>":10448,"cibl":10449,"Plu":10450,"cosse</w>":10451,"réception</w>":10452,"simplement</w>":10453,"révél":10454,"MC</w>":10455,"poser</w>":10456,"Inde</w>":10457,"ajout":10458,"confron":10459,"plants</w>":10460,"multilateral</w>":10461,"Case</w>":10462,"patent</w>":10463,"pal":10464,"dépendant</w>":10465,"ga</w>":10466,"ares</w>":10467,"culturelle</w>":10468,"procurement</w>":10469,"nutrition</w>":10470,"Invest":10471,"vois":10472,"identifier</w>":10473,"respectivement</w>":10474,"égal</w>":10475,"huit</w>":10476,"essed</w>":10477,"limitée</w>":10478,"GOs</w>":10479,"eli</w>":10480,"failure</w>":10481,"century</w>":10482,"lives</w>":10483,"soulev":10484,"organisée</w>":10485,"démi":10486,"Sw":10487,"humain</w>":10488,"régulièrement</w>":10489,"ome":10490,"empêcher</w>":10491,"doc</w>":10492,"appropriées</w>":10493,"équitable</w>":10494,"animal</w>":10495,"conjoin":10496,"Première</w>":10497,"commencé</w>":10498,"guarantee</w>":10499,"true</w>":10500,"fight</w>":10501,"bien":10502,"Azerb":10503,"andum</w>":10504,"disarmament</w>":10505,"titulaire</w>":10506,"brev":10507,"opti":10508,"Etat</w>":10509,"Contracting</w>":10510,"officielle</w>":10511,"ulaire</w>":10512,"refugees</w>":10513,"speak":10514,"Turquie</w>":10515,"Newfound":10516,"Cô":10517,"IG":10518,"décrit</w>":10519,"ey":10520,"actuels</w>":10521,"producers</w>":10522,"SION</w>":10523,"calcul</w>":10524,"respectively</w>":10525,"utiles</w>":10526,"individus</w>":10527,"gress</w>":10528,"quit":10529,"RES</w>":10530,"ounded</w>":10531,"efficacement</w>":10532,"découl":10533,"Dan":10534,"dirigeants</w>":10535,"nour":10536,"fiées</w>":10537,"isations</w>":10538,"encouraged</w>":10539,"Results</w>":10540,"Système</w>":10541,"Excell":10542,"dÃ©":10543,"complaints</w>":10544,"minority</w>":10545,"presque</w>":10546,"fabri":10547,"VE</w>":10548,"annivers":10549,"obtenus</w>":10550,"arabe</w>":10551,"Identi":10552,"became</w>":10553,"recorded</w>":10554,"Son</w>":10555,"105</w>":10556,"Draft</w>":10557,"Vol":10558,"goslav":10559,"Newfoundland</w>":10560,"fall":10561,"qualifications</w>":10562,"database</w>":10563,"ulgation</w>":10564,"signifie</w>":10565,"DO":10566,"montants</w>":10567,"sûreté</w>":10568,"entendu</w>":10569,"isant</w>":10570,"refer</w>":10571,"thank</w>":10572,"déci":10573,"fondé</w>":10574,"distinction</w>":10575,"TIONS</w>":10576,"adre</w>":10577,"programming</w>":10578,"phen":10579,"inj":10580,"MA":10581,"tour</w>":10582,"atic":10583,"Proced":10584,"Tan":10585,"horizon":10586,"WTO</w>":10587,"Investi":10588,"veut</w>":10589,"usement</w>":10590,"Ur":10591,"gamme</w>":10592,"Recherche</w>":10593,"Property</w>":10594,"budgets</w>":10595,"thir":10596,"highligh":10597,"requis</w>":10598,"Nombre</w>":10599,"élaboré</w>":10600,"Développement</w>":10601,"supprim":10602,"contract":10603,"membership</w>":10604,"plur":10605,"traffic</w>":10606,"marques</w>":10607,"forêts</w>":10608,"sign</w>":10609,"supr":10610,"enab":10611,"anties</w>":10612,"Gro":10613,"voix</w>":10614,"mort</w>":10615,"médicaux</w>":10616,"Year</w>":10617,"receiving</w>":10618,"constitution</w>":10619,"Toutes</w>":10620,"interpretation</w>":10621,"itations</w>":10622,"°C</w>":10623,"prison</w>":10624,"Chambre</w>":10625,"run</w>":10626,"entités</w>":10627,"Autochtones</w>":10628,"Montre":10629,"pic":10630,"timely</w>":10631,"Ku":10632,"method":10633,"06":10634,"liti":10635,"fast</w>":10636,"legi":10637,"amendement</w>":10638,"valoir</w>":10639,"étiqu":10640,"Delegation</w>":10641,"substantial</w>":10642,"963</w>":10643,"lie</w>":10644,"resident</w>":10645,"launched</w>":10646,"OMC</w>":10647,"El</w>":10648,"Int":10649,"télévision</w>":10650,"opinions</w>":10651,"yers</w>":10652,"targets</w>":10653,"diffus":10654,"powers</w>":10655,"pourront</w>":10656,"increasingly</w>":10657,"laiss":10658,"adultes</w>":10659,"WG</w>":10660,"simply</w>":10661,"cotis":10662,"immediate</w>":10663,"presentation</w>":10664,"signe</w>":10665,"Natural</w>":10666,"idées</w>":10667,"FF":10668,"Gi":10669,"compatible</w>":10670,"Swit":10671,"directe</w>":10672,"Survey</w>":10673,"Millénaire</w>":10674,"itent</w>":10675,"Esti":10676,"admissibles</w>":10677,"atin</w>":10678,"hard</w>":10679,"adminis":10680,"CES</w>":10681,"enterprises</w>":10682,"NGOs</w>":10683,"importations</w>":10684,"ION</w>":10685,"relief</w>":10686,"dra</w>":10687,"DR":10688,"itions</w>":10689,"mée</w>":10690,"CS</w>":10691,"entities</w>":10692,"intellectual</w>":10693,"prison":10694,"compréhension</w>":10695,"aérop":10696,"Med":10697,"informer</w>":10698,"donateurs</w>":10699,"Key</w>":10700,"Item</w>":10701,"Avec</w>":10702,"investments</w>":10703,"recens":10704,"tendances</w>":10705,"navigation</w>":10706,"signé</w>":10707,"seas":10708,"iv</w>":10709,"wish":10710,"endroit</w>":10711,"Lev":10712,"pollu":10713,"dor":10714,"22":10715,"Lorsqu</w>":10716,"moitié</w>":10717,"baisse</w>":10718,"element</w>":10719,"bilateral</w>":10720,"arer</w>":10721,"larger</w>":10722,"giving</w>":10723,"Insurance</w>":10724,"Schedule</w>":10725,"assessed</w>":10726,"Scienti":10727,"Concer":10728,"entered</w>":10729,"préparer</w>":10730,"colon":10731,"doub":10732,"Austri":10733,"ymp":10734,"param":10735,"éduc":10736,"corps</w>":10737,"Acti":10738,"ara</w>":10739,"supervision</w>":10740,"characteristics</w>":10741,"terror":10742,"bord</w>":10743,"Hol":10744,"ativement</w>":10745,"qualified</w>":10746,"committees</w>":10747,"gies</w>":10748,"Political</w>":10749,"budgétaire</w>":10750,"marks</w>":10751,"courant</w>":10752,"soudre</w>":10753,"distingu":10754,"uire</w>":10755,"virtu":10756,"whom</w>":10757,"èges</w>":10758,"stric":10759,"delivered</w>":10760,"soumettre</w>":10761,"chambre</w>":10762,"vulnerable</w>":10763,"run":10764,"infractions</w>":10765,"progress":10766,"contribué</w>":10767,"counter":10768,"sman</w>":10769,"chômage</w>":10770,"Chem":10771,"adolescents</w>":10772,"rivi":10773,"NE":10774,"appuie</w>":10775,"admissible</w>":10776,"Modi":10777,"criminalité</w>":10778,"extrê":10779,"enhanced</w>":10780,"pouvons</w>":10781,"trends</w>":10782,"terroristes</w>":10783,"rc</w>":10784,"lancé</w>":10785,"bud":10786,"ón</w>":10787,"Disclosure</w>":10788,"transform":10789,"accidents</w>":10790,"urs":10791,"téléphone</w>":10792,"Don":10793,"automob":10794,"umes</w>":10795,"Main":10796,"Provi":10797,"Staff</w>":10798,"ajust":10799,"fire</w>":10800,"manufactu":10801,"Mont":10802,"PRE":10803,"sormais</w>":10804,"figurent</w>":10805,"esday</w>":10806,"Australie</w>":10807,"neuf</w>":10808,"vres</w>":10809,"fixed</w>":10810,"iers</w>":10811,"Four":10812,"adj":10813,"neigh":10814,"tablissement</w>":10815,"ki</w>":10816,"expand":10817,"rise</w>":10818,"Mun":10819,"TO":10820,"timate</w>":10821,"arité</w>":10822,"urgent</w>":10823,"ster":10824,"Paul</w>":10825,"exemples</w>":10826,"mesur":10827,"scheduled</w>":10828,"avy</w>":10829,"High":10830,"Mé":10831,"veuillez</w>":10832,"xante</w>":10833,"détails</w>":10834,"pertes</w>":10835,"nés</w>":10836,"déterminé</w>":10837,"Moy":10838,"payable</w>":10839,"Pen":10840,"rurales</w>":10841,"ots</w>":10842,"increases</w>":10843,"relatively</w>":10844,"ineering</w>":10845,"Promotion</w>":10846,"vidé":10847,"spr":10848,"éter</w>":10849,"Cultural</w>":10850,"Reference</w>":10851,"began</w>":10852,"wil":10853,"excellence</w>":10854,"appareils</w>":10855,"host</w>":10856,"Mise</w>":10857,"absor":10858,"biennal</w>":10859,"vital</w>":10860,"sél":10861,"fro":10862,"rencontr":10863,"Korea</w>":10864,"holds</w>":10865,"preuves</w>":10866,"débats</w>":10867,"Land</w>":10868,"TV</w>":10869,"Crime</w>":10870,"visé</w>":10871,"entier</w>":10872,"Two</w>":10873,"Assistant</w>":10874,"prev":10875,"essentiels</w>":10876,"models</w>":10877,"difference</w>":10878,"étapes</w>":10879,"entend</w>":10880,"éans</w>":10881,"came</w>":10882,"difficulties</w>":10883,"attend":10884,"Calgary</w>":10885,"pénal</w>":10886,"Nos</w>":10887,"Écosse</w>":10888,"specialized</w>":10889,"responses</w>":10890,"terrorist</w>":10891,"identity</w>":10892,"devices</w>":10893,"remplir</w>":10894,"Ã©s</w>":10895,"tâche</w>":10896,"etage</w>":10897,"déplo":10898,"orical</w>":10899,"mar</w>":10900,"més</w>":10901,"commis</w>":10902,"ce":10903,"Montreal</w>":10904,"Contract</w>":10905,"Super":10906,"Notice</w>":10907,"alisme</w>":10908,"win":10909,"obligatoire</w>":10910,"estimé</w>":10911,"Revenue</w>":10912,"avires</w>":10913,"Philipp":10914,"Equ":10915,"mid":10916,"auche</w>":10917,"tabac</w>":10918,"33":10919,"activement</w>":10920,"Alban":10921,"rons</w>":10922,"Hali":10923,"banques</w>":10924,"plen":10925,"somme</w>":10926,"na</w>":10927,"Conserv":10928,"Rich":10929,"alist</w>":10930,"syndic":10931,"indépendance</w>":10932,"envisager</w>":10933,"stress":10934,"déployés</w>":10935,"resulted</w>":10936,"Audit</w>":10937,"représentation</w>":10938,"relève</w>":10939,"recei":10940,"Suisse</w>":10941,"clause</w>":10942,"mots</w>":10943,"diseases</w>":10944,"About</w>":10945,"bab":10946,"ajouter</w>":10947,"features</w>":10948,"detention</w>":10949,"released</w>":10950,"gouvernementale</w>":10951,"thers</w>":10952,"din":10953,"CT</w>":10954,"K1A</w>":10955,"tons</w>":10956,"Atlantique</w>":10957,"meilleures</w>":10958,"recip":10959,"économies</w>":10960,"ski</w>":10961,"substantive</w>":10962,"dlife</w>":10963,"Corée</w>":10964,"Robert</w>":10965,"ham":10966,"changer</w>":10967,"elected</w>":10968,"Switzer":10969,"Plusieurs</w>":10970,"rempl":10971,"ction</w>":10972,"atelier</w>":10973,"predic":10974,"témoign":10975,"intégrité</w>":10976,"indispensable</w>":10977,"garanties</w>":10978,"accept</w>":10979,"fault</w>":10980,"Switzerland</w>":10981,"Ni":10982,"salari":10983,"TRE</w>":10984,"carrying</w>":10985,"played</w>":10986,"pensions</w>":10987,"échel":10988,"Alliance</w>":10989,"alists</w>":10990,"stock":10991,"instances</w>":10992,"protocole</w>":10993,"envers</w>":10994,"representation</w>":10995,"établies</w>":10996,"telephone</w>":10997,"add</w>":10998,"chiffres</w>":10999,"Det":11000,"Dou":11001,"NE</w>":11002,"heritage</w>":11003,"passeng":11004,"aves</w>":11005,"examined</w>":11006,"isra":11007,"environnementales</w>":11008,"CRTC</w>":11009,"cycl":11010,"administrations</w>":11011,"illegal</w>":11012,"Inf":11013,"Conse":11014,"ANT</w>":11015,"BO":11016,"officiel</w>":11017,"PA":11018,"précis</w>":11019,"devront</w>":11020,"maintained</w>":11021,"UM":11022,"phon":11023,"parlementaire</w>":11024,"TER</w>":11025,"résoudre</w>":11026,"reviews</w>":11027,"loin</w>":11028,"safe":11029,"Lou":11030,"tourisme</w>":11031,"bound":11032,"PR</w>":11033,"transaction</w>":11034,"chin":11035,"Countries</w>":11036,"ored</w>":11037,"organe</w>":11038,"Notes</w>":11039,"offerts</w>":11040,"dose</w>":11041,"tting</w>":11042,"réformes</w>":11043,"africaine</w>":11044,"manage</w>":11045,"changing</w>":11046,"stan</w>":11047,"recouv":11048,"Es</w>":11049,"demment</w>":11050,"Leban":11051,"reurs</w>":11052,"Innov":11053,"reproduction</w>":11054,"adressée</w>":11055,"cinqui":11056,"stream</w>":11057,"answer</w>":11058,"built</w>":11059,"choses</w>":11060,"montrer</w>":11061,"Activities</w>":11062,"vérifier</w>":11063,"combined</w>":11064,"perm":11065,"régler</w>":11066,"foli":11067,"socio</w>":11068,"27":11069,"fifty</w>":11070,"communs</w>":11071,"outil</w>":11072,"1st</w>":11073,"bean</w>":11074,"PME</w>":11075,"touchant</w>":11076,"zu":11077,"Throu":11078,"Israeli</w>":11079,"naturel</w>":11080,"Work":11081,"accession</w>":11082,"désormais</w>":11083,"symbo":11084,"SOC</w>":11085,"handicapées</w>":11086,"intel":11087,"ché</w>":11088,"Meas":11089,"assessments</w>":11090,"oure":11091,"harmonisation</w>":11092,"appears</w>":11093,"draf":11094,"FI":11095,"destinées</w>":11096,"accomplis</w>":11097,"Name</w>":11098,"vas":11099,"ration":11100,"comed</w>":11101,"allant</w>":11102,"occid":11103,"treated</w>":11104,"certaine</w>":11105,"différence</w>":11106,"probablement</w>":11107,"considerable</w>":11108,"existants</w>":11109,"represents</w>":11110,"Examen</w>":11111,"incidents</w>":11112,"ditions</w>":11113,"plaign":11114,"profon":11115,"répu":11116,"provo":11117,"occur</w>":11118,"collected</w>":11119,"incidences</w>":11120,"ld":11121,"30":11122,"prolifér":11123,"diminution</w>":11124,"passe</w>":11125,"Brazil</w>":11126,"informé</w>":11127,"fies</w>":11128,"Task</w>":11129,"uer</w>":11130,"amor":11131,"municipal</w>":11132,"foot":11133,"style</w>":11134,"sels</w>":11135,"conjoint</w>":11136,"ophob":11137,"combat":11138,"bonnes</w>":11139,"economies</w>":11140,"pauvres</w>":11141,"ishment</w>":11142,"remaining</w>":11143,"noter</w>":11144,"présentes</w>":11145,"sexuelle</w>":11146,"wal":11147,"List</w>":11148,"biennium</w>":11149,"My</w>":11150,"hes":11151,"libertés</w>":11152,"supérieure</w>":11153,"looking</w>":11154,"title</w>":11155,"relever</w>":11156,"prime</w>":11157,"organiser</w>":11158,"appropriée</w>":11159,"advertis":11160,"finding</w>":11161,"alize</w>":11162,"divul":11163,"END":11164,"length</w>":11165,"actively</w>":11166,"dég":11167,"ainte</w>":11168,"Inst":11169,"elled</w>":11170,"Salle</w>":11171,"offrent</w>":11172,"imposed</w>":11173,"équilibre</w>":11174,"chances</w>":11175,"enfance</w>":11176,"rus":11177,"Sweden</w>":11178,"CMP</w>":11179,"FIN":11180,"Conn":11181,"Change</w>":11182,"interaction</w>":11183,"toire</w>":11184,"Edmon":11185,"declaration</w>":11186,"Imp":11187,"réalité</w>":11188,"cash</w>":11189,"Thus</w>":11190,"gain</w>":11191,"décès</w>":11192,"essor</w>":11193,"fine</w>":11194,"écou":11195,"Area</w>":11196,"coverage</w>":11197,"Eastern</w>":11198,"NG</w>":11199,"inser":11200,"convenu</w>":11201,"bénéficier</w>":11202,"friend":11203,"ething</w>":11204,"Territories</w>":11205,"impose</w>":11206,"mobile</w>":11207,"burg</w>":11208,"phénom":11209,"entièrement</w>":11210,"BR":11211,"Sau":11212,"législatives</w>":11213,"stages</w>":11214,"tasks</w>":11215,"indépendant</w>":11216,"Medical</w>":11217,"Partnership</w>":11218,"navires</w>":11219,"Él":11220,"za</w>":11221,"Can</w>":11222,"tième</w>":11223,"fee</w>":11224,"Halifax</w>":11225,"terres":11226,"performed</w>":11227,"sample</w>":11228,"doms</w>":11229,"Kenya</w>":11230,"dégrad":11231,"operative</w>":11232,"Carib":11233,"supervis":11234,"sphere</w>":11235,"inscrit</w>":11236,"certificat</w>":11237,"Planning</w>":11238,"Ca":11239,"entrepris</w>":11240,"suites</w>":11241,"emphasis</w>":11242,"considers</w>":11243,"preliminary</w>":11244,"découlant</w>":11245,"cinquième</w>":11246,"VII</w>":11247,"érap":11248,"ôles</w>":11249,"posts</w>":11250,"bénéf":11251,"gene":11252,"firms</w>":11253,"concrete</w>":11254,"welcomed</w>":11255,"Rwanda</w>":11256,"prolifération</w>":11257,"female</w>":11258,"esh</w>":11259,"EURO":11260,"Procu":11261,"twenty</w>":11262,"tent":11263,"Islam":11264,"exploration</w>":11265,"express</w>":11266,"multiple</w>":11267,"sities</w>":11268,"FORM":11269,"aled</w>":11270,"Côte</w>":11271,"verse</w>":11272,"ford</w>":11273,"administratif</w>":11274,"pilot</w>":11275,"surviv":11276,"controls</w>":11277,"procédé</w>":11278,"stly</w>":11279,"advoc":11280,"Classi":11281,"SH":11282,"constitute</w>":11283,"Gol":11284,"Marine</w>":11285,"spécialistes</w>":11286,"Habit":11287,"alestine</w>":11288,"honn":11289,"UNES":11290,"Spe":11291,"directeurs</w>":11292,"Class</w>":11293,"Costa</w>":11294,"sectori":11295,"reflected</w>":11296,"riv":11297,"chauff":11298,"Indic":11299,"German</w>":11300,"suggestions</w>":11301,"Infr":11302,"opie</w>":11303,"las":11304,"und":11305,"Uti":11306,"ena</w>":11307,"enders</w>":11308,"gives</w>":11309,"frontali":11310,"SR</w>":11311,"chann":11312,"served</w>":11313,"completion</w>":11314,"improvements</w>":11315,"équipes</w>":11316,"feel</w>":11317,"Russia</w>":11318,"présentent</w>":11319,"Palestine</w>":11320,"remise</w>":11321,"village</w>":11322,"aid":11323,"domm":11324,"Micha":11325,"prêt</w>":11326,"imparti":11327,"poursuite</w>":11328,"sted</w>":11329,"Telec":11330,"encontre</w>":11331,"1982</w>":11332,"kin":11333,"ONAL</w>":11334,"gène</w>":11335,"odic</w>":11336,"facult":11337,"prudence</w>":11338,"quite</w>":11339,"Nom</w>":11340,"prin":11341,"Capital</w>":11342,"Téléphone</w>":11343,"engaged</w>":11344,"Lib":11345,"annoncé</w>":11346,"datée</w>":11347,"familiale</w>":11348,"feration</w>":11349,"Adv":11350,"montrent</w>":11351,"Museum</w>":11352,"accordée</w>":11353,"igne</w>":11354,"auto":11355,"Exc":11356,"TD</w>":11357,"Industrie</w>":11358,"CO2</w>":11359,"tina</w>":11360,"proven":11361,"souligner</w>":11362,"auxquelles</w>":11363,"Proactive</w>":11364,"sui":11365,"Risk</w>":11366,"Monitoring</w>":11367,"appels</w>":11368,"Manufac":11369,"climat</w>":11370,"pare":11371,"dispositifs</w>":11372,"environnementaux</w>":11373,"graphique</w>":11374,"négociation</w>":11375,"ordonnance</w>":11376,"fore":11377,"financer</w>":11378,"Benef":11379,"Rome</w>":11380,"emark</w>":11381,"IO":11382,"ca":11383,"behaviour</w>":11384,"really</w>":11385,"vig":11386,"comporte</w>":11387,"facts</w>":11388,"eight</w>":11389,"ami":11390,"préoccupation</w>":11391,"Grand</w>":11392,"écr":11393,"Georgi":11394,"puts</w>":11395,"Building</w>":11396,"exposé</w>":11397,"package</w>":11398,"invitation</w>":11399,"actually</w>":11400,"viation</w>":11401,"substitu":11402,"ancien</w>":11403,"Not</w>":11404,"tch":11405,"occasions</w>":11406,"Over</w>":11407,"namely</w>":11408,"prestat":11409,"something</w>":11410,"résid":11411,"duci":11412,"modes</w>":11413,"Paragraphe</w>":11414,"input</w>":11415,"aring</w>":11416,"frontière</w>":11417,"atically</w>":11418,"Peace</w>":11419,"résidence</w>":11420,"Ben":11421,"Programs</w>":11422,"porters</w>":11423,"correct</w>":11424,"possession</w>":11425,"Parks</w>":11426,"Art</w>":11427,"Thom":11428,"Appeal</w>":11429,"alisés</w>":11430,"ventes</w>":11431,"names</w>":11432,"Following</w>":11433,"ko</w>":11434,"Based</w>":11435,"bon":11436,"marri":11437,"candidat</w>":11438,"Commissariat</w>":11439,"dium</w>":11440,"sensitive</w>":11441,"PM</w>":11442,"Main</w>":11443,"populaire</w>":11444,"ray":11445,"hop":11446,"workshop</w>":11447,"Clo":11448,"begin</w>":11449,"emerging</w>":11450,"purchase</w>":11451,"Philippines</w>":11452,"optim":11453,"Défense</w>":11454,"remained</w>":11455,"chargés</w>":11456,"reserve</w>":11457,"examples</w>":11458,"particulières</w>":11459,"civilian</w>":11460,"inspec":11461,"equivalent</w>":11462,"Search</w>":11463,"extensive</w>":11464,"television</w>":11465,"GE</w>":11466,"intitulée</w>":11467,"suspension</w>":11468,"Edmonton</w>":11469,"statistical</w>":11470,"équité</w>":11471,"Brési":11472,"catastroph":11473,"IL</w>":11474,"occurred</w>":11475,"fut</w>":11476,"yed</w>":11477,"essional</w>":11478,"né</w>":11479,"confirmed</w>":11480,"alisé</w>":11481,"fondamentales</w>":11482,"Divulgation</w>":11483,"éthique</w>":11484,"UNESCO</w>":11485,"stream":11486,"integrity</w>":11487,"parent</w>":11488,"déterminée</w>":11489,"Industrial</w>":11490,"Statement</w>":11491,"infir":11492,"Euro":11493,"treaties</w>":11494,"armés</w>":11495,"énergétique</w>":11496,"approprié</w>":11497,"renseign":11498,"égale</w>":11499,"Standards</w>":11500,"êtres</w>":11501,"controlled</w>":11502,"Franç":11503,"heart</w>":11504,"academ":11505,"liée</w>":11506,"prévoir</w>":11507,"Latin</w>":11508,"Lan":11509,"ommunications</w>":11510,"conclure</w>":11511,"meaning</w>":11512,"Province</w>":11513,"1984</w>":11514,"écopi":11515,"quin":11516,"ateliers</w>":11517,"endue</w>":11518,"Mesures</w>":11519,"Common</w>":11520,"Wash":11521,"pharmaceu":11522,"Suède</w>":11523,"figures</w>":11524,"holding</w>":11525,"alone</w>":11526,"Avant</w>":11527,"enregistré</w>":11528,"Lead":11529,"conferences</w>":11530,"bénéficiaires</w>":11531,"Drug</w>":11532,"contributed</w>":11533,"rid</w>":11534,"ano</w>":11535,"Résul":11536,"achievement</w>":11537,"campaign</w>":11538,"sil":11539,"effectuées</w>":11540,"mineurs</w>":11541,"Autor":11542,"raise</w>":11543,"prescribed</w>":11544,"aying</w>":11545,"SI</w>":11546,"Neuve</w>":11547,"conflicts</w>":11548,"Middle</w>":11549,"asing</w>":11550,"Bec":11551,"élevée</w>":11552,"stipul":11553,"assist":11554,"ètre</w>":11555,"vulnérables</w>":11556,"ditor</w>":11557,"meilleurs</w>":11558,"bourg</w>":11559,"multiples</w>":11560,"chev":11561,"sac":11562,"AB</w>":11563,"exports</w>":11564,"pard</w>":11565,"ston</w>":11566,"rédig":11567,"israéli":11568,"INTER":11569,"bler</w>":11570,"Er":11571,"CH</w>":11572,"dispositif</w>":11573,"sports</w>":11574,"AUX</w>":11575,"ash</w>":11576,"Brésil</w>":11577,"Veu":11578,"desp":11579,"seeking</w>":11580,"nings</w>":11581,"Internal</w>":11582,"anciens</w>":11583,"correspondant</w>":11584,"favorable</w>":11585,"èmement</w>":11586,"maintaining</w>":11587,"continuent</w>":11588,"tiendra</w>":11589,"spir":11590,"stabil":11591,"chapter</w>":11592,"Bou":11593,"tage</w>":11594,"residence</w>":11595,"Présidente</w>":11596,"deemed</w>":11597,"Habitat</w>":11598,"band</w>":11599,"icals</w>":11600,"gique</w>":11601,"icing</w>":11602,"longtemps</w>":11603,"muni":11604,"statistique</w>":11605,"égét":11606,"undertaking</w>":11607,"MS</w>":11608,"précédent</w>":11609,"Team</w>":11610,"managed</w>":11611,"periods</w>":11612,"taxation</w>":11613,"acul":11614,"latter</w>":11615,"GI":11616,"SR":11617,"iche</w>":11618,"Sector</w>":11619,"effectif</w>":11620,"undertake</w>":11621,"Rev</w>":11622,"universités</w>":11623,"transparent</w>":11624,"îtr":11625,"actors</w>":11626,"05":11627,"Provincial</w>":11628,"partout</w>":11629,"determining</w>":11630,"menée</w>":11631,"mutual</w>":11632,"Its</w>":11633,"iller</w>":11634,"estre</w>":11635,"Related</w>":11636,"scolaire</w>":11637,"Cabinet</w>":11638,"précédente</w>":11639,"akh":11640,"Veuillez</w>":11641,"ME":11642,"assigned</w>":11643,"expériences</w>":11644,"scri":11645,"états</w>":11646,"despite</w>":11647,"Bill</w>":11648,"gro</w>":11649,"Headquarters</w>":11650,"numerous</w>":11651,"flow":11652,"professionals</w>":11653,"spending</w>":11654,"tariff</w>":11655,"isés</w>":11656,"storage</w>":11657,"lac</w>":11658,"ectif</w>":11659,"remplacement</w>":11660,"ozone</w>":11661,"permettr":11662,"appelle</w>":11663,"Ze":11664,"compagnie</w>":11665,"concernées</w>":11666,"machines</w>":11667,"accounting</w>":11668,"Coordination</w>":11669,"alph":11670,"ECD</w>":11671,"traditionnels</w>":11672,"céré":11673,"Chin":11674,"énoncés</w>":11675,"fera</w>":11676,"opening</w>":11677,"interrog":11678,"updated</w>":11679,"idea</w>":11680,"sidential</w>":11681,"hôp":11682,"titres</w>":11683,"complex":11684,"mentionné</w>":11685,"gran":11686,"Demande</w>":11687,"round</w>":11688,"relationships</w>":11689,"cellules</w>":11690,"advis":11691,"COR":11692,"decide</w>":11693,"correspond</w>":11694,"ampl":11695,"ions</w>":11696,"customers</w>":11697,"température</w>":11698,"inée</w>":11699,"MD":11700,"panel</w>":11701,"âgées</w>":11702,"Third</w>":11703,"conformes</w>":11704,"Session</w>":11705,"101</w>":11706,"tension</w>":11707,"Lors</w>":11708,"congé</w>":11709,"imports</w>":11710,"indications</w>":11711,"LL":11712,"excéd":11713,"Om":11714,"rép":11715,"impu":11716,"London</w>":11717,"paci":11718,"reconnaît</w>":11719,"existantes</w>":11720,"SERVIC":11721,"night</w>":11722,"TI</w>":11723,"Washington</w>":11724,"ger":11725,"èce</w>":11726,"achet":11727,"Index</w>":11728,"art":11729,"dite</w>":11730,"intr":11731,"heard</w>":11732,"utilise</w>":11733,"Caribbean</w>":11734,"idé":11735,"investigations</w>":11736,"soil</w>":11737,"temporaire</w>":11738,"aérien</w>":11739,"dimensions</w>":11740,"CAR":11741,"entail</w>":11742,"explique</w>":11743,"stein</w>":11744,"85":11745,"2011</w>":11746,"animals</w>":11747,"uctu":11748,"ching</w>":11749,"végét":11750,"Burundi</w>":11751,"épo":11752,"Orient</w>":11753,"offence</w>":11754,"notion</w>":11755,"humanitaires</w>":11756,"ologne</w>":11757,"org":11758,"110</w>":11759,"constituer</w>":11760,"judiciaires</w>":11761,"aiment</w>":11762,"concepts</w>":11763,"customs</w>":11764,"War</w>":11765,"eable</w>":11766,"Add":11767,"enjoy</w>":11768,"engager</w>":11769,"fers</w>":11770,"cartes</w>":11771,"speaking</w>":11772,"destiné</w>":11773,"francoph":11774,"town</w>":11775,"acknowledg":11776,"College</w>":11777,"proposée</w>":11778,"juges</w>":11779,"intéressés</w>":11780,"laid</w>":11781,"rol":11782,"Gra":11783,"voies</w>":11784,"carbon</w>":11785,"ko":11786,"revenue</w>":11787,"ounding</w>":11788,"agnes</w>":11789,"poissons</w>":11790,"selling</w>":11791,"Victori":11792,"mobilisation</w>":11793,"écopieur</w>":11794,"properly</w>":11795,"resi":11796,"aises</w>":11797,"Belgium</w>":11798,"décou":11799,"Sea</w>":11800,"Honourable</w>":11801,"autorisé</w>":11802,"injury</w>":11803,"send</w>":11804,"Jord":11805,"effectuée</w>":11806,"inscrire</w>":11807,"Willi":11808,"experiences</w>":11809,"temperature</w>":11810,"ocation</w>":11811,"Press</w>":11812,"video</w>":11813,"préciser</w>":11814,"ommaire</w>":11815,"milliers</w>":11816,"Sciences</w>":11817,"Facil":11818,"Integr":11819,"GL":11820,"ton":11821,"appartenant</w>":11822,"diplô":11823,"séjour</w>":11824,"Small</w>":11825,"mentale</w>":11826,"erance</w>":11827,"FAO</w>":11828,"espère</w>":11829,"formule</w>":11830,"ègues</w>":11831,"Infrastruc":11832,"nit":11833,"Bre":11834,"tering</w>":11835,"ferme</w>":11836,"détenus</w>":11837,"900</w>":11838,"complexe</w>":11839,"copie</w>":11840,"visent</w>":11841,"wealth</w>":11842,"futures</w>":11843,"ganda</w>":11844,"chance</w>":11845,"miti":11846,"ratio</w>":11847,"budsman</w>":11848,"providers</w>":11849,"Mer":11850,"formed</w>":11851,"Chamber</w>":11852,"dollar</w>":11853,"dommages</w>":11854,"crimination</w>":11855,"collègues</w>":11856,"tative</w>":11857,"quick":11858,"eties</w>":11859,"complexes</w>":11860,"intégré</w>":11861,"owned</w>":11862,"visible</w>":11863,"Té":11864,"isons</w>":11865,"certificate</w>":11866,"privacy</w>":11867,"Cz":11868,"Investment</w>":11869,"honorable</w>":11870,"privés</w>":11871,"concrè":11872,"commercialisation</w>":11873,"Basi":11874,"atem":11875,"étroite</w>":11876,"appreciation</w>":11877,"indiquent</w>":11878,"fifth</w>":11879,"viend":11880,"Ano":11881,"variables</w>":11882,"fisheries</w>":11883,"technological</w>":11884,"Issues</w>":11885,"independence</w>":11886,"Egy":11887,"learn</w>":11888,"SB":11889,"generation</w>":11890,"imag":11891,"exposés</w>":11892,"cer</w>":11893,"extend</w>":11894,"satisfaire</w>":11895,"domicile</w>":11896,"door</w>":11897,"ault</w>":11898,"proposées</w>":11899,"contrôles</w>":11900,"occurr":11901,"limiter</w>":11902,"incorporated</w>":11903,"Pass":11904,"éb":11905,"répondants</w>":11906,"Fer":11907,"démarche</w>":11908,"sond":11909,"tourism</w>":11910,"vivant</w>":11911,"obstacle</w>":11912,"inging</w>":11913,"CNU":11914,"BL":11915,"considérablement</w>":11916,"Quality</w>":11917,"extraordinaire</w>":11918,"recycl":11919,"mettent</w>":11920,"abu":11921,"noms</w>":11922,"theless</w>":11923,"ino</w>":11924,"Diff":11925,"continent</w>":11926,"américain</w>":11927,"ebr":11928,"attached</w>":11929,"evertheless</w>":11930,"douanes</w>":11931,"Culture</w>":11932,"involve</w>":11933,"thu":11934,"coopér":11935,"banks</w>":11936,"PU":11937,"ferred</w>":11938,"directed</w>":11939,"heading</w>":11940,"prennent</w>":11941,"started</w>":11942,"replaced</w>":11943,"accéder</w>":11944,"prochain</w>":11945,"summer</w>":11946,"émission</w>":11947,"digital</w>":11948,"assujet":11949,"extrem":11950,"raciale</w>":11951,"SUR</w>":11952,"North":11953,"Belgique</w>":11954,"géographique</w>":11955,"ideas</w>":11956,"cm</w>":11957,"affirmé</w>":11958,"mou":11959,"validité</w>":11960,"complainant</w>":11961,"exemption</w>":11962,"drawn</w>":11963,"Activ":11964,"organizational</w>":11965,"effectués</w>":11966,"effectivement</w>":11967,"Étant</w>":11968,"mot</w>":11969,"northern</w>":11970,"So</w>":11971,"tourn":11972,"sûr</w>":11973,"dules</w>":11974,"reconnaître</w>":11975,"consentement</w>":11976,"adic":11977,"allocated</w>":11978,"residents</w>":11979,"nur":11980,"Guatem":11981,"clinical</w>":11982,"Distr":11983,"enseignants</w>":11984,"ape</w>":11985,"conscience</w>":11986,"Évaluation</w>":11987,"liability</w>":11988,"Practi":11989,"Bet":11990,"tiveness</w>":11991,"suivent</w>":11992,"itée</w>":11993,"depos":11994,"ingu":11995,"amb":11996,"acquitter</w>":11997,"française</w>":11998,"Road</w>":11999,"Red</w>":12000,"88":12001,"abroad</w>":12002,"Lear":12003,"Free</w>":12004,"Persons</w>":12005,"speed</w>":12006,"recruitment</w>":12007,"manie</w>":12008,"Sudan</w>":12009,"persist":12010,"radiodiffusion</w>":12011,"routes</w>":12012,"insul":12013,"nesses</w>":12014,"Vene":12015,"Systems</w>":12016,"fiduci":12017,"Norway</w>":12018,"ouverts</w>":12019,"ull</w>":12020,"banc":12021,"MENT</w>":12022,"menaces</w>":12023,"réduit</w>":12024,"ev</w>":12025,"lies</w>":12026,"perfectionnement</w>":12027,"Law":12028,"dan":12029,"accordé</w>":12030,"ficit</w>":12031,"lour":12032,"inno":12033,"tionally</w>":12034,"targeted</w>":12035,"bus</w>":12036,"réalisé</w>":12037,"MI</w>":12038,"Is</w>":12039,"HR":12040,"accumul":12041,"Depart":12042,"disability</w>":12043,"demonstrated</w>":12044,"atl":12045,"travaillent</w>":12046,"proche</w>":12047,"contributing</w>":12048,"rejected</w>":12049,"sands</w>":12050,"ailing</w>":12051,"Another</w>":12052,"recognize</w>":12053,"MAN":12054,"motion</w>":12055,"Tob":12056,"Econom":12057,"pregn":12058,"easy</w>":12059,"Grande</w>":12060,"quarter</w>":12061,"extrêmement</w>":12062,"disponibilité</w>":12063,"cross":12064,"décri":12065,"enship</w>":12066,"choisir</w>":12067,"Grâce</w>":12068,"manufactur":12069,"Incre":12070,"stri":12071,"floor</w>":12072,"onné</w>":12073,"Analysis</w>":12074,"internationally</w>":12075,"périodes</w>":12076,"40":12077,"oto</w>":12078,"Micro":12079,"Scientific</w>":12080,"Suppl":12081,"electoral</w>":12082,"Pierre</w>":12083,"CI</w>":12084,"constaté</w>":12085,"Décision</w>":12086,"soutenu</w>":12087,"prenant</w>":12088,"bridge</w>":12089,"Classification</w>":12090,"flux</w>":12091,"struction</w>":12092,"tête</w>":12093,"allem":12094,"cell</w>":12095,"expect":12096,"OECD</w>":12097,"pp</w>":12098,"agés</w>":12099,"001</w>":12100,"électricité</w>":12101,"brief":12102,"007</w>":12103,"entrepreneurs</w>":12104,"ectifs</w>":12105,"initiated</w>":12106,"composé</w>":12107,"orientations</w>":12108,"perform</w>":12109,"Emerg":12110,"Wal":12111,"intergovernmental</w>":12112,"masse</w>":12113,"Those</w>":12114,"Toute</w>":12115,"sought</w>":12116,"compétentes</w>":12117,"KB</w>":12118,"Ev":12119,"privées</w>":12120,"thly</w>":12121,"Resolution</w>":12122,"traduction</w>":12123,"ownership</w>":12124,"demonstrate</w>":12125,"workshops</w>":12126,"healthy</w>":12127,"Kaz":12128,"atre</w>":12129,"Privacy</w>":12130,"NI":12131,"continuera</w>":12132,"invité</w>":12133,"malgré</w>":12134,"Market</w>":12135,"URE</w>":12136,"universal</w>":12137,"ententes</w>":12138,"pleine</w>":12139,"ITY</w>":12140,"calendrier</w>":12141,"estival</w>":12142,"fulf":12143,"identifying</w>":12144,"annul":12145,"alties</w>":12146,"Madame</w>":12147,"1981</w>":12148,"failed</w>":12149,"reforms</w>":12150,"Moldo":12151,"participated</w>":12152,"atrices</w>":12153,"véritable</w>":12154,"Immigration</w>":12155,"matériaux</w>":12156,"check</w>":12157,"offences</w>":12158,"periodic</w>":12159,"Your</w>":12160,"récente</w>":12161,"Pendant</w>":12162,"officiels</w>":12163,"rep":12164,"umin":12165,"crises</w>":12166,"Singap":12167,"limitation</w>":12168,"islam":12169,"mortalité</w>":12170,"friendly</w>":12171,"américaine</w>":12172,"mouvement</w>":12173,"background</w>":12174,"jun":12175,"graphie</w>":12176,"fres":12177,"eraient</w>":12178,"journée</w>":12179,"emball":12180,"lic</w>":12181,"Giv":12182,"Victoria</w>":12183,"entity</w>":12184,"extremely</w>":12185,"autour</w>":12186,"défi</w>":12187,"thes":12188,"indicates</w>":12189,"ores</w>":12190,"default</w>":12191,"aints</w>":12192,"lost</w>":12193,"cities</w>":12194,"prévoy":12195,"Gh":12196,"restaurant</w>":12197,"turb":12198,"devaient</w>":12199,"Austria</w>":12200,"époque</w>":12201,"biologique</w>":12202,"résidents</w>":12203,"mentation</w>":12204,"Chairperson</w>":12205,"arc":12206,"dera</w>":12207,"Library</w>":12208,"facilement</w>":12209,"dynamique</w>":12210,"Communities</w>":12211,"regroup":12212,"smenti":12213,"cides</w>":12214,"mél":12215,"onnage</w>":12216,"omb":12217,"furn":12218,"valid</w>":12219,"phr":12220,"power":12221,"susmenti":12222,"eusement</w>":12223,"Peter</w>":12224,"grants</w>":12225,"felt</w>":12226,"Under":12227,"approches</w>":12228,"Banglad":12229,"poisson</w>":12230,"NRC</w>":12231,"reve":12232,"201</w>":12233,"catastrophes</w>":12234,"industrielle</w>":12235,"Liste</w>":12236,"passant</w>":12237,"supplies</w>":12238,"threats</w>":12239,"informatique</w>":12240,"complet":12241,"distributed</w>":12242,"participent</w>":12243,"Encour":12244,"Se</w>":12245,"equity</w>":12246,"charged</w>":12247,"squ":12248,"drogue</w>":12249,"birth</w>":12250,"Att":12251,"ush</w>":12252,"modified</w>":12253,"deliver</w>":12254,"reb":12255,"musique</w>":12256,"papier</w>":12257,"infirmi":12258,"budgetary</w>":12259,"Standard</w>":12260,"fixe</w>":12261,"adverse</w>":12262,"requérant</w>":12263,"NAT":12264,"consacré</w>":12265,"ACT</w>":12266,"Renseignements</w>":12267,"older</w>":12268,"compil":12269,"Réseau</w>":12270,"équipements</w>":12271,"publicité</w>":12272,"Organiz":12273,"Fil":12274,"unil":12275,"réaction</w>":12276,"Reques":12277,"endors":12278,"dering</w>":12279,"ung</w>":12280,"pétrole</w>":12281,"fédérales</w>":12282,"berg</w>":12283,"Studies</w>":12284,"Islamic</w>":12285,"Tit":12286,"tian</w>":12287,"exprimé</w>":12288,"Discrimination</w>":12289,"pêches</w>":12290,"Franc":12291,"Gal":12292,"Suite</w>":12293,"lié</w>":12294,"reading</w>":12295,"Spanish</w>":12296,"ÉR":12297,"bliothèque</w>":12298,"minorities</w>":12299,"voyag":12300,"coordinated</w>":12301,"eded</w>":12302,"son":12303,"icians</w>":12304,"éria</w>":12305,"dispute</w>":12306,"manufacturing</w>":12307,"Guatemala</w>":12308,"yn":12309,"instamment</w>":12310,"outlined</w>":12311,"Ivoire</w>":12312,"tend</w>":12313,"reçues</w>":12314,"moteur</w>":12315,"coup":12316,"quickly</w>":12317,"AGE</w>":12318,"exclusive</w>":12319,"axée</w>":12320,"university</w>":12321,"professionnelles</w>":12322,"ryth":12323,"estimations</w>":12324,"sixième</w>":12325,"rai</w>":12326,"outstanding</w>":12327,"Liv":12328,"haps</w>":12329,"revenues</w>":12330,"unemployment</w>":12331,"aérienne</w>":12332,"étrangère</w>":12333,"gence</w>":12334,"raising</w>":12335,"programmation</w>":12336,"Infrastructure</w>":12337,"Michael</w>":12338,"issait</w>":12339,"marked</w>":12340,"courriel</w>":12341,"appareil</w>":12342,"Net</w>":12343,"arrangement</w>":12344,"préliminaire</w>":12345,"moun":12346,"Senior</w>":12347,"Income</w>":12348,"Set":12349,"Prés":12350,"inscrits</w>":12351,"améliorations</w>":12352,"ading</w>":12353,"démo":12354,"spi":12355,"fiable</w>":12356,"Improv":12357,"Certain":12358,"Contents</w>":12359,"télécommunications</w>":12360,"vraiment</w>":12361,"octroi</w>":12362,"enrich":12363,"intol":12364,"firm</w>":12365,"Romania</w>":12366,"migrant</w>":12367,"incenti":12368,"blood</w>":12369,"latest</w>":12370,"chal":12371,"lob":12372,"clair</w>":12373,"employeurs</w>":12374,"sentence</w>":12375,"accident</w>":12376,"Plans</w>":12377,"palestinien</w>":12378,"expul":12379,"otes</w>":12380,"licens":12381,"maire</w>":12382,"District</w>":12383,"Establis":12384,"lecture</w>":12385,"considering</w>":12386,"Bangladesh</w>":12387,"requises</w>":12388,"Tél":12389,"client":12390,"accepter</w>":12391,"NATI":12392,"enjeux</w>":12393,"Turk":12394,"strongly</w>":12395,"septième</w>":12396,"WG":12397,"évo":12398,"valence</w>":12399,"Radio</w>":12400,"ANCE</w>":12401,"unanim":12402,"venus</w>":12403,"Rappelant</w>":12404,"explan":12405,"Finland</w>":12406,"habituellement</w>":12407,"transferred</w>":12408,"menu</w>":12409,"claimed</w>":12410,"délin":12411,"TU":12412,"preser":12413,"gol":12414,"facing</w>":12415,"carbone</w>":12416,"île</w>":12417,"news</w>":12418,"numérique</w>":12419,"ario</w>":12420,"évidence</w>":12421,"160</w>":12422,"thèmes</w>":12423,"entendre</w>":12424,"oiseaux</w>":12425,"Bah":12426,"disclosure</w>":12427,"music</w>":12428,"buts</w>":12429,"Port</w>":12430,"Chang":12431,"amples</w>":12432,"solv":12433,"card</w>":12434,"ditors</w>":12435,"stade</w>":12436,"Enter":12437,"wait</w>":12438,"stood</w>":12439,"career</w>":12440,"INE</w>":12441,"fur</w>":12442,"excl":12443,"manifestations</w>":12444,"vere":12445,"lists</w>":12446,"votes</w>":12447,"SEC":12448,"screening</w>":12449,"échantillons</w>":12450,"Process</w>":12451,"Norv":12452,"MA</w>":12453,"tobacco</w>":12454,"experienced</w>":12455,"considérer</w>":12456,"prochaines</w>":12457,"barriers</w>":12458,"simultan":12459,"Cadre</w>":12460,"San</w>":12461,"invités</w>":12462,"voyages</w>":12463,"forec":12464,"Production</w>":12465,"êt":12466,"énum":12467,"internet</w>":12468,"sometimes</w>":12469,"roles</w>":12470,"Transports</w>":12471,"petr":12472,"Canadiennes</w>":12473,"corpo":12474,"Liens</w>":12475,"érir</w>":12476,"arguments</w>":12477,"Czech</w>":12478,"decline</w>":12479,"Military</w>":12480,"isée</w>":12481,"bid":12482,"James</w>":12483,"ken</w>":12484,"Only</w>":12485,"carrière</w>":12486,"enhancing</w>":12487,"Crown</w>":12488,"Peace":12489,"Poland</w>":12490,"maximale</w>":12491,"water":12492,"suggest</w>":12493,"limité</w>":12494,"819</w>":12495,"monétaire</w>":12496,"GDP</w>":12497,"nommé</w>":12498,"Moldova</w>":12499,"Terr":12500,"Courriel</w>":12501,"cardi":12502,"stop</w>":12503,"respondents</w>":12504,"intern":12505,"mid</w>":12506,"ja</w>":12507,"rent":12508,"demandeur</w>":12509,"mené</w>":12510,"died</w>":12511,"jeunesse</w>":12512,"governing</w>":12513,"volunte":12514,"Funding</w>":12515,"racisme</w>":12516,"incident</w>":12517,"clé</w>":12518,"acid</w>":12519,"RS</w>":12520,"ÉS</w>":12521,"decrease</w>":12522,"makers</w>":12523,"teneur</w>":12524,"discre":12525,"alisée</w>":12526,"faces</w>":12527,"enna</w>":12528,"draw</w>":12529,"bloc":12530,"Autric":12531,"érie</w>":12532,"Manager</w>":12533,"pouss":12534,"Madrid</w>":12535,"Bell</w>":12536,"ésie</w>":12537,"prioritaires</w>":12538,"primaire</w>":12539,"tochtone</w>":12540,"grand":12541,"biologiques</w>":12542,"therap":12543,"Participation</w>":12544,"Gaza</w>":12545,"posit</w>":12546,"reiter":12547,"measured</w>":12548,"modifiée</w>":12549,"ordinary</w>":12550,"argument</w>":12551,"aménagement</w>":12552,"teachers</w>":12553,"device</w>":12554,"Hosp":12555,"ographic</w>":12556,"seems</w>":12557,"ALE</w>":12558,"résumé</w>":12559,"exceptions</w>":12560,"po</w>":12561,"TIC</w>":12562,"directs</w>":12563,"plenary</w>":12564,"affairs</w>":12565,"similaires</w>":12566,"advanced</w>":12567,"valuable</w>":12568,"impression</w>":12569,"DA":12570,"Sem":12571,"Activités</w>":12572,"optimis":12573,"Consum":12574,"férer</w>":12575,"Utilis":12576,"Distribu":12577,"van</w>":12578,"Norvège</w>":12579,"nd</w>":12580,"ldwide</w>":12581,"Venezu":12582,"Governor</w>":12583,"Struc":12584,"preme</w>":12585,"Through</w>":12586,"gros</w>":12587,"45":12588,"réglementaires</w>":12589,"contribue</w>":12590,"ait":12591,"appelé</w>":12592,"carbur":12593,"milieux</w>":12594,"esty</w>":12595,"mondialisation</w>":12596,"Asian</w>":12597,"facile</w>":12598,"rivière</w>":12599,"Caraï":12600,"climatique</w>":12601,"01":12602,"décisi":12603,"staff":12604,"says</w>":12605,"alition</w>":12606,"Que</w>":12607,"rance</w>":12608,"nin":12609,"Both</w>":12610,"contempor":12611,"gave</w>":12612,"esia</w>":12613,"Sén":12614,"Contributions</w>":12615,"vont</w>":12616,"judges</w>":12617,"déploi":12618,"devez</w>":12619,"asses</w>":12620,"delay</w>":12621,"eant</w>":12622,"équival":12623,"PIB</w>":12624,"couverture</w>":12625,"Moyen</w>":12626,"explained</w>":12627,"spécialisées</w>":12628,"plénière</w>":12629,"Gazette</w>":12630,"allou":12631,"Roumanie</w>":12632,"médecins</w>":12633,"vitesse</w>":12634,"fruits</w>":12635,"consis":12636,"profess":12637,"formulées</w>":12638,"Chapitre</w>":12639,"applying</w>":12640,"eigh":12641,"iner</w>":12642,"conversion</w>":12643,"Travel</w>":12644,"Recommendation</w>":12645,"Resource</w>":12646,"starting</w>":12647,"amine</w>":12648,"sor</w>":12649,"limination</w>":12650,"aculture</w>":12651,"armées</w>":12652,"Autriche</w>":12653,"functioning</w>":12654,"magn":12655,"Comman":12656,"cultiv":12657,"pièce</w>":12658,"établit</w>":12659,"remercier</w>":12660,"pilote</w>":12661,"architecture</w>":12662,"Orig":12663,"Drugs</w>":12664,"structural</w>":12665,"Recalling</w>":12666,"arising</w>":12667,"TIC":12668,"semb":12669,"helping</w>":12670,"contribuent</w>":12671,"stressed</w>":12672,"considérés</w>":12673,"réel</w>":12674,"parler</w>":12675,"Kno":12676,"becoming</w>":12677,"versement</w>":12678,"ITÉ</w>":12679,"inférieur</w>":12680,"Pas":12681,"prévisions</w>":12682,"vals</w>":12683,"ONN":12684,"initiale</w>":12685,"fémin":12686,"MD</w>":12687,"Caraïbes</w>":12688,"Phase</w>":12689,"Boli":12690,"Kyoto</w>":12691,"RCMP</w>":12692,"SD":12693,"mortality</w>":12694,"Wo":12695,"Deux</w>":12696,"exprimer</w>":12697,"aland</w>":12698,"supérieurs</w>":12699,"pleased</w>":12700,"Chr":12701,"rappelle</w>":12702,"Life</w>":12703,"peaceful</w>":12704,"apparti":12705,"objets</w>":12706,"schedule</w>":12707,"adapter</w>":12708,"deployment</w>":12709,"disposal</w>":12710,"extra</w>":12711,"abus</w>":12712,"annuels</w>":12713,"historical</w>":12714,"filing</w>":12715,"échantillon</w>":12716,"élo":12717,"ferro":12718,"Given</w>":12719,"Corporate</w>":12720,"racial</w>":12721,"entité</w>":12722,"emplacement</w>":12723,"Space</w>":12724,"hol</w>":12725,"effectifs</w>":12726,"remedi":12727,"print</w>":12728,"track</w>":12729,"employers</w>":12730,"intéressées</w>":12731,"Their</w>":12732,"épi":12733,"sper":12734,"événement</w>":12735,"attitude</w>":12736,"urer</w>":12737,"CED</w>":12738,"GST</w>":12739,"Bosnie</w>":12740,"entres</w>":12741,"constant</w>":12742,"cells</w>":12743,"Shi":12744,"brevet</w>":12745,"unable</w>":12746,"gènes</w>":12747,"UNCT":12748,"FO":12749,"inste":12750,"George</w>":12751,"eration</w>":12752,"thérap":12753,"1983</w>":12754,"Local</w>":12755,"ba":12756,"descrip":12757,"lir</w>":12758,"suitable</w>":12759,"Standing</w>":12760,"insu":12761,"finale</w>":12762,"seconde</w>":12763,"aser</w>":12764,"instaur":12765,"biological</w>":12766,"UNF":12767,"Communi":12768,"atlanti":12769,"leader</w>":12770,"Tran":12771,"Propo":12772,"visiteurs</w>":12773,"erreur</w>":12774,"franch":12775,"Mag":12776,"Rica</w>":12777,"thereby</w>":12778,"GRC</w>":12779,"organic</w>":12780,"admission</w>":12781,"waters</w>":12782,"compétitivité</w>":12783,"progressi":12784,"War":12785,"productivité</w>":12786,"125</w>":12787,"rey</w>":12788,"inflation</w>":12789,"faibles</w>":12790,"diab":12791,"surveys</w>":12792,"illicite</w>":12793,"distinct</w>":12794,"Letter</w>":12795,"TB":12796,"burden</w>":12797,"PD</w>":12798,"enneté</w>":12799,"habitats</w>":12800,"ISO</w>":12801,"locations</w>":12802,"showed</w>":12803,"provenance</w>":12804,"vivre</w>":12805,"Entre":12806,"tlements</w>":12807,"naissance</w>":12808,"GO</w>":12809,"Conditions</w>":12810,"Parliamentary</w>":12811,"park</w>":12812,"NA</w>":12813,"essentielles</w>":12814,"sommet</w>":12815,"députés</w>":12816,"texti":12817,"lettres</w>":12818,"Pologne</w>":12819,"receipt</w>":12820,"Study</w>":12821,"autochtone</w>":12822,"administratifs</w>":12823,"soixante</w>":12824,"zz":12825,"Arts</w>":12826,"gross":12827,"partis</w>":12828,"choose</w>":12829,"immobili":12830,"vivent</w>":12831,"vies</w>":12832,"chaîne</w>":12833,"Consultations</w>":12834,"fournies</w>":12835,"pair</w>":12836,"Zealand</w>":12837,"souver":12838,"DG</w>":12839,"combination</w>":12840,"UNCTAD</w>":12841,"secondaires</w>":12842,"américains</w>":12843,"everyone</w>":12844,"viable</w>":12845,"update</w>":12846,"Post</w>":12847,"annonce</w>":12848,"procé":12849,"08":12850,"Innovation</w>":12851,"counter</w>":12852,"Parcs</w>":12853,"Fondation</w>":12854,"possède</w>":12855,"abst":12856,"OB":12857,"Du</w>":12858,"calculated</w>":12859,"Venezuela</w>":12860,"dictions</w>":12861,"lying</w>":12862,"commencer</w>":12863,"laboratoire</w>":12864,
[...]
