#version: 0.2 - Trained by `huggingface/tokenizers`
e n</w>
e r
i n
t h
c h
e n
e r</w>
a n
u n
t i
th e</w>
r e
s t
d i
o n</w>
a r
o n
l i
o r
e i
e s</w>
a l
r o
c h</w>
s i
i n</w>
e l
e s
d er</w>
i s
an d</w>
a u
o f</w>
a t
w i
e in
t o</w>
un d</w>
di e</w>
e d</w>
i s</w>
o m
a s</w>
in g</w>
r a
o u
d en</w>
r i
s ch
b e
a t</w>
d e
g e
a n</w>
a ti
a s
o r</w>
un g</w>
i t
u r
t en</w>
a l</w>
t e</w>
g en</w>
o l
a b
v er
m en
u s
l e
t er
l e</w>
i t</w>
d er
t e
s p
a m
v e</w>
t s</w>
i e</w>
e h
a c
f ü
g e</w>
p ro
T h
l y</w>
d e</w>
e c
v i
i ch
z u</w>
n o
th at</w>
ch en</w>
h i
h r
f or</w>
f f
v on</w>
l o
e t
ati on</w>
t h</w>
p o
en t
ti on</w>
om m
s u
c on
l a
n e
c e</w>
e m
is t</w>
w er
s e</w>
i l
f or
fü r</w>
ar e</w>
z u
ein e</w>
ro p
o p
m a
g en
men t</w>
d en
d es</w>
u rop
h a
c i
b e</w>
g i
t a
s t</w>
m it</w>
au f</w>
ei n</w>
b er
V er
d a
ei t</w>
wi th</w>
d as</w>
b er</w>
e m</w>
Th e</w>
ch e</w>
u l
E urop
el l
ati on
ich t</w>
e x
i m
u t
a r</w>
q u
s er
di es
U n
un gen</w>
d u
ou r</w>
I n
r u
c om
s o</w>
t er</w>
ti on
c o
si on</w>
f i
S t
c k
de m</w>
li ch</w>
p or
h o
m o
th is</w>
a h
i m</w>
i e
s e
n en</w>
an d
l l</w>
w or
a g
A n
a f
a d
l d</w>
w h
S ie</w>
u m</w>
as s</w>
wi r
s en</w>
o u</w>
w ei
z i
n icht</w>
al l</w>
t u
R e
ä n
b y</w>
no t</w>
r an
wer den</w>
w e</w>
in d</w>
un g
a p
g h
at e</w>
s o
er e</w>
w e
ha ve</w>
d ass</w>
s h
en t</w>
t ra
k e</w>
li e
p ar
al s</w>
si ch</w>
w hi
g es
D ie</w>
p er
y ou</w>
m e</w>
is chen</w>
re s
wi r</w>
b u
a li
m en</w>
w as</w>
ou ld</w>
wi ll</w>
a ch
au ch</w>
ro m</w>
al l
t o
whi ch</w>
i r
S ch
omm is
i ch</w>
u m
t y</w>
d o
m e
B e
e b
in g
au s
f rom</w>
a ch</w>
P ro
er s</w>
P ar
l u
2 0
t z
h ab
s ind</w>
ch t</w>
th er</w>
E n
ein er</w>
d s</w>
s ti
ung s
w en
r ä
wir d</w>
b es
l ei
A u
ü ber</w>
h al
wi e</w>
ein en</w>
f in
g t</w>
h as</w>
p l
ur e</w>
e st
sch af
ö n
si den
t s
ou t</w>
i c
a hr
es s</w>
on e</w>
u r</w>
g an
ter n
s a
ab le</w>
b ei
i g
au s</w>
st en</w>
o o
i li
ge b
t ed</w>
t en
st ell
for m
g u
ü r
e l</w>
A r
ommis sion</w>
s ol
I n</w>
c an</w>
v er</w>
te l</w>
e an</w>
B er
o der</w>
H o
i r</w>
er t</w>
ou r
D i
g ra
et z
v or
be i</w>
E r
h at</w>
com p
u s</w>
e t</w>
an n</w>
po li
d ur
eh r</w>
hab en</w>
w el
H er
al so</w>
a k
li ch
an y</w>
Europ ean</w>
al ly</w>
ä r
t ri
20 0
us t</w>
A us
er en</w>
i on</w>
re c
e u
er n</w>
s el
g r
in e</w>
li chen</w>
g el
sch en</w>
a m</w>
at ed</w>
s en
it y</w>
an t</w>
k ön
ti c
au f
men ts</w>
si e</w>
w a
j e
m ö
e y</w>
l en</w>
or e</w>
e p
siden t</w>
it s</w>
tion s</w>
es e</w>
un d
ar k
o h
p e
zu r</w>
te t</w>
m m
g ro
m in
M it
v o
d ar
t r
gh t</w>
st a
der n</w>
du c
por t</w>
g er
ein em</w>
Un ion</w>
A l
D as</w>
co un
at es</w>
ation s</w>
E in
w ur
en d</w>
f t</w>
y st
w ar
un ser
ti ve</w>
si on
ü n
y our</w>
re s</w>
d ing</w>
t ing</w>
ver y</w>
P re
A b
f re
k ing</w>
t ung</w>
po s
a ge</w>
o ff
er ung</w>
at en</w>
t el
o b
es t</w>
I ch</w>
k en</w>
is che</w>
M a
be t
kön nen</w>
c k</w>
li che</w>
c es</w>
ch n
p re
bu t</w>
k t</w>
m ore</w>
an n
u p</w>
k eit</w>
W e</w>
ar y</w>
f ol
es s
an ce</w>
in c
V or
b o
as t</w>
ge h
F ra
st r
an der
1 9
z ei
p res
0 0</w>
b r
p ri
ti es</w>
ou s</w>
ch ti
v el
m er</w>
f er
ei r</w>
ch te</w>
v en</w>
w ould</w>
in ter
S p
g er</w>
m it
ö r
i hr
th eir</w>
s on
g h</w>
g n
fü hr
p u
c y</w>
l an
p p
En t
ar i
dur ch</w>
n ach</w>
h er
s sen</w>
be en</w>
st e</w>
g re
eh en</w>
Europ ä
t ei
zu m</w>
un s</w>
Th is</w>
st ri
g o
t re
h in
dies e</w>
c omm
W ir</w>
I t</w>
w n</w>
m an</w>
ü ber
E U</w>
p r
n ur</w>
G es
f ac
o ther</w>
n e</w>
sp ec
v or</w>
M r</w>
h e
b le</w>
as e</w>
a d</w>
i el
e g
v ol
K on
b li
por t
m p
i h
omm en</w>
sh ould</w>
b en</w>
ne u
k ann</w>
d o</w>
t ro
am e</w>
l in
d ed</w>
st ru
a re
b t</w>
D er</w>
f en</w>
un ter
s c
i c</w>
b le
m ü
t w
y e
k s</w>
ei ten</w>
h e</w>
si ch
en ce</w>
G r
schaf t</w>
em ber</w>
a v
dies er</w>
ac c
or d
no ch</w>
k on
f u
m u
C ommission</w>
i st
v en
P rä
b i
s ec
s om
ar d</w>
or t</w>
w ä
m on
E s</w>
ti me</w>
f e
m ust</w>
C o
us s</w>
is e</w>
G e
da ß</w>
ation al</w>
sch e</w>
ü ck
da y</w>
b en
t ä
er i
h eit</w>
as s
v es</w>
K ommission</w>
m ark
al e</w>
s yst
th ey</w>
l ä
m an
th ere</w>
l t</w>
ne w</w>
P o
w ar</w>
ol o
ci al</w>
no w</w>
or i
k l
m s</w>
n ah
g ung</w>
li ke</w>
on ly</w>
wur de</w>
st at
l ung</w>
ing s</w>
ges ch
e ff
Ho tel</w>
j ec
Pre sident</w>
ut z
in n
ab er</w>
S ta
wi ck
t ran
t n
F or
l and</w>
ab out</w>
al en</w>
pro duc
el t</w>
m i
wor k</w>
an t
en s
s ein</w>
ge m
Her r</w>
wen n</w>
fi r
f o
y s</w>
I h
en s</w>
ri t
eh men</w>
im mer</w>
c u
s ehr</w>
eh r
on g</w>
men t
d ung</w>
mü ssen</w>
in tern
D e
w s</w>
ü tz
ar s</w>
le g
con c
de t</w>
al le</w>
wa y</w>
Mit g
ein es</w>
Au f
el y</w>
Par la
qu i
ac e</w>
li a
sp e
th ese</w>
ra l</w>
b a
an s</w>
th o
la r</w>
er n
Z u
J ahr
wh o</w>
au se</w>
f ahr
am p
n o</w>
ch an
m ehr</w>
us am
for e</w>
ber ei
re d</w>
S o
wi th
on der
p le
i f</w>
or s</w>
v ed</w>
ne t</w>
dies em</w>
su p
re gi
de vel
z w
ati ve</w>
t es</w>
op le</w>
Mitg lie
r e</w>
M en
ser vi
m er
a ff
mo st</w>
wei ter
po si
I hr
di es</w>
Re gi
th er
ili ty</w>
oo d</w>
c re
1 0</w>
m any</w>
pro vi
U m
re ich
is ch
t ur
f ra
f un
re l
k ommen</w>
d r
s etz
ß en</w>
d es
i d</w>
C h
Europä ischen</w>
mö g
in form
h ei
en den</w>
lia ment</w>
B u
sti tu
con t
M o
im port
d a</w>
wer e</w>
r on
vi e
st eh
k te</w>
B es
Europ e</w>
f e</w>
g lei
re g
g es</w>
un der
h er</w>
ti m
com e</w>
us e</w>
Par liament</w>
c ri
in to</w>
w is
s k
pe ople</w>
su ch</w>
on om
el le</w>
lo c
at ing</w>
h and
sol l
g keit</w>
op er
ro u
ar bei
v ing</w>
pro c
l as
wel l</w>
b is</w>
l au
i l</w>
m y</w>
em p
sch ie
C on
ation en</w>
wh at</w>
poli ti
ä l
si ble</w>
n i
e urop
pu bli
Un ter
devel op
h el
su b
mö chte</w>
re ch
e ment</w>
st än
ri e
c tion</w>
M e
fu l</w>
te chn
p a
G er
di ff
ti gen</w>
in i
In ter
do ch</w>
c ent
St ates</w>
vi el
un ter</w>
z en</w>
li c
f a
tri es</w>
hal ten</w>
usam men
spec i
d am
it e</w>
Co un
ar t</w>
th an</w>
re port</w>
st ütz
M ember</w>
m at
inc lu
ti g</w>
wi chti
stell en</w>
N o
il li
en n
coun tries</w>
s ch</w>
s er</w>
t or</w>
be c
c le
vo m</w>
h is</w>
wh en</w>
un i
or y</w>
ag a
europ ä
tion en</w>
ne ed</w>
an k</w>
gi bt</w>
Mitglie d
w oh
po in
ci l</w>
l ar
Ü ber
re i
ihr e</w>
fir st</w>
b re
ell en</w>
som e</w>
b ie
Prä sident</w>
S u
l at
B ei
o m</w>
Coun cil</w>
per i
en de</w>
st e
den en</w>
so wie</w>
l es</w>
gra m
ec onom
geb en</w>
st and
ho tel</w>
si s</w>
si gn
di rec
z e</w>
a st
in u
k ti
ge t</w>
O r
tic al</w>
p h
w er</w>
L i
sch lie
etz t</w>
dies es</w>
ma ke</w>
c ol
th em</w>
we en</w>
C omm
ag re
gh ts</w>
am en</w>
de ut
zw ischen</w>
ap p
el e
bes onder
stell t</w>
for m</w>
in s</w>
at eg
c c
import ant</w>
th ing</w>
bet ween</w>
el l</w>
syst em</w>
h ere</w>
f ul
ver n
i en</w>
Q u
ein g</w>
ac k</w>
b eit</w>
ac k
ta ke</w>
en g
hal b</w>
ti mm
o ver</w>
t schaf
ra ti
j o
s ho
pro pos
Ent wick
ex c
di s
ali ty</w>
hi er</w>
ch ten</w>
g y</w>
bec ause</w>
l er</w>
Mitglied sta
r ü
tä t</w>
for der
ex p
b in
ie l</w>
b ar
wh ere</w>
P er
y p
Ar bei
s ame</w>
S e
st er</w>
b ar</w>
en er
i de
ä u
k o
19 9
m uss</w>
h en</w>
k om
Ber icht</w>
n at
t ure</w>
m is
fin an
n ec
w al
i es</w>
pro ble
sp on
eb en</w>
s es</w>
wi e
p s</w>
en n</w>
sion s</w>
H au
st s</w>
unser e</w>
fi c
w ür
ge gen</w>
c ul
Parla ment</w>
ma de</w>
k eine</w>
j ust</w>
z ah
me di
in di
J ah
re as
R o
inform ation</w>
on s</w>
ä ch
ar ly</w>
l ine</w>
ß e</w>
y ing</w>
Ber ei
or gan
tw o</w>
K o
x t</w>
F in
Ih nen</w>
E x
r en
or der</w>
t lich</w>
un den</w>
s hi
a il
ha d</w>
S er
M on
k tion</w>
ö ff
ye ars</w>
Mitgliedsta aten</w>
i ge</w>
th rou
z eu
s m
e d
s at
fin den</w>
sup port</w>
r is
p f
Ges ch
si ve</w>
ander en</w>
eu te</w>
c an
I f</w>
L än
In form
wor ld</w>
en ti
ri ght</w>
is su
Pro du
o k
F re
tho se</w>
aus ge
n um
l än
re spon
ä tz
steh t</w>
er te</w>
Europ a</w>
re ad
it ä
l a</w>
lo w</w>
f ten</w>
wir k
Z usammen
ta in</w>
le tz
schlie ß
Pro ble
si te</w>
li ti
wä hr
wei se</w>
M ar
we ver</w>
tion al</w>
f ri
tr y</w>
2 0</w>
lich keit</w>
b eing</w>
k eiten</w>
tra g</w>
W ir
f f</w>
un ity</w>
ti ge</w>
r au
W enn</w>
n ung</w>
be g
om s</w>
er k
poli cy</w>
d ann</w>
ap pro
c al</w>
Vor sch
an ge
v al
par tic
W ei
con si
p en
g a
sch ei
g s</w>
N e
be lie
an g</w>
p la
i ce</w>
m al</w>
T e
B et
at er</w>
k e
ge ment</w>
n ach
f all
ent ly</w>
st ehen</w>
v el</w>
dies en</w>
g ab
ä f
I m</w>
ma y</w>
nah men</w>
dam it</w>
pl ace</w>
em s</w>
diff er
te e</w>
par t</w>
d at
ß er
e ven</w>
N ach
se e</w>
de ci
ter s</w>
wur den</w>
c lo
si tu
s ur
B o
de mo
ye ar</w>
u n</w>
lo b
vie w</w>
G ro
s ed</w>
gem ein
e fore</w>
t t
u res</w>
c er
ro om</w>
us ed</w>
la ge</w>
h um
c ur
g ood</w>
d an
w ing</w>
pos sible</w>
st ra
Fra u</w>
st an
res s</w>
th en</w>
T ei
c our
st and</w>
u ri
lo o
Di ese</w>
l l
Z eit</w>
es ti
are a</w>
b il
ä h
st au
ec t</w>
as ed</w>
un kt</w>
B ür
K ol
ou gh</w>
in v
W e
jec t</w>
n is
ho w</w>
G eb
u tion</w>
en d
publi c</w>
o wn</w>
w är
t ungen</w>
ac t</w>
unser er</w>
woh l</w>
gen er
Her r
ol d</w>
sp o
s ei
ta in
comp le
S ich
f ur
qu es
ff en</w>
ä hr
Ihr e</w>
bes ch
p er</w>
G em
o s</w>
ch ar
hab e</w>
f as
Un tern
R ich
mark et</w>
re su
pro te
us in
i a</w>
gen en</w>
son dern</w>
i er
c ar
a u</w>
f il
de l</w>
throu gh</w>
T a
sp iel
s eine</w>
Y ou</w>
t ly</w>
af ter</w>
ou se</w>
g ri
je doch</w>
d ra
M in
le gen</w>
Europä ische</w>
5 0</w>
in ce</w>
c or
st o
f am
st er
in du
ci p
in k</w>
S yst
g ar
en en</w>
t lichen</w>
0 00</w>
poli tical</w>
sel f</w>
w n
F ü
M ark
i gen</w>
neu e</w>
p ra
qu e</w>
et y</w>
st u
el n</w>
econom ic</w>
A s</w>
h eute</w>
Men schen</w>
B il
g ent
k un
h ö
et t
F ran
un der</w>
ag es</w>
u e</w>
s or
stän di
gel e
Ä n
ge gen
ic al</w>
si de</w>
br au
stau ran
Th ere</w>
en z</w>
st ar
c ould</w>
s on</w>
develop ment</w>
K om
ommis sion
in gen</w>
fahr en</w>
be k
h ar
di sc
a ir
ri ghts</w>
with in</w>
stru c
3 0</w>
R ei
al le
w ant</w>
de b
in st</w>
ö s
W or
read y</w>
l ed</w>
men d
c li
si b
sel b
ter n</w>
Jah r</w>
on en</w>
ch er</w>
tran sp
europä ischen</w>
Än der
sch n
n t</w>
bes ser
el d</w>
F or</w>
berei ts</w>
geh en</w>
be d
we i</w>
av ail
per son
L ei
hi st
bu il
ou s
D at
pr in
ri ch
ß nahmen</w>
T o
Gr und
Sich er
unter stütz
aga inst</w>
geh t</w>
se t</w>
bo th</w>
ö l
es en</w>
f l
s h</w>
th re
las sen</w>
w ol
m ich</w>
ab ility</w>
U S
mu ch</w>
coun try</w>
e ti
f ind</w>
c ap
ther efore</w>
u p
mit tel
ihr er</w>
poin t</w>
oh ne</w>
go vern
Gem ein
intern ational</w>
t lin
tran s
b ur
neu en</w>
g o</w>
soll te</w>
L o
c t</w>
er ten</w>
ber s</w>
s s</w>
for t
p i
en th
t om
el s</w>
führ t</w>
vi ron
Jahr en</w>
ge w
M ö
hi gh</w>
t liche</w>
L u
in s
servi ce</w>
do es</w>
ver schie
st re
en z
en ts</w>
v ari
k tion
ander e</w>
h ol
la g</w>
lich er</w>
R at</w>
S it
lie gt</w>
h än
Z ei
g lich</w>
fre e</w>
P ri
öff ent
R i
d ri
cont inu
gr ö
so ci
f le
ti al</w>
T ra
qu ality</w>
with out</w>
it tee</w>
dur ch
ation alen</w>
z wei</w>
d re
Bes ch
gan z</w>
cle ar</w>
v e
l and
ma chen</w>
me as
ar ds</w>
Entwick lung</w>
is ti
stell ung</w>
in stitu
it ed</w>
ne e
liti k</w>
om e</w>
servi ces</w>
Fra ge</w>
Fin an
Re ch
ment al</w>
num ber</w>
gre at</w>
l ast</w>
reich en</w>
der s</w>
wir tschaf
k er</w>
soll ten</w>
b el
all en</w>
oper ation</w>
bie tet</w>
St r
be wer
Sta d
Ber ich
usin ess</w>
i z
k t
C hin
al o
f est
k ten</w>
sti ll</w>
ant wor
wa ys</w>
d ru
de m
te m
f tw
ou t
k no
l ong</w>
ftw are</w>
d y</w>
in nen</w>
avail able</w>
so cial</w>
fac t</w>
sa y</w>
1 5</w>
n te</w>
re qui
f ut
c ed</w>
k re
ro oms</w>
as si
k es</w>
lei st
differ ent</w>
s ehen</w>
b oo
t schaft</w>
chan ge</w>
1 2</w>
ru pp
k now</w>
at te</w>
besonder e</w>
z us
E in</w>
D ur
G o
ar ch</w>
c ity</w>
b ri
el ec
z ur
u lar</w>
e v
sat z</w>
M it</w>
l ess</w>
fin det</w>
st al
l ungen</w>
führ en</w>
shi p</w>
pres ent
g lob
posi tion</w>
t sp
di tion</w>
ul ation</w>
cur r
g n</w>
olo gi
ent sp
t yp
tu ral</w>
N or
est s</w>
n er</w>
ck en</w>
la gen</w>
an ti
D a
z wei
cu st
f ast</w>
Mö g
viel e</w>
conc ern
on d</w>
it al</w>
vi du
e f
en viron
B ar
y n
T er
si cht</w>
al ready</w>
wei l</w>
ra tion</w>
be fore</w>
belie ve</w>
fut ure</w>
h ä
con su
al t</w>
z ent
hi gh
emp lo
in ten
i ci
W elt</w>
sich er
pri v
ein f
n ehmen</w>
Untern ehmen</w>
cour se</w>
m ar
to o</w>
da zu</w>
M an
C om
ali si
Di es
eb en
t al
r y</w>
fi ed</w>
au th
den n</w>
f t
B a
ep t</w>
m ei
wä h
ut es</w>
ur o</w>
z eit</w>
to day</w>
K in
T re
i g</w>
gram me</w>
in te
produc ts</w>
k ur
en st
l er
D es
ent wick
In tern
w o</w>
c ase</w>
wie der</w>
ex peri
j etzt</w>
kl är
con tro
C ommission
b al
k omm
olo g
R ah
Th at</w>
c a</w>
ma in</w>
f er</w>
h op
A m
200 9</w>
ac ti
s ing</w>
t ors</w>
le vel</w>
s einer</w>
amp le</w>
D o
m ul
k an
som e
h in</w>
uri ty</w>
zi eh
dat a</w>
T ran
gan g</w>
ra p
En er
proc ess</w>
th ink</w>
co m</w>
R us
D em
can not</w>
p rä
su cc
D is
dar auf</w>
L age</w>
e ts</w>
nah me</w>
s af
s am
ti z
Inform ationen</w>
eff ec
pro gra
e ver
vi ce</w>
ar beit</w>
grö ß
Berei ch</w>
so zi
gen ommen</w>
im m
ali tät</w>
I s
a gement</w>
ge stellt</w>
ful ly</w>
S a
is ch</w>
H in
G u
pu t</w>
Ma ßnahmen</w>
is m</w>
W eb
k a</w>
isch er</w>
indi vidu
c ra
H and
A d
si gn</w>
ein ige</w>
t rä
Th em
tr au
hum an</w>
sa gen</w>
sch on</w>
off ers</w>
sch en
t wen
selb st</w>
M i
at e
p ur
L e
p ec
fall s</w>
at ely</w>
da für</w>
l s</w>
ma cht</w>
em bers</w>
ges am
a b</w>
n ational</w>
F o
m a</w>
im pro
ad v
w in
Commission er</w>
St ra
Herr n</w>
situ ation</w>
re spec
ommis s
1 1</w>
im ple
o b</w>
at s
ch il
ma j
m ir</w>
glei ch
Bu t</w>
dur ing</w>
Me di
tra gen</w>
Aus sch
b ro
bes t</w>
si c</w>
St and
l ing</w>
min ist
ab li
k ed</w>
o ver
twen di
et er</w>
c all
K ommiss
in ing</w>
i er</w>
ih r</w>
S o</w>
sm all</w>
no v
mög lich</w>
V ol
st är
l ü
finan cial</w>
f äl
pro f
n is</w>
b in</w>
ihr en</w>
a de</w>
sp ra
g ed</w>
bu d
geb o
vel y</w>
P al
alle m</w>
Jahr e</w>
n or
itä t</w>
sa id</w>
cust om
n ing</w>
vi el</w>
or en</w>
zei ch
ver si
is h</w>
gen d</w>
ver k
Ar beit</w>
issu e</w>
ach ie
deb ate</w>
me ans</w>
y ment</w>
inclu ding</w>
da m</w>
F un
tel s</w>
t sch
ex ample</w>
t t</w>
propos al</w>
app lic
z el
S te
l ungs
m eine</w>
ili t
war d</w>
e very</w>
M u
ti k
U S</w>
b it
te xt</w>
A ll</w>
ques tion</w>
con di
si mp
gen den</w>
fi c</w>
d el
s ince</w>
sti mm
kun ft</w>
R es
wor den</w>
g ing</w>
V i
is l
S ei
th ough</w>
res ol
en e</w>
gu t</w>
E ine</w>
st en
b usiness</w>
ver fü
wol len</w>
Di es</w>
J u
lu g
nec ess
a z
L and</w>
t ru
es sen
Ho wever</w>
ti g
O ur</w>
wür de</w>
unser en</w>
hel p</w>
i ly</w>
b ased</w>
ah l</w>
leg al</w>
o l</w>
Ver ein
b ack</w>
b an
or ity</w>
F ir
ten s</w>
e ach</w>
tu r</w>
Per son
ta ken</w>
W i
W el
ü h
de u
acc ess</w>
ac tion</w>
ad op
de fin
L and
N at
u al</w>
al th</w>
gram m</w>
ti c</w>
olo gy</w>
bes timm
us e
ann t</w>
m or
partic ular</w>
off er</w>
ci tiz
Comm ittee</w>
z un
ti n</w>
Fü r</w>
vi si
illi on</w>
ge t
al y
Hau sh
e k</w>
ar t
ä hi
in st
k ün
par tn
en ces</w>
ig er</w>
col le
ar o
pro du
br ingen</w>
Te chn
Z immer</w>
Inter net</w>
Pro je
ili ties</w>
g ar</w>
währ end</w>
thre e</w>
et was</w>
di g
L ös
lich keiten</w>
se l</w>
setz ung</w>
f eh
se arch</w>
proble m</w>
De ut
lar ge</w>
Arbei ts
comm on</w>
re qu
at s</w>
bie ten</w>
gi ve</w>
meas ures</w>
x i
ne xt</w>
are as</w>
Ar t</w>
U r
ac coun
ut z</w>
re m</w>
str y</w>
ever y
al er</w>
A ut
pres ent</w>
aff en</w>
organ is
war en</w>
Rech ts
der ung</w>
Län der</w>
n un</w>
di re
s si
B eh
ol e</w>
G re
Un d</w>
fe w</w>
stauran t</w>
ener gy</w>
ch es</w>
spe zi
it h</w>
Unter stütz
agre ement</w>
W ie</w>
f ar</w>
de li
est abli
C ent
L a
d ings</w>
whi le</w>
ins besondere</w>
in de
1 8
ß t</w>
loc ated</w>
O n</w>
sp re
necess ary</w>
ti eren</w>
provi de</w>
rec ei
d ungen</w>
ci es</w>
20 10</w>
citiz ens</w>
s ure</w>
er fol
ie t</w>
geh ör
H il
Chin a</w>
z ü
p as
por ts</w>
j u
hist or
k tionen</w>
sch ri
om en</w>
ord nung</w>
ver wen
St u
fo re
a k</w>
w ach
lo s</w>
p unkt</w>
al ten</w>
er halten</w>
sib ility</w>
us ing</w>
fol lo
s eit</w>
syst ems</w>
ens ure</w>
s y
be gr
li fe</w>
P or
es sen</w>
ür lich</w>
Be d
ges etzt</w>
d ge</w>
h an
sch ein
comp any</w>
l en
as k</w>
et ing</w>
Um wel
n ten</w>
aga in</w>
Ver fü
Änder ungs
all er</w>
R u
d ate</w>
s se</w>
li cht</w>
200 8</w>
k ey</w>
men te</w>
Parla ments</w>
Rah men</w>
op p
tra di
wh e
sec urity</w>
hal f</w>
n ess</w>
nis se</w>
hei ts
v öl
e qui
m ä
w es
w o
inc reas
hi l
f an
er sten</w>
w an
2 5</w>
proble ms</w>
ul arly</w>
Unterstütz ung</w>
fur ther</w>
sh all</w>
sch er</w>
ar ch
ä m
au tom
op port
h eiten</w>
ie der
arbei ten</w>
B el
c l
b lei
Men schen
Zusammen arbeit</w>
W in
T ur
ass ung</w>
pra c
comp an
d u</w>
n et
N amen</w>
da ys</w>
ta li
Tei l</w>
f te</w>
at t
mo der
se qu
vo te</w>
Hau p
g s
tro l
comp eti
Gro up</w>
si a</w>
gi ven</w>
ag t</w>
Län dern</w>
c ou
sp ro
re al</w>
ti ce</w>
Rich tlin
M r
G ar
si chti
al lo
Ver k
bei m</w>
lei ch
z o
ul es</w>
utz en</w>
in vol
Vorsch lag</w>
setz en</w>
D ar
d ly</w>
ti l</w>
t ungs
y er</w>
d i</w>
A mer
re le
ob jec
i zi
S k
vol l
war ds</w>
wh y</w>
consi der
ho wever</w>
un de</w>
t z</w>
F all</w>
j a</w>
sol l</w>
F ol
th e
de st
Amer ic
la w</w>
zu g</w>
L eb
li ght</w>
co operation</w>
be steht</w>
sta y</w>
i eren</w>
gro up</w>
I N
ec k</w>
K li
O p
ti ert</w>
gr und</w>
ge ther</w>
R ol
D eb
z ep
con nec
do wn</w>
T o</w>
is h
Un i
di d</w>
Bür ger</w>
G en
si tz
en nen</w>
ven tion</w>
B en
O n
lo ssen</w>
tu n</w>
ch o
En g
le a
führ ung</w>
a mend
our s</w>
Stad t</w>
K ar
sa m</w>
ru m</w>
is m
gab e</w>
W ith</w>
ous ly</w>
leg isl
h au
al ways</w>
li n</w>
ri chti
Syst em</w>
wis sen</w>
Z iel</w>
der en</w>
gen de</w>
Pro z
in t</w>
nee ds</w>
l us
wor king</w>
B r
val u
Or gan
einf ach</w>
ha pp
at ten
ful l</w>
vie ws</w>
den ti
g lau
Th ey</w>
An wen
ini ti
s einen</w>
2 4</w>
cul tural</w>
der t</w>
ap pe
Gesch äf
str ateg
dre i</w>
Fra gen</w>
st ate</w>
L an
pl an
es sion
Un ited</w>
wichti g</w>
Be i</w>
ver b
dr en</w>
hop e</w>
d lich</w>
mat eri
f ung</w>
G i
produc tion</w>
e p</w>
ein mal</w>
m ehr
F am
P u
f lo
wel che</w>
A t</w>
as es</w>
sp iel</w>
in a</w>
A f
E uro</w>
Par tn
gu ar
pl ac
par ti
st ance</w>
Proble m</w>
o d</w>
ma in
sol u
ter stat
Sei te</w>
O b
bet ter</w>
wär e</w>
dar f</w>
tei l</w>
ess es</w>
e i</w>
H ouse</w>
is ed</w>
Comm unity</w>
S ec
por te
letz ten</w>
da bei</w>
re co
ett bewer
W ar
ir d</w>
Prä siden
1 00</w>
or ts</w>
indu stri
Ent schei
E R
An d</w>
Kol legen</w>
b au
tre ten</w>
fer ence</w>
in e
tim es</w>
T ex
E U
be tri
se ver
M illi
US A</w>
es se</w>
gab en</w>
op en</w>
k m</w>
aro und</w>
politi schen</w>
Wir tschaf
ä mp
y ed</w>
prote ction</w>
ge führt</w>
In stitu
1 3</w>
i ert</w>
D aten</w>
gen heit</w>
ation s
200 7</w>
Re cht</w>
ad d
li ed</w>
th em
re chte</w>
B i
ent fer
po wer</w>
im p
W hat</w>
de c
ma king</w>
t on</w>
r än
to gether</w>
W oh
W er
M ein
s ing
ab o
vi l
zei gt</w>
gro ßen</w>
p ack
Be deut
gro ße</w>
r ise</w>
ing ungen</w>
Z iel
t te</w>
Fra ktion</w>
en jo
K re
V iel
ri ti
schaf ten</w>
E u
den t</w>
sp ar
in es</w>
g ern</w>
ü ck</w>
w are</w>
pl at
t an
i ma
l ab
H e
curr ent</w>
Sp iel
str eng
g än
Haush al
pr ü
our ces</w>
ur y</w>
resu l
Mr s</w>
hän gi
speci al</w>
s ha
Au f</w>
W as</w>
C O
un ic
ter ms</w>
or ig
p t</w>
for t</w>
Verfü gung</w>
E le
h and</w>
inn er
0 0
E r</w>
f ör
ein zi
Sicher heit</w>
Er geb
wei ter</w>
tra de</w>
Bedeut ung</w>
de ta
G ener
r a</w>
st ed</w>
c o</w>
O ff
regi on
st ä
ex tre
200 0</w>
Ih r</w>
Sit u
whe ther</w>
E ben
ou th</w>
be come</w>
ic ul
cent re</w>
partic ularly</w>
go ing</w>
en zen</w>
Th ese</w>
I ra
ori ties</w>
Mög lichkeit</w>
zur ück
disc us
h r</w>
r o</w>
er ungs
man agement</w>
w ed</w>
ut er</w>
v al</w>
diff icul
pro mo
lo s
ba sis</w>
an other</w>
th s</w>
cer tain</w>
au ßer
a ir</w>
tra c
4 0</w>
chil dren</w>
W hen</w>
comm it
m b
be l</w>
schließ lich</w>
at h</w>
N ach</w>
1 8</w>
loc ation</w>
bur g</w>
W o
S ol
ff e</w>
ig n</w>
ran ge</w>
ex pres
rap porte
we b
f ähi
Berich terstat
r or
su pp
ser v
Au ch</w>
mu ß</w>
hand elt</w>
m et
no twendi
L ie
resu lt</w>
loo k</w>
R om
glei ch</w>
con tri
sec ond</w>
n äch
F rau
condi tions</w>
gro ß
ei genen</w>
i ti
p age</w>
at or</w>
politi k</w>
gen e</w>
er mög
rü h
Sta aten</w>
F ahr
x im
d lichen</w>
t able</w>
regi on</w>
1 4</w>
F lug
issu es</w>
T i
c el
ti gt</w>
Al s</w>
ell schaft</w>
t al</w>
des sen</w>
al es</w>
A ber</w>
P lat
all es</w>
w ater</w>
in f
Regi erung</w>
pf lich
Them a</w>
all er
r in
L is
k ra
z ed</w>
er forder
G ra
Ser vice</w>
di o</w>
Ger man</w>
Ener gi
er ing</w>
G ä
Z ent
y o
da von</w>
w ahr
In du
gre i
ex ten
tur n</w>
dar über</w>
z er
Proble me</w>
go ti
es pec
i fic
b or
w eit</w>
do m</w>
6 0</w>
contro l</w>
we gen</w>
da her</w>
g ress</w>
ich te</w>
com ing</w>
compan ies</w>
ro le</w>
An t
ff t</w>
w omen</w>
Kommiss ar</w>
K unden</w>
ge ord
deci sion</w>
ent schei
ro ss</w>
Fam ili
Wei se</w>
so li
experi ence</w>
k ein</w>
vari ous</w>
be au
A T
guar an
espec i
pro gramme</w>
wi de</w>
establi sh
so wohl</w>
indu stry</w>
fi zi
sa ge</w>
ser i
wh ole</w>
sel ves</w>
ism us</w>
ex ist
bli ck</w>
weiter e</w>
Finan z
ir e</w>
Ar tik
ord in
Po litik</w>
C ar
1 6</w>
be findet</w>
Di enst
he alth</w>
com es</w>
s s
de sign
e ven
d ou
t or
komm t</w>
n on</w>
sec tor</w>
su chen</w>
wei sen</w>
A R
especi ally</w>
v is
h ör
kön nte</w>
ge l</w>
mo dern</w>
Ihr er</w>
di stri
in nov
t a</w>
er reichen</w>
a gen
tei l
K un
call ed</w>
at y</w>
re ally</w>
h atte</w>
wor k
s amen</w>
clo se</w>
loc al</w>
a si
f ar
m einer</w>
an zu
ment ation</w>
mat ter</w>
besonder s</w>
h ang</w>
en ter
J un
zi ehen</w>
Min ist
wor d</w>
P ra
o th
lie gen</w>
d one</w>
En de</w>
n ame</w>
ver sch
accoun t</w>
t ten</w>
ell ent</w>
wis h</w>
f av
il s</w>
in stru
speci fic</w>
l uss</w>
st af
wirk lich</w>
ing t</w>
priv ate</w>
respec t</w>
G rupp
e k
le ben</w>
de f
Bei spiel</w>
bud get</w>
ch en
ih nen</w>
L in
In v
inv est
Zu kunft</w>
Richtlin ie</w>
rit te</w>
vi sion</w>
200 6</w>
verschie denen</w>
entsp rech
nat ürlich</w>
In di
un ser</w>
Mit tel
do cu
are d</w>
unterstütz en</w>
ak tu
th ird</w>
ak ti
ne ten</w>
ation ale</w>
i si
prof ession
govern ment</w>
gele gt</w>
b lo
cre ate</w>
inner halb</w>
d on</w>
ab hängi
B al
ne goti
re search</w>
A N
ei li
fac e</w>
W ähr
ab ly</w>
Haup t
entfer nt</w>
A fri
W ettbewer
staf f</w>
ö h
i k</w>
fe at
lan gu
f y</w>
viel en</w>
gegen über</w>
w a</w>
zah l
spre chen</w>
B oo
A t
inc re
finan zi
es sion</w>
re li
ti gung</w>
us er</w>
fü l
B an
For sch
R ück
Gr ün
qu ali
Rol le</w>
s ön
her vor
Ger many</w>
gr und
so ftware</w>
st art</w>
z war</w>
mer k
ri min
b l
sing le</w>
N utz
gu e</w>
K ul
re duc
k rati
m ati
ell er</w>
Frau en</w>
intern ationalen</w>
We g</w>
maj or</w>
acc ep
pro ject</w>
ac i
r ate</w>
ter m</w>
and s</w>
S eiten</w>
D u
some thing</w>
m illion</w>
em e</w>
po se</w>
k ul
ab ili
o ff</w>
li st</w>
en ten</w>
it self</w>
19 8
en cy</w>
c ally</w>
in tro
at ten</w>
t ation</w>
autom ati
sever al</w>
ra cht</w>
W il
mö chten</w>
a in</w>
a way</w>
ol s</w>
ori es</w>
ta ge</w>
emplo yment</w>
Indu stri
rapporte ur</w>
ei cht</w>
resol ution</w>
F u
li sh</w>
ger ich
dru ck</w>
ges t</w>
fo und</w>
tt le</w>
Leb ens
bre ak
z usammen
um fas
glob al</w>
continu e</w>
or ding</w>
kno wn</w>
är e</w>
f el
Ta g</w>
reg ard</w>
st ei
un tern
ad ing</w>
n a
d ort</w>
Ihr en</w>
n ich
B au
stimm ung</w>
vi a</w>
mä ß
d ür
en te</w>
gent le
europä ische</w>
N o</w>
oo l</w>
spra che</w>
di sp
op en
wn lo
adv an
er a</w>
su ff
ati ven</w>
ta king</w>
jec ts</w>
w th</w>
E N</w>
f ron
ck s</w>
lich es</w>
ti ves</w>
pr o</w>
to wn</w>
Ho tels</w>
me work</w>
dire kt</w>
reg ul
ec ted</w>
kom men
le ast</w>
ver sion</w>
an s
I tali
ge währ
T V</w>
gener al</w>
to p</w>
v ement</w>
den ce</w>
Dem ok
et c</w>
J e
on ds</w>
si schen</w>
EU R</w>
N eu
P i
J an
follo wing</w>
le t</w>
Ne w</w>
s ation</w>
gentle men</w>
f all</w>
o ften</w>
an der</w>
exc ellent</w>
transp ort</w>
ati ves</w>
fam ily</w>
b ut
Re gel
n ei
p ho
an y
as y</w>
E mp
e ar
h under
er ste</w>
gra tion</w>
F il
P ol
c ing</w>
auf ge
ein zu
il t</w>
Artik el</w>
cri sis</w>
land s</w>
l on
stru k
parti cip
s ci
f ood</w>
g ten</w>
H e</w>
spo litik</w>
So ftware</w>
bre it
W est
ben ef
r ules</w>
direc tive</w>
cul ture</w>
fi eld</w>
wor ks</w>
E C
Sp ra
ein zel
I I</w>
gr ün
i an</w>
dr ück
person al</w>
Ges und
er st</w>
S pe
eh men
lan g</w>
b is
itä ten</w>
on ce</w>
me tho
sub ject</w>
re present
on line</w>
Ch ar
o c
ge f
tr on
in ed</w>
ah n
Pro gramm</w>
fic ation</w>
pri ce</w>
H ar
mon ey</w>
n am
g l
sich tlich</w>
H ier</w>
on es</w>
conc lu
environ ment</w>
er ungen</w>
Al le</w>
per form
Ver brau
t our
o d
ver s</w>
S el
S on
bu tion</w>
acti vi
w le
b s
wel come</w>
E N
Mit tel</w>
Mein ung</w>
U m</w>
in o</w>
to wards</w>
en der</w>
tu al</w>
verschie den
z a</w>
w ri
reco gn
wie der
m ilit
Deut sch
li ttle</w>
comm unic
th ings</w>
Ab geord
rit ten</w>
sp r
dan ken</w>
g sten</w>
Sp an
E S
Wor ld</w>
1 7</w>
Geschäf ts
fra ge</w>
K ur
kti v
hi m</w>
m el
tic s</w>
st ing</w>
p hi
o un
li g</w>
Situ ation</w>
produc t</w>
aus sch
un til</w>
Ste u
for ward</w>
institu tions</w>
di c
ges agt</w>
U hr</w>
1 9</w>
ach t</w>
auf en</w>
stat t</w>
lo t</w>
par t
m ers</w>
Zusammen hang</w>
ti gkeit</w>
te x
T ag
tu res</w>
politi sche</w>
be deu
eff ici
R au
I S
U N
bei den</w>
unser em</w>
F e
techn ology</w>
ß en
Lös ung</w>
ta ins</w>
R a
Ma dam</w>
ma ch
S ep
li es</w>
h ome</w>
200 5</w>
b z
lä ge</w>
S ü
I C
an aly
sp ä
pla y</w>
agre e</w>
Un ser
tei lung</w>
individu al</w>
Tre aty</w>
custom ers</w>
Regi on</w>
Ent schließ
F isch
e ver</w>
ag o</w>
M at
ba u</w>
d om
Is ra
de sign</w>
1 7
ver besser
j en
incre ase</w>
ver s
e ch
2 1</w>
b ung</w>
Hil fe</w>
le ar
man u
th ank</w>
gro wth</w>
progra mm
sh ort</w>
Z wei
mo sp
as ser
Ver antwor
stand ards</w>
h y
li ck</w>
h ouse</w>
opport unity</w>
ra ther</w>
bz w</w>
e ments</w>
lä u
Dies es</w>
P la
Organ is
Dienst leist
pl es</w>
te te</w>
re cht</w>
activi ties</w>
buil ding</w>
siden cy</w>
val ue</w>
So zi
c all</w>
E R</w>
an im
d ent
N i
rit t</w>
ti schen</w>
M ehr
posi tive</w>
qu ite</w>
C or
a id</w>
begr ü
Eu ro
bar en</w>
eh m
Dis k
Demok rati
Produ kte</w>
wen iger</w>
Str ateg
re ali
vol l</w>
orig in
do ws</w>
prin cip
re icht</w>
mit tel</w>
provi ded</w>
ein ge
or d</w>
er war
sign ific
Präsiden tin</w>
res ources</w>
er zi
u ps</w>
z immer</w>
No v
1 0
Sch ul
er h
o cc
s ätz
je der</w>
b ili
e qu
i denti
w ün
öffent lichen</w>
h t</w>
St ru
H aus</w>
tei len</w>
unter schie
b ed</w>
p ic
gen d
wor t</w>
u te</w>
L eben</w>
mul ti
per f
ann ten</w>
dar an</w>
ad t</w>
A ir
ge wi
appro ach</w>
D ec
fi le</w>
on a</w>
po p
F rie
be half</w>
sion en</w>
g ilt</w>
inter est</w>
lan g
peri od</w>
t ar
ho li
St ate</w>
per sön
k ung</w>
gu te</w>
M embers</w>
at er
In iti
Des halb</w>
200 4</w>
e duc
f ang</w>
ges ehen</w>
R ates</w>
tem ber</w>
um s</w>
lu b</w>
äm lich</w>
g in
I T</w>
y et</w>
ha ving</w>
K ü
m om
A n</w>
Com p
bit te</w>
I m
tu ally</w>
ad s</w>
gesch lossen</w>
fra gen</w>
inclu de</w>
ar ti
ck t</w>
in ion</w>
n u
zei tig</w>
A S
n ämlich</w>
forder ungen</w>
er sch
Er fahr
pro per
Sch utz</w>
in dem</w>
G ol
Sep tember</w>
m embers</w>
fo c
h u
d ungs
re com
ah r</w>
sol ution</w>
vi ol
st y
all en
requi re
ung s</w>
sp i
berei ch</w>
p ol
la dies</w>
du e</w>
Gr und</w>
so gar</w>
völ k
H ei
v ity</w>
P ak
ück sichti
ge macht</w>
Europ as</w>
mi ght</w>
beau ti
form s</w>
c tions</w>
Intern ational</w>
lei sten</w>
poin ts</w>
an trag</w>
zei chn
fle xi
b ank</w>
C an
propos als</w>
O ne</w>
le ft</w>
rati c</w>
po ol</w>
geb racht</w>
li eren</w>
con fi
fort able</w>
Z w
G leich
am ong</w>
Kin der</w>
amend ments</w>
ate gi
ell eicht</w>
gu i
hin aus</w>
aus zu
bin dung</w>
Milli onen</w>
zah l</w>
wor ds</w>
et wa</w>
saf ety</w>
is se</w>
cont ent</w>
fra mework</w>
ant rä
al low</w>
min utes</w>
p at
effec tive</w>
olog ie</w>
ri cht</w>
appro pri
for ce</w>
di en
Af ter</w>
z ö
abo ve</w>
v a</w>
mo d
econom y</w>
F rüh
tion ed</w>
alisi erung</w>
sti m
200 3</w>
äch lich</w>
c op
Ge gen
co sts</w>
transp ar
sch affen</w>
e asy</w>
re gel
er klär
m ember</w>
Ber lin</w>
P f
M or
k ol
si tes</w>
Dat en
Bes u
gro und</w>
D ok
da r</w>
po ten
oth ers</w>
en ds</w>
ih n</w>
ständi g</w>
cra cy</w>
J o
Th er
a th
adop ted</w>
s weise</w>
si eh
C hi
beg inn
Person en</w>
K ap
pre v
eben falls</w>
us ses</w>
zei gen</w>
Ver hand
ein igen</w>
ag ri
u ral</w>
w ho
char ac
In stru
ih m</w>
usam men</w>
Deutsch land</w>
Unser e</w>
sho w</w>
Dies er</w>
Jan u
reas on</w>
pro gress</w>
an a</w>
Lei st
exc lu
fun da
b s</w>
Eben e</w>
s einem</w>
wes ent
C ol
st off
F ar
Web site</w>
ma kes</w>
Dur ch
demo krati
P e
li ve</w>
de al</w>
enjo y</w>
op inion</w>
st ation</w>
web site</w>
ap art
to ber</w>
P unkt</w>
bo dy</w>
ges timm
re la
An gebo
ü l
ig n
W is
applic ation</w>
For m</w>
k o</w>
p ass
p rec
Aus sprache</w>
st ens</w>
as sen</w>
bu s</w>
A L
legisl ation</w>
sup por
S al
di t</w>
und ing</w>
unterstütz t</w>
Uni versi
arbei tet</w>
St re
ou ght</w>
tei le</w>
hal t</w>
fav our</w>
Sch i
am oun
pro jects</w>
h on
H a
comple te</w>
pl an</w>
k tor</w>
zeich net</w>
gra mm
ne te</w>
brau chen</w>
ro ad</w>
M al
sich er</w>
resul ts</w>
difficul t</w>
N ä
k ind</w>
el s
mo un
f li
er weise</w>
provi des</w>
Pri v
gro ups</w>
stauran ts</w>
e th
Mu si
dar in</w>
K omm
Wirtschaf ts
respon sibility</w>
un ver
Qu alität</w>
Entwick lungs
kün f
K l
etz en</w>
j e</w>
atten tion</w>
Zei t
poli cies</w>
D E</w>
cont act</w>
eh mer</w>
n er
concern ed</w>
is es</w>
Er fol
K ra
A C
c ted</w>
D ru
T at
ger ade</w>
d d
A c
e li
d liche</w>
reg ar
re du
z ung</w>
se a</w>
W h
po wer
glau be</w>
V il
n ationalen</w>
z eh
200 1</w>
air s</w>
hal te</w>
Re staurant</w>
Haushal ts
ad di
kom ple
ad dition</w>
si tion</w>
Re chte</w>
ge geben</w>
B re
K ri
beauti ful</w>
M är
simp ly</w>
B ro
S y
H ol
all gem
dür fen</w>
proc e
ro w</w>
Ben utz
Gemein schaft</w>
f rie
Jahr hunder
le t
geb ung</w>
ques tions</w>
fre e
sh e</w>
import ance</w>
Wei ter
Besch äf
k ar
soci ety</w>
gr at
ch s</w>
end ly</w>
am eri
Z us
H al
cer tain
ci r
ad minist
cou ra
b on</w>
intro duc
D a</w>
schaf ts
succ ess
sp ru
Po li
der zeit</w>
J ap
sol len</w>
je den</w>
ide al</w>
A k
nich ts</w>
y ers</w>
li ber
K an
C as
m ate</w>
R O
bei spiel
gen au</w>
ih rem</w>
o k</w>
l ö
Ab stimmung</w>
gre ater</w>
alo g</w>
Sch lus
tra ining</w>
em b
hel p
k einen</w>
G el
Z ah
vo ted</w>
un a</w>
Verein ig
ter min
mark t</w>
ges pro
zus ätz
si ert</w>
direc tly</w>
p tion</w>
fre und
mei sten</w>
2 2</w>
W ach
strateg y</w>
co ver
c ratic</w>
Wir tschaft</w>
b are</w>
environ mental</w>
ed ure</w>
den ken</w>
gehör t</w>
wir tschaft</w>
L a</w>
gestimm t</w>
sch i
ni ght</w>
betri fft</w>
j us
mit t
an stal
me chan
z usammen</w>
f ern</w>
ste p</w>
inter est
Dok u
t in
Or t</w>
Su b
z äh
princip le</w>
se i</w>
al ong</w>
und ed</w>
k lar</w>
c al
weiter hin</w>
ologi cal</w>
ho ch
extre m
ass er</w>
8 0</w>
äch st</w>
nat ural</w>
Wel t
wle dge</w>
utz t</w>
c s</w>
p an
pro mis
imm t</w>
tri tt</w>
tn is</w>
loo king</w>
For tsch
c at
y a</w>
manu fac
Be zug</w>
un kte</w>
he art</w>
requi red</w>
respon sible</w>
sa che</w>
wirtschaf tlichen</w>
K amp
ver stän
chan ges</w>
ne l</w>
k ämp
5 00</w>
t est</w>
su g
P le
g ie</w>
200 2</w>
ei g
her r
Gro ß
zu stellen</w>
T ür
Änderungs anträ
uni ties</w>
s an
P a
M inu
cent ury</w>
B em
Di rec
vi c
Ges ellschaft</w>
D en
b ility</w>
v o</w>
Bür ger
ko sten
li gen</w>
setz t</w>
stand ing</w>
Go vern
bedeu tet</w>
our ce</w>
me eting</w>
z e
ran k
wichti ge</w>
cle arly</w>
st eu
fü r
Be zieh
ben ö
break fast</w>
19 7
on g
des halb</w>
sol che</w>
trol le</w>
re fer
fam ili
p ages</w>
auth orities</w>
f our</w>
e asi
sch wi
Ko sten</w>
stru ction</w>
k enn
techn ical</w>
h en
n utzen</w>
fü h
ma il</w>
c are</w>
re st</w>
sen d</w>
te mp
s wi
re mo
struc ture</w>
F ör
pp ed</w>
m il
auf grund</w>
Nov ember</w>
kom p
Zu gang</w>
bes ser</w>
con f
su sta
use um</w>
rec ent</w>
be sten</w>
st adt</w>
am m
ci vi
c ar</w>
l an</w>
Au s</w>
Kol leg
st or
tei lt</w>
2 3</w>
ch er
et te</w>
m ind</w>
o wn
F i
achie ve</w>
inst all
wür den</w>
mit ted</w>
S in
us es</w>
op s</w>
bet re
add ress</w>
20 0</w>
ch allen
deut lich</w>
ak zep
Arbei tsp
nat ure</w>
schn ell</w>
A pri
tic le</w>
per son</w>
S or
g ran
der ungen</w>
ac tive</w>
sen den</w>
Mark t</w>
sta at
F est
Ges etz
ri st
inde pen
ri ch</w>
d au
B ra
re ly</w>
essen tial</w>
S ti
fe el</w>
stan den</w>
I de
gem ä
Menschen rechte</w>
Be völk
Win dows</w>
Strateg ie</w>
n ed</w>
F eh
m em
ris k</w>
erfol gre
D ank</w>
wer t</w>
hal tung</w>
V on</w>
seri ous</w>
te ten</w>
li g
sp ace</w>
mon ths</w>
d ro
sp ort</w>
Z i
stand ard</w>
fac ilities</w>
E i
an o</w>
lon ger</w>
z es</w>
am es</w>
ein ander</w>
solu tions</w>
Ver besser
bek annt</w>
o p</w>
Rich tung</w>
hist ory</w>
m ing</w>
br ing</w>
näch sten</w>
p ast</w>
u t</w>
zü glich</w>
en ough</w>
medi a</w>
propos ed</w>
re ach
E l
W ah
Stru k
ei ther</w>
ver ein
typ e</w>
car ri
develop ed</w>
even ts</w>
Apri l</w>
Um setzung</w>
rel ated</w>
ne ar</w>
i tion</w>
ic s</w>
F ern
curr ently</w>
to s</w>
An sicht</w>
te am</w>
intern al</w>
co st</w>
lin es</w>
inter ests</w>
trä ge</w>
direc t</w>
oo ds</w>
vor gesch
gu ests</w>
R at
fer enz</w>
Wach st
nee ded</w>
require ments</w>
re staurant</w>
y c
a de
H an
ber g</w>
regi ons</w>
hä lt</w>
langu age</w>
lo se</w>
visi t</w>
M il
Nä he</w>
s ab
li mit
l te</w>
2 7</w>
Mit arbei
spe ak
vi ces</w>
ur en</w>
er neu
pres s</w>
Ver trag</w>
ad a</w>
f ris
par ties</w>
D an
A p
ing ly</w>
f is
ne g
sei ts</w>
tr a</w>
Ver fahren</w>
mb H</w>
Fre ih
we der</w>
man ag
aller dings</w>
sch t</w>
g te</w>
vi er</w>
Ver tra
Ple ase</w>
pe ace</w>
1 6
zent r
invol ved</w>
ta g</w>
D rit
organ iz
them selves</w>
yo ung</w>
gra ph
d on
rau m</w>
lan ge</w>
Bed ingungen</w>
Ziel e</w>
F rom</w>
aff ung</w>
hum an
beispiel sweise</w>
com bin
be tra
reg ulation</w>
fü n
Anwen dung</w>
it ali
wer de</w>
cent ral</w>
ung spro
ho ffe</w>
demo cracy</w>
Sel b
Verantwor tung</w>
de pen
se par
com fortable</w>
grei fen</w>
pos ed</w>
competi tion</w>
gespro chen</w>
e di
imple mentation</w>
wirk ungen</w>
c ateg
ne ver</w>
se en</w>
I T
blei ben</w>
b ra
vi ous</w>
mark ets</w>
Rus sia</w>
up on</w>
bi g</w>
gemein samen</w>
extrem ely</w>
w and
an ks</w>
rich tung</w>
free dom</w>
In te
notwendi g</w>
ter ror
g rupp
st et</w>
ab les</w>
V ide
je wei
Kom p
D ah
fun ktion
m ed</w>
Ver sion</w>
schein t</w>
Demokrati e</w>
eff orts</w>
sch ön
ig ung</w>
ple ase</w>
Er weiter
S an
to tal</w>
gen u
w w
sozi alen</w>
net work</w>
A spe
G mbH</w>
A s
c ases</w>
c aus
Vorsch läge</w>
ev ent</w>
all s</w>
Herr en</w>
ger e
ari an</w>
hel d</w>
O R
be w
ch t
mon it
s et
vi elleicht</w>
kl einen</w>
ant ly</w>
Kli ma
str ong</w>
Grund lage</w>
ber u
Geb iet</w>
mo di
L A
A m</w>
il ed</w>
Ver wal
yn am
Sozi al
Inter esse</w>
verwen det</w>
imple men
Rei he</w>
t ory</w>
ser ve</w>
c la
at ory</w>
ww w</w>
er le
fri endly</w>
de mon
ach ten</w>
ber ücksichti
ar ri
Gesch ichte</w>
off en
demo cratic</w>
K ön
ke ep</w>
Th e
1 4
ari a</w>
op tim
T ro
D am
l ack</w>
An gele
rele v
Ar ch
ru n</w>
M an</w>
o w</w>
plat z</w>
Ih rem</w>
Tei l
Dur ch</w>
c am
su mm
di sk
te m</w>
h äl
vor sch
zo gen</w>
st ly</w>
inn en
har mon
wnlo ad</w>
ma xim
r ates</w>
ren ch</w>
in en</w>
Fran ce</w>
appropri ate</w>
ah n</w>
199 9</w>
z ation</w>
pre p
region al</w>
C u
Mög lichkeiten</w>
C our
er reicht</w>
mu sic</w>
ac tions</w>
Dah er</w>
Pu bli
Sicher heits
er ed</w>
A G</w>
sch ö
materi al</w>
K enn
h ard</w>
T ri
sp rä
situ ated</w>
negoti ations</w>
F l
pa y</w>
ge ts</w>
tru e</w>
A D
c en</w>
m es</w>
glei chen</w>
Deb atte</w>
schn it
ver fol
su cht</w>
Institu tionen</w>
Ö ff
consi der</w>
ges etz
Mo d
boo k</w>
a gi
Off ice</w>
tain ed</w>
A ff
hö ch
s eh
Er klär
Inv esti
tu rel
si dent
every thing</w>
cent er</w>
vi de
ex per
isch es</w>
R E
develop ing</w>
cre ated</w>
sur ro
reich e</w>
be ach</w>
al tern
an ts</w>
forder t</w>
s st</w>
requ est</w>
St ell
ist an</w>
funda mental</w>
fore ign</w>
alo gue</w>
W ieder
bo ard</w>
ri chten</w>
L on
ch e
K ir
N etz
Umwel t
o ft</w>
fort un
sp or
wis sen
uni que</w>
el li
ger ä
Al l
con ven
sh are</w>
m al
th us</w>
lu s</w>
educ ation</w>
K a
1 5
at ors</w>
stell ungen</w>
ün sti
acc ording</w>
steh enden</w>
k s
ber eit</w>
st ates</w>
wen ig</w>
des cri
N ich
rei ben</w>
fun ds</w>
D amen</w>
verschieden e</w>
F rench</w>
D ol
entwick elt</w>
Ho ch
Ab sch
B ri
Pre is</w>
impro ve</w>
au t</w>
ment ary</w>
re fle
Re chn
pri ces</w>
si an</w>
er fül
Pre sidency</w>
t ou
s m</w>
ac comm
kön nten</w>
Hin blick</w>
al most</w>
re ma
ap er</w>
uni k
r ing
tw eit</w>
cli mate</w>
ic ro
min im
n immt</w>
cor rec
tre at
dr in
eff ect</w>
Americ an</w>
p ment</w>
mis sion</w>
re form</w>
ver antwor
par ts</w>
me et</w>
Dienstleist ungen</w>
fam ous</w>
li ving</w>
lä tz
im medi
spiel en</w>
design ed</w>
arbei tung</w>
gh out</w>
gra phi
di gen</w>
T O</w>
succ ess</w>
kon kre
addi tional</w>
inclu ded</w>
gri ff</w>
er seits</w>
be finden</w>
S an</w>
B ank</w>
S i
pr ise</w>
gel ei
h eu
gemein same</w>
Fisch er
Berichterstat ter</w>
P lan
Disk us
mittel n</w>
a im
so on</w>
ac tually</w>
Di en
Minu ten</w>
lat er</w>
stat t
g lichen</w>
Früh st
Par k</w>
h or
a il</w>
verfü gt</w>
h of</w>
k or
Beh ör
hi er
T ele
ide a</w>
ermög licht</w>
on i
Her aus
c ard</w>
C D</w>
ta x</w>
Aus wirkungen</w>
sk i</w>
P at
sich ts</w>
Au ßer
Isra el</w>
ha ps</w>
ats ächlich</w>
lin ks</w>
Ab kommen</w>
S t</w>
am bi
ent er</w>
ke y
li k
gen ie
Par is</w>
b an</w>
s ati
Kon ta
fall en</w>
ru hi
eff izi
T our
untern ehmen</w>
men tioned</w>
M et
Regi onen</w>
ex am
en coura
p e</w>
Li ber
h atten</w>
b ark
schri f
Ver tre
ish ing</w>
ell ing</w>
re ich</w>
under stand</w>
W al
inv esti
än dern</w>
fi ve</w>
work ers</w>
Do ch</w>
F rei
wi ll
co ver</w>
le ad</w>
com b
wer k</w>
as soci
A gen
wi l
recei ve</w>
jen igen</w>
7 0</w>
g le</w>
Au stri
ver fahren</w>
K at
Fü hr
k er
F er
ac y</w>
ab led</w>
2 8</w>
Tat sache</w>
Por tu
hel fen</w>
Pro gramme</w>
acc ept</w>
c amp
stat tet</w>
ur ing</w>
initi ative</w>
Z u</w>
M is
Verhand lungen</w>
ff e
erforder lich</w>
fa ir</w>
cap ital</w>
ch eck</w>
sch ul
ta kes</w>
äu ßer
out side</w>
le ading</w>
ob s</w>
D el
Pro to
Mitglie der</w>
f al
susta in
b ack
comm er
F äl
wel tweit</w>
proc edure</w>
be h
f ran
bil dung</w>
ch ed</w>
ge stal
M as
si erung</w>
H af
ameri kan
ra ce</w>
inte gr
gesam ten</w>
ti sche</w>
H ö
buil t</w>
kno wledge</w>
Ge f
zi ert</w>
us ers</w>
I P</w>
er hö
re it
di st
tel y</w>
we ek</w>
I M
K or
c are
ei gent
sm us</w>
eben so</w>
B ar</w>
P an
schlie ßen</w>
1 3
maj ority</w>
wel t
feat ures</w>
Li ste</w>
einzel nen</w>
Finan zi
amoun t</w>
dar um</w>
be zieh
ser ved</w>
progra m</w>
a y</w>
en ing</w>
an gebo
u ally</w>
den ke</w>
communic ation</w>
lä ssi
me t</w>
Kolleg innen</w>
e arly</w>
ck ing</w>
ta x
fil es</w>
z one</w>
ste ad</w>
fron t</w>
re ach</w>
h ours</w>
to ok</w>
Grupp e</w>
Au ßen
B it
er wäh
ei en</w>
st a</w>
Verk ehr
M ob
do ing</w>
emp ha
Zent rum</w>
str ategi
tur en</w>
a vo
P rin
it ing</w>
a den</w>
throu ghout</w>
ep tion</w>
län dern</w>
sati s
C hr
weiter en</w>
Ma il</w>
su per
Bes timm
Sch ritt</w>
guaran tee</w>
an gem
par k</w>
B ur
Ver f
or ing</w>
custom er</w>
ver ur
n en
we b</w>
Außer dem</w>
z er</w>
z en
connec tion</w>
el ess</w>
f oo
tion s
Entschei dung</w>
B innen
Ho w</w>
Änderungsanträ ge</w>
t i</w>
E S</w>
d or
U N</w>
par ty</w>
Abgeord neten</w>
2 6</w>
do or</w>
fre i
ac ross</w>
ex tern
st elle</w>
un ds</w>
Berei chen</w>
ga b</w>
d est</w>
Ver wen
fin al</w>
a ware</w>
reli gi
s em
ad d</w>
Ergeb nis</w>
w ahl</w>
intern ationale</w>
z z
con text</w>
at trac
wri ting</w>
stan ces</w>
sti c</w>
certain ly</w>
Rus s
lo g
I S</w>
invest ment</w>
ele gan
rel ations</w>
n ation
N et
je dem</w>
con sequ
zun ehmen</w>
in ge</w>
tradi tional</w>
än dert</w>
S T
a men
co de</w>
vor zu
B us
We b</w>
W asser
sta ge</w>
Änderungs antrag</w>
f lä
kon nte</w>
signific ant</w>
Ein zel
sam keit</w>
O c
ä d
indi c
k li
lu x
ar ing</w>
hä tte</w>
is en</w>
fähi gkeit</w>
perform ance</w>
B y</w>
exist ing</w>
w under
li ert</w>
gegen wär
b a</w>
t ent</w>
al though</w>
Bezieh ungen</w>
Vereinig ten</w>
Ant wort</w>
colle ag
lä sst</w>
9 0</w>
Plat z</w>
A ktiv
S h
F ur
si sche</w>
P h
s ent</w>
origin al</w>
B lick</w>
g res
lich erweise</w>
speci ali
ch oo
gleich zeitig</w>
G ele
Tur key</w>
g ame</w>
an z</w>
r us
ali tä
vel s</w>
St at
Ur lau
wei ß</w>
for men</w>
perf ect</w>
programm es</w>
Bevölk erung</w>
hei ßt</w>
in ation</w>
G eh
Eng lish</w>
g ei
V o
li gh
co ordin
pra kti
concern s</w>
ck e</w>
am a</w>
än de</w>
gemein sam</w>
con tra
Ver ordnung</w>
w at
m as
is ing</w>
J oh
wal k</w>
Aus druck</w>
wichti gen</w>
ig ration</w>
th ern</w>
Woh n
eb ru
vi r
mom ent</w>
sh ed</w>
G eld</w>
ander er</w>
s mo
Govern ment</w>
l ten</w>
richti g</w>
ur ch</w>
l d
i erung</w>
ple as
m ut
M y</w>
Erfol g</w>
ke i</w>
Ri si
m y
lan gen</w>
Americ a</w>
a di
is on</w>
vol le</w>
A cc
y l
In st
qui ck
profession al</w>
da p
blei bt</w>
n a</w>
äh ri
Po liti
concern ing</w>
Tag es
s ag
bark eit</w>
di o
ati v</w>
lo k
je de</w>
app ly</w>
re ad</w>
comm ittee</w>
On line</w>
ei gen
pop ulation</w>
schri ften</w>
accomm od
si tz</w>
so ft</w>
si ze</w>
H am
comm unity</w>
sei te</w>
För derung</w>
en or
Ver pflich
K rise</w>
län der</w>
S at
milit ary</w>
ge st
c ru
Ver bindung</w>
Tür kei</w>
reas ons</w>
establish ed</w>
agre ements</w>
k il
er inn
qu o
Auf gabe</w>
Sch wi
be kommen</w>
arch it
kl eine</w>
conf lic
comple tely</w>
imp act</w>
no thing</w>
le gi
Proje kt</w>
deci sions</w>
rich tungen</w>
tre ffen</w>
F ebru
b ein
P C</w>
em er
S ie
un abhängi
inclu des</w>
Bar cel
ne w
n it
erk enn
for dern</w>
Minist er</w>
inte gri
S outh</w>
ti vely</w>
Cour t</w>
Kon z
St abili
partn er</w>
prac tice</w>
gar anti
mar k</w>
er st
ba sic</w>
C re
Un ser</w>
m als</w>
su ch
ä lt</w>
Schlus sel
S en
sty le</w>
mo bili
consu l
Au g
ür z
Lon don</w>
S eit</w>
be deut
Kon trolle</w>
e y
verb unden</w>
l y
entschei den
m einen</w>
gerich tet</w>
u es</w>
S lo
Sch la
er lau
am s</w>
unser es</w>
M al</w>
equi pped</w>
Ein satz</w>
Spe zi
Aussch usses</w>
Z um</w>
C H
re stri
ra ch
fun den</w>
dd le</w>
bed ingungen</w>
Forsch ung</w>
j ähri
m es
allo ws</w>
st ar</w>
K u
con stitu
De sign</w>
ati c</w>
Jah res</w>
ter ran
sen se</w>
rä u
inter net</w>
ba th
c as
V al
gehör en</w>
j obs</w>
t ol
m ise</w>
enth alten</w>
proc ess
2 9</w>
en lar
Inform ation</w>
gan gen</w>
e chti
exp en
in tel
b ad</w>
ver bin
O ber
mo del</w>
Partn er
sident schaft</w>
gr enz
gen t</w>
pl ann
s sel
gan genen</w>
re main</w>
ab zu
r un
S ince</w>
4 5</w>
it able</w>
de si
pre ci
holi day</w>
äu fi
b it</w>
cho ice</w>
fi gu
si di
G lob
tim men</w>
ba si
sieh t</w>
con fir
con struction</w>
re f
R ec
über zeu
valu es</w>
partn ers</w>
ati sti
sch es</w>
objec tives</w>
ob lig
V en
t le</w>
wirtschaf tliche</w>
Lu x
pack age</w>
gef ähr
fun ction</w>
sto p</w>
h om
recei ved</w>
inte gration</w>
Au ff
Partn er</w>
we ch
Wis sen
gemä ß</w>
Erweiter ung</w>
ne u</w>
ei ch
Entschließ ung</w>
ie ten</w>
ep s</w>
inf lu
regar ding</w>
devel op</w>
t ary</w>
3 5</w>
sch le
un ge</w>
n s</w>
ann te</w>
Nutz ung</w>
verstän dlich</w>
Lis bon</w>
Pro gramm
hin zu
e uro</w>
w ise</w>
ha f
stell er</w>
prü fen</w>
simp le</w>
equi pment</w>
Behör den</w>
tem por
guaran te
applic ations</w>
Aug ust</w>
den ts</w>
19 6
we st
er c
M ul
c ell
pur ch
m m</w>
ec e</w>
Ge or
V or</w>
Aussch uss</w>
je des</w>
ver hin
disp la
f rü
g ol
ver ti
p al
po pu
schaf t
bes u
manufac tur
ima ge</w>
s ett
dem and</w>
Lös ungen</w>
enti re</w>
wichti gsten</w>
per at
Bei trag</w>
Nat ur
mo ve</w>
agri cultural</w>
ti mi
Jap an</w>
tion ing</w>
res se</w>
an te</w>
ter rit
L et</w>
ra ble</w>
fi ght</w>
A pp
U kra
3 1</w>
li er</w>
No twendi
Dam it</w>
O N</w>
hau p
3 00</w>
stim men</w>
p ite</w>
Tex t</w>
K am
ger ne</w>
Ver anstal
ho tels</w>
x ed</w>
saf e</w>
benef it</w>
m us
a im</w>
ab solu
E L
comp uter</w>
le h
Bit te</w>
treat ment</w>
spi ri
at mosp
s ou
ar d
Sch wei
objec tive</w>
Lis sab
ser ies</w>
re turn</w>
Auf enth
F eri
D V
si t
gen au
sc re
mehr ere</w>
conc ern</w>
Ho st
re ports</w>
quick ly</w>
E ast</w>
limit ed</w>
bel ow</w>
di gung</w>
wo bei</w>
li ance</w>
fl ü
hin sichtlich</w>
g oods</w>
el en</w>
Steu er
f ru
Ge wal
la den</w>
So li
gesam t</w>
ni ce</w>
f est</w>
ges p
Ma y</w>
nach hal
sor gen</w>
C A
grat ul
trans l
ach es</w>
Mark t
foc us</w>
H ere</w>
an ten</w>
Bu ch
C a
an ischen</w>
Aff airs</w>
k it
dou ble</w>
d aten</w>
zur ück</w>
en ed</w>
gan ze</w>
gan zen</w>
är en</w>
pro mise</w>
fortun ately</w>
Ch an
enth ält</w>
sc ri
Kul tur</w>
as h
bal d</w>
sci enti
Ges am
Verbesser ung</w>
v eh
an no
su m
ag er</w>
ph y
be züglich</w>
success ful</w>
r und</w>
syst em
ven ess</w>
tradi tion
ri ften</w>
ne ben</w>
vel op
Man agement</w>
bet eili
C ap
ermög lichen</w>
kul turel
In nov
ei gene</w>
hand eln</w>
Mat eri
gen annten</w>
ic k</w>
jo b</w>
W hi
e ks</w>
gu est</w>
con tains</w>
achie ved</w>
f s</w>
schwi eri
ü hr
ac ity</w>
A ra
se ems</w>
sicher heit</w>
Ein k
rech ts
inde ed</w>
r ing</w>
t op
fol low</w>
poten tial</w>
B ul
auf zu
Barcel ona</w>
el ten</w>
su l
St unden</w>
k ei
Ira n</w>
N ational</w>
Jun e</w>
ci ples</w>
K oh
rec ently</w>
fre i</w>
T ä
Verbrau cher</w>
ch em
be ein
lo ss</w>
F ri
Sch affung</w>
T im
sen de</w>
me an</w>
Arbei tn
Umwel t</w>
un e</w>
O k
in k
wei s</w>
zah len</w>
we g</w>
e vi
prev ent</w>
A mend
d ates</w>
S omm
le vels</w>
high ly</w>
beginn ing</w>
le y</w>
ali sation</w>
W ort</w>
ver pflich
it es</w>
rie g</w>
schließ end</w>
M ich
F lü
men ten</w>
cle an</w>
Fin ally</w>
Ser ver</w>
di alogue</w>
f s
ad ded</w>
off ice</w>
Selb st
an gen
con gratul
ktion s
Ergeb nisse</w>
inn er</w>
organis ation</w>
plac es</w>
present ed</w>
d ynam
Y or
Cent ral</w>
Am ster
ständi gen</w>
Gele genheit</w>
k u
Verwen dung</w>
vor schriften</w>
Bet ri
Bil d</w>
l ück
Geb äu
cir c
B ü
every one</w>
vi ously</w>
K rank
tra ff
J us
Russ land</w>
ti ger</w>
A part
re p
Lan des</w>
Angebo t</w>
ori en</w>
h äre</w>
s ent
g as</w>
govern ments</w>
ge k
ür f
ig keiten</w>
völ lig</w>
hu ge</w>
Initi ative</w>
M E
ele k
b order</w>
C ity</w>
at temp
för dern</w>
ur s</w>
Wo che</w>
flo or</w>
erh eb
bal ance</w>
Notwendi gkeit</w>
p le</w>
sozi ale</w>
no te</w>
who se</w>
F ach
Pro f
ac ks</w>
grund le
increas ed</w>
verbesser n</w>
agre ed</w>
in i</w>
s lo
L inu
ans wer</w>
relev ant</w>
f lu
s ex
pec ts</w>
I r
j our
carri ed</w>
den s</w>
sel ec
organ isi
de p
groß er</w>
as ked</w>
consu mers</w>
En ter
gu ten</w>
Te am</w>
Lissab on</w>
Mitarbei ter</w>
cover ed</w>
bu te</w>
high er</w>
key word</w>
g al</w>
ge o
suff ici
M ad
sho ws</w>
entwick eln</w>
prin ciples</w>
Pri or
ó n</w>
direc tion</w>
te sten</w>
ser ver</w>
äh n
kre ich</w>
N ieder
te i</w>
op h
s al
verwen den</w>
Inter essen</w>
T age</w>
serv ation</w>
ell a</w>
Them en</w>
ver stär
fil m</w>
en able</w>
O S</w>
I D
Dar über</w>
set ting</w>
amend ment</w>
be stä
human it
vide o</w>
Gener al</w>
sustain able</w>
F a
recom men
verfü gen</w>
h äufi
g ers</w>
H um
f onds</w>
Energi e
S am
posi ti
Industri e</w>
re views</w>
consider ed</w>
k ann
pos sibility</w>
spä ter</w>
me an
disk u
M än
b ase</w>
tra vel</w>
sch utz
Famili e</w>
b all</w>
g ül
choo se</w>
ar in</w>
per haps</w>
comple x</w>
un ion</w>
commit ment</w>
zi eren</w>
si cal</w>
Zeit punkt</w>
nu clear</w>
ologi es</w>
n ie</w>
Gi pf
po st
f eld</w>
spezi f
m ann</w>
materi als</w>
n ie
b our
be stehen</w>
con duc
S ome</w>
fün f</w>
m einem</w>
Ar ticle</w>
ma ßnahmen</w>
un k
Über ein
0 1</w>
geh end</w>
ast rop
ir gend
em is
Änder ungen</w>
vol u
Be wer
fol ge</w>
o v
di enen</w>
effec ts</w>
Ther efore</w>
u ß</w>
W asser</w>
zun ächst</w>
I tal
Arbeitsp lätz
veh ic
Fran kreich</w>
mat ters</w>
vor han
Per son</w>
Untern ehmen
M P
R A
verfü g
W ahr
sho wn</w>
Organis ation</w>
Fir st</w>
O N
x is</w>
as pects</w>
oo m</w>
th anks</w>
ent lich</w>
De velop
clo sed</w>
wäh len</w>
ge eig
pl ant</w>
Ma i</w>
stat us</w>
Gesund heit</w>
c ro
innov ative</w>
di ent</w>
ck et</w>
Regi erungen</w>
an genommen</w>
ver se</w>
ger ung</w>
W ert</w>
b ig
W erk
promo te</w>
ü bri
B riti
jo int</w>
di glich</w>
Ko so
rou ght</w>
fre ien</w>
3 2</w>
c las
t atsächlich</w>
gel eg
form er</w>
sam m
Jun i</w>
c ame</w>
ex change</w>
No w</w>
S um
ter ien</w>
Sp ain</w>
plac ed</w>
Vol ks
Wettbewer bs
Erfahr ung</w>
O f</w>
fi k
ein deu
Intern et
mo bi
Kon fli
Beh and
lat est</w>
spe ak</w>
Deb ian</w>
ti veness</w>
beh ind</w>
deta ils</w>
de ten</w>
ex hi
Aus wahl</w>
schrif tlich</w>
s yn
cre ation</w>
Me tho
opport unities</w>
Komm unik
so und</w>
pre vious</w>
ann er</w>
E C</w>
g liche</w>
di schen</w>
cap acity</w>
sch ätz
n ö
U p
ra li
zei t
Her zen</w>
pres sure</w>
Ein führung</w>
proce du
de termin
ff et</w>
increas ing</w>
Gä ste
Um gebung</w>
Linu x</w>
Ital y</w>
sho p</w>
ten en</w>
intern ation
M useum</w>
Fran k
Ver trau
a vi
bau en</w>
Aut om
An aly
spru ch</w>
comp et
al ing</w>
et ary</w>
popu lar</w>
F le
Währ end</w>
dra w</w>
provi ding</w>
prep ared</w>
B lo
ver stehen</w>
öff net</w>
An fang</w>
Ter ror
respon se</w>
ter ia</w>
accommod ation</w>
o il</w>
reach ed</w>
Da bei</w>
ar gu
ter in</w>
sta g</w>
easi ly</w>
Verein bar
ge funden</w>
atmosp here</w>
pri m
wen den</w>
Mitg lied</w>
exp lo
par lia
si mi
äußer st</w>
u en</w>
tic ally</w>
di e
199 8</w>
Me er</w>
tain ing</w>
Ei gen
bi o
industri al</w>
Proz ess</w>
l o</w>
Ho tel
Öff ent
Rat sprä
bestimm te</w>
fun c
und es
commer cial</w>
ges sen</w>
p ul
Kamp f</w>
ari ly</w>
wi der
Sta ats
Nat ur</w>
cl ass</w>
ho hen</w>
bis her</w>
redu ce</w>
Soli dar
W TO</w>
syst eme</w>
er ous</w>
schaf tlichen</w>
le ben
T H
ent ed</w>
extern al</w>
publi k</w>
Afri ca</w>
b ür
re pe
gesam te</w>
produc ed</w>
S wi
som it</w>
H aus
O ri
Syst ems</w>
besch äf
G est
char ge</w>
lin k</w>
le diglich</w>
T it
k rä
star k</w>
D I
Spra che</w>
g a</w>
wer s</w>
Aktiv itäten</w>
gewähr leisten</w>
s la
zus etzen</w>
ent de
Amster dam</w>
summ er</w>
th y</w>
en ding</w>
M icro
Ener gie</w>
S A
An zahl</w>
verk ehr</w>
supp ly</w>
in fra
S tern
br ingt</w>
comp re
Briti sh</w>
nei gh
H and</w>
sub mitted</w>
H om
mäß ig</w>
Rau m</w>
H inter
er y</w>
Con vention</w>
ass ess
wün schen</w>
Be kämp
ein hei
B lu
en a</w>
Re g
Gä ste</w>
qu es</w>
ic ally</w>
Inte gration</w>
deci ded</w>
gi ves</w>
effici ent</w>
ob wohl</w>
gen der</w>
civi l</w>
Ukra ine</w>
re si
h ung</w>
Dec ember</w>
üh m
ver suchen</w>
proper ty</w>
be sitz
au m</w>
anno un
hervor ra
W ahl</w>
bew us
B usiness</w>
prote ct</w>
Proto kol
gen heiten</w>
ci a</w>
pri ority</w>
bestimm ten</w>
emplo ye
E ing
enlar gement</w>
Bil d
ant i</w>
read ing</w>
rema ins</w>
ber t</w>
our cen</w>
ung sp
es si
ich ten</w>
Bekämp fung</w>
ru s</w>
sätz e</w>
Al so</w>
er enden</w>
i d
De z
K op
ti v
c ause</w>
Produ ktion</w>
ein schließlich</w>
as su
f än
ap poin
li ge</w>
ab sol
ish ed</w>
Ser vices</w>
spe ed</w>
ti li
sib ilities</w>
selb st
suppor ted</w>
f unding</w>
H y
charac ter
is land</w>
inter ess
erk ennen</w>
lea ve</w>
Kommiss arin</w>
acc ord
setz ungen</w>
J av
E rach
m bo
Erach tens</w>
g ünsti
l as</w>
indepen dent</w>
m eines</w>
ther more</w>
Zent r
C am
i le</w>
D inge</w>
tra g
on nen</w>
zwei te</w>
gew öh
fran zö
Par ty</w>
an ia</w>
zeh n</w>
mobi le</w>
D or
ver l
In sel</w>
re staurants</w>
bet ro
Yor k</w>
Koso vo</w>
Z ahl</w>
Res er
k a
St o
Ch rist
zahl reiche</w>
instru ment</w>
consu mer</w>
b illion</w>
v an</w>
D om
assi stance</w>
produ ce</w>
R ess
mo vement</w>
Sp iel</w>
Tran spar
Bestimm ungen</w>
compre hen
P ap
terran ean</w>
I L
ro r</w>
Ger ä
pres ents</w>
Boo king</w>
pro b
M y
ari es</w>
demon str
zi p</w>
let ter</w>
im pres
pre par
spe e
ck er</w>
er weiter
pur pose</w>
T u
zeu ge</w>
de te</w>
qu are</w>
accep table</w>
Fortsch ritte</w>
ge wis
West ern</w>
l ös
Vor aus
pl om
re a</w>
ne y</w>
opp el
kon zent
er ster</w>
sag te</w>
add res
ten den</w>
w ander
sch ütz
ge m</w>
spr ün
f r
cre ating</w>
Tran s
simi lar</w>
geb aut</w>
mög lichkeiten</w>
ges ell
s ource</w>
ru le</w>
apart ment</w>
acti vity</w>
L es
Jahrhunder t</w>
O per
con ver
Pre ise</w>
C ro
Dez ember</w>
b rought</w>
i cial</w>
op tion</w>
la un
rel ation</w>
er e
äu ß
h es</w>
Mar ch</w>
ex ec
Po sition</w>
lar gest</w>
regul ations</w>
our selves</w>
le gung</w>
ic es</w>
w ritten</w>
im mer
1 2
ausge stattet</w>
ho ben</w>
Fun ktion</w>
minist er</w>
außer dem</w>
ri eben</w>
Erklär ung</w>
C ha
st eps</w>
k in
fre qu
S E</w>
Lu ft
er zeu
Janu ary</w>
soli dar
sol chen</w>
St elle</w>
m ein</w>
on dly</w>
Di alog</w>
D r</w>
B as
em and</w>
L auf
con v
air port</w>
P rü
vol len</w>
lei cht</w>
si x</w>
prä sen
sch au
el e</w>
wur f</w>
m ine</w>
C li
da durch</w>
G ei
stän de</w>
instru ments</w>
st ung</w>
ho he</w>
ple ased</w>
versi ty</w>
ar en</w>
ac ts</w>
shi ps</w>
categ ories</w>
Wachst um</w>
con struc
ber ühm
f la
zwei ten</w>
exp la
Re public</w>
vari ety</w>
Oc tober</w>
Nor th</w>
los sen
f ishing</w>
ins gesamt</w>
Mehr heit</w>
wi d
ha fen</w>
si des</w>
S ite</w>
C lub</w>
ra di
con ference</w>
inter pre
rel ation
P unkte</w>
pa id</w>
größ ten</w>
Han del</w>
re in
p ati
ges ellschaft</w>
in stead</w>
mes sage</w>
medi um</w>
c e
lei der</w>
se ts</w>
op e</w>
Auf merk
discus sion</w>
docu ment</w>
s th
s sel</w>
tel l</w>
j ün
Str and</w>
inten si
eh er</w>
einzi ge</w>
auf genommen</w>
typ es</w>
rei b
Vorsch riften</w>
stell ten</w>
ro und</w>
ali st</w>
th ous
bec ame</w>
Gewal t</w>
Musi k</w>
Er zeu
vo c
Medi terranean</w>
po st</w>
D et
reg ards</w>
fis her
s a</w>
ar ran
ent al</w>
re over</w>
st ability</w>
stu dy</w>
ex tra</w>
sec tion</w>
ateg orien</w>
star ted</w>
gel an
gn isse</w>
Inform ations
di stance</w>
Entschei dungen</w>
Am eri
it em</w>
ver gangenen</w>
S we
gi ving</w>
Itali an</w>
ab ge
wer k
s au
cre dit</w>
An forderungen</w>
c ross</w>
ch tung</w>
D on
Verkehr s
Inst all
B undes
H i
distri bution</w>
Kü che</w>
K ün
Mär z</w>
N ur</w>
Fe der
c ast
e te</w>
opp ing</w>
li a</w>
ep h
legisl ative</w>
ob en</w>
fol gt</w>
p ass</w>
sel s</w>
F ak
P ho
Bal k
por ate</w>
h aus</w>
interest ing</w>
T or
bewer tungen</w>
st ers</w>
B on
Bu d
ord ini
men sion</w>
S ho
ko sten</w>
einzi gar
ag ing</w>
Aufmerk samkeit</w>
allo wed</w>
H ung
sign ed</w>
mm ing</w>
y ond</w>
M S</w>
Ma sch
g ste</w>
au lt</w>
cli ck</w>
ec k
partn er
procedu res</w>
di g</w>
c a
To day</w>
genie ßen</w>
Span ish</w>
conven i
stra tion</w>
sh ops</w>
ren e
In de
conc ept</w>
rei bung</w>
Freih eit</w>
A gr
L E
stat ement</w>
ologi en</w>
vi er
Gef ahr</w>
an ge</w>
Gesund heits
sch ool</w>
archit ec
comp on
L ehr
rela x
Ri ghts</w>
P S</w>
u le</w>
ter t</w>
et z</w>
pa yment</w>
k ein
to ol</w>
konzent ri
k riti
St äd
W est</w>
ä st
Gemein schafts
Cent er</w>
com promise</w>
nis sen</w>
re gu
Proje kte</w>
elec tri
Kre di
qu ar
St är
dam age</w>
Vil la</w>
M acht</w>
Stand punkt</w>
S im
le ge</w>
contri bution</w>
Beschäf tigung</w>
letz t</w>
Wir k
tei en</w>
e valu
lie genden</w>
Gr enzen</w>
histor ical</w>
G al
provi sions</w>
Al ler
agen da</w>
ver ty</w>
kur z</w>
stand s</w>
pur su
Berei che</w>
vil lage</w>
Stad t
Emp feh
l auf
ab ri
r at
do w</w>
G oo
Gäste bewertungen</w>
über sch
we g
199 7</w>
m in</w>
L ab
M us
gel ten</w>
Develop ment</w>
S il
fas sen</w>
Ju ly</w>
Land wirtschaft</w>
viol ence</w>
Rah men
sp orts</w>
di se
ro s</w>
eigent lich</w>
v in
men sch
eff ort</w>
buil d</w>
verk ehr
qu iet</w>
T ab
bo x</w>
kon nten</w>
Dur ing</w>
elec tron
Wi der
dri ve</w>
be vor</w>
neu er</w>
w ine</w>
kon trol
wei s
tempor ary</w>
Ro oms</w>
fahr t</w>
N r</w>
sh or
U R
Portu gal</w>
Bel gi
sel n</w>
gewöh n
ein gesetzt</w>
n or</w>
t ask</w>
lab our</w>
O pf
B ad</w>
Ber u
docu ments</w>
Re form</w>
Wettbewer b</w>
ü b
An frage</w>
isti schen</w>
H u
l ate</w>
cri teria</w>
ie te</w>
lie ß
oper ating</w>
s us
E re
esti val</w>
t on
Kra ft</w>
expres s</w>
Investi tionen</w>
fan gen</w>
do wnload</w>
Af gh
Kon ferenz</w>
ve ments</w>
V is
europä ischer</w>
f alt</w>
wen ige</w>
7 5</w>
en gen</w>
t licher</w>
g ation</w>
kti ven</w>
cra ft</w>
Regel n</w>
jus ti
b and</w>
Benutz er</w>
nie dri
l am
Fol gen</w>
Unter such
integr ated</w>
N ationen</w>
con st
ut ting</w>
Fischer ei
Ok tober</w>
lie f
fin ally</w>
ul i</w>
in en
to ols</w>
dra ft</w>
N ation
benef its</w>
P H
Bil dung</w>
kl assi
un mittel
durch geführt</w>
Chr isti
P res
o t</w>
gro wing</w>
ele ments</w>
equ al</w>
Frühst ück</w>
E ig
w onder
dig ital</w>
Janu ar</w>
Hand els
Fir ma</w>
st able</w>
pos es</w>
Diskus sion</w>
re siden
aktu ellen</w>
B or
ch ing</w>
ra t</w>
größ te</w>
M A
t au
Lin ie</w>
Sta r</w>
M any</w>
as se</w>
b y
st es</w>
con om
happ y</w>
Universi ty</w>
requ ire</w>
Transpar enz</w>
Sin ne</w>
M eine</w>
benö tigen</w>
ma sch
go t</w>
Tele f
Berich ts</w>
Person al</w>
Cent re</w>
altern ative</w>
immedi ately</w>
b ru
high est</w>
wichti ger</w>
be ziehen</w>
ho st
Se e</w>
speci fic
Kin der
k at
Ver än
mu t</w>
apart ments</w>
h ed</w>
P hi
P as
Al though</w>
chan ged</w>
transpar ency</w>
for ces</w>
Grün den</w>
Z un
Präsiden ten</w>
un sch</w>
ein fa
cur ren
on t</w>
Ter ra
in stal
Enter prise</w>
Kön ig
Hö he</w>
sch wer
Z ur</w>
ange sichts</w>
D u</w>
Schwi er
hör en</w>
go es</w>
ve au</w>
ast ern</w>
K ern
H ig
Feri en
su b</w>
Stu di
aus drück
fol genden</w>
sch utz</w>
ahn hof</w>
sk il
get an</w>
erwar ten</w>
en ced</w>
all ein</w>
ch i
c r
par king</w>
or row</w>
dan ke</w>
kann st</w>
E conom
ver öffent
19 5
Y our</w>
eb s
off icial</w>
employe es</w>
S af
b usin
ab schie
c on</w>
fin e</w>
Par k
ac e
wi esen</w>
Kun st
ur sprün
fri ends</w>
S P
Feh ler</w>
Ne w
E is
m ous</w>
ih res</w>
At mosp
gen s</w>
Prä sidentschaft</w>
W a
de ath</w>
as tic</w>
app lied</w>
Agr ar
elec tions</w>
re ality</w>
con trac
Lo c
ti tu
tra in</w>
Bed ürf
F lu
Bem üh
it en</w>
help ful</w>
Bul g
el te</w>
num erous</w>
Auff assung</w>
gel ö
hin ter</w>
pho to
transp or
l ing
sub stan
analy sis</w>
so fort</w>
c ent</w>
ge wäh
d ol
ann ual</w>
avo id</w>
t ac
tri t
Ver tei
ständi ge</w>
challen ges</w>
advan tage</w>
Sa che</w>
lö sen</w>
Öffent lichkeit</w>
si l
da ily</w>
trau m</w>
po verty</w>
vol ution</w>
gh t
2 3
proc esses</w>
Flug hafen</w>
person s</w>
und ation</w>
institu tion
er o
p un
Priv at
c lu
Beschäf tig
k ehr
ätz e</w>
lab or
v ali
per man
Fur thermore</w>
kti v</w>
Ere ig
Dru ck</w>
n ungen</w>
erfolgre ich
solidar ity</w>
fa ir
zeu g</w>
wieder hol
off izi
r aten</w>
re view</w>
demokrati schen</w>
tal k</w>
H eute</w>
K ör
V öl
be hör
eff e
al te</w>
gi c</w>
occ a
eg ation</w>
wor tern</w>
Bet eili
P au
aus reich
tim ate</w>
erneu t</w>
consequ ences</w>
ein gesch
bath room</w>
ell es</w>
sa ying</w>
off ering</w>
C al
zeichn ung</w>
Wah l
le gt</w>
fas st</w>
j ähr
Kom promis
die jenigen</w>
schö nen</w>
S ou
öffent liche</w>
Pal est
be yond</w>
Bil der</w>
Tages ordnung</w>
histor ic</w>
begrü ße</w>
Dat ei</w>
ag ed</w>
di gt</w>
ber echti
alisi ert</w>
sel y</w>
ev ent
E L</w>
ß er</w>
DV D</w>
conflic t</w>
Kap it
ge worden</w>
hau pt</w>
C i
m ess
ade qu
he ad</w>
er ter</w>
entsprech enden</w>
b ran
se as
st ark
Änder ung</w>
nah e</w>
mor gen</w>
ther wise</w>
effici ency</w>
Hig h</w>
li ves</w>
C amp
berei t
wir ken</w>
Urlau b</w>
est er</w>
9 8</w>
bu ffet</w>
Arch it
R en
ld wide</w>
a der</w>
zun ehmen
sc ap
recom mend
ec ken</w>
p lus</w>
ra tive</w>
bei tragen</w>
off ered</w>
sat z
colleag ues</w>
minim um</w>
Fäl len</w>
ch tet</w>
J uli</w>
K ommission
ge tro
Bemüh ungen</w>
g yp
op tions</w>
T ou
g keiten</w>
gre at
Ger ich
An ge
Austri a</w>
car ry</w>
Re staurants</w>
kei ts
D o</w>
vic ti
Schlussel wortern</w>
fa il
empha si
sch o
bi a</w>
lang fris
ig ran
ler nen</w>
wer te</w>
il legal</w>
modi fied</w>
wan ted</w>
Mon aten</w>
W ell
star ting</w>
terror ism</w>
publi shed</w>
O st
ide as</w>
be handelt</w>
en se</w>
prac tical</w>
St ar
besch rän
R oom</w>
zi p
requi res</w>
Ba sis</w>
le c
bal an
b ir
An satz</w>
establi sh</w>
k i
wahr schein
s inn
mark s</w>
d t</w>
timm ung</w>
ut ely</w>
z in
h ou
bed ingt</w>
bet rä
industri e</w>
trans fer</w>
po or</w>
ne ws</w>
bek ämp
zu frie
ph one</w>
pla yer</w>
M au
si eren</w>
Bür gern</w>
verhin dern</w>
implemen ted</w>
ver standen</w>
sh opping</w>
Gr ö
use ful</w>
tre i
einf ach
sti e
Re publik</w>
Direc tive</w>
H el
le b
L eg
re ference</w>
di vi
Lie fer
organis ations</w>
Dat eien</w>
e f</w>
199 6</w>
berücksichti gt</w>
exp ect</w>
Stand ard</w>
gri ffen</w>
zü gi
mach ine</w>
we eks</w>
Ta gen</w>
i or</w>
ci ties</w>
monit oring</w>
Itali en</w>
wä l
hä tten</w>
kommen s</w>
be halten</w>
An sch
tur ned</w>
prote c
Behand lung</w>
suffici ent</w>
ali en</w>
rech ts</w>
erfol gt</w>
th ought</w>
disc rimin
d nis</w>
tom orrow</w>
ver gessen</w>
lo sen</w>
pa ar</w>
techn ischen</w>
congratul ate</w>
maxim um</w>
circ um
se ktor</w>
s ales</w>
cru cial</w>
Techn ologie</w>
ander em</w>
cli ents</w>
sec ure</w>
d ner</w>
Sp ei
cu t</w>
Milli ar
tro tz</w>
Bürger innen</w>
gen ce</w>
lear n</w>
M ün
rel ating</w>
P en
wer t
cre di
N AT
z t</w>
w ser</w>
olog ischen</w>
sor g
min ute</w>
reduc tion</w>
wei st</w>
b es</w>
l le</w>
Un ter</w>
B rü
an lage</w>
M c
Sch lü
Atmosp häre</w>
zu führen</w>
ver treten</w>
T at</w>
s ü
techn ologies</w>
some times</w>
l esen</w>
kur z
mor ning</w>
si en</w>
Ma ß
dru ck
I N</w>
ver sucht</w>
ep age</w>
Sch ließ
el ds</w>
Ver gan
stre et</w>
b lu
moun tain</w>
cla im
comprehen sive</w>
mon th</w>
Amend ment</w>
ander s</w>
Nach bar
richti ge</w>
caus ed</w>
So ci
deut schen</w>
k ers</w>
get ary</w>
em ail</w>
nat ür
sich ern</w>
ser ves</w>
g ames</w>
us w</w>
ho ch</w>
si gkeit</w>
R O</w>
vo ting</w>
camp a
struk tur</w>
T r
or ie</w>
M ag
Erfahr ungen</w>
Ver häl
D en</w>
L e</w>
fol gen</w>
chil d</w>
de gre
E ven</w>
reas on
ther ap
4 8</w>
Whi le</w>
be mü
I mp
P D
sp rech
G et
moder nen</w>
ge ments</w>
S icht</w>
ver wal
th eless</w>
Ber at
accord ance</w>
ff enen</w>
W ol
st ör
th in
ver theless</w>
fü gen</w>
ar a</w>
Nat ürlich</w>
Rechts vorschriften</w>
per fe
h old</w>
s ession</w>
di sa
eh em
any thing</w>
trä gt</w>
N icht</w>
über haupt</w>
institu tional</w>
F ähi
wa ste</w>
fre ih
ex ac
al one</w>
Be gin
war um</w>
histor ischen</w>
Grupp en</w>
B l
Span ien</w>
k tive</w>
br ing
lo wer</w>
nor m
Me er
ch ter</w>
sor gung</w>
pl ans</w>
prob ably</w>
beg in</w>
pla yers</w>
ist s</w>
k i</w>
erklär t</w>
f it
langu ages</w>
Al tern
av ing</w>
F R</w>
a h</w>
can di
zahl reichen</w>
M om
interest ed</w>
k ro
verantwor tlich</w>
Begin n</w>
I s</w>
Wo chen</w>
Sch utz
metho d</w>
k ap
Comp uter</w>
s äm
bi tion</w>
ep ing</w>
Ress ourcen</w>
du le</w>
Aufenth alt</w>
bre chen</w>
cer ti
Frank fur
Micro soft</w>
wel ches</w>
betre ff
Pro te
L assen</w>
Finanzi erung</w>
Afgh an
off en</w>
gra f
Air port</w>
Drit t
conc ent
r ück
F ron
Con ference</w>
lik ely</w>
oc cu
acc ession</w>
men u</w>
ima ges</w>
far mers</w>
li m
Aspe kte</w>
ex tent</w>
t ari
wor ldwide</w>
scienti fic</w>
M ac
l auf</w>
rele ase</w>
t ori
wor ked</w>
K al
sc ale</w>
tn isse</w>
F el
erfül len</w>
M and
S wis
gar den</w>
be ste</w>
gew esen</w>
s un
voll ständig</w>
t oren</w>
grupp e</w>
is sen</w>
gre en</w>
metho ds</w>
An ti
ch ance</w>
men tion</w>
angem essen
c en
z ess</w>
führ te</w>
A gent
zei ten</w>
Vergan genheit</w>
ch s
swi mming</w>
mo tion</w>
Qu alitä
D ro
An der
häufi g</w>
P P
challen ge</w>
Sec urity</w>
zu min
stell te</w>
In halt</w>
gesch affen</w>
sion s
entsprech end</w>
ad verti
pa in
erfolgre ich</w>
streng th
f ish</w>
on y
F ac
coun t</w>
neu es</w>
Chin ese</w>
sec tors</w>
jewei ligen</w>
end lich</w>
ck ets</w>
é s</w>
D re
Vide o</w>
Publi c</w>
E m
I F
M ei
process ing</w>
zumin dest</w>
S onder
ti ges</w>
Ad resse</w>
verpflich tet</w>
pro fi
zi g</w>
Goo gle</w>
cri min
appe ar</w>
w ood</w>
F und</w>
as p
bed au
gewi esen</w>
L it
power s</w>
c in
ste ts</w>
at tra
Stern e</w>
re land</w>
Syst em
be für
en ze</w>
Fre e</w>
Zwei tens</w>
un er
fi elds</w>
zah lt</w>
un ten</w>
lo st</w>
W erte</w>
n ehm
g la
ver age</w>
Viel e</w>
9 9</w>
w r
außer halb</w>
selec tion</w>
jus tice</w>
er ende</w>
k am</w>
wal king</w>
busin esses</w>
erwar tet</w>
er o</w>
Min der
pas sen
Woh l
Bes onder
gen utzt</w>
ap preci
accep ted</w>
Sch ritte</w>
flä che</w>
schütz en</w>
des pite</w>
0 9</w>
strategi c</w>
com fort</w>
su s</w>
ter en</w>
4 00</w>
ver trau
inc or
k ennen</w>
sen si
ail s</w>
g st</w>
ex erc
Gr and</w>
f ying</w>
emp feh
ic a</w>
ut y</w>
fl uss</w>
ausge zeich
No t</w>
Arbeitn ehmer</w>
ma p</w>
B ran
f res
st ab
vi ert</w>
ex tra
Th ank</w>
Ö ster
I reland</w>
f ts
s eines</w>
P l
Ber g
Berichterstat terin</w>
ei l</w>
brau cht</w>
Vertrau en</w>
persön lichen</w>
Angele genheiten</w>
0 8</w>
gn is</w>
leist et</w>
ra ised</w>
Rus sian</w>
k n
est er
w ell
st atisti
Angele genheit</w>
sp rü
visi tors</w>
influ ence</w>
innov ation</w>
separ ate</w>
E l</w>
bar er</w>
wahrschein lich</w>
Gebäu de</w>
genu g</w>
heu tigen</w>
contra ct</w>
Zentr al
tr ying</w>
h eben</w>
letz te</w>
dou bt</w>
a war
a dap
s le
ig keit</w>
ö ri
In fra
absol utely</w>
Da zu</w>
sc ope</w>
imple ment</w>
Heraus forderungen</w>
Ges prä
flexi ble</w>
Schwier igkeiten</w>
lo sigkeit</w>
W ein
ach tet</w>
erlau bt</w>
ou rable</w>
her aus
oper ate</w>
Di stri
m and
t y
co he
b rie
amerikan ischen</w>
A T</w>
bo t</w>
Ba de
Pra xis</w>
A le
aus schließlich</w>
Pre is
1 50</w>
Vertre ter</w>
besser e</w>
Entschließ ungs
Kün st
l ess
y our
iz ed</w>
e e</w>
Spiel er</w>
is ation</w>
jo in</w>
Fo to
Par teien</w>
U K</w>
Pre mi
fäl lt</w>
lea ders</w>
bil den</w>
Aller dings</w>
o de</w>
se chs</w>
t our</w>
li en</w>
Menschen rechts
Produ kt</w>
dem ands</w>
i ze</w>
ati v
gesch ütz
erkenn ung</w>
elek tron
I D</w>
Ein richtung</w>
geh öri
Al t
t ations</w>
pr ises</w>
nam ely</w>
stu di
K las
N eben</w>
I ma
lo ve</w>
On ly</w>
Bet rie
u tive</w>
aff ected</w>
bor ders</w>
A ktion
di spo
di sche</w>
ta r</w>
o se</w>
Ein ige</w>
n ern</w>
ru ption</w>
Eig ent
cri tical</w>
ger ungen</w>
Regi on
open ing</w>
Hin sicht</w>
I mm
zeich nen</w>
inten ded</w>
get ting</w>
D ra
h our</w>
Con stitu
Fol ge</w>
priv aten</w>
Sch wer
he ard</w>
Mo reover</w>
call s</w>
Sec ondly</w>
erinn ern</w>
E T
gesch i
D enn</w>
stoff e</w>
wei ten</w>
a i
gel n</w>
over all</w>
W unsch</w>
k lu
ri d</w>
regi me</w>
sta aten</w>
st one</w>
H T
k rise</w>
3 3</w>
M O
aff t</w>
F alls</w>
sel ben</w>
di plom
bit ten</w>
Sta at</w>
war m</w>
Sp ec
trit ts
m at</w>
P ati
a p</w>
Instru ment</w>
s al</w>
A gre
k en
v ent
Ih res</w>
neg ative</w>
adop t</w>
Opf er</w>
w inn
and a</w>
gel t</w>
S port
vorgesch la
in si
itali en
st ore</w>
sa ys</w>
S Q
ter e</w>
exp ec
h tt
mp tion</w>
allgem einen</w>
ori enti
An nahme</w>
represent atives</w>
your self</w>
fäl le</w>
Solidar ität</w>
zu künf
n ungs
Ho ff
Nach fol
tr e</w>
Auf gaben</w>
M L</w>
über nehmen</w>
Su per
d ated</w>
ge kommen</w>
for ced</w>
NAT O</w>
R ed</w>
moder ne</w>
D oppel
sch ung</w>
relation ship</w>
ban ks</w>
Struk tur
ehem ali
D ann</w>
l aufen</w>
run ning</w>
S eh
W er</w>
a i</w>
S om
A K
den e</w>
Frie den</w>
initi atives</w>
isti c</w>
Arbeitsplätz e</w>
G N
l ass</w>
traff ic</w>
st ress</w>
K rieg</w>
us ually</w>
M ex
streng ungen</w>
geb iet</w>
9 5</w>
l ern</w>
aus ch</w>
entschei den</w>
Mittel me
se e
ün f
su itable</w>
begr enz
expres sed</w>
Afghan istan</w>
even ing</w>
sch wer</w>
dat ab
Ex per
j ahr</w>
kl ein
Pe ople</w>
0 s</w>
I ts</w>
N u
pe ace
L am
M er
G lau
kon om
tar get</w>
stän den</w>
prü ft</w>
h a</w>
Kul tur
colle c
bor n</w>
cri pt</w>
bewus st</w>
S O
exp ected</w>
li erung</w>
dar stellt</w>
commit ted</w>
Organis ationen</w>
bei de</w>
9 7</w>
M ore</w>
e e
main ly</w>
f ant
fre ie</w>
Ob wohl</w>
begrü ßen</w>
zu dem</w>
pro per</w>
ru p
automati sch</w>
hil fen</w>
0 er</w>
Gesam t
c yc
S yn
s i</w>
il l
st ein</w>
Kun den
administ ration</w>
Di re
Er n
f el</w>
sit ting</w>
Produ kt
D A
ra il
appro ved</w>
tal king</w>
w in</w>
main tain</w>
Syst eme</w>
H ä
forder ung</w>
gele gen</w>
än der
eth n
kar te</w>
ch ec
com par
Ob je
ter race</w>
ung spolitik</w>
gener ation</w>
et ings</w>
L eute</w>
Er stens</w>
Verf assung</w>
ver mei
install ation</w>
bu ch</w>
fan gre
plann ing</w>
v an
at or
pro gramm</w>
nach ten</w>
för dert</w>
Dem oc
sh e
N ord
il leg
s agt</w>
dest ens</w>
d eine</w>
St ation</w>
Verpflich tungen</w>
E M
v ital</w>
S S</w>
at ure</w>
vorgesch lagen</w>
S tim
Regi erungs
k ürz
n ä
aci ous</w>
S ing
tour ist</w>
r en</w>
tem perat
nor mal</w>
steh ende</w>
b on
Ar mut</w>
curren cy</w>
min i
Über wach
famili es</w>
confi dence</w>
T sch
par te
Agen da</w>
th in</w>
op timi
publi c
F alle</w>
m är
cohe sion</w>
Rom a</w>
Kun st</w>
an g
impro ved</w>
fre uen</w>
del ines</w>
D e</w>
r i</w>
colle ction</w>
k ü
z ing</w>
Mul ti
eindeu tig</w>
los oph
scre en</w>
sp ann
R ats
3 4</w>
prac tic
struc tures</w>
Im mobili
G rie
correc t</w>
olog ische</w>
Ele k
milit är
h eb
contro ll
pho to</w>
Milliar den</w>
führ ten</w>
ly mp
Co sta</w>
Sp a
administ rative</w>
B ec
li c</w>
S ant
go al</w>
stu dents</w>
Kri terien</w>
f ei
größ ere</w>
Sit zung</w>
Par tei</w>
Co de</w>
ent schie
Zus timmung</w>
Re ak
An strengungen</w>
Inv est
re forms</w>
k aum</w>
lich ung</w>
ben utzt</w>
r ats</w>
struc tural</w>
Bi o
w est</w>
feat ure</w>
6 5</w>
Kar te</w>
deli very</w>
6 4</w>
N un</w>
H ause</w>
ha ft</w>
wh ite</w>
Char ak
0 7</w>
b ul
com ments</w>
exc ep
er gän
increas ingly</w>
mu si
S ign
Fil m</w>
stie g</w>
who m</w>
pp ing</w>
conclu sion</w>
deci de</w>
eng ine
intel li
but ed</w>
competi tive</w>
n ationale</w>
Proz ent</w>
2 5
circum stances</w>
sa chen</w>
b um</w>
prote cted</w>
ück e</w>
reduc ed</w>
An erkennung</w>
zusätz liche</w>
schaf tliche</w>
sp richt</w>
um fangre
er land</w>
cont in
Protokol l</w>
cri tic
automati cally</w>
Sü d
ä den</w>
C he
gen annt</w>
grupp en</w>
Ide e</w>
N ations</w>
Fun ktionen</w>
entsp richt</w>
un bedingt</w>
199 5</w>
cri me</w>
re agi
Vereinbar ung</w>
G ast
te ach
la ws</w>
T em
Verwal tung</w>
electron ic</w>
ment ar
p es</w>
Terror ismus</w>
ti ous</w>
Binnen markt</w>
3 6</w>
z lich</w>
g g
el se</w>
Wah len</w>
E ff
s ources</w>
vo ice</w>
Er d
Ira q</w>
cel eb
20 20</w>
mit ten</w>
ic o</w>
beg an</w>
defin ed</w>
titu de</w>
Fu ß
de cor
Somm er</w>
pri orities</w>
form at</w>
9 6</w>
so fern</w>
beg innen</w>
ver tre
überzeu gt</w>
un employment</w>
T y
esti c</w>
schön e</w>
sup ports</w>
power ful</w>
Palest ini
I st</w>
selbst verständlich</w>
M ach
glei che</w>
exten sive</w>
pla yed</w>
contri bute</w>
infra structure</w>
v ac
eri es</w>
fl us
fo unded</w>
vor gelegt</w>
speak ing</w>
an ci
En ga
particip ation</w>
er reich
ens uring</w>
is ely</w>
min destens</w>
stär ker</w>
Gipf el</w>
wor th</w>
y al</w>
ge tragen</w>
introduc ed</w>
a g</w>
H or
t abled</w>
at o</w>
por ted</w>
pa y
ck ed</w>
I denti
emis sions</w>
Stell ung
htt p</w>
fun ctions</w>
Vol k</w>
ing er</w>
o ber
plan ts</w>
sp ie
Aussch uß</w>
k ategorien</w>
ch ern</w>
le ment</w>
O R</w>
per spec
h und
In halte</w>
tz dem</w>
ther e
under standing</w>
ex ist</w>
victi ms</w>
b ü
ri es</w>
specific ally</w>
unterschie dlichen</w>
Swis s</w>
p ing</w>
deli ver
ent y</w>
erwäh nt</w>
erle i</w>
ver abschie
Medi en</w>
s outh</w>
ver lässi
effec tively</w>
encoura ge</w>
men s</w>
A sia</w>
tra v
re gre
SQ L</w>
be ha
pleas ant</w>
t ter</w>
rec ord</w>
schnit t</w>
be qu
Produ kten</w>
P L</w>
finan cing</w>
glau ben</w>
gere cht</w>
Fl or
sp er
Rei se
ge zeigt</w>
gen cy</w>
stat tung</w>
Durch führung</w>
k ts</w>
tra ck</w>
W äh
Frankfur t</w>
fel low</w>
fizi erung</w>
Stra ße</w>
Indi a</w>
Inde ed</w>
Be stand
O sten</w>
acc es
Haush alt</w>
m as</w>
techn i
st ated</w>
tel eph
berücksichti gen</w>
grün det</w>
J ust</w>
S E
f rüh
b ab
4 9</w>
s eiten</w>
rit ann
ier ten</w>
aktu elle</w>
As soci
vor her
sy mbo
ab kommen</w>
F la
W ann</w>
agri culture</w>
m anner</w>
der zei
fur nis
lief ert</w>
ali sten</w>
Mit teilung</w>
p aper</w>
mehr eren</w>
pur poses</w>
E G</w>
M el
erk annt</w>
posi tions</w>
hil fe</w>
wesent lich</w>
nach dem</w>
si vely</w>
hoch wer
N utzen</w>
sich ten</w>
em o
For mu
hin weisen</w>
drin gend</w>
ent ry</w>
Agre ement</w>
3 7</w>
lar ger</w>
manag ed</w>
W ar</w>
as ks</w>
open ed</w>
E ach</w>
entsprech ende</w>
Vor teile</w>
Joh n</w>
g lie
Bem erk
par ag
part ment</w>
he al
wonder ful</w>
en des</w>
ali sm</w>
Se ktor</w>
refer red</w>
lat er
deta iled</w>
anim als</w>
ad ed</w>
rech t
V ari
Fo re
ho t</w>
x es</w>
v ent</w>
si t</w>
mem ber
Stabili tät</w>
verfüg bar</w>
S M
rech ten</w>
k ungen</w>
Besu ch</w>
Sp a</w>
li sted</w>
So cial</w>
aim ed</w>
mark eting</w>
M ol
ga in</w>
disc uss</w>
Techn ologien</w>
Gre en</w>
O lymp
lin ked</w>
Christi an</w>
am b
spiel e</w>
glob alen</w>
4 2</w>
g ert</w>
de dic
ar tige</w>
regu lar</w>
R el
pr e</w>
ste chn
Re formen</w>
de ter
er fahren</w>
bil ater
imm ern</w>
li mit</w>
partner ship</w>
ac ci
Fun ktion
li o</w>
ar ge</w>
r ent</w>
ru ral</w>
ho ffen</w>
eu ch</w>
Forsch ungs
be ds</w>
pas sen</w>
st ent</w>
techn ische</w>
kli cken</w>
n y</w>
las h</w>
Hom epage</w>
Au gen</w>
ati vely</w>
Poli cy</w>
exac tly</w>
s li
Ü ber</w>
cam era</w>
besonder en</w>
ex isti
zent rum</w>
transpar ent</w>
C ze
n ehmer</w>
tro ll
wr ong</w>
N ahr
stär k
F r
0 2</w>
Mi o</w>
Bo ard</w>
entwick lung</w>
0 5</w>
adequ ate</w>
Se a</w>
Febru ary</w>
D ig
P lan</w>
assess ment</w>
k op
bestimm t</w>
o therwise</w>
be coming</w>
Kredi t
att le</w>
ris ks</w>
land scap
prec isely</w>
s y</w>
w ent</w>
Sch we
Su p
discus sed</w>
i al</w>
zei chen</w>
Br us
S port</w>
be stehenden</w>
3 9</w>
akzep tieren</w>
re jec
g or
sicher zustellen</w>
kommen den</w>
y e</w>
lux uri
re presents</w>
Dol lar</w>
st ro
si zed</w>
poli ce</w>
satis fac
Swi tz
d ware</w>
umfangre ich
I II</w>
bud getary</w>
cli ent</w>
hr en</w>
Konta kt</w>
sel ected</w>
ten d</w>
oper ations</w>
met res</w>
ben utzen</w>
wan ts</w>
sidi ar
progra ms</w>
P un
m ²</w>
ch mal</w>
we ap
Hum an</w>
sieh e</w>
w on</w>
develop ments</w>
Pro c
meas ure</w>
akti v</w>
getro ffen</w>
sh of</w>
ta ges</w>
discus sions</w>
introduc tion</w>
wer ke</w>
j ene</w>
d in
wa gen</w>
Famili en</w>
dan ger
Z y
ing dom</w>
an ische</w>
Th en</w>
Ver sch
Gar anti
su ite</w>
Wh y</w>
ver lei
ch ter
p h</w>
Li z
vo tes</w>
Au stra
Schließ lich</w>
erzi elt</w>
er ti
A kti
Su che</w>
e b</w>
Anwen dungen</w>
gelö st</w>
C at
K riti
dom in
Zu dem</w>
mög licherweise</w>
cle an
Zun ächst</w>
fres h</w>
enter prises</w>
it ation</w>
läu ft</w>
open ha
in side</w>
al ter</w>
füh l</w>
medi cal</w>
Res e
Hal tung</w>
kit chen</w>
thous ands</w>
mög lichen</w>
Op en</w>
S un
notwendi gen</w>
P r
is ine</w>
is tics</w>
bu y</w>
Ein richtungen</w>
S I
tel e
re fu
Ch ance</w>
graphi c</w>
Switz erland</w>
respon d</w>
hou ses</w>
Minist er
ch ron
di enst
Au to</w>
Vertra gs</w>
B est</w>
Apart ments</w>
T au
du m</w>
In n
ster ed</w>
om et
di a</w>
zu letzt</w>
M ini
finanzi ellen</w>
geb enen</w>
p sy
i k
Zei chen</w>
we gung</w>
ge ändert</w>
E mis
Tur k
4 4</w>
I V</w>
pla ying</w>
Wettbewerbs fähigkeit</w>
Fle xi
tu red</w>
gui delines</w>
su r</w>
war ten</w>
erfül lt</w>
exclu sive</w>
buil dings</w>
fac ilit
w ah
sur ance</w>
Tran sport</w>
win ter</w>
ear lier</w>
re present</w>
Bel ar
ass ungs
Mi ddle</w>
ens wür
ci ans</w>
follo wed</w>
CO 2</w>
fest gelegt</w>
Jah res
lie fer
um gesetzt</w>
bro ad</w>
stim me</w>
0 3</w>
en g</w>
ander es</w>
n ütz
wei te</w>
verb un
L at
ho od</w>
p assi
geleg ten</w>
ge wal
Nation al
sch reiben</w>
sp acious</w>
k ri
ge ber</w>
c ement</w>
clo sely</w>
sp end</w>
auf s
at ur</w>
Stand ards</w>
be darf</w>
connec ted</w>
conv inc
enn a</w>
co ffe
breit en</w>
V ier
S he</w>
ad o</w>
Z immer
am ing</w>
Unter kategorien</w>
ge mü
yp e</w>
er greifen</w>
spo liti
discrimin ation</w>
u tions</w>
tour ism</w>
gra du
Aus bildung</w>
Bre ak
c ore</w>
in come</w>
Econom ic</w>
V ir
Mon ate</w>
sto ck</w>
E st
St and</w>
An spruch</w>
net works</w>
berei tet</w>
suppor ting</w>
wei t
comp ens
L ag
sho wer</w>
degre e</w>
elegan t</w>
M eter</w>
streng then</w>
pop ul
seas on</w>
fac ing</w>
qu anti
vol ler</w>
b ritann
P T</w>
sci ence</w>
Go d</w>
ein gerichtet</w>
fu n</w>
en ster</w>
imm igration</w>
ges und
Vol l
isti sche</w>
st ausch</w>
to t
impro ving</w>
hi m
g ungen</w>
f and</w>
m ischen</w>
ha ften</w>
B ru
sp it
M ut
0 6</w>
p ath</w>
su m</w>
be zo
Cze ch</w>
sel ect</w>
Bar ro
ro man
vi eren</w>
ma ß
au er</w>
ber ich
Gre ece</w>
N ame</w>
vermei den</w>
teleph one</w>
t spolitik</w>
Kin dern</w>
re member</w>
sa ve</w>
3 8</w>
grei f
li sten</w>
wor ten</w>
lich em</w>
d uty</w>
ac es</w>
Viel falt</w>
and ing</w>
ch ine
ra h
ff er</w>
ob ach
au ßer</w>
em in
je derzeit</w>
boo king</w>
consider able</w>
Kri eg
happ en</w>
T est
um s
Rese arch</w>
Mo der
e ten</w>
lich st</w>
Vor berei
T ier
kra ft
a y
z y
Geor gi
Gol f</w>
A ir</w>
p en</w>
rich tet</w>
own ed</w>
wel cher</w>
w and</w>
ad ju
Sp it
e ad</w>
spee ch</w>
pr is
he ar</w>
purch ase</w>
geeig net</w>
H is</w>
Konz ept</w>
dar unter</w>
At lan
Stim me</w>
Schwei z</w>
freih eit</w>
t led</w>
typ ical</w>
gra de</w>
m ac
stär ken</w>
Ira k</w>
5 5</w>
lu ß</w>
C le
ti ef
de ck
ex pl
jewei ls</w>
eingesch rän
gan g
ori z
dest ro
Kl ein
verfol gen</w>
spiri t</w>
sicher lich</w>
man i
ehr te</w>
dra wn</w>
p ap
P ic
u tili
dig it
w all</w>
ent weder</w>
gan gs
pri or</w>
provi sion</w>
li an</w>
d é
pres ence</w>
Innov ation</w>
di versity</w>
thin king</w>
k am
de bt</w>
20 11</w>
Ein fluss</w>
ga ve</w>
w indi
Tä tigkeit</w>
N ah
S ci
Fre m
Do wnload</w>
n ü
Frie den
b illi
We ge</w>
Mo st</w>
Kenn tnis</w>
sich t
Web seite</w>
tain ment</w>
compon ents</w>
entschie den</w>
b ahn</w>
dor f</w>
mechan is
rec eption</w>
gew ün
A B
bo dies</w>
Men ge</w>
Betri ebs
en heit</w>
Leist ungen</w>
ru fen</w>
cu isine</w>
teil weise</w>
Spra chen</w>
exper ts</w>
sch lä
staat lichen</w>
E ver
Mit te</w>
I R
ver an
Gar ten</w>
O T
gelan gen</w>
sch lagen</w>
Gel d
t inu
anim al</w>
sa w</w>
proper ly</w>
Stre et</w>
AD S</w>
bre ak</w>
M ess
charac ter</w>
Febru ar</w>
Groß britann
u ten</w>
an spru
Pro duc
be t</w>
dis h</w>
mati c</w>
I A</w>
ti vity</w>
el ement</w>
it ems</w>
En viron
besu chen</w>
wol lte</w>
Absch luss</w>
ange zeigt</w>
ordin ary</w>
erzi elen</w>
Sal z
Mod ell</w>
Instru mente</w>
spiel t</w>
re fer</w>
ul l</w>
sti schen</w>
For derung</w>
Grie chen
om men
U l
am e
än den</w>
fisher ies</w>
coordin ation</w>
Ver b
al d</w>
Arbei ten</w>
De sign
Verein ten</w>
ph ra
Europ e
zus timmen</w>
perf ec
Brus sels</w>
kon ferenz</w>
l eng
verbesser t</w>
gener ally</w>
re ment</w>
Install ation</w>
Pol and</w>
on y</w>
kl are</w>
coffe e</w>
t ter
enti rely</w>
For um</w>
tra dition</w>
Mo un
competi tiveness</w>
zwei fel
Sit z
All gem
S au
ag no
Berich te</w>
er leben</w>
Re zep
über nachten</w>
pl ätze</w>
br and</w>
erhö hen</w>
sch li
vor gesehen</w>
auth ority</w>
tlin ie</w>
4 1</w>
Ab schließend</w>
Initi ativen</w>
un be
tr ust</w>
a verage</w>
sch ä
ju d
pre sidency</w>
funktion iert</w>
ausdrück lich</w>
Verwal tungs
übersch reit
ti ally</w>
de aling</w>
do wn
a des</w>
sug gest</w>
f ach</w>
a el</w>
wär en</w>
tig keiten</w>
ap par
ac tual</w>
Gr enz
zäh len</w>
auf merk
Regel ung</w>
re te</w>
sto red</w>
rel ate</w>
x e</w>
eli min
sti t
P len
displa y</w>
IS O</w>
F it
ha fte</w>
af ter
difficul ties</w>
i ed</w>
reason able</w>
Vor sitz
Mitgliedsta at</w>
differ ence</w>
Bec ause</w>
sum mit</w>
4 3</w>
j et
inform ed</w>
s and
ar i</w>
rec or
richti gen</w>
pp er</w>
leist ung</w>
Ver bin
parlia mentary</w>
rie si
al tung</w>
flexi bility</w>
t old</w>
rap h</w>
ing ton</w>
Schla f
n ess
en han
bet onen</w>
N E
ti se</w>
Sch ön
me etings</w>
In s
Re fer
6 00</w>
ell s</w>
con dition</w>
spezi ell</w>
moder n
t to</w>
mach ines</w>
ab ilities</w>
hab it
kti eren</w>
se em</w>
C lick</w>
li ter
Abgeord nete</w>
Dien ste</w>
J etzt</w>
Un abhängi
ge halten</w>
fi xed</w>
N um
con ten
ver ring
besch lossen</w>
Verän derungen</w>
vehic les</w>
Me chan
sch rän
inform ieren</w>
il ing</w>
consider ation</w>
w on
ju di
S ach
ess or</w>
gram men</w>
me l</w>
A sy
P ass
orig in</w>
w om
nat ur
I B
u de</w>
er stellt</w>
hand s</w>
re ise</w>
ori al</w>
tol er
Besu cher</w>
coun ter
mög lichst</w>
distri ct</w>
an ces</w>
f low</w>
ri gh
end or
Sk i
S hi
el ing</w>
Tei le</w>
prin t</w>
G ri
fir e</w>
G ran
Un fortunately</w>
poli tics</w>
E ADS</w>
K il
ö konom
Stat us</w>
Z eiten</w>
Lei der</w>
N G
Gre at</w>
Famili en
f ly</w>
form ed</w>
appe ars</w>
K no
ati n</w>
Enga gement</w>
Str ategi
Ju gend
Aus gaben</w>
off ici
num bers</w>
lok alen</w>
peace ful</w>
ge fordert</w>
comp ati
Währ ung</w>
Cas ino</w>
app lies</w>
f a</w>
fl ation</w>
F onds</w>
v ul
War um</w>
R ou
kulturel len</w>
car ds</w>
establish ment</w>
perman ent</w>
8 00</w>
gi e
Ver gleich</w>
Kom fort</w>
at ta
we ak
An gaben</w>
Ein wander
in ts</w>
sch w
be comes</w>
dig keiten</w>
ar by</w>
we ek
gen ü
4 7</w>
o o</w>
tlin ien</w>
Har mon
d ank</w>
ho st</w>
li sch</w>
tä glich</w>
simp li
P rop
comb at</w>
ra c
kl ar
vorhan den</w>
pro to
bili tät</w>
experi enced</w>
Zei traum</w>
res ort</w>
3 D</w>
Geb ieten</w>
gerä um
est ate</w>
practic es</w>
H ier
au ff
On ce</w>
pic ture</w>
konkre te</w>
V ie
h ne</w>
da gegen</w>
Qualitä ts
openha gen</w>
Viel en</w>
Mad rid</w>
Ori gin
durch aus</w>
c lub</w>
Rats vor
wen igen</w>
du ce</w>
K er
prü fung</w>
sth af
er leich
S til</w>
datab ase</w>
wa it</w>
LA N</w>
auf tra
Lo g
ad ul
Break fast</w>
Kir che</w>
attemp t</w>
c y
zeu gen</w>
S cript</w>
T our</w>
ff s</w>
emb ly</w>
Po st
advan ced</w>
D P</w>
mög liche</w>
dom estic</w>
Haus es</w>
vers al</w>
sec re
auf t</w>
ati schen</w>
gew innen</w>
zentr ale</w>
him self</w>
ass es</w>
st abili
wei ght</w>
Öster reich</w>
P C
ö st
en det</w>
fer red</w>
aim s</w>
S ur
wel t</w>
ü nen</w>
gewähr leistet</w>
Analy se</w>
tri p</w>
199 4</w>
Sant a</w>
tz ent
führ er</w>
D S
ma ßen</w>
promo ting</w>
kt oren</w>
Leist ungs
angebo ten</w>
O ut
Bei tritt</w>
u fen</w>
Acc ording</w>
pro pose</w>
R ein
et ten</w>
Po si
my self</w>
Programm s</w>
li e</w>
Sa int</w>
I G
transl ation</w>
for get</w>
elec tion</w>
Wis sen</w>
asp ect</w>
or g</w>
dar stellen</w>
Heraus forderung</w>
Wor te</w>
Lebens mittel
tä tig</w>
Tran spor
sat elli
veröffent licht</w>
f und</w>
Re de</w>
erklär en</w>
politi scher</w>
appro xim
easi er</w>
as ing</w>
fre ue</w>
jo y</w>
Seh enswür
n ieder
den k
ester day</w>
ma r</w>
erfol gen</w>
in ci
br auch</w>
Associ ation</w>
fail ure</w>
Kat astrop
He alth</w>
mi ddle</w>
pen sion</w>
fi z
Ar gu
Jahrhunder ts</w>
de ep
str onom
ent stehen</w>
n ation</w>
Zw eck</w>
fi g
mod els</w>
am eter</w>
ack no
def ence</w>
anci ent</w>
se eing</w>
finanzi elle</w>
f ro
ris h</w>
Währ ungs
fol gende</w>
a dem
In nen</w>
Auf nahme</w>
Kli cken</w>
leist ungen</w>
da cht</w>
An trag</w>
A chtung</w>
er scheint</w>
grat u
sug ge
unabhängi g</w>
P s</w>
R um
m useum</w>
nor th</w>
associ ated</w>
0 4</w>
Her stellung</w>
Kom ple
seri ously</w>
M un
h ous
For derungen</w>
Ch am
Stellung nahme</w>
tion ally</w>
continu ed</w>
gesch rieben</w>
benö tigt</w>
ph ase</w>
Tra de</w>
f rau
auth or
ac qu
fi l</w>
etz ung</w>
Komp et
4 6</w>
ti e
su n</w>
j ur
medi c
Terra sse</w>
öff nen</w>
di ge</w>
em als</w>
av y</w>
deta il</w>
den noch</w>
any one</w>
L ast</w>
er stellen</w>
con tr
sp ent</w>
te u
zäh lt</w>
C ast
gro unds</w>
viel fäl
sto ff</w>
Ein haltung</w>
p us
u si
gegen sei
bl ack</w>
K ingdom</w>
er ie</w>
ar ticle</w>
th i
saf e
Zwei fel</w>
cour ses</w>
rela x</w>
A L</w>
ti sch</w>
führ enden</w>
lea der</w>
J a</w>
konzentri eren</w>
ber n</w>
E ffe
t un
stu dies</w>
boo ks</w>
näch ste</w>
é e</w>
star ke</w>
thre at</w>
ber icht</w>
nam es</w>
Sicher hei
spra ch
arch i
Priv ate</w>
A M
ut ed</w>
ali sts</w>
differ ences</w>
Den noch</w>
K rä
f ers</w>
Or d
n om
jour n
ec ke</w>
at z
bro ad
verur s
Belar us</w>
W ich
Ein igung</w>
wach sen
li schen</w>
O li
char ged</w>
p il
qu alität</w>
Re li
pro je
wa iting</w>
inst ance</w>
Universi tät</w>
implemen ting</w>
Ter min
PH P</w>
S co
De fin
woh ner</w>
alisi eren</w>
n eh
au t
architec ture</w>
lie ben</w>
Afri ka</w>
o re
adop tion</w>
rene w
do wnlo
re servation</w>
crimin al</w>
humanit arian</w>
unterschie dliche</w>
ein iger</w>
Land wir
combin ation</w>
fü gt</w>
cal cul
sich erung</w>
samm lung</w>
lie ßen</w>
happ ened</w>
Komp on
G B</w>
rele ased</w>
I rish</w>
stat ements</w>
ven ue</w>
In nen
reduc ing</w>
ein gehen</w>
be aches</w>
M ari
attrac tive</w>
op position</w>
conc rete</w>
sich ts
Pak et</w>
graph y</w>
absolu t</w>
M ilit
ri ver</w>
ah ead</w>
lie be</w>
Gemein samen</w>
Nachfol gend</w>
produc ers</w>
M ann</w>
be glei
gestal ten</w>
Les ung</w>
räu me</w>
br ary</w>
f are</w>
hän gt</w>
tele vision</w>
au di
balan ced</w>
Re gel</w>
Bus h</w>
eh t</w>
con dem
end gül
col labor
gelei tet</w>
me ters</w>
Ges ell
im possible</w>
disku tieren</w>
care fully</w>
exhi bition</w>
sha red</w>
Ab end</w>
t ch</w>
en er</w>
ven ts</w>
arri val</w>
gelei stet</w>
isi erung</w>
fre ut</w>
chan ging</w>
Sto ck
umfas st</w>
bek ann
avail ability</w>
betra chtet</w>
announ ced</w>
dec lar
Kommunik ation</w>
b at
antwor ten</w>
immedi ate</w>
region alen</w>
Ch eck</w>
agen cies</w>
ge gründet</w>
recogn ition</w>
gesch ehen</w>
Fir stly</w>
da d</w>
wir kt</w>
lear ning</w>
beha vi
s letter</w>
kon stru
ali zation</w>
ke eping</w>
Großbritann ien</w>
in form</w>
an nen</w>
Con tro
fizi ert</w>
descri bed</w>
Jus tice</w>
ter ra
bi en</w>
s or</w>
schwieri g</w>
n ar
be haup
er tes</w>
c ars</w>
o di
quali t
her unter
call ing</w>
evi dence</w>
der ed</w>
Tex te</w>
Sehenswür digkeiten</w>
aussch uss</w>
E li
k aufen</w>
Fu ß</w>
fe der
vi erung</w>
tru ly</w>
Sch engen</w>
gewi cht</w>
F eu
S ehr</w>
t aus
Afri can</w>
ver ei
guarante es</w>
Hinter grund</w>
mon etary</w>
Eng land</w>
cl ari
b us
Lin ks</w>
be gan
un ge
po l</w>
bil d</w>
s ale</w>
St ellen</w>
vern ünf
intro duce</w>
Prior itäten</w>
col or</w>
elec ted</w>
Au gen
Doku ment</w>
tra ding</w>
t ür
le ts</w>
lei ten</w>
danger ous</w>
ern sthaf
C E
jähri gen</w>
PD F</w>
genu ine</w>
8 5</w>
y right</w>
Stär kung</w>
est ed</w>
ten de</w>
N a
no ti
s ort</w>
ger ech
lös ung</w>
W ün
pic tures</w>
Jahr zeh
Nach t</w>
H ome</w>
stei gen</w>
Her steller</w>
fin ance</w>
impro vement</w>
ma g
adv ance</w>
Sor ge</w>
fest stellen</w>
Archit ek
Mich ael</w>
al t
regi stered</w>
US B</w>
Aspe kt</w>
verfol gt</w>
kor re
C ul
S ha
Zi vil
Qu ar
cor respon
Am bi
consu mption</w>
territ ory</w>
H ü
Gener al
c er</w>
h inter
om eter</w>
sch lag</w>
Fern seh
pass ed</w>
pro por
co l</w>
Pak istan</w>
For men</w>
Pri me</w>
Rechn ung</w>
ni a</w>
Viel zahl</w>
pre is</w>
pas st</w>
P O
sk i
confi gu
tu ri
pos sibilities</w>
Pol en</w>
govern mental</w>
garanti ert</w>
übri gen</w>
k ern</w>
T an
Gu est</w>
neu est
but ton</w>
wis hes</w>
F estival</w>
We ch
Gleich zeitig</w>
Ar ten</w>
Ges etz</w>
Cu st
ausge wäh
M use
el a</w>
un less</w>
S eine</w>
acti v
Ham burg</w>
Tit el</w>
D ue</w>
cour t</w>
recommen d</w>
phra se</w>
ent ran
über prüfen</w>
Europe ans</w>
s co
Entwick lungen</w>
Frühst ück
relax ing</w>
hal tet</w>
Fo undation</w>
schi ed</w>
isch en
krä fte</w>
trä gen</w>
su che</w>
inten ance</w>
L O
ar tic
lo ad</w>
ne arby</w>
skil ls</w>
un acceptable</w>
u red</w>
persön lich</w>
li ghts</w>
n utz
ob tain</w>
F inn
hin gewiesen</w>
ra ise</w>
Ab en
komp li
Turk ish</w>
go sla
figu res</w>
no on</w>
religi ous</w>
y s
f elt</w>
str ong
Arbeits losigkeit</w>
Dru ck
Z ol
ma gn
se ek</w>
Mom ent</w>
E very</w>
ci ous</w>
Partner schaft</w>
J our
defin ition</w>
s in
Barro so</w>
pack ages</w>
particip ate</w>
Son nen
be zeichnet</w>
mit einander</w>
continu es</w>
Hand el
sensi tive</w>
install ed</w>
comple ted</w>
C ur
al a</w>
fir m</w>
member ship</w>
p unkte</w>
desi re</w>
T un
i erte</w>
ti erung</w>
n d</w>
A no
fi gh
gegenwär tig</w>
W es
al ty</w>
t asks</w>
de vices</w>
ali smus</w>
respec tive</w>
Democ rats</w>
combin ed</w>
un fortunately</w>
il lu
ro o
de ep</w>
p ed</w>
bre ite</w>
great est</w>
occu p
posi te</w>
Man ager</w>
Ele mente</w>
foo t</w>
franzö sischen</w>
or ders</w>
rei bt</w>
Disk rimin
Richtlin ien</w>
R h
k ept</w>
G as
in surance</w>
reli able</w>
gegenwär tigen</w>
Proble men</w>
Sin n</w>
sur face</w>
allo wing</w>
Pf lan
Go tt</w>
Deut sche</w>
g ate</w>
ausge wo
strong ly</w>
an e</w>
í a</w>
ver lassen</w>
it a</w>
führ ungen</w>
an gesprochen</w>
th or
1 st</w>
Kra ft
Da vi
eti c</w>
Ver stän
H ab
ar ten</w>
g utes</w>
Ver y</w>
äst inen
empfeh len</w>
profi tieren</w>
ex port</w>
demokrati sche</w>
w esen</w>
P ro</w>
c ts</w>
ful fil
Tra dition</w>
vol un
be wahr
be hin
pp e</w>
K i
be hand
Bedürf nisse</w>
weiter er</w>
sex u
Vi enna</w>
zer stör
wri te</w>
surro unding</w>
campa ign</w>
St art</w>
H ist
En d
Ide en</w>
enti tled</w>
s quare</w>
Betrie b</w>
ein geführt</w>
Ko ordini
ö k
ständi gkeit</w>
absolu te</w>
zufrie den</w>
co ast</w>
Überwach ung</w>
Sch au
C op
c m</w>
pi ece</w>
en ables</w>
win dow</w>
positi v</w>
ro l</w>
gui de</w>
ein ger
la p
kun fts
er hält</w>
Pla yer</w>
un to</w>
Leist ung</w>
Kriti k</w>
do s</w>
attrac tions</w>
Ir land</w>
W ür
d an</w>
loo d</w>
T en
ges eh
tr enn
beau ty</w>
B us</w>
ti s</w>
clo ser</w>
Eis en
Bewer tung</w>
B ou
G an
Ne ther
b ars</w>
econom ies</w>
establish ing</w>
kan ischen</w>
wh ere
sign al</w>
ac king</w>
pro spec
con tain</w>
Besch reibung</w>
um b
an lagen</w>
Techn ik</w>
refu ge
be ar</w>
Bei tritts
claim s</w>
Nahr ungs
dan ach</w>
aufmerk sam</w>
institu tion</w>
plat form</w>
holi days</w>
J ac
sh es</w>
man age</w>
aussch usses</w>
as yl
Ent wurf</w>
dedic ated</w>
belie b
erforder lichen</w>
beginn t</w>
ten e</w>
mark ed</w>
ma li
ing u
Regel ungen</w>
Ange sichts</w>
ein setzen</w>
appoin ted</w>
le m</w>
St or
über all</w>
Geschäfts ordnung</w>
Brü ssel</w>
gro ß</w>
he ad
w ind</w>
fe ar</w>
vor liegenden</w>
Verpflich tung</w>
des er
C af
exerc ise</w>
säm tliche</w>
geschütz t</w>
st ood</w>
ver tei
te sts</w>
ut t
20 13</w>
Verhäl tnis</w>
Griechen land</w>
asyl um</w>
E hr
199 0</w>
unterstütz e</w>
Stu dio</w>
Verk ehr</w>
vor aus
ini tial</w>
R oh
ch urch</w>
ak t</w>
Reg ulation</w>
rou te</w>
individu als</w>
Prior ität</w>
Unter schie
P eter</w>
bestä tigt</w>
besitz t</w>
Rei se</w>
B ab
us ual</w>
Comp any</w>
en su
pl ying</w>
kein erlei</w>
PP E</w>
adverti sing</w>
h aus
ha m</w>
inter face</w>
Su ch</w>
condi tioning</w>
beteili gt</w>
n ennen</w>
ast s</w>
A P</w>
mä chti
aller y</w>
stor age</w>
groß es</w>
haup ts
ver häl
mitt l
ren ov
ein ander
W ander
techn ik</w>
Dat a</w>
enor mous</w>
com ment</w>
al ter
perspec tive</w>
v es
expen di
g an</w>
sub si
B M
acces sible</w>
per c
komple tt</w>
zi gen</w>
bi eter</w>
ge zogen</w>
ma g</w>
Ch amp
ti tle</w>
comp ared</w>
sp ending</w>
par a</w>
mo ving</w>
Kon tin
Agent ur</w>
mem ory</w>
ve get
ate ver</w>
Medi a</w>
umfas sende</w>
Mob ili
Ab satz</w>
f ts</w>
st ory</w>
Wil l
Feder al</w>
pri vi
tot ally</w>
b ath</w>
de vice</w>
lux ury</w>
TH E</w>
bru ch</w>
on to</w>
exten ded</w>
Indi en</w>
g ä
Ver tri
son st</w>
l es
US S</w>
ausreich end</w>
en ess</w>
sh ing</w>
einfa che</w>
M einer</w>
mittel s</w>
Prin zip</w>
spezi elle</w>
or am
comp la
cor porate</w>
Austri an</w>
Mittel n</w>
grund sätz
g rie
at a</w>
Ano ther</w>
rail way</w>
E astern</w>
dien st</w>
G ü
on ed</w>
ur gent</w>
größ eren</w>
Contro l</w>
Er hö
Hi gh
gen annte</w>
Z ü
ta bel</w>
convinc ed</w>
g as
inst all</w>
Fortsch ritt</w>
stra ße</w>
C an</w>
Kan di
Glob alisierung</w>
fa iled</w>
hi elt</w>
con tex
Kommission s
gran ted</w>
and o</w>
r ying</w>
pe ti
An n
lä ss
Wor ten</w>
organis ed</w>
f light</w>
fas hi
Jour n
Je der</w>
mi d</w>
Nether lands</w>
coun ter</w>
M es
big gest</w>
zu gän
lu g</w>
K ris
Ban ken</w>
str on
Grö ße</w>
t an</w>
pre ise</w>
Ne vertheless</w>
b as
exist ence</w>
Fore ign</w>
La ke</w>
Beteili gung</w>
sug ges
rel ess</w>
T R
Pho to
r ated</w>
Stad tzent
ac qui
eng ine</w>
zi erung</w>
Mär kte</w>
organiz ation</w>
sor gt</w>
zah lung</w>
garanti eren</w>
In n</w>
re isen</w>
verbun denen</w>
S ar
her gestellt</w>
S C
Ma ße</w>
A V
m ass</w>
la id</w>
bek annten</w>
ag ue</w>
sc en
grö ßer
Institu te</w>
Haushal tsp
internation aler</w>
L im
gen des</w>
wesent lichen</w>
w oo
dis cover</w>
contro ls</w>
Mis s
parag raph</w>
F lo
kt ors</w>
län ger</w>
conclu sions</w>
L atin</w>
de te
ber eiten</w>
ei st
ad o
z y</w>
kosten los</w>
fac tors</w>
Produ ktions
mö gen</w>
Ap parte
Cro ati
d ul
Sch ri
sy mp
c au
mo tor
cho sen</w>
it age</w>
to m</w>
B ahnhof</w>
statt finden</w>
tri ed</w>
up date</w>
offen sichtlich</w>
über tragen</w>
bein haltet</w>
weap ons</w>
ad vice</w>
Gre ek</w>
Gener ation</w>
Pau l</w>
Sup port</w>
re chen</w>
lü sse</w>
att ack</w>
kra ft</w>
un able</w>
An teil</w>
ma intenance</w>
contr ary</w>
ris es</w>
Ge wi
Op tion</w>
Constitu tion</w>
Alt stadt</w>
e ar</w>
arti sts</w>
Tre ffen</w>
geb il
S and
al em</w>
rä ger</w>
A ktionen</w>
nö tig</w>
dise ase</w>
fis cal</w>
la ke</w>
phy si
S D
ei m
perfec tly</w>
2 50</w>
Bo s
T al
sel l</w>
d ance</w>
ü ben</w>
R ob
medi zin
Palestini an</w>
nit ure</w>
B ahn</w>
T I
ati sch</w>
con ci
Ver letz
Pal ace</w>
expen sive</w>
promo tion</w>
la h</w>
Er de</w>
Reli gi
L ou
stark en</w>
w ettbewer
moun tains</w>
Fo tos</w>
E ar
K ro
on ia</w>
sol cher</w>
Unter kunft</w>
199 2</w>
back ground</w>
Grün de</w>
F i</w>
m o</w>
and ed</w>
lim its</w>
beg lück
dr än
m illi
pay ments</w>
b ahn
d den</w>
agen cy</w>
ut ch</w>
Erklär ungen</w>
Koh ä
w ak
commit ments</w>
igran ts</w>
f it</w>
wä ch
Entschließungs antrag</w>
fac es</w>
zusätz lich</w>
ver letz
1 60</w>
te dly</w>
lä gen</w>
nei ther</w>
as king</w>
J er
p el
f i</w>
tä ten</w>
f assung</w>
de cken</w>
ac compan
Musi k
tou ch</w>
deut sche</w>
entsp rechen</w>
Pati enten</w>
re mind</w>
wen det</w>
ar m</w>
sch ir
candi date</w>
righ tly</w>
Um fang</w>
h l</w>
Kom bin
Gu i
k la
expres sion</w>
Res ort</w>
vali d</w>
K aff
ges chn
gel ungen</w>
IN G</w>
Netz werk</w>
T emp
g barkeit</w>
s n
zu vor</w>
cla im</w>
v a
sch la
regi ster</w>
Re siden
wün sche</w>
D ep
ec kt</w>
oo k</w>
A P
ambi tious</w>
E ri
fin de</w>
un ch</w>
hon ourable</w>
vehic le</w>
categ ory</w>
furnis hed</w>
mul ti</w>
li t</w>
Ba y</w>
ver breit
D s</w>
achie ving</w>
ar di
Ni veau</w>
con sen
quali fizi
oblig ations</w>
se g
se ven</w>
Er hol
Kompromis s</w>
Be griff</w>
sti sche</w>
Mon at</w>
A N</w>
r t</w>
leist ungs
Metho de</w>
Mark et</w>
out come</w>
success fully</w>
Auf bau</w>
neigh bour
rech tlichen</w>
Geb iete</w>
conveni ent</w>
be st
st ö
mittel t</w>
Ein druck</w>
Ereig nisse</w>
C ard</w>
Europä er</w>
Flexi bilität</w>
t rop
Mitglie dern</w>
om as</w>
Th us</w>
gen er</w>
spezi ellen</w>
betra chten</w>
Sch u
speci es</w>
Ale x
K r
ent sch
ob viously</w>
er ung
do c
k as</w>
aff ec
ä ft</w>
m 2</w>
Gegen satz</w>
ra d</w>
ben ach
No te</w>
kün st
H on
e c</w>
posi t</w>
monit or</w>
alle l</w>
fähi g</w>
inter vention</w>
con tained</w>
ran gi
verl oren</w>
a ther</w>
ol der</w>
continu ing</w>
b wür
w an</w>
bet t</w>
Empfeh lungen</w>
ab gel
Stra ßen
iel t</w>
const antly</w>
Ar e</w>
Al ban
sequ ently</w>
Tim e</w>
zu folge</w>
ab geschlossen</w>
bri tischen</w>
vir tu
j ah
tion ary</w>
Ener gy</w>
approxim ately</w>
inter ven
Y et</w>
S c
ge gangen</w>
eri a</w>
G az
aus führ
colleag ue</w>
some one</w>
p ak
Sch war
st ations</w>
gl ass</w>
e en</w>
e quality</w>
ex klu
Be ach</w>
dar aus</w>
un it</w>
ra y</w>
S S
k oh
de fic
conten ts</w>
Mo tor
surro unded</w>
inform iert</w>
tür k
es tim
sib ly</w>
in struc
comp li
Verstän dnis</w>
th ers</w>
Nach dem</w>
Rezep tion</w>
A G
E F
n ommen</w>
Is lam
Ph ase</w>
v ous</w>
An lagen</w>
äl fte</w>
Win ter</w>
sequ ent</w>
A tom
satelli te</w>
rei ber</w>
Weiter e</w>
Aus sicht</w>
phy sical</w>
St ein
isch em</w>
Bo tschaft</w>
situ ations</w>
Grund satz</w>
cap able</w>
Fir men</w>
Nutz er</w>
R ome</w>
Binnen mark
m ün
struk turi
out standing</w>
C O</w>
y esterday</w>
Struk tur</w>
foo t
In seln</w>
A S</w>
Jav a
EC U</w>
Agen cy</w>
tn er</w>
gesell schaften</w>
air craft</w>
deli ver</w>
dist inc
mas sive</w>
zieh t</w>
erh äl
Risi ko</w>
M ak
in spec
st am
Re alität</w>
es th
man chmal</w>
Bei hilfen</w>
Wir kung</w>
sich ert</w>
indepen dence</w>
ö der
S amm
Mar tin</w>
wach st
dynam ic</w>
re den</w>
sk y</w>
ob ject</w>
sur vi
nation aler</w>
ri sten</w>
fi f
c ast</w>
über ra
emplo yed</w>
quali fied</w>
K ab
ge öffnet</w>
B li
be auftra
v it
es sions</w>
Fra ktionen</w>
plann ed</w>
g uter</w>
di mension</w>
lan gt</w>
wi der</w>
Ba si
Wieder auf
go als</w>
gri ffe</w>
haupts ächlich</w>
W at
L au
ser s</w>
nam ed</w>
8 6</w>
th eit</w>
ein erseits</w>
bring ing</w>
expendi ture</w>
Loc ated</w>
m ly</w>
di sch
berühm ten</w>
str ö
Bei m</w>
s we
ktiv ität</w>
sorg fäl
fac tor</w>
allgem eine</w>
form ation</w>
recommend ations</w>
g un
ir s</w>
poin ted</w>
a gen</w>
pre vention</w>
Schlü ssel
rel ativ</w>
ren o
multi later
R et
advan tages</w>
V e
unter schei
Arbei t
w asser
gi r
Re gu
si ed
D A</w>
j ungen</w>
pho tos</w>
Gr unde</w>
be zogen</w>
ag ne</w>
du s</w>
Jap an
präsen tiert</w>
regi stri
G eg
er er</w>
Environ ment</w>
aus län
re ck
bin ding</w>
m ol
ra dio</w>
p utting</w>
re is
ar ms</w>
wa re
Entwick l
Voraus setzungen</w>
Hoff nung</w>
ens wert</w>
ent eil</w>
ein verstanden</w>
Di mension</w>
Fun da
ge stellten</w>
A 5</w>
lau t</w>
bar ri
erhö ht</w>
Al liance</w>
ide ale</w>
te sting</w>
B is</w>
füh len</w>
lo g</w>
gan gs</w>
Er war
tar gets</w>
sp a</w>
bal con
mer ely</w>
han del</w>
außer ord
see king</w>
ti k</w>
Risi ken</w>
geschi eht</w>
f esti
G U
be achten</w>
Hin weis</w>
Mus li
exp an
lei tung</w>
mean ing</w>
comm unities</w>
Li ve</w>
Arch i
ati cally</w>
mei st</w>
politi sch</w>
consi sts</w>
hö h
Plat t
Po ten
äu fer</w>
Sum mit</w>
fest gestellt</w>
con temporary</w>
ob vious</w>
Eff izi
tra gs</w>
einzi gen</w>
p assung</w>
br e</w>
Bu ch</w>
Umwel tsch
P eti
R ad
Unternehmen s</w>
landscap e</w>
J es
por ting</w>
mü s
ehr t</w>
ühr en</w>
S quare</w>
re ve
so bald</w>
persön liche</w>
Ge währ
dam als</w>
War en</w>
er as</w>
Th ose</w>
jün gsten</w>
tä u
particip ants</w>
Tre k</w>
tri fft</w>
f ein
Meer es
wor fen</w>
Ro yal</w>
siden ten</w>
dou b
sm aller</w>
dispo sal</w>
Ch em
loo ks</w>
bri dge</w>
So ft
äu men</w>
Dien st</w>
mo de</w>
wan del</w>
Ver mitt
beru f
guarante ed</w>
v ar
Prü fung</w>
regi stration</w>
199 3</w>
Ex c
regel mäßig</w>
vorgeschla genen</w>
inten sive</w>
L icht</w>
P ool</w>
der i
fic ations</w>
E G
O ther</w>
comp liance</w>
Be obach
A ss
ent gegen
Materi al</w>
sta ke</w>
so verei
substan tial</w>
V om</w>
nah m</w>
mechan ism</w>
le ads</w>
Tei len</w>
erforder t</w>
der ship</w>
sub scri
5 1</w>
er r
or al</w>
per s</w>
x en</w>
Haupt stadt</w>
ro ll
Is land</w>
consi stent</w>
7 2</w>
R ules</w>
wichti gste</w>
Über zeu
t ab
ateg orie</w>
exten d</w>
ga z
Far ben</w>
To des
ta g
gel assen</w>
Nieder lan
bro wser</w>
f ach
betro ffen</w>
se arch
Telef on</w>
psy ch
ger ing
acc ess
r ul
resul ting</w>
Industri e
gol f</w>
gewün sch
Geg enteil</w>
ti er
Po ker</w>
Städ te</w>
0 3
en dum</w>
gi cal</w>
ali sed</w>
betro ffenen</w>
V it
sp unkt</w>
fore st</w>
M aria</w>
Spra ch
nachhal tige</w>
6 8</w>
p et
Sch nit
Com pu
strength ening</w>
Ko rea</w>
Be darf</w>
Bo th</w>
regel n</w>
Pra kti
Nich trau
u d</w>
Stra f
r é
pre mi
govern ance</w>
vil la</w>
h l
zip ien</w>
Vertra gs
Ru he</w>
M ü
e z</w>
respon sibilities</w>
determin ed</w>
ich t
Land schaft</w>
n ations</w>
vor an
manufactur ing</w>
ver z
caus es</w>
Veranstal tungen</w>
wo durch</w>
Publi k
pleas ure</w>
Beschäftig ungs
T ari
organis ationen</w>
ne arly</w>
identi ty</w>
E D
Ta i
ver sions</w>
zu gleich</w>
ini ert</w>
exam ples</w>
M erk
m ale</w>
ö se</w>
be wegen</w>
cop y</w>
alitä ten</w>
Vor teil</w>
For mat</w>
Leb ens</w>
Bestand teil</w>
rap id</w>
prakti sch</w>
v ie</w>
ander erseits</w>
associ ation</w>
e chte</w>
blo ck</w>
v als</w>
ser n</w>
Swe den</w>
Zah lungs
mit glie
An y</w>
reco very</w>
gel aden</w>
spre ad</w>
Klima anlage</w>
An dre
br ings</w>
Wor k
conclu de</w>
techn ological</w>
fu el</w>
Charak ter</w>
ra tions</w>
sol e</w>
Rech ts</w>
Liber alisierung</w>
Mitglied s
an bieten</w>
Glob al</w>
gel y</w>
Gesetz gebung</w>
f abri
ö sen</w>
ch mals</w>
Da y</w>
Infra struktur</w>
Gol f
Au th
Wel che</w>
I l
Ak tu
e ed</w>
beschäf tigt</w>
Intern ationalen</w>
dic t
multi ple</w>
L ink</w>
Erhö hung</w>
L ast
p ine</w>
Java Script</w>
bu re
beg ri
fra gt</w>
0 2
dri ving</w>
smo king</w>
sp aces</w>
win den</w>
wel chen</w>
vorsch lagen</w>
tradition ellen</w>
Politi ker</w>
tre ated</w>
Ratsprä sident</w>
N ice</w>
Ser ie</w>
Führ ung</w>
Ferien woh
gu ard</w>
Sy ri
gewäh lt</w>
incor por
voll kommen</w>
no tice</w>
Zah len</w>
er in</w>
Son n
dau er
spezif ischen</w>
Angebo te</w>
5 2</w>
qu ick</w>
expla in</w>
lie gende</w>
Aut o
ta il</w>
Unabhängi gkeit</w>
H älfte</w>
her zlich</w>
di um</w>
pati ents</w>
ol a</w>
Ver öffent
V ic
freund liche</w>
ok ed</w>
Unternehmen s
ur ban</w>
fäl len</w>
Eben so</w>
1 20</w>
F as
att acks</w>
or a</w>
A dri
em an
Über prüfung</w>
tim ately</w>
ser ving</w>
ver w
7 00</w>
oh n</w>
ari um</w>
Frühstück s
st ol
P R
Aus land</w>
ger ufen</w>
ste el</w>
bed room</w>
ex plan
requ ested</w>
w ann</w>
ho l</w>
consen sus</w>
Th anks</w>
la gs</w>
dec ades</w>
läu fi
prim ary</w>
6 6</w>
D utch</w>
besser en</w>
evalu ation</w>
W inter
li ability</w>
Män ner</w>
R am
y es</w>
pre viously</w>
addres sed</w>
Det ails</w>
Koordini erung</w>
pp en</w>
sch we
di men
ann e</w>
F ut
represent ative</w>
con soli
produ ktion</w>
zurück zu
prim arily</w>
ta ste</w>
U ser</w>
ro b
den den</w>
form ul
fahr ens</w>
strateg ie</w>
event u
schn eller</w>
D er
Gerich ts
ti le</w>
v on
tt able</w>
t as</w>
tel ef
j unge</w>
Diskrimin ierung</w>
Z immern</w>
zu verlässi
Rom ania</w>
grie ch
k el</w>
g al
k ehr</w>
vul ner
b om
men ted</w>
Lie be</w>
Rum än
g ere</w>
n on
wä s
there by</w>
ã o</w>
re spe
Fi re
bezieh t</w>
scho ols</w>
jähr lich</w>
C ho
del ay</w>
remo ve</w>
d licher</w>
frü her</w>
f ting</w>
kon tex
Finan cial</w>
Metho den</w>
em a</w>
wn s</w>
enter ed</w>
Ex press</w>
n den</w>
au dio</w>
disku tiert</w>
T wo</w>
ra il</w>
discus sing</w>
grenz überschreit
kin ds</w>
B la
sprü che</w>
ör per
O M
Be wegung</w>
weiter es</w>
d ler</w>
av es</w>
fer tigt</w>
sei tens</w>
König reich</w>
E M</w>
optim al</w>
Lauf e</w>
si mul
industri es</w>
inf o</w>
Pro vin
stoff en</w>
fru it</w>
K lar
E D</w>
F T
Sho p</w>
schö n</w>
re d
tal ks</w>
for um</w>
bu tions</w>
Auf grund</w>
B au</w>
can cell
ri gi
extre me</w>
wer ten</w>
p our</w>
auth or</w>
s qu
de h
sam er</w>
Teil nehmer</w>
S m
glob ale</w>
leh nen</w>
conduc t</w>
J ean</w>
on i</w>
lie fern</w>
Min dest
gesch lossen
Bi bli
Rom an</w>
began n</w>
kürz lich</w>
ur s
um ini
fer ences</w>
Tro tz</w>
sk in</w>
Kör per</w>
de ckt</w>
Ob ama</w>
G old</w>
M ehr</w>
li ation</w>
Ber ücksichti
valu able</w>
Gä sten</w>
trei ben</w>
l i</w>
An passung</w>
Gr enze</w>
g one</w>
reagi eren</w>
berei che</w>
Fran c
Stadtzent rum</w>
Lu ft</w>
Geb ur
hol en</w>
Bra zi
Aktion sp
Qu es
Sat elli
A U
V ia</w>
la w
d ation</w>
St atisti
lo ts</w>
we gs</w>
stimm t</w>
serv ations</w>
def ault</w>
leng th</w>
ati sche</w>
lich ten</w>
nah e
ein s</w>
k ali
fe eling</w>
prof it</w>
F lash</w>
enn ung</w>
Ro tary</w>
Doku mente</w>
deliver ed</w>
an geht</w>
gesp eich
positi ven</w>
bet ont</w>
stra i
compet ence</w>
einzel ne</w>
op posite</w>
Wh ite</w>
dan ger</w>
Fäl le</w>
7 1</w>
k unden</w>
akzep tiert</w>
G a
el i</w>
vi sible</w>
gh ted</w>
verein bar
En joy</w>
K yo
de alt</w>
bil det</w>
Wil len</w>
represent ed</w>
schau en</w>
hab er</w>
ben e
Hol z
prep are</w>
Fähi gkeit</w>
bür ger
län dlichen</w>
sou thern</w>
f en
accoun ts</w>
d al
es sive</w>
controll ed</w>
Fre unde</w>
Far b
Ord nung</w>
t ment</w>
on s
am ong
ord nungs
Spiel e</w>
spezif ische</w>
y le</w>
we alth</w>
Ti ere</w>
au sh
no ise</w>
län e</w>
Vorberei tung</w>
pr en
W C</w>
W ien</w>
ung er</w>
komp et
among st</w>
Kon fer
Pro di</w>
ge arbeitet</w>
ur ge</w>
ü r</w>
ma gaz
Aus gang
invest ments</w>
d ritten</w>
or ca</w>
au x</w>
in er</w>
Su ite</w>
will ing</w>
kontex tu
ad or</w>
bequ em</w>
St unde</w>
speak ers</w>
F lä
Per spe
Schlus s
abhängi g</w>
comp lic
pa ir</w>
un anim
tion ality</w>
appro val</w>
b un
Del egation</w>
tur ning</w>
P L
h oriz
er geben</w>
D ad
region ale</w>
sch war
str en
present ation</w>
art a</w>
stä d
T est</w>
no chmals</w>
wa chen</w>
rich tlinie</w>
compati ble</w>
Des pite</w>
B is
W ur
ti z</w>
Po st</w>
Ge fühl</w>
aff ect</w>
Vertei dig
ver m
Au di
Qu ali
Teil nahme</w>
Gesetz e</w>
Gei st</w>
Architek tur</w>
A qu
li ste</w>
r ö
quo te</w>
mechanis ms</w>
Aut ob
j ahr
manufactur ers</w>
über nommen</w>
iz ation</w>
heb ung</w>
6 7</w>
un zu
bli n</w>
ro krati
Eink lang</w>
Mun ich</w>
in spi
di r</w>
Ver such</w>
di verse</w>
ro m
k top</w>
Sch n
mo ved</w>
Verbrau ch
E gyp
H öh
Schi ff
ari en</w>
dest ination</w>
zi em
Ar gent
stat ten</w>
B at
r uns</w>
sp eich
An liegen</w>
Kon zep
exc ept</w>
consul tation</w>
beein flus
O L
sicher stellen</w>
O pen
n un
tur ing</w>
sha pe</w>
so weit</w>
west ern</w>
Par ti
Reak tion</w>
m ur
si sch</w>
Zu stand</w>
high light</w>
Unterschie de</w>
viel mehr</w>
Grund rechte</w>
angen eh
gewis se</w>
Um ständen</w>
jähri ge</w>
L ord</w>
B ack
mut ual</w>
ph en
Min utes</w>
Sü den</w>
ey e</w>
form u
ev a</w>
5 0
ari o</w>
gest ern</w>
grund lage</w>
kon ta
Berücksichti gung</w>
ent lichen</w>
An gel
´ s</w>
Jav a</w>
K M
for d</w>
lei den</w>
mis s
n es</w>
co vers</w>
Ele c
k tes</w>
t shof</w>
ver anstal
ir y</w>
bo at</w>
ver lieren</w>
An lage</w>
sa v
Ever y
ell o</w>
Proje kt
Kyo to</w>
W an
tro u
Kli ma</w>
streng th</w>
lea dership</w>
be u
To d</w>
ver langen</w>
Eigen schaften</w>
del egation</w>
Boo k</w>
gres sive</w>
e ding</w>
i res</w>
di gkeit</w>
ac ting</w>
Davi d</w>
ba siert</w>
g ü
S ter
ehemali gen</w>
Kon troll
Über nach
Diskus sionen</w>
at titude</w>
K unde</w>
ec es</w>
recommen ded</w>
sti mul
hän gen</w>
Be fore</w>
derzei tigen</w>
ra n</w>
We gen</w>
um welt
Jo se
1 000</w>
pres sion</w>
mit tag</w>
Kombin ation</w>
sol d</w>
fo lio</w>
rejec ted</w>
Wirtschaf ts</w>
ti que</w>
fol gerungen</w>
ent ing</w>
er ror</w>
ig es</w>
Bed ro
m t</w>
h ing</w>
m i</w>
kno ws</w>
höch ste</w>
wech sel
Kol lege</w>
rep ly</w>
ah me</w>
Rau m
exper tise</w>
sen s</w>
loc ations</w>
verstär kt</w>
help ing</w>
inter es
Klima wandel</w>
Fre ude</w>
b ing</w>
ein richtungen</w>
ell ed</w>
Br enn
sch luss</w>
servi ert</w>
s z
impro vements</w>
N O
priv acy</w>
begr ün
tre es</w>
uri es</w>
oblig ation</w>
tz ei
Defin ition</w>
T ie
signific antly</w>
lat ter</w>
L eu
engine ering</w>
B ol
tra gs
Sch äden</w>
artic les</w>
f es</w>
spo t</w>
requ ests</w>
Fischer ei</w>
don e
experi ences</w>
re place</w>
lei sch</w>
Con su
Fo to</w>
phi losoph
M ein</w>
dru gs</w>
Ameri ka</w>
G ali
Eink aufs
laun ched</w>
conc ep
F ind</w>
st reichen</w>
la y</w>
Sch o
Be denken</w>
Stu die</w>
F enster</w>
he avy</w>
sei en</w>
l st</w>
web sites</w>
Dad urch</w>
wieder um</w>
compens ation</w>
ran k</w>
i um</w>
nah me
char ming</w>
G ep
li ers</w>
untern ommen</w>
Sch ü
bed rooms</w>
na vi
Daten bank</w>
k einer</w>
be fassen</w>
dien ste</w>
an erkannt</w>
fin ding</w>
Sch ule</w>
si e
ff er
ma ster</w>
stre ets</w>
regel mäß
res s
son sti
appe ared</w>
H än
er ei</w>
tex ts</w>
konkre ten</w>
Ri ver</w>
do ku
zi elt</w>
Tem perat
Strategi en</w>
W aff
em ed</w>
dis covered</w>
flü ge</w>
te en</w>
op les</w>
cent res</w>
ei ght</w>
Mark eting</w>
ro te</w>
ak tive</w>
zeu g
un its</w>
si eben</w>
ur a</w>
In tel
kar ten</w>
mel dung</w>
Sit z</w>
G ent
k ir
r auch</w>
Re du
zw an
Grund sätze</w>
è s</w>
Apart ment</w>
hel ps</w>
Überein kommen</w>
Untersuch ung</w>
depen dent</w>
B ör
fil l</w>
occ ur
Er wachsen
blu e</w>
ab sichti
Ex ec
Ant worten</w>
appe al</w>
m l</w>
is s
t ours</w>
peri or</w>
wer fen</w>
betre ffen</w>
T ru
fur niture</w>
vil le</w>
regre t</w>
äu me</w>
Kar ten</w>
AN D</w>
umfas senden</w>
fle et</w>
Vi elleicht</w>
T aus
Voraus setzung</w>
C er
c af
expec tations</w>
M ah
m icro
z in</w>
sol ve</w>
ment ally</w>
Ta ke</w>
Verfü gbarkeit</w>
behör den</w>
li sten
be handeln</w>
fac ed</w>
exten sion</w>
Klas se</w>
de ad
Be sitz
san ctions</w>
Nichtrau cher
F ein
histor ische</w>
recogn ise</w>
empha sis</w>
Effizi enz</w>
ne ut
Fa x</w>
Cham ber</w>
5 4</w>
i en
ef s</w>
w alls</w>
civi li
dra wing</w>
appe ar
Kü ste</w>
arran gements</w>
P aper</w>
Lei tlinien</w>
applic able</w>
temperat ure</w>
Allgem einen</w>
di shes</w>
ci pl
tä ts
Pla za</w>
Ver träge</w>
tru th</w>
fi cial</w>
Techn ology</w>
che ap</w>
d inner</w>
in ary</w>
wichti ges</w>
bel on
intel lec
Völ ker</w>
Ro bert</w>
West en</w>
host els</w>
j un
gesp ielt</w>
be ob
pro p
wat ch</w>
fig ure</w>
aut onom
bei zu
Y u
her aus</w>
al bum</w>
tax es</w>
Milit är
ens es</w>
et t</w>
199 1</w>
w ater
erneu er
9 2</w>
eng agi
exist s</w>
Air bus</w>
Formu lar</w>
j emand</w>
genau so</w>
comp ly</w>
San ktionen</w>
vorsch lag</w>
bezieh ung</w>
emphasi se</w>
mensch lichen</w>
inten tion</w>
te es</w>
oper ators</w>
A 4</w>
A gri
Regi stri
const ant</w>
sub stances</w>
di ty</w>
rel atively</w>
C o</w>
G lück
Sch ool</w>
b our</w>
par la
Su ch
To p</w>
198 9</w>
Wer k</w>
fi ci
figh ting</w>
hil ft</w>
cyc le</w>
objec ts</w>
O b</w>
с т
ti l
resol ve</w>
Du blin</w>
C lu
a is</w>
a x
mom ent
Auf trag</w>
fant astic</w>
S A</w>
ö ster
produc ing</w>
breit ung</w>
n de</w>
ori um</w>
is er</w>
pro of</w>
ko ordini
kl einer</w>
e ds</w>
th ir
Wo chen
amerikan ische</w>
Zu griff</w>
R ent
stre ben</w>
ob st
ser vers</w>
komm erzi
italien ischen</w>
Tra di
P ress</w>
par allel</w>
W he
d einer</w>
hand ling</w>
d ans</w>
ati es</w>
K ind</w>
m ari
Sch w
Ge danken</w>
d ining</w>
wh atever</w>
O ld</w>
Gen ehm
K ategorie</w>
Ver brechen</w>
tro tzdem</w>
U se</w>
ho her</w>
refuge es</w>
Er kenn
fri end</w>
ou l
ver sorgung</w>
col d</w>
Wel come</w>
kulturel le</w>
Ver halten</w>
Sk ype</w>
suff ering</w>
O m
ch em</w>
ak es</w>
i x</w>
z ell
an o
Mein ungs
heal thy</w>
ruhi gen</w>
ch ann
institution ellen</w>
appreci ate</w>
spra chen</w>
tsp ro
C oo
disa ster</w>
ex t</w>
I C</w>
sti sch</w>
ziem lich</w>
pl en
bur den</w>
Empfeh lung</w>
f ing</w>
mo bility</w>
tra gung</w>
di d
schließ t</w>
Phi li
comm and</w>
ut tle</w>
aff airs</w>
refle ct</w>
frau d</w>
a den
Sp i
s and</w>
isch ung</w>
Saf ety</w>
Spec ial</w>
künf tig</w>
th an
außer gewöhn
confir med</w>
acc ur
eh mer
vis u
Minist ers</w>
will kommen</w>
L ob
u ung</w>
ein geb
recogn ised</w>
whi lst</w>
ni emand</w>
Prof ession
au ber
graphi cal</w>
sem in
z o</w>
enter tainment</w>
Materi alien</w>
dra mati
k amp
spr ing</w>
My SQL</w>
person ally</w>
Ma il
Ö l
Kon sequ
wissen schaftlichen</w>
Masch inen</w>
Bei fall</w>
hol ding</w>
gr enzen</w>
For t
at re</w>
N L</w>
tu t</w>
erhäl tlich</w>
re di
spec tac
wat ers</w>
S hop
Char ter</w>
k al
ück en</w>
schri ft</w>
ch ain</w>
Di alo
Ru le</w>
natur ally</w>
bes or
invol ving</w>
help ed</w>
entde cken</w>
8 8</w>
schn ell
re ds</w>
it ely</w>
happ ens</w>
an i</w>
hö here</w>
5 6</w>
e ast</w>
k y</w>
renew able</w>
E ssen</w>
Wahr heit</w>
masch inen</w>
P ack
bu chen</w>
Maß nahme</w>
herr scht</w>
ö p
re serve</w>
Landwir te</w>
f tung</w>
sch wei
zunehmen d</w>
Ab sicht</w>
assi st</w>
fa ther</w>
Strateg y</w>
wesent liche</w>
w asser</w>
pe oples</w>
politi cians</w>
windi gkeit</w>
ent lang</w>
Nor den</w>
dro p</w>
ra pi
bi ke</w>
steu er
ch tlin
exclu sively</w>
ersch einen</w>
schätz en</w>
Ak te
An fragen</w>
K ing</w>
L etz
bure au
er öffnet</w>
man gel
F ei
zi er
cre ative</w>
hei m</w>
F on
K auf
W here</w>
Tour ismus</w>
F A
vor geseh
mär kte</w>
ausge stat
fl at</w>
W affen</w>
trä chti
volu me</w>
is o
L os</w>
en en
Mün chen</w>
E B
manag er</w>
dise ases</w>
P A</w>
h t
out door</w>
Hin der
B and</w>
B ir
n i</w>
men tali
enth usi
residen ce</w>
pi eces</w>
s sen
ini en</w>
A ction</w>
we ather</w>
beg onnen</w>
enth al
op posed</w>
Ambi ente</w>
o ds</w>
Sch aden</w>
fir stly</w>
Vol k
Swe dish</w>
beträ gt</w>
ed ge</w>
Eng lisch</w>
zusätz lichen</w>
bes ei
Cust om
Ex peri
Autom ob
is ol
Ge win
Fern er</w>
G DP</w>
Tag ung</w>
eigen es</w>
a side</w>
stell ungs
Dienstleist ungs
angem essen</w>
welt weiten</w>
lei sure</w>
pre is
ä ck
Pu er
fi es</w>
fa il</w>
feh l
Bri tain</w>
cast le</w>
natür lichen</w>
st ant</w>
b ol
char ges</w>
T S</w>
be zug</w>
qu is</w>
pre sident</w>
W ash
emb our
interes siert</w>
re v
D ort</w>
ob je
nä her</w>
cou ple</w>
grundle genden</w>
5 9</w>
sur v
Geor ge</w>
ti erte</w>
critic ism</w>
US D</w>
blo g</w>
V an</w>
sp ür
automati c</w>
t um</w>
sa una</w>
Exper ten</w>
ma y
traff i
ini ons</w>
Sec re
schön sten</w>
5 3</w>
der ing</w>
co her
för der
kün fte</w>
eh nt</w>
pro file</w>
Un gleich
tu m
ob tained</w>
w us
GN U</w>
Mittelme er
Re al</w>
Sp ann
kurz em</w>
excep tional</w>
st ag
ern st</w>
D ER</w>
führ ende</w>
G ood</w>
staat liche</w>
jour ney</w>
schwieri gen</w>
P RO
ti cket</w>
ma ß</w>
zentr alen</w>
bi an</w>
T ar
ge fördert</w>
gn e</w>
ali zed</w>
Lux embour
Erwar tungen</w>
t tes</w>
dis cipl
comb ating</w>
O hne</w>
deter mine</w>
stre am</w>
ge geb
sex ual</w>
An griff</w>
b ag
ch ap
milli ons</w>
mon u
pass word</w>
construc tive</w>
rü stung</w>
thre at
le aving</w>
off ices</w>
Schwe den</w>
ti erten</w>
kom b
reach ing</w>
de par
gen i
ah nen</w>
invol vement</w>
freund lich</w>
ver än
Bo den</w>
Mittel punkt</w>
besitz en</w>
lar gely</w>
vi l</w>
me at</w>
Nor men</w>
la m</w>
zi r
ben e</w>
out put</w>
g y
per form</w>
P op
Ein stellung</w>
CO M</w>
Agrar politik</w>
passen gers</w>
direc tives</w>
A 3
be ge
Berat ung</w>
li sche</w>
instal liert</w>
fe e</w>
es day</w>
woh l
Mu sic</w>
wle d
ra sch</w>
sur pr
g ungs
St off
ri ed</w>
Bade zimmer</w>
a da
ung ser
ach tung</w>
brie f</w>
Un gar
ni emals</w>
Mi kro
equ ally</w>
Wirk lichkeit</w>
Altern ative</w>
d rei
communic ations</w>
Ra dio</w>
L E</w>
h it</w>
s me
berechti gt</w>
stär kt</w>
nach zu
Can ada</w>
protec ting</w>
go s</w>
remo ved</w>
Croati a</w>
Ber lin
impres sive</w>
zweifel los</w>
obst ac
entwick elten</w>
th il
dec la
ti ckets</w>
be stand</w>
Stand ard
it i</w>
et h</w>
Be dien
Verk auf</w>
at ures</w>
ter s
teil nehmen</w>
allgem ein</w>
neuest en</w>
zu erst</w>
pl ause</w>
bo t
tre aty</w>
wes halb</w>
mand ate</w>
Bei spiele</w>
hervorra gende</w>
par ks</w>
unmittel bar</w>
ver ändert</w>
Bet ra
Japan ese</w>
Get rän
c able</w>
en ded</w>
in zwischen</w>
Er leb
Kap az
comp u
col our</w>
ver bo
amoun ts</w>
ey es</w>
T om
Entwicklungs ländern</w>
ausgezeich nete</w>
or er</w>
sat lan
IC H
sp anischen</w>
as h</w>
main tained</w>
kon trolle</w>
awar eness</w>
C y
di ed</w>
C N
zw ungen</w>
ent standen</w>
decor ated</w>
ati k</w>
ab len</w>
off enen</w>
Struk turen</w>
leben s
Stra ßen</w>
kämp fen</w>
Verbesser ungen</w>
repe at</w>
af ri
Nach frage</w>
erweiter t</w>
strategi es</w>
offici als</w>
N on</w>
O ver</w>
par ents</w>
dat en
f our
do ors</w>
organiz ations</w>
Bes or
defin e</w>
m us</w>
Frem den
disch arge</w>
ho spit
mel den</w>
H en
f ted</w>
increas es</w>
ra d
stri c
bedeu ten</w>
parla mentar
fin ished</w>
Nich t
lo vely</w>
dr ink</w>
m ung</w>
at oren</w>
ver langt</w>
do es
happ ening</w>
B ahn
own er</w>
Haf en</w>
Host el
g eren</w>
in o
and els
sto ßen</w>
Be fu
Bu cht</w>
Dor f</w>
In stead</w>
und ings</w>
Al li
issu ed</w>
d ating</w>
r ating</w>
contri butions</w>
B lack</w>
bemü ht</w>
c ab
lo yment</w>
Bil dungs
pol lu
pro ve</w>
il er</w>
Ab stimm
bed ro
6 2</w>
K rimin
b ahnhof</w>
ommen en</w>
new ly</w>
La dies</w>
Künst ler</w>
organiz ed</w>
Luxembour g</w>
h am
le ch
Bulg aria</w>
W are</w>
h all</w>
gesch äf
rapporte urs</w>
weis ung</w>
Bra si
S z
organisi ert</w>
prepar ation</w>
betreff enden</w>
ausgezeich neten</w>
dies el
tre at</w>
leg ungen</w>
occa sion</w>
auf zunehmen</w>
Regi me</w>
Du sche</w>
Kam era</w>
collec tive</w>
ko stet</w>
fül lung</w>
Ratsvor sitz</w>
Kre u
contrac ts</w>
Th ir
Unter schied</w>
d al</w>
M esse</w>
A b</w>
O F</w>
Z erti
sat zes</w>
li sts</w>
m än
einfa chen</w>
Aus stattung</w>
Vi sion</w>
Pf licht</w>
cri ption</w>
el er
Net z</w>
ursprün glichen</w>
E di
rä f
tur ns</w>
Web sites</w>
Mar ina</w>
pro hi
Ma c</w>
require ment</w>
M em
höch sten</w>
restri ctions</w>
5 8</w>
ungspro zess</w>
7 7</w>
en ab
liber alisation</w>
tri eben</w>
Jus tiz</w>
schn elle</w>
M ens
S par
system en</w>
men ts
kur ze</w>
Stell ung</w>
erheb lich</w>
grundle gende</w>
m ation</w>
ch est
hab t</w>
rema ining</w>
Fron t</w>
behör de</w>
Kapit al
le v
ir ing</w>
Flü chtlin
C E</w>
Ent la
Vide o
west lichen</w>
laun ch</w>
h ü
T rau
Überzeu gung</w>
balcon y</w>
Ab kommens</w>
connec tions</w>
Zus ätz
zugän glich</w>
p on
Kon trol
H it
an wes
G et</w>
star ten</w>
b ou
ri sts</w>
Li fe</w>
Th omas</w>
ris ing</w>
A ward</w>
ad voc
f em
itä ts
character istics</w>
9 3</w>
sch ule</w>
ab road</w>
Well ness</w>
al ed</w>
deb ates</w>
ent re
ä r</w>
lau b
produ ziert</w>
z ei</w>
def end</w>
vis a</w>
renov ated</w>
gi o</w>
ven tionen</w>
Po lish</w>
Bet re
Exec utive</w>
An bieter</w>
W et
zu legen</w>
Regi erung
har dware</w>
den ten</w>
a stri
ph ar
B C</w>
il la</w>
Pun kten</w>
sc lub</w>
resol ved</w>
deta illi
re turned</w>
sti l
cre ates</w>
F is
T O
mus ste</w>
b lood</w>
zi ele</w>
ass ure</w>
Struktur fonds</w>
depen ds</w>
o th</w>
pro ved</w>
Asy l
ro ads</w>
wi tn
Th rou
ass ungen</w>
lat z</w>
re in</w>
op inions</w>
del a
entscheiden d</w>
Nah en</w>
D em</w>
clas sic</w>
divi ded</w>
Th eir</w>
surro undings</w>
mess ages</w>
är m
1 00
v ast</w>
Gerä te</w>
kehr en</w>
K e
te ste</w>
Be stellung</w>
uni cip
Proble ms</w>
umfas sen
at em
abgel ehnt</w>
europ a</w>
6 9</w>
Bu dap
Bo x</w>
Prü f
N ein</w>
wirk lichen</w>
resol utions</w>
R and
own ers</w>
Ausgang spunkt</w>
sch afft</w>
and elt</w>
ni ghts</w>
identi fy</w>
ge prä
co ast
Ko operation</w>
Gesch m
UN O</w>
c utting</w>
gei sti
a e
wirk ung</w>
akti vieren</w>
Ven e
Harmon isierung</w>
d ritte</w>
entde ck
T isch</w>
sk a</w>
K ann</w>
Geb rauch</w>
gl ück
di agno
ar tigen</w>
Proje kten</w>
3 0
prec ise</w>
künf tigen</w>
adv ent
vor genommen</w>
certain ty</w>
y o</w>
R in
ho ff
fac ts</w>
fal sch</w>
J ames</w>
um zusetzen</w>
cover ing</w>
Überein stimmung</w>
über nimmt</w>
recommend ation</w>
Hostel sclub</w>
D es</w>
T ol
W ein</w>
reg ularly</w>
sign s</w>
bis her
Re volution</w>
dar y</w>
5 7</w>
7 3</w>
8 9</w>
lü ck</w>
H all</w>
befür wor
Am ts
Mens ch</w>
Un der</w>
comm un
an statt</w>
le u
min i</w>
ro ck</w>
a ward</w>
D ri
proper ties</w>
g old</w>
k rieg</w>
ar ts</w>
Ban k
8 2</w>
ko st
p um
rit t
defin itely</w>
Mas sen
erlau ben</w>
verurs acht</w>
ber ge</w>
riesi gen</w>
min uten</w>
Sa una</w>
gratu lieren</w>
Beh in
ethn ic</w>
aufge fordert</w>
Fest legung</w>
mean ing
auf s</w>
masch ine</w>
ab and
f an</w>
m ist
durch zuführen</w>
sch u
reich ung</w>
verschieden er</w>
contin ent</w>
does n</w>
f ak
Je des</w>
L as</w>
In done
under stood</w>
top ic</w>
Ima ge</w>
ar ischen</w>
6 3</w>
W LAN</w>
m igration</w>
p m</w>
äh r</w>
ate ful</w>
regul atory</w>
El tern</w>
si ght</w>
Ar z
kon tinu
wirk sam</w>
KM U</w>
N I</w>
an geb
mo tor</w>
Po wer</w>
Ma astri
schi cken</w>
seh e</w>
E ur
len ni
mas sage</w>
clas si
f estival</w>
met al</w>
P et
Ab schnitt</w>
oper ational</w>
St ei
rah men</w>
Gent oo</w>
komm unik
Krank heiten</w>
Ne ws</w>
invol ve</w>
Proc edure</w>
gun sten</w>
er b
lau tet</w>
lic ense</w>
jo ined</w>
voll ständige</w>
perform ed</w>
stra h
kein es
Wech sel
Rumän ien</w>
ME Ps</w>
stit utes</w>
er griffen</w>
vis ual</w>
conflic ts</w>
b ungen</w>
tr y
sub mit</w>
bek omm
Ratsprä sidentschaft</w>
Region al
gh ter</w>
war ran
Hal b
i ties</w>
ink lu
Sch ei
ob li
Fähi gkeiten</w>
k ings</w>
s ligh
den heit</w>
se at</w>
inten d</w>
am az
bekämp fen</w>
Verbin dungen</w>
cust oms</w>
aci ón</w>
A ssi
s ac
li ft</w>
Ele ment</w>
facilit ate</w>
frei wil
öster reich
I V
Y o
t d</w>
B SE</w>
re serves</w>
car bon</w>
ü sse</w>
Al ter</w>
Vorsch lägen</w>
transpor tation</w>
Steu ern</w>
frequ ently</w>
feh lt</w>
av ec</w>
C yp
Po wer
Änderungsanträ gen</w>
hal ten
S how</w>
Aus führungen</w>
Far be</w>
gla d</w>
r on</w>
Institu tion</w>
foc used</w>
impres sion</w>
C C</w>
Au stausch</w>
dri ver</w>
for schung</w>
Aus nahme</w>
exp lic
conduc ted</w>
K üh
R an
st opp
viel er</w>
V ice</w>
Be weis</w>
extre m</w>
Stru c
gran t</w>
Vie w</w>
wettbewer bs
wachst um</w>
st ück</w>
ut ing</w>
An gst</w>
forder e</w>
Telef on
HT ML</w>
st res
al co
un eingeschrän
te ams</w>
confir m</w>
pro ud</w>
Dritt ländern</w>
Kro ati
e chten</w>
ha ir</w>
gef ähr</w>
reali stic</w>
lan s</w>
Bro wser</w>
Beru fs
person nel</w>
Nor di
Veranstal tung</w>
on ic</w>
è re</w>
Be au
Ver ring
Mon etary</w>
Krank en
Gest altung</w>
hund reds</w>
ti zen</w>
Mitglied schaft</w>
care er</w>
Ear th</w>
inter ior</w>
7 8</w>
st ars</w>
in habit
la y
kl aren</w>
Ph one</w>
Cyp rus</w>
he ating</w>
no w
ann ehmen</w>
ver trag</w>
su ites</w>
Emis sionen</w>
Sta at
De f
boo t</w>
s ung</w>
w u
be absichti
Aus stellung</w>
re min
stu dio</w>
S emin
Nach richten</w>
some what</w>
phen om
Ho li
sich ere</w>
Wil l</w>
g age</w>
6 1</w>
lo unge</w>
umini um</w>
zu gunsten</w>
Partn ern</w>
Wash ington</w>
ann es</w>
parlia ments</w>
er ör
ed oms</w>
tn is
abo li
hervor heben</w>
famili ar</w>
ony mous</w>
T enn
uni versal</w>
akti ven</w>
um geben</w>
gn ü
pla ys</w>
wor se</w>
Pro grammen</w>
Ch urch</w>
clu bs</w>
M ur
T atsächlich</w>
gn issen</w>
Über setzung</w>
prin ting</w>
bour g</w>
j o</w>
in ations</w>
20 12</w>
Kop f</w>
ß te</w>
Stra ß
gi gen</w>
kur zen</w>
Ur spr
Portu gu
Immobili en
ex ter
aus geschlossen</w>
funktion ieren</w>
a c</w>
wirtschaf tlicher</w>
displa yed</w>
Kon kur
notwendi ge</w>
Mob il
is lands</w>
sett ings</w>
teu er</w>
lie b
up dated</w>
no t
Aus führung</w>
chn ung</w>
de als</w>
mo dule</w>
tan e
struk turen</w>
Ge gend</w>
m essen</w>
s k</w>
Sec ond</w>
depen ding</w>
bot tom</w>
kontinu ier
sinn voll</w>
Fra mework</w>
produc tive</w>
s u</w>
effec tiveness</w>
follo ws</w>
emer gency</w>
zu ständigen</w>
des k</w>
hö her</w>
fa ster</w>
in n</w>
en de
pal ästinen
chem ical</w>
g ine</w>
min ority</w>
schlä gt</w>
ma chte</w>
Slo v
the ore
nachhal tigen</w>
T el
be wäl
la ges</w>
acc u
Vi et
g in</w>
li brary</w>
Re port</w>
Entwicklungs länder</w>
no ted</w>
beglück wünschen</w>
D ou
den de</w>
W illi
far m</w>
star ts</w>
lo wing</w>
bau t</w>
oth ek</w>
techni ques</w>
to b
Arbeitsplätz en</w>
n ischen</w>
gro w</w>
beschrän kt</w>
SM Es</w>
Kil ometer</w>
7 6</w>
ul timately</w>
durch führen</w>
früh eren</w>
sch em</w>
ver wand
ange l</w>
w inner</w>
spo ken</w>
dem anding</w>
Verf assungs
Wissen schaft</w>
s ä
S V</w>
wach sen</w>
wom an</w>
meas u
P ort</w>
te a</w>
ehr gei
Schlaf zimmer</w>
W i</w>
Ä r
Mex ico</w>
angemessen e</w>
Z wei</w>
b art</w>
ver bringen</w>
Buch ung</w>
T yp
mo stly</w>
bo und</w>
ans wers</w>
Sat ur
V alle
Ent fer
sicher ungs
visi ted</w>
be zahlen</w>
bu ch
so dass</w>
wel fare</w>
gespeich ert</w>
om e
us s
Wir d</w>
Konfli kt</w>
Hand els</w>
m utz
Sp ace</w>
num mer</w>
Prote ction</w>
judi cial</w>
Up date</w>
li qui
fra g
me ant</w>
Wer bung</w>
Re form
inde x</w>
Isra eli</w>
bestä tigen</w>
wol lten</w>
eig net</w>
ch a
dri vers</w>
interess ante</w>
electri city</w>
ung st
fe ed</w>
Garanti e</w>
I P
O M</w>
eb enen</w>
zu lassen</w>
val ent</w>
win dows</w>
host el</w>
lie ß</w>
minist ers</w>
Geschäf te</w>
9 1</w>
ber ech
be an
ear th</w>
gi ble</w>
mini str
E dition</w>
Deut schen</w>
vac ation</w>
verabschie det</w>
verkehr s
Gleich gewicht</w>
accompan ied</w>
W ell</w>
st amm
ck er
Lan g
A l</w>
Anwen dungs
E Z
er fahr
pos ing</w>
Um gang</w>
Kompon enten</w>
K as
pro mp
besch le
bur ger</w>
produ kte</w>
Son y</w>
dra w
öffent lich</w>
zü ge</w>
nor thern</w>
Son ne</w>
er mu
ar ab
eh e</w>
ban ken</w>
val ley</w>
ur g
der er</w>
her itage</w>
k raten</w>
fashi on</w>
P lus</w>
R om</w>
fil ms</w>
Host els</w>
7 4</w>
E d
L as
cor ner</w>
Plen um</w>
Schwer punkt</w>
pollu tion</w>
A do
ben utz
mul tin
chine sischen</w>
Nor d</w>
Drit tens</w>
A ct</w>
Prin zipien</w>
indic ated</w>
func tioning</w>
de cre
Ma ß</w>
imp lic
Cli ent</w>
provi der</w>
ge prüft</w>
intellec tual</w>
chann els</w>
ru b
pl ate</w>
ten nis</w>
Vereinbar ungen</w>
es ch
An rei
terror ist</w>
Budap est</w>
gr ateful</w>
Über setz
Regierungs konferenz</w>
lich sten</w>
fül len</w>
reich s</w>
steu er</w>
O s</w>
Ad di
Coo k
Verring erung</w>
A D</w>
v is</w>
Bezieh ung</w>
investi g
satis fied</w>
re ported</w>
der artige</w>
defin iert</w>
B IP</w>
statisti cs</w>
anspru chs
conci liation</w>
S ad
Mor gen</w>
Zi ffer</w>
l ers</w>
geh ende</w>
l ler</w>
lo oked</w>
Be am
pre fer</w>
fli ghts</w>
aus gesprochen</w>
emp f
einzigar tige</w>
visi ting</w>
räu men</w>
gehöri gen</w>
k amen</w>
Al les</w>
Plan ung</w>
t ats
entran ce</w>
mo ther</w>
vor her</w>
win es</w>
tou rists</w>
läss lich</w>
Whe ther</w>
deli ghted</w>
kü mm
si ven</w>
verhin dert</w>
arri ve</w>
in ser
Sign al</w>
D ynam
er ce</w>
Aus gabe</w>
remo te</w>
relax ation</w>
cont acts</w>
wid ely</w>
verlei hen</w>
Portugu ese</w>
Somm er
Zy per
aus gesetzt</w>
Ger ichte</w>
pris on
ein gerich
Platt form</w>
er läu
Ein beziehung</w>
Bei träge</w>
A ktion</w>
t ance</w>
ent wurf</w>
inv ite</w>
2 2
sk o
supp le
invest ors</w>
Ab hängi
he at</w>
acc o</w>
Geh eim
c i</w>
Fun ds</w>
Tsch ech
F ood</w>
Euro pol</w>
Indi vidu
9 4</w>
im posed</w>
Außen politik</w>
Fak toren</w>
declar ation</w>
L ö
dire kten</w>
Op tionen</w>
subsi dies</w>
Sch luss</w>
wel chem</w>
B O
per cent</w>
Freih eiten</w>
Ara b</w>
Minder heiten</w>
e astern</w>
ten dlich</w>
Pra gue</w>
aussch uß</w>
Mob ile</w>
b ly</w>
di ch</w>
Res ol
8 1</w>
invol ves</w>
decla red</w>
them e</w>
M eg
Pi az
arti st</w>
sau ber
Vertei digung</w>
ver gleich
acti vely</w>
Erhol ung</w>
Ein stellungen</w>
plan et</w>
main taining</w>
v ince</w>
Gesell schaften</w>
appear ance</w>
inhabit ants</w>
L td</w>
traffi cking</w>
B rie
re k
ent steht</w>
Per sön
promis es</w>
auf nehmen</w>
mat ch</w>
blo ck
Hei mat
T ER
ran g</w>
Ameri kan
after noon</w>
form al</w>
fer ner</w>
Fre it
Haf tung</w>
kurz fris
Besonder s</w>
be vorzu
expl ore</w>
re main
vi erte</w>
zi al</w>
Kon sul
R und
he ber
exper t</w>
Y es</w>
Ver bot</w>
geb oren</w>
m ir
t wi
un möglich</w>
rech tliche</w>
gar dens</w>
tats äch
u a</w>
di n</w>
Schnit t
Brazi l</w>
d less</w>
sho wing</w>
is ra
ol o</w>
ul p
me e</w>
Verbrau cher
Fri day</w>
ID S</w>
rei fen</w>
exc iting</w>
compet ent</w>
ou red</w>
stri ct</w>
speak er</w>
fit ness</w>
ri c</w>
ho fs</w>
passi ert</w>
0 4
St ück</w>
geb iete</w>
über wach
Ad minist
func tional</w>
le bt</w>
kat astrop
C openhagen</w>
F ru
Be weg
Hand eln</w>
begrü ßt</w>
E X
zi ge</w>
fra me</w>
Ch arta</w>
be we
Wün sche</w>
si erte</w>
cor ruption</w>
wün sch
demonstr ated</w>
prä sent
M ig
Bal tic</w>
steh e</w>
new sp
Bemerk ungen</w>
magn ific
Ma y
mer ken</w>
sam es</w>
demonstr ate</w>
passen ger</w>
A sh
p or</w>
da fri
chan nel</w>
mal erweise</w>
Blo g</w>
winn ing</w>
lie f</w>
Zus atz
care ful</w>
collabor ation</w>
ap art</w>
Mo z
co sy</w>
Fre e
D ie
ver ändern</w>
2 4
ör ung</w>
gel tenden</w>
commit tees</w>
co ok
p g</w>
ausge führt</w>
durch schnit
d y
re ject</w>
erreich bar</w>
lin ie</w>
st un
No t
schle cht</w>
quar ter</w>
Veröffent lichung</w>
ben den</w>
Hil fs
fün f
gestal tet</w>
A g
resi stance</w>
E V
un gefähr</w>
H eili
Sub sidiar
configu ration</w>
cop yright</w>
bilater al</w>
l ust</w>
grenz ung</w>
erleich tern</w>
i ens</w>
fre m
Gesprä che</w>
pre t
Rechn ungs
Des wegen</w>
fizi eren</w>
contra st</w>
hinzu fügen</w>
sta at</w>
uni versi
eben e</w>
tran sition</w>
ge trenn
har m
sol ange</w>
Neu e</w>
höh eren</w>
Ma j
Ma in</w>
dr au
Je de</w>
dom ain</w>
avo i
E W
wei le</w>
ann i
sett lement</w>
lus s
l ying</w>
isra eli
M B</w>
gerä te</w>
dist ingu
Politi ken</w>
N ic
vi et</w>
Hung ary</w>
New sletter</w>
an wen
Win d
de partment</w>
fac ility</w>
Au dio</w>
si m
F ischer</w>
m use
ni er</w>
occ ur</w>
Stu denten</w>
Wissen schaft
re volu
The ater</w>
Host el</w>
ver ehrte</w>
Wer ke</w>
S P</w>
ra w</w>
Con gress</w>
dan k
is tic
Mark tes</w>
Net work</w>
Maastri cht</w>
ta gen</w>
Web seiten</w>
ee ded</w>
Grün dung</w>
desi red</w>
ell ers</w>
conclu ded</w>
justi fied</w>
ro ot</w>
sätz en</w>
Mobili tät</w>
ati ver</w>
V iz
Ver pack
je gliche</w>
f ur</w>
m assi
p ac
An merk
sup er</w>
distri buted</w>
erinn ert</w>
dep th</w>
G au
docu mentation</w>
g allery</w>
fa vor
con tradi
In ner
to wns</w>
G ames</w>
dru g</w>
nahe zu</w>
Identi tät</w>
ori ented</w>
cas h</w>
regar ded</w>
Dig ital</w>
or ama</w>
con taining</w>
vor legen</w>
pos sibly</w>
ori ent
sorgfäl tig</w>
d ella</w>
on going</w>
k on</w>
Kon figu
mark t
Amend ments</w>
präsen tieren</w>
si erten</w>
Vorsch lags</w>
sch einen</w>
educ ational</w>
überzeu gen</w>
bemü hen</w>
t ack
ci an</w>
Ko sten
t stellung</w>
ru g</w>
coun try
wh ol
be stehende</w>
et ed</w>
liber al</w>
as ti
fo undation</w>
No ch</w>
Dro gen
ge fügt</w>
ab sen
Belgi um</w>
Gerich tshof</w>
on al</w>
d ele
cri mes</w>
Sor gen</w>
recor ded</w>
bes timmen</w>
pl enty</w>
Per haps</w>
heu tige</w>
verring ern</w>
geh ens
ge zwungen</w>
on ing</w>
übri gens</w>
A C</w>
n etz
re placed</w>
on ien</w>
star tet</w>
So viet</w>
tor al</w>
Ziel en</w>
Tai wan</w>
B ut
W omen</w>
betri eben</w>
zeichn is</w>
ameri ka</w>
awar ded</w>
h et</w>
ges u
mil es</w>
Ques tion</w>
zi erten</w>
A sien</w>
Tra g
Zw ischen
dau er</w>
fir ms</w>
gew inn
P act</w>
re plac
CO N
sta un
gener ated</w>
soli d</w>
to i
Balk on</w>
Z one</w>
Untersuch ungen</w>
bezieh ungen</w>
r d</w>
determin ation</w>
min orities</w>
Arbeits markt</w>
perfe kt</w>
be ten</w>
satisfac tion</w>
T own</w>
sh aring</w>
Mon t
ra tion
ge teilt</w>
la sting</w>
Ex pl
S et</w>
sty lish</w>
Studi en</w>
E T</w>
mo tiv
adv is
respec ted</w>
occa sions</w>
Por t
Lebens mittel</w>
Char les</w>
schwi er
ben en</w>
vis ory</w>
expan sion</w>
z esses</w>
ch air
Des cription</w>
einhei tlichen</w>
p ar</w>
en h
mor ali
D R</w>
Vor gehen</w>
mor al</w>
Zw ecke</w>
Pol y
M A</w>
Ein schrän
den kt</w>
A M</w>
O r</w>
st em</w>
imm igrants</w>
J e</w>
ro utes</w>
letz tlich</w>
é es</w>
mi x</w>
B R
hi p</w>
Medi en
t at</w>
War en
interpre tation</w>
E duc
rus sischen</w>
ame ters</w>
ex it</w>
Um feld</w>
Nor thern</w>
Stock hol
Tra ining</w>
Poli zei</w>
auth ori
mitt ler
assu me</w>
tack le</w>
Sol lten</w>
ber au
verur teilt</w>
Eng ine
organisi eren</w>
tig te</w>
Pu tin</w>
B ars</w>
as sets</w>
för derung</w>
ber aten</w>
akzep tabel</w>
constitu tional</w>
rapi dly</w>
de struction</w>
M all
th ly</w>
Wi th
horiz on
Pro vi
pla y
tar ge
legi timate</w>
l ac
en for
er end</w>
Mal ta</w>
För der
M erc
k g</w>
un ent
steu erung</w>
li z
vie wed</w>
ähr t</w>
äuß ert</w>
Einwander ung</w>
R est</w>
Zentral bank</w>
Di ffer
Pre isen</w>
Wei ß
over come</w>
Ver breitung</w>
Feder ation</w>
ab gestimmt</w>
an er</w>
ll s</w>
lok ale</w>
auff or
adop ting</w>
manufactur er</w>
Chan cen</w>
zus ehen</w>
Kur z
f lug
gewähr t</w>
Fir men
te sted</w>
Ap plause</w>
spann ung</w>
U C
Ins besondere</w>
Res pe
dire kte</w>
Mis sion</w>
certi fic
O s
Ver sionen</w>
zi one</w>
individu elle</w>
spectac ular</w>
L y
Kon sens</w>
mi d
Ansch luss</w>
di vision</w>
ei ra</w>
au en</w>
su gar</w>
off ic
Sol lte</w>
re cip
wer tung</w>
emer ging</w>
Zol l
zu gang</w>
cent uries</w>
AK P</w>
lä ßt</w>
woh nen</w>
electri c</w>
Sing le</w>
mari time</w>
8 7</w>
N ap
w rote</w>
sch eme</w>
sub sidiar
h n
hi ll</w>
ci tizen</w>
pu ts</w>
high ligh
grundsätz lich</w>
i on
ein ig</w>
argu ment</w>
F al
j enen</w>
es cap
du l</w>
sen ding</w>
week end</w>
trans actions</w>
glob alisation</w>
profession als</w>
bekämp fung</w>
t ables</w>
vi rus</w>
Krä fte</w>
subsidiar ity</w>
Wer t
A R</w>
K auf</w>
er setzt</w>
we ar</w>
par tly</w>
bek annte</w>
Kur s</w>
C hil
In c</w>
zent ral</w>
tran satlan
äuß ern</w>
B y
verk aufen</w>
correspon ding</w>
ver dient</w>
D on</w>
po t</w>
il l</w>
sh ar
Gi ven</w>
Selbst verständlich</w>
Kapit el</w>
f erung</w>
f ans</w>
zi erte</w>
Ho hen</w>
bel an
Le gi
geh enden</w>
speci ally</w>
instal lieren</w>
arri ved</w>
inform ationen</w>
di gn
D ä
a x</w>
Selb st</w>
correc tly</w>
individu ellen</w>
üh r</w>
kti ver</w>
La w</w>
D ü
fäl lig</w>
enjo yed</w>
Daten schutz
P age</w>
sha res</w>
beträ ch
credi bility</w>
verk auft</w>
Besor gnis</w>
S ein</w>
Mitarbei tern</w>
ackno wled
Ado be</w>
di ver
gemein schaft</w>
strai ght</w>
T on
y outh</w>
ac ted</w>
behand lung</w>
Pal äst
stron ger</w>
inklu sive</w>
b o</w>
r ental</w>
t liches</w>
komm e</w>
V AT</w>
ü bt</w>
rupp en</w>
Puer to</w>
ist a</w>
u el</w>
No s</w>
Can on</w>
Aufenth al
vorhan denen</w>
nun mehr</w>
b attle</w>
d opp
ver i
Erzeu gnisse</w>
° C</w>
vor stellen</w>
Gaz a</w>
cour ts</w>
constitu tion</w>
C las
er maßen</w>
ck y</w>
minist eri
Führ ungs
bri tische</w>
Br un
beru ht</w>
entscheiden de</w>
C ra
in flation</w>
ch amp
ex emp
gh ly</w>
Mr d</w>
De fiz
pf lan
k ter</w>
s low</w>
ver halten</w>
spra ch</w>
erfolgreich e</w>
h i</w>
j ap
inter essi
ev al</w>
quar ters</w>
1 1
com men
Vor stellung</w>
mil k</w>
Wi thin</w>
Stabili tä
beschäf tigen</w>
b st</w>
bek räf
Krank heit</w>
ta gs</w>
Re de
Ma ster</w>
Fre unden</w>
Fol lowing</w>
tax ation</w>
h ungen</w>
est e</w>
sc ene</w>
gän ge</w>
adul ts</w>
consider ing</w>
strateg ischen</w>
gerä t</w>
hous ing</w>
sub sidi
supp liers</w>
Pat ri
sa ving</w>
jen er</w>
Atlan tic</w>
sch ed
zei ge</w>
drin ks</w>
Struc tural</w>
ver hand
Stra s
d or</w>
ä t</w>
person en
Lo unge</w>
addres ses</w>
O der</w>
P lätz
la bel</w>
ber ühr
hin aus
Salz burg</w>
in su
enst adt</w>
Cap tain</w>
Gewi cht</w>
vi li
lo ck</w>
sich eren</w>
prä z
o tive</w>
behavi our</w>
pic tu
sel be</w>
eg al</w>
los ses</w>
S ig
pat ent</w>
se where</w>
tig ten</w>
fil ter</w>
größ er</w>
dür fte</w>
ruhi g</w>
en em
ex por
tä r</w>
begrenz t</w>
entwick elte</w>
Hung arian</w>
mo ti
K en
oh len</w>
gar ten</w>
G lei
am i</w>
Sch lu
Besch luss</w>
I ON</w>
Th urs
wa ff
eth eless</w>
leh nung</w>
Städ ten</w>
provi ders</w>
stan z</w>
mar quis</w>
Tou risten</w>
compon ent</w>
Kontrol len</w>
ec omm
ven tion
secre t</w>
genü gend</w>
Men sch
sligh tly</w>
magnific ent</w>
Bemerk ung</w>
e x</w>
b all
geb ieten</w>
schn ei
bestimm ter</w>
AR E</w>
extra ordinary</w>
Au ge</w>
R ap
inclu sion</w>
L ist
redu zieren</w>
An im
direc ted</w>
kon z
bil d
aus sprechen</w>
fu sion</w>
rech tzei
A ri
te ch</w>
we ge</w>
form ing</w>
up dates</w>
identi fied</w>
beein druck
Y ear</w>
drück en</w>
A v
erheb liche</w>
Sun day</w>
flo ws</w>
Woh nung</w>
encoura ging</w>
a j
gu n</w>
P y
g keits
port al</w>
ô tel</w>
soci e
fän ger</w>
Ex change</w>
antwor tet</w>
Vide os</w>
ver änder
ed ral</w>
Ex ist
ange wand
hol ders</w>
Po int</w>
außerord entlich</w>
unver züglich</w>
V ater</w>
cu ts</w>
Se ktoren</w>
be währ
zusammen arbeiten</w>
B ö
Valle y</w>
vor bereitet</w>
sub stance</w>
Nach richt</w>
fil led</w>
Schul en</w>
einfach er</w>
ter ed</w>
sen sible</w>
Berei tstellung</w>
ange gebenen</w>
prepar ing</w>
exc eption</w>
Des k</w>
Transpor t
ar my</w>
techn ologie</w>
S D</w>
x el</w>
mag ne
f r</w>
propos es</w>
wer ken</w>
F ig
V el
fa ßt</w>
Qu ad
de x</w>
Qu o
Dol om
System en</w>
dis k</w>
E ch
Vor sitz</w>
wiederhol en</w>
et es</w>
neigh b
groß zügi
herr sch
verbin den</w>
Gra n</w>
Region al</w>
hund red</w>
R em
er ischen</w>
With out</w>
f on
Dem on
plen ary</w>
i ken</w>
Ham as</w>
sch m
enti al</w>
auth enti
E A</w>
Arz nei
th ro
ali for
gew onnen</w>
betreff end</w>
t ö
arti stic</w>
Män nern</w>
effe ktiv</w>
b ach</w>
Ö l</w>
ap p</w>
ed ly</w>
Balk ans</w>
einger eicht</w>
L ate
re e</w>
ges s
Er wä
Verbrauch ersch
bil dungs
wissen schaftliche</w>
Ex tre
ent es</w>
mon o
uni versity</w>
deci sive</w>
Energi ever
adju st
Den k
Ass embly</w>
D res
fahr er</w>
Lux em
franzö sische</w>
Bud get</w>
Schluss folgerungen</w>
D al
co s</w>
mod ell</w>
C S</w>
un for
Lie ferung</w>
offizi ellen</w>
G las
g li
ehm ern</w>
gesund heit</w>
therap y</w>
Konta kt
Slo ven
schli mm
Ungar n</w>
er hielt</w>
ru ms</w>
Mar ke</w>
Ern ähr
tre e</w>
Gen ie
verstär ken</w>
B lan
A mon
every day</w>
exam ine</w>
E P</w>
Produ ktion
the ory</w>
erfolgreich en</w>
ra cy</w>
de posit</w>
Ein heit</w>
sion al</w>
stan de</w>
p p</w>
represent ation</w>
ensu res</w>
concep ts</w>
S timm
b ic
BM W</w>
Bel ast
event ually</w>
Er stellung</w>
Stand or
thous and</w>
M ann
Er inn
D ach
p o</w>
Don ner
Spa ß</w>
ch am
angebo t</w>
k ö
An la
elektron ischen</w>
Thir dly</w>
car rying</w>
Gra d</w>
du ties</w>
E I
stra fe</w>
Komm un
8 3</w>
li ked</w>
us ern</w>
her zustellen</w>
viel es</w>
u x</w>
Kon text</w>
00 1</w>
em en</w>
Con tent</w>
erle bt</w>
ar ise</w>
besch rieben</w>
ver st
drück t</w>
Vier tel</w>
enh ance</w>
ban king</w>
unic ations</w>
bon us</w>
ber at
d s
geschn it
vir tual</w>
appoin tment</w>
K now</w>
Ant i</w>
L en
ed ings</w>
ade my</w>
zügi gkeit</w>
Genehm igung</w>
sub jects</w>
k lin
s elling</w>
wa ve</w>
absen ce</w>
speci fied</w>
Rechts grundlage</w>
verantwor tungs
er stre
at tri
geb rau
pack aging</w>
A h
sch efs</w>
bei getragen</w>
Leg al</w>
F ast</w>
spo ke</w>
tradi tions</w>
8 4</w>
N eben
i tive</w>
Li ke</w>
connec t</w>
tradition elle</w>
Zusätz lich</w>
Ü bri
top ics</w>
defic it</w>
ri de</w>
ab use</w>
um in
el sewhere</w>
ni veau</w>
shi pping</w>
fore sts</w>
j i
sol ely</w>
ge stattet</w>
Gar den</w>
groß em</w>
V ER
su rely</w>
St utt
re struc
photo graph
R ü
ni en</w>
Z eu
h em</w>
Sta ates</w>
propos ing</w>
Bild schir
A IDS</w>
ab e</w>
Th ail
ma kers</w>
ut ation</w>
Schwi mm
thil fe</w>
C ir
ck en
Besch rän
Fil m
poten zi
U T
fer tigen</w>
Direc tor</w>
la yer</w>
accur ate</w>
Ein w
ge fallen</w>
Bedro hung</w>
n am</w>
pro ven</w>
Nach hal
Chin as</w>
supp lies</w>
descri ption</w>
gener ate</w>
W är
f eu
zu gr
az z</w>
7 9</w>
gesch ichte</w>
Ko ordin
Thurs day</w>
ap plying</w>
vulner able</w>
C it
ren owned</w>
se x</w>
G ast</w>
finanzi ert</w>
a qu
ne vertheless</w>
Kon to</w>
beteili gen</w>
belan gt</w>
ver mitteln</w>
con sent</w>
ge kenn
der te</w>
C ri
e be</w>
volun tary</w>
im pose</w>
kl eines</w>
Distri bution</w>
K ür
exc essive</w>
anwes end</w>
or i</w>
suff er</w>
Pak ete</w>
less ons</w>
luxuri ous</w>
D auer</w>
Is lam</w>
Bulg arien</w>
muse ums</w>
Besch lüsse</w>
hä user</w>
K it
country side</w>
Ber n
tri al</w>
Fer r
wunder schönen</w>
tob acco</w>
re vi
bis lang</w>
vide os</w>
zu tage</w>
col ours</w>
disc re
Num mer</w>
philosoph y</w>
it al
men ade</w>
enth alt</w>
Sco t
complic ated</w>
C up</w>
tran si
Mon it
Sich erung</w>
ähn lich</w>
stol z</w>
did n</w>
pol y
verkehr s</w>
privi leg
S T</w>
mensch liche</w>
H im
ö pf
Ein wohner</w>
proce ed</w>
gebo ten</w>
Glau bwür
R ele
vil lages</w>
Katastrop he</w>
W äl
R ati
nach drück
ath edral</w>
fu er</w>
To ols</w>
won der</w>
sugges tions</w>
Ha ar
P fer
zi elen</w>
Deut sch</w>
depar ture</w>
w ski</w>
str o</w>
AC P</w>
einzigar tigen</w>
N ig
sa h</w>
tri ps</w>
Ä gyp
fin ish</w>
vor rangi
cap itali
O l
integri ert</w>
Gem ü
Posi tionen</w>
Kroati en</w>
T rop
ex ports</w>
M angel</w>
Provin z</w>
berei chen</w>
direc tory</w>
einge halten</w>
Bud gets</w>
n ör
wech sel</w>
tr end</w>
hand le</w>
ga ined</w>
Men ü</w>
S imp
mi x
unver gess
G ö
An sichten</w>
е н
entscheiden der</w>
for th
ag ra
bed ing
wei len</w>
ange geben</w>
Be sides</w>
sol ches</w>
H O
m outh</w>
inv est</w>
erzeu gt</w>
K y
in os</w>
Wohl stand</w>
Be glei
Gewähr leistung</w>
dr ing
F eld</w>
great ly</w>
Konsequ enzen</w>
o v</w>
ra ising</w>
Qu ality</w>
en abled</w>
en cia</w>
Gegen stand</w>
T ool</w>
gn er</w>
ign ori
ge wissen</w>
lau b</w>
Über legungen</w>
Ber g</w>
Schlü ssel</w>
wah len</w>
Agri culture</w>
s q
p ure</w>
en kt</w>
N avi
kon fron
supp lier</w>
ski ing</w>
Her z
Ko oper
pa ying</w>
sozi aler</w>
Prof essor</w>
k el
an belangt</w>
verbin det</w>
Eisen bahn
ge führten</w>
Gemein schaft
Schi ff</w>
Minister prä
N ext</w>
zu ständig</w>
sti ll
hervor ge
coun ts</w>
komm un
C 5</w>
st y</w>
son g</w>
Le ar
Kul turen</w>
Betra g</w>
S timmen</w>
ru f</w>
her vor</w>
Fam ily</w>
Viz ep
c ei
t less</w>
bereit gestellt</w>
g ischen</w>
ch st
fo und
u pper</w>
demo kraten</w>
H aving</w>
on e
peri ods</w>
clean ing</w>
Cast le</w>
H O</w>
Per form
Verletz ung</w>
Holi day</w>
R ö
inv ited</w>
recei ving</w>
bedau er
ab sor
Mon day</w>
zz i</w>
re servations</w>
Proz esse</w>
E p
Dar um</w>
Mod elle</w>
dis abled</w>
kil omet
z onen</w>
Blu e</w>
ak ing</w>
inter nen</w>
wiederhol t</w>
compar ison</w>
Gu ests</w>
difficul ty</w>
gesetz ten</w>
mittl eren</w>
Stras bourg</w>
pre siden
pan oram
pursu e</w>
Zivil gesellschaft</w>
au to
gra d</w>
C R
o st
ma x</w>
vor ange
far ming</w>
b i</w>
lin ed</w>
Vor haben</w>
e at</w>
si ty</w>
religi on</w>
Egyp t</w>
L es</w>
c el</w>
ti ere</w>
ein bezogen</w>
lus ses</w>
sugge sted</w>
gebil det</w>
t ons</w>
Is lands</w>
ur teilung</w>
tei lungen</w>
mis sing</w>
Kolleg in</w>
beob achten</w>
li st
vor anzu
Er füllung</w>
gr ös
Park platz</w>
im port</w>
attemp ts</w>
Eigent um</w>
Stoff e</w>
al ties</w>
ma chten</w>
in y</w>
be antworten</w>
e ß</w>
con sci
klär ung</w>
Gerä t</w>
sav ings</w>
Ein kommen</w>
bo ts</w>
letz tendlich</w>
bab we</w>
Soft ware
tr o</w>
beg eist
l ou
Ger echti
Ju gen
j pg</w>
in ess</w>
ber gen</w>
hei m
sch e
am in</w>
im por
Pas sa
g art</w>
in put</w>
Ver zö
bekomm t</w>
Inter essen
App le</w>
Vizep rä
zi el
Brasi lien</w>
W o</w>
con vi
no tic
bat ter
U p</w>
p lu
ter ri
Vor der
Kir k</w>
Automob il
ord nungen</w>
Völ ker
Gui de</w>
P in
ali ties</w>
ausge zeichnet</w>
po ols</w>
tern al</w>
Land es
mo vie</w>
tra ge
kti ert</w>
in mitten</w>
ed back</w>
dre am</w>
Schi ffe</w>
Redu zierung</w>
Glaubwür digkeit</w>
X P</w>
Mark en</w>
lauf enden</w>
ursprün glich</w>
er es</w>
st ages</w>
individu ell</w>
R ä
Z ur
por ation</w>
Prä sent
bedeut ende</w>
she et</w>
S mo
Gr ünen</w>
stre bt</w>
fer n
mus sten</w>
pri me</w>
Konta kte</w>
argu ments</w>
enab ling</w>
symbo l</w>
pati ent</w>
über prüft</w>
ehr ten</w>
Inform ation
LA F</w>
b ele
bi gen</w>
B ased</w>
C F
an gesehen</w>
un ited</w>
Sp eich
Kommunik ations
Prakti ken</w>
d as
constitu te</w>
Ser vic
wirtschaf tlich</w>
K la
ge dacht</w>
ge ttable</w>
four th</w>
P il
entsp annen</w>
V ul
continu ous</w>
weit gehend</w>
T ages</w>
Al ger
Su iten</w>
destro yed</w>
wen ig
cro s
E mail</w>
Z ul
wi reless</w>
necess arily</w>
confir mation</w>
sper ity</w>
per mitted</w>
S pre
Z e
so unds</w>
Ger icht</w>
col lap
Geschm ack</w>
wirtschaf ts
effizi ent</w>
investi eren</w>
G anz</w>
a ge
s ought</w>
poli tically</w>
c us</w>
promis ed</w>
satisfac tory</w>
s man</w>
aus gerichtet</w>
Belgi en</w>
An lass</w>
erst mals</w>
pl atte</w>
Ter rit
man che</w>
Fit ness
Konkur ren
T reib
wel coming</w>
lü ssel
deli cious</w>
signific ance</w>
Wäh len</w>
ach ing</w>
cent rali
Pl ace</w>
ein ma
tw enty</w>
fer tig</w>
ähn liche</w>
G lück</w>
P ul
Pla ya</w>
Gol d
Her z</w>
m ic
m unicip
Ver lust</w>
Entla stung</w>
S L
Situ ated</w>
fän gt</w>
J ack
Ge fahren</w>
public ation</w>
Tran sa
vers ary</w>
ab sch
G ir
g licher</w>
hom es</w>
beein trächti
P SE</w>
ro ll</w>
den falls</w>
g gle</w>
i Phone</w>
st sein</w>
ab or
port folio</w>
al located</w>
spar tner</w>
b ad
le aves</w>
bet reiben</w>
ref ers</w>
r are</w>
ge pf
Vor aussch
ge plan
B e</w>
bet ten</w>
kil led</w>
auf treten</w>
tä glichen</w>
vertei digen</w>
gemein schaftlichen</w>
T E</w>
lob by</w>
isl am
O K</w>
W F</w>
geh ol
steu ern</w>
Er k
v ar</w>
co operate</w>
Gef än
j i</w>
res ource</w>
kl ein</w>
schätz ung</w>
sp here</w>
i gt</w>
zi pi
über greif
Kon stru
Har dware</w>
optim ale</w>
obli ged</w>
fre edoms</w>
Kor ruption</w>
weis ungen</w>
ou b
gel ingt</w>
Off en
vi c</w>
Ver arbeitung</w>
mu sical</w>
zentr en</w>
scri pt</w>
i o</w>
redu ziert</w>
A th
s inc
pro sperity</w>
refer endum</w>
Geh minuten</w>
N az
ter ung</w>
oper ative</w>
programm ing</w>
ES CO</w>
kom fort
d ness</w>
gesch afft</w>
F rü
Tä tigkeiten</w>
dep end</w>
Con sul
Ger ade</w>
over view</w>
li ved</w>
instruc tions</w>
unfor gettable</w>
sec tions</w>
rel ative</w>
künf tige</w>
ein zusetzen</w>
de fe
zukünf tigen</w>
entre pren
lang sam</w>
ak s</w>
son gs</w>
hier bei</w>
Stockhol m</w>
Gerechti gkeit</w>
ver teilt</w>
Bür o</w>
bel ast
grün den</w>
ac tors</w>
reit er
Secre tary</w>
com ed</w>
ch ie
gra m</w>
leg ally</w>
Frie d
entsch lossen</w>
charac ters</w>
socie ties</w>
N G</w>
d ges</w>
im ports</w>
dau ert</w>
Mil lenni
harmon isation</w>
illeg alen</w>
H under
S ä
führ ungs
Gemein de</w>
spar tei</w>
re vision</w>
exc ur
Fin land</w>
Proz esses</w>
A vi
ver län
fe es</w>
Berlin er</w>
z enten</w>
er setzen</w>
ausge geben</w>
verfüg baren</w>
ver sichern</w>
Zu g</w>
Fahr zeuge</w>
Tro tzdem</w>
erkenn t</w>
Kon zer
st ern</w>
wel comed</w>
speciali st</w>
at o
arbei ts
organ ic</w>
Ti p</w>
soli di
succ eed</w>
g lo
Entschei dungs
cir cu
MP 3</w>
wi ld</w>
mi en</w>
iz za</w>
Throu gh</w>
Freit ag</w>
ten tion</w>
lat t</w>
Da für</w>
S I</w>
fa x</w>
Situ ationen</w>
des wegen</w>
Sy mbo
Ven ice</w>
vorgeseh enen</w>
du mp
sup posed</w>
Mex i
D C</w>
ful fil</w>
Bo den
kt rum</w>
Organ e</w>
no tes</w>
ste ten</w>
P on
Er gän
Parla ments
Energi en</w>
enter prise</w>
l unch</w>
re m
cell s</w>
be vor
P eri
unter streichen</w>
vorzu legen</w>
militär ischen</w>
Perspe ktive</w>
р а
ar med</w>
off ene</w>
all zu</w>
Res ul
recogn ized</w>
Wh o</w>
unterschei den</w>
L A</w>
gen e
conc er
Auf sichts
Mu t</w>
Educ ation</w>
ari ties</w>
lug in</w>
staat lichkeit</w>
F an
O ver
T ren
en cing</w>
be endet</w>
Lan gu
negoti ating</w>
introduc ing</w>
institution elle</w>
behaup ten</w>
foot ball</w>
super vision</w>
well ness</w>
S CH
wel comes</w>
Americ ans</w>
suff ered</w>
UN ESCO</w>
proce edings</w>
konta ktieren</w>
leg te</w>
Fac ilities</w>
speich ern</w>
br ut
direc tor</w>
mod ules</w>
cr yp
Liz enz</w>
Sch loss</w>
Kör per
stei gt</w>
interess ant</w>
remain ed</w>
wei ch
Wal d
func tionality</w>
konzentri ert</w>
á n</w>
am ed</w>
Late Rooms</w>
H ans</w>
S eri
as en</w>
Aus flüge</w>
unabhängi gen</w>
si n</w>
n one</w>
hy dro
Thail and</w>
G ang</w>
Austra lia</w>
G or
gen o
ad y</w>
Sa chen</w>
Ba y
Euro zone</w>
Audi tors</w>
D N
mit teilen</w>
ba res</w>
spre che</w>
prev enting</w>
expla ined</w>
shor t
mitglie der</w>
te en
contri buted</w>
Samm lung</w>
Di kt
origin ally</w>
wah l
er freut</w>
eu ros</w>
L U
n ut
ange passt</w>
design s</w>
Soci alist</w>
B 5</w>
Bet ten</w>
cl asses</w>
ong side</w>
t ten
Genie ßen</w>
Ver einfach
ga ther
Zei tung</w>
t act</w>
fu hr</w>
voll ständigen</w>
fähi gen</w>
re ih
der e</w>
emp fangen</w>
A F
gr enze</w>
ther mal</w>
gele genen</w>
begri ffen</w>
EZ B</w>
beschle uni
Al bum</w>
Am t</w>
yc le</w>
Premi er
pro t
wa ffen</w>
Stand ort</w>
en on</w>
pro xim
Pro ject</w>
wirk same</w>
langfris tige</w>
par ameters</w>
every body</w>
Cor porate</w>
bege g
konfron tiert</w>
S ource</w>
av i</w>
feder al</w>
forth coming</w>
größer es</w>
und oub
op hi
reich er</w>
Weiter en</w>
bra chte</w>
bew u
fem ale</w>
o ch</w>
hospit ality</w>
ch air</w>
et a</w>
we ak</w>
vier tel</w>
Bran che</w>
Rom an
unter zeichnet</w>
bein gs</w>
A par
ch ester</w>
por tu
Ri o</w>
militär ische</w>
9 00</w>
B our
Bu il
har dly</w>
Wer be
Alli anz</w>
Ro ad</w>
spar en</w>
b ann
an gebracht</w>
mati k</w>
Schwei zer</w>
NG Os</w>
R unde</w>
lab elling</w>
Lat ein
Kris en
co ol
amen ities</w>
Frühstücks buffet</w>
Ab lehnung</w>
wie gend</w>
Institu t</w>
Piaz za</w>
M aga
Dem o
flä chen</w>
chec ks</w>
estim ated</w>
mo vements</w>
Zu ständigkeit</w>
belie f</w>
indic ate</w>
Well ness
ungs verfahren</w>
effizi enz</w>
A sian</w>
t ings</w>
ä fen</w>
dr y</w>
H D</w>
St ability</w>
restri cted</w>
Cat al
bisher igen</w>
be stellen</w>
char ak
akti viert</w>
blo cks</w>
Sy mp
ri eren</w>
ab stimmen</w>
per si
F öder
T A</w>
l li
ti er</w>
lie ber</w>
Wider spruch</w>
sto cks</w>
trans mission</w>
Satur day</w>
So und</w>
where as</w>
Er wer
Übernach tung</w>
W eg
tim et
safe guard</w>
P fle
verwal tung</w>
dienst leistungen</w>
tain er</w>
ass ur
sicht bar</w>
Cul ture</w>
t ent
sch em
sp a
fan den</w>
err ors</w>
fir mly</w>
en ever</w>
ker nel</w>
Kaff ee</w>
kön nt</w>
Ju gend</w>
Ti bet</w>
Be stä
ern t</w>
öff nung</w>
ran ging</w>
Sti ftung</w>
Stutt gart</w>
dar k</w>
vorgeschla gene</w>
Krieg s
compu ters</w>
tr ends</w>
Islam ic</w>
explo itation</w>
Ar mee</w>
produc tivity</w>
fü ll
strateg ische</w>
reali se</w>
acc eler
unter liegen</w>
sustain ability</w>
Ä u
ra k
se ment</w>
RO M</w>
Will kommen</w>
SA P</w>
S ohn</w>
p ä
zu zu
Ser bia</w>
ier ungs
Wirtschafts wachstum</w>
Kön ig</w>
unzu reich
Mall orca</w>
he aring</w>
Absch affung</w>
L ok
Tour ism</w>
gehens weise</w>
Donner stag</w>
pic k</w>
Vol kes</w>
enhan ced</w>
barri ers</w>
ap ers</w>
Kan ada</w>
Mittelme er</w>
personen bezo
D ritten</w>
P läne</w>
s oph
An kunft</w>
gr o</w>
fa ith</w>
ange kün
Aut onom
Verän derung</w>
alisi erten</w>
L ic
S ob
T or</w>
er gibt</w>
gro sse</w>
H us
h art</w>
s now</w>
gesch o
Eben en</w>
soverei gn
fre u
bed ded</w>
be ur
hy th
Aben dessen</w>
ves sels</w>
or ds</w>
bir th</w>
herunter laden</w>
Custom er</w>
C olo
Kommission sprä
unabhängi ge</w>
par liament</w>
sa ved</w>
Gen eva</w>
flu g</w>
A li
colle cted</w>
ssi g</w>
let ters</w>
Mut ter</w>
an schließend</w>
Lu f
th u
ess ed</w>
Kom ment
Stre it
Frei zügigkeit</w>
sau ber</w>
ali stischen</w>
ans wer
Alex ander</w>
simul tane
geprä gt</w>
Re dner</w>
Vor lage</w>
gesch m
sho wed</w>
Gesch le
S ier
re st
Viet nam</w>
S U
f ährt</w>
P resse</w>
Lei tung</w>
sever e</w>
an schließen</w>
prakti sche</w>
fair ly</w>
an hand</w>
su it</w>
so genannten</w>
eu ro
stand s
obstac les</w>
S ind</w>
e dition</w>
Sch on</w>
wal d</w>
wahr en</w>
amaz ing</w>
Sh ould</w>
bür ger</w>
natür liche</w>
z a
res que</w>
bo ards</w>
Christ mas</w>
hochwer tige</w>
de ad</w>
hal t
fik ation</w>
ste te</w>
künst ler
v i</w>
re marks</w>
ver dienen</w>
besch reibung</w>
Boo t</w>
zukünf tige</w>
I M</w>
no ver</w>
investi gation</w>
Nachbar n</w>
fi x</w>
är ten</w>
Gesch äft</w>
Person al
ada pt</w>
b les</w>
Rei sen</w>
ima gine</w>
Schri ft
At tra
Ver halten
exclu sion</w>
Bevölk erungs
et abli
ter ing</w>
tra cks</w>
effizi ente</w>
jur is
abili tät</w>
gewähr en</w>
comb ine</w>
enthal tenen</w>
р о
regar dless</w>
Mär kten</w>
An stieg</w>
adap ted</w>
19 th</w>
accep tance</w>
Pla y
Balk an</w>
umfangreich e</w>
I l</w>
be völk
wor thy</w>
gn is
bud gets</w>
ism us
roman tic</w>
Aktionsp lan</w>
Regierung schefs</w>
r ung</w>
fas cin
Sk i</w>
Consu mer</w>
Moder ni
P las
n ine</w>
can cer</w>
ätz en</w>
krä f
C P</w>
Gra fi
á s</w>
grei ft</w>
endor se</w>
m ern</w>
re mark
besonder er</w>
yc ling</w>
R ab
Über gangs
coordin ated</w>
ar bit
col um
Rich ard</w>
EN T</w>
sched ul
bestimm ungen</w>
contri but
ul s
Pap ier</w>
Respe kt</w>
Bu dd
Volks gesundheit</w>
Jose ph</w>
tra vel
refle cted</w>
sp ital</w>
be hoben</w>
is men</w>
ge beten</w>
ab sur
Haushaltsp lan</w>
hin gegen</w>
Sci ence</w>
Sp ie
Erinn erung</w>
sch reit
vi es</w>
ori a</w>
Qu ellen</w>
internation ally</w>
Masch ine</w>
in ev
ant es</w>
Phi losoph
universi ties</w>
tu s</w>
deli ber
met ro</w>
Binnenmark tes</w>
ar k</w>
sel ten</w>
anzu zeigen</w>
verein bart</w>
p her
s ach
ob o
pen alty</w>
Intern ationale</w>
hervorge hoben</w>
P ur
d rop
Risi ko
Gleich stellung</w>
E P
h te</w>
Do es</w>
Cook ies</w>
B in
z esse</w>
disa sters</w>
de i</w>
Befu gnisse</w>
dign ity</w>
e ase</w>
trav elling</w>
Bör se</w>
k an</w>
re action</w>
at z</w>
am t</w>
über ein
T op
ag ent
dar gestellt</w>
Commission ers</w>
e o</w>
Wei h
gener ations</w>
hil fre
samm eln</w>
hervorra genden</w>
roo ts</w>
c ell</w>
Mar k</w>
zo g</w>
Voraussch au</w>
D O
vor liegende</w>
Gesch en
Mut ter
L ine</w>
w ör
ß ten</w>
vor ge
cu e</w>
dank bar</w>
z eln</w>
ga p</w>
bur gh</w>
dri ven</w>
Ac ademy</w>
ti ll</w>
consul ting</w>
verbo ten</w>
V I
j unk
consider ably</w>
metho den</w>
stri chen</w>
langfris tig</w>
lei dung</w>
vor bei</w>
arbei tete</w>
incre di
freund lichen</w>
jet zigen</w>
proto col</w>
Pre siden
län dischen</w>
M eines</w>
Indi an</w>
viol ations</w>
Flüchtlin ge</w>
si ghts</w>
V an
ger aten</w>
ling u
S ul
Or te</w>
B üh
r as</w>
wil li
lös ungen</w>
Er st</w>
Ma x</w>
conven tional</w>
Compu ter
sh ore</w>
manag ing</w>
Finanzi erungs
Me eting</w>
Wi k
supp lied</w>
coura ge</w>
Investi tions
App lik
a sion</w>
ger ü
del eg
Lit er
F ull</w>
M ili
T al</w>
CH F</w>
B 4</w>
kre is</w>
Rück kehr</w>
Wochen ende</w>
p it
Ent spannung</w>
pret ty</w>
er re
Ander e</w>
V ista</w>
analy se</w>
Fre und
belie ves</w>
ernsthaf t</w>
k ette</w>
distri but
norm alen</w>
au stausch</w>
Berich ten</w>
fest zulegen</w>
cl ause</w>
kontrol lieren</w>
undoub tedly</w>
akti v
Steu erung</w>
b la
Hau t</w>
Plan eten</w>
Be für
lin ien</w>
EC B</w>
Georgi a</w>
D oh
se es</w>
air e</w>
Hei zung</w>
entde ckt</w>
magaz ine</w>
fac tory</w>
cul tures</w>
Beteili gten</w>
Passa gi
d ä
wor st</w>
ben de</w>
prin ted</w>
Ro ck</w>
kri eg
gewünsch ten</w>
Oper a</w>
wer ben</w>
ho hem</w>
her stellung</w>
ste am</w>
ek tive</w>
soph istic
re stored</w>
or dered</w>
comp act</w>
anti cip
exclu ded</w>
T rin
Ge werk
einhei tliche</w>
di alog</w>
ul f</w>
Führ er</w>
erwäh nen</w>
m eter</w>
Nach t
schn ellen</w>
ban k
Aut or
exter nen</w>
p fen</w>
li erten</w>
sp ei
under ground</w>
jo ining</w>
Loc ation</w>
Yu gosla
gui ded</w>
Krimin alität</w>
Administ ration</w>
W ed
zi a</w>
acci dent</w>
m ass
pan el</w>
k üh
wach senden</w>
equi valent</w>
er nen</w>
li s</w>
Re chten</w>
Me d
elek tr
Reser vierung</w>
Abhängi gkeit</w>
mis sions</w>
wirtschaf ten</w>
nor malerweise</w>
feh l</w>
c lin
Cas a</w>
Pass wort</w>
beauftra gten</w>
al tet</w>
Op timi
S em
ar ising</w>
In fo
trans ferred</w>
sprech end</w>
ar do</w>
produ zieren</w>
H ong</w>
Re d
Aus maß</w>
nachdrück lich</w>
Te ams</w>
Fahr t</w>
Spezi al
process ed</w>
hei ßen</w>
sub sequent</w>
Schön heit</w>
ali tion</w>
ver n</w>
B ag
b rech
Staats an
ti ef</w>
mi et
ge plant</w>
ta il
Mo tor</w>
rech nen</w>
k ür
ass embly</w>
spro gramm</w>
Slo wak
at i</w>
ra vel</w>
pl astic</w>
Gesch windigkeit</w>
inf rin
Ver teilung</w>
Kon g</w>
refle cts</w>
tac kl
ex o
Feh ler
Vertra ges</w>
schwer en</w>
Fran zö
satis fy</w>
Konfli kte</w>
spie gelt</w>
E v
l ars</w>
fre ely</w>
Spit zen
Zah lungen</w>
Chil dren</w>
kor rigi
pro min
p lic
kon figu
ut zutage</w>
Sto ck</w>
b utes</w>
st on</w>
hoff entlich</w>
techn isch</w>
klassi schen</w>
existi ert</w>
fest gelegten</w>
Dar stellung</w>
Eing ang</w>
Frieden s
ökonom ischen</w>
E qu
auf gebaut</w>
Indu stry</w>
beschrän ken</w>
sovereign ty</w>
6 0
Qu elle</w>
sha dow</w>
legi tim
concent rate</w>
di versi
Ma xim
Su dan</w>
na il</w>
F esti
k örper
be danken</w>
em m
reli ability</w>
Om bud
ent gegen</w>
Ther ap
geleg te</w>
G A</w>
ra tions
r h
Au ßen</w>
Gemein same</w>
any where</w>
Minu te</w>
Som e
zugr unde</w>
W all
en ge</w>
Di am
gesch ätz
Agent uren</w>
ge fragt</w>
se u
198 0</w>
Arbeitsp latz</w>
zusammen zu
über aus</w>
Verhand lungs
qu iry</w>
spoliti schen</w>
um zu
appro ve</w>
wes enheit</w>
sorg ungs
3 50</w>
C el
ar ity</w>
sich tsp
in ated</w>
N ero</w>
m ann
eh ol
ing s
lear ned</w>
Symbo l</w>
K öl
vi erten</w>
unter sucht</w>
No tes</w>
Ra di
Muse en</w>
ag a</w>
Be wus
h ast</w>
Eu ch</w>
Konfer enz
komple tte</w>
B A</w>
unent gel
ir re
einge gangen</w>
Fr ist</w>
Waff en
über ein</w>
bs p</w>
P ack</w>
T el</w>
l ings</w>
to x
re served</w>
ener gie</w>
Ur sachen</w>
Wachst um
co ol</w>
Dat ei
cas ino</w>
fisher men</w>
re construction</w>
form ats</w>
under taken</w>
cir cul
Umweltsch utz</w>
me al</w>
Op position</w>
flo ors</w>
As sozi
portu gie
D ritte</w>
unterschie dlich</w>
won ach</w>
korre kt</w>
un ruhi
ass ess</w>
si scher</w>
ie den</w>
stu dent</w>
erst klassi
humanit äre</w>
Taus ende</w>
ul en</w>
Zü rich</w>
Fern sehen</w>
gestal tung</w>
Kredit karte</w>
Amon g</w>
B ord</w>
dam ages</w>
Ur heber
D ör
k ta
strength ened</w>
restruc turing</w>
Re z
Wor t
Mi ß
tax i</w>
an erk
Par ameter</w>
gro ssen</w>
be merk
leich ter</w>
zurück zuführen</w>
disk rimin
be zahlt</w>
Haupt bahnhof</w>
Imp le
j ac
Ge fan
indi re
letz ter</w>
Spiel en</w>
stamm t</w>
ber ichten</w>
P hän
re store</w>
Er forder
Se ver
Flor enz</w>
Wür de</w>
se kre
tei ls</w>
hol ds</w>
dec ade</w>
perfe kte</w>
is lat
um setzen</w>
So l</w>
swi tch</w>
di ert</w>
Hol z</w>
Ver schie
for th</w>
pl ates</w>
Fri endly</w>
Luxem burg</w>
Finanz krise</w>
Öff nung</w>
F OR
h o</w>
einzu führen</w>
v re</w>
re stor
gen s
stra sse</w>
sus pen
M ir</w>
Z ut
Leg isl
beglei tet</w>
targe ted</w>
lo h
Be arbeitung</w>
sto ß</w>
Lei p
Rechts staatlichkeit</w>
jud g
gro wn</w>
over looking</w>
Fer tig
geeig nete</w>
н о
is co</w>
every where</w>
umfas send</w>
pictu resque</w>
exec utive</w>
Groß teil</w>
Aus einander
Gol den</w>
Den mark</w>
B om
ti scher</w>
and t</w>
symp ath
M äd
S C</w>
Cha ir
ten e
politi sches</w>
Bei de</w>
part ments</w>
Fak tor</w>
Registri erung</w>
treat ments</w>
Bl ut
Prä sen
uni or</w>
kom fortable</w>
G PS</w>
b right</w>
gi a</w>
Wi kit
Doku menten</w>
wa ge</w>
dr yer</w>
CA P</w>
p ts</w>
gra fi
geb äu
enter ing</w>
statt findet</w>
hi king</w>
produc es</w>
Anwen der</w>
Pres se
in hal
rec re
per cent
vorsch läge</w>
besor gt</w>
G M
shi ft</w>
erweiter n</w>
norm ally</w>
K ategorien</w>
к о
ast er</w>
hier für</w>
ackno wledge</w>
türk ischen</w>
Doh a</w>
H at</w>
un fair</w>
verhand lungen</w>
E vents</w>
Ber e
ange wendet</w>
st ran
oper ates</w>
present ing</w>
Proto col</w>
Autob ahn</w>
geh ei
he ading</w>
mis s</w>
n bsp</w>
fin ed</w>
c as</w>
neighbour ing</w>
gnü gen</w>
D S</w>
t ü
S har
en dar</w>
sol ar</w>
fo x</w>
bro w
Politi k
atta ched</w>
h ec
us alem</w>
intelli gent</w>
sto res</w>
Gener ationen</w>
sle ep</w>
Kompet enz</w>
Col lege</w>
K ern</w>
sec onds</w>
fest en</w>
inte gra
haf tet</w>
deep ly</w>
m ein
cam p</w>
brie fly</w>
ol i</w>
lä dt</w>
Sta ff</w>
Bes ei
pil lar</w>
er fordern</w>
pro vince</w>
Ver lauf</w>
im peri
Ent sch
bel ong</w>
Bibli othek</w>
in er
vor nehmen</w>
Comm un
illu str
anni versary</w>
panoram ic</w>
I ran
ent täu
sen s
e ur</w>
mitt lung</w>
Hoch schul
frü hen</w>
C ou
m ere</w>
ous ness</w>
Soci ety</w>
mittler weile</w>
r ut
St rom
ph ones</w>
nar row</w>
individu ally</w>
Le on
Bestimm ung</w>
us age</w>
ap s</w>
Inn enstadt</w>
ra id</w>
rä um
gesetz lichen</w>
ar re
teach ing</w>
ver weisen</w>
G as</w>
su perior</w>
griech ischen</w>
G E</w>
H IV</w>
g ut
k einem</w>
ri ft</w>
ec ological</w>
ad ding</w>
ir ischen</w>
fe et</w>
Sta ats</w>
pra g
Kap ital</w>
list ings</w>
Her bst</w>
Spei sen</w>
Z er
re ti
ment ari
I K
colle ct</w>
graphi cs</w>
Er haltung</w>
Kon zent
iss ance</w>
A ma
á n
ge äußert</w>
poli s</w>
fu els</w>
gegenwär tige</w>
Lou is</w>
Wikit ravel</w>
w ash
son sten</w>
ürz t</w>
pus h</w>
ri si
pro pri
Stre cke</w>
Zah l
prof its</w>
fähi ge</w>
s son</w>
Ver lu
Berei tschaft</w>
cat ch</w>
Som it</w>
Vereinfach ung</w>
zi ger</w>
pre dic
Stär ke</w>
Belgi an</w>
ge wer
Zu ständi
empf ohlen</w>
di stor
bath rooms</w>
qualit ativ</w>
S eg
ge stärkt</w>
zerstör t</w>
Zah lung</w>
fas z
4 0
g no
o live</w>
eng ines</w>
demo cra
C P
Niederlan den</w>
Zyper n</w>
rep utation</w>
Straß burg</w>
S ens
Fre und</w>
manufac ture</w>
g on</w>
high lights</w>
Hab en</w>
F luss</w>
P sy
sel ber</w>
Hand lungs
Resol ution</w>
gel esen</w>
ba y</w>
eng aged</w>
Deb atten</w>
nütz lich</w>
p lo
t ories</w>
ein gestellt</w>
sicher gestellt</w>
offizi elle</w>
F oo
n ative</w>
mei ster</w>
War craft</w>
lab or</w>
appropri ations</w>
Ferienwoh nung</w>
W ould</w>
Park plätze</w>
a ders</w>
oper ated</w>
Kontin ent</w>
k ia</w>
Gel der</w>
campa ign
angemessen en</w>
Perform ance</w>
G am
kur s</w>
Währungs union</w>
in j
ger ing</w>
Über blick</w>
Spa zier
K openhagen</w>
d lichkeit</w>
í n</w>
Su per</w>
vari ed</w>
mar ine</w>
Jahrzeh nten</w>
S W
sch ritt
le hr
gen es</w>
ft mals</w>
mutz ung</w>
B ed</w>
T ür</w>
be hält</w>
Mon tag</w>
Min im
Berichterstat ters</w>
Kü sten
Sier ra</w>
H els
mit h</w>
ri ding</w>
fav ou
Mehr wert
zeichn ungen</w>
digit alen</w>
Origin al</w>
vor aus</w>
cre w</w>
Con sequently</w>
Instru ments</w>
Residen ce</w>
D R
S ah
sh uttle</w>
stru ggle</w>
dafri ka</w>
T ests</w>
rec ording</w>
dec line</w>
herr lichen</w>
Tele kommunik
twi ce</w>
C ab
it ar
tre ff
Comm on</w>
them ati
P hy
ö l</w>
Pflan zen</w>
Con c
genau e</w>
re al
gan z
conc ert</w>
Det ail</w>
T ok
Sch aden
H z</w>
S äu
r y
r ally</w>
lo ser</w>
ad ds</w>
verwen de</w>
ei gh
au dio
ri te</w>
Wirtschafts krise</w>
S li
T P</w>
au l
lan ger</w>
her auszu
he ads</w>
thre ats</w>
suffici ently</w>
L ü
sp ite</w>
fro h</w>
integri erten</w>
Ho he</w>
über winden</w>
sec on
hor se</w>
phar mac
co des</w>
stu ff</w>
condi tioned</w>
rechtzei tig</w>
b te</w>
Ver mö
ges tie
effici ently</w>
fa chen</w>
hon our</w>
recor ds</w>
Wes entlichen</w>
Hels ink
ergän zt</w>
re search
to ward</w>
uni form</w>
beg ins</w>
olog isch</w>
Besei tigung</w>
E X</w>
li able</w>
refer ring</w>
D ass</w>
wi des
Parla mente</w>
Län ge</w>
gar age</w>
Liz enz
T onnen</w>
Z erst
c lar
rel ates</w>
inten ds</w>
prec e
stun ning</w>
re volution</w>
de v
ver wei
gi k</w>
lin ken</w>
kontrol liert</w>
Di plom
mit zu
me ets</w>
essen tially</w>
Küh l
bewäl tigen</w>
p as</w>
Gali le
y ard</w>
au ßen</w>
be enden</w>
Kor rek
v ator</w>
be er</w>
de fiz
ni k</w>
unmittel barer</w>
em bar
sen ken</w>
vo s</w>
sho t</w>
Q U
X ML</w>
w as
z te</w>
phenom enon</w>
ec ts</w>
ak ia</w>
konkre t</w>
enor me</w>
C lin
Sch wan
kl asse</w>
1 10</w>
Produ k
inspi red</w>
alco hol</w>
C Ds</w>
adi se</w>
territ orial</w>
G o</w>
sor ge</w>
Ander erseits</w>
Augen blick</w>
pos s
Kamp agne</w>
i Po
zwei tens</w>
eigen er</w>
bedeut enden</w>
propor tion</w>
St amm
lich keits
war ning</w>
produc er</w>
gleich ermaßen</w>
Mechan ismen</w>
T us
D ingen</w>
zu kommen</w>
Str and
Schi ck
geo graphical</w>
Fis her
A rea</w>
al i</w>
ha z
typ ischen</w>
prospec ts</w>
ch i</w>
agen ts</w>
Sm all</w>
kilomet res</w>
n ers</w>
all eng
Lab our</w>
Helsink i</w>
M E</w>
län dliche</w>
acqui red</w>
er ship</w>
lich te</w>
aff ir
Sa ison</w>
Person en
Expl orer</w>
In ten
rech tlich</w>
enn t</w>
urg ently</w>
Kon ver
Por to</w>
lo gical</w>
combin es</w>
scienti sts</w>
pres sing</w>
go tten</w>
Aut os</w>
Entschei d
stärk ere</w>
Intel li
P har
exec ution</w>
Sad dam</w>
P aci
Re present
tt i</w>
anzu bieten</w>
Benutz ung</w>
Ci vil</w>
Ombud sman</w>
de lic
ell i</w>
bin den</w>
syn chron
Kohä sion
K lo
im men
ru pt</w>
hol e</w>
verk nü
con fron
aus gaben</w>
are st</w>
stam men</w>
C ar</w>
Apparte ments</w>
vi era</w>
ex zell
sh el
medic ine</w>
Dialo gs</w>
Mexi ko</w>
ini eren</w>
Proje kts</w>
es c
Religi on</w>
x i</w>
se ats</w>
besu cht</w>
Invest oren</w>
ol dest</w>
mi stake</w>
neg ativen</w>
incorpor ated</w>
ro of</w>
Rei ch
cust om</w>
Profession al</w>
sur prise</w>
Ha ve</w>
Jugen dlichen</w>
Ber ge</w>
occur red</w>
K le
bo ats</w>
unter bro
Dre h
Todes strafe</w>
auffor dern</w>
p ft</w>
Ter r
stei gern</w>
pass ing</w>
caus ing</w>
Bas el</w>
stric tly</w>
il ater
gra ben</w>
oper ator</w>
wirk lichung</w>
up gra
Pen sion</w>
U sing</w>
hi dden</w>
Zu verlässi
construc ted</w>
derzei tige</w>
U L
An dal
dol lar</w>
Bl ack
conveni ence</w>
Jer usalem</w>
m ouse</w>
p ace</w>
unter suchen</w>
Mi et
Reser ve</w>
cul tiv
Zusammen halt</w>
len ken</w>
war t</w>
an zeigen</w>
al p
Ober fläche</w>
D au
G R
K ey
gi es</w>
lic ens
hy po
Last ly</w>
highligh ted</w>
J a
ver fahrens</w>
succ eeded</w>
gül tig</w>
lossen heit</w>
Imp ul
t lichkeit</w>
consequ ence</w>
coher ent</w>
Ur teil</w>
resul ted</w>
fav ourable</w>
Sicherhei tspolitik</w>
Ver sorgung</w>
Vor be
Do wnlo
Ven edi
An y
speciali sts</w>
candi dates</w>
Wan del</w>
Amerikan er</w>
me als</w>
Mon tene
consi ders</w>
in her
ro lle</w>
urop ä
bewahr en</w>
C ru
Jes us</w>
g lied</w>
t é</w>
er richtet</w>
ur laub</w>
man ual</w>
up grade</w>
n eter</w>
arbei tungs
ph a</w>
betri eb</w>
d ently</w>
min er
Auf trags
Kandi daten</w>
den jenigen</w>
so il</w>
sophistic ated</w>
D rei
gh äfen</w>
Her stell
komp ati
Su ites</w>
diplom atic</w>
heal th
Nahrungs mittel
V IS</w>
ut en
Bedürf nissen</w>
integr ate</w>
App lic
ch rist
Benutz er
Elek tro
er wor
Aus wei
Rech t
spro zess</w>
Umwelt fragen</w>
Vertre tern</w>
L ern
Sch reiben</w>
Be grün
Te ch</w>
air ports</w>
Air lines</w>
erzeu gen</w>
W en
t ant</w>
ha i</w>
ann a</w>
bi tions</w>
tax pa
affec ts</w>
L eh
ge fasst</w>
min ing</w>
eng age</w>
graf ie</w>
sp len
ld n</w>
pre ad</w>
Co operation</w>
eff ektive</w>
Tra in
Ni kon</w>
vir tually</w>
sh aush
hal ts</w>
sub jec
E s
K äufer</w>
R enn
Hä user</w>
Dä ne
S po
am ti
quali ties</w>
associ ations</w>
chec ked</w>
Sonn tag</w>
angeneh m</w>
Erleb nis</w>
er staun
s é</w>
vor gestellt</w>
angen ehmen</w>
gekenn zeichnet</w>
in ely</w>
entscheiden den</w>
J ung
c at</w>
re pair</w>
ra dio
O ut</w>
S eries</w>
tra t</w>
Pf ei
Sie d
20 th</w>
sitz en</w>
enti ves</w>
spiel er</w>
Steu er</w>
gradu ally</w>
gen z</w>
Invest ment</w>
unentgel tlich</w>
Ti cket</w>
Dan ish</w>
Saf e</w>
Dü ssel
A y
f at</w>
An hör
sti ck</w>
gro ss</w>
Fur ther</w>
re porting</w>
fo to
serv ative</w>
versch är
hier zu</w>
bein halten</w>
avi ation</w>
Be achtung</w>
cho ices</w>
Jo int</w>
Glau ben</w>
Ägyp ten</w>
Ver sammlung</w>
Ter ms</w>
Acc ess</w>
ch alleng
Por tal</w>
prison ers</w>
hal ts
lo y
war tet</w>
pr ison</w>
De partment</w>
Met ro</w>
Sie mens</w>
verletz ungen</w>
zw ingen</w>
ga stronom
Th ree</w>
ex act</w>
tro ops</w>
tn issen</w>
M ass
la im
schaf tlich</w>
environ mentally</w>
swi t
Ty p</w>
Flä che</w>
ke ys</w>
net z</w>
st ories</w>
Ma ke</w>
will ing
Sen kung</w>
teach ers</w>
maß geb
zi vi
über lassen</w>
Hinder nisse</w>
G AP</w>
gr ünen</w>
Li thu
kol le
prakti schen</w>
ak te</w>
eri eren</w>
pi ed</w>
geräum t</w>
uls ory</w>
y ards</w>
re venue</w>
op ol
aktu ell</w>
Poten zial</w>
berech net</w>
at orium</w>
sch mer
isti sch</w>
the atre</w>
wides pread</w>
P ier
al li
Über tragung</w>
Berei ts</w>
encoura ged</w>
explan ation</w>
198 8</w>
wech seln</w>
radi k
müs ste</w>
N on
ver letzt</w>
ali a</w>
bi eren</w>
Mo sco
Betri eb
ach ed</w>
pri ze</w>
Chi le</w>
gewi d
verw öh
er hol
be fasst</w>
col ors</w>
1 30</w>
sol di
fahr t
Hin weise</w>
particip ating</w>
Constitu tional</w>
Dres den</w>
E din
Un der
pre chen</w>
W ör
eventu ell</w>
Ma z
kn app</w>
K DE</w>
res sen</w>
reich hal
A part</w>
an z
ö tz
inf ec
Flor ence</w>
se eks</w>
clo ck</w>
bro ken</w>
Sou verän
Engine ering</w>
W ind</w>
Ver wirklichung</w>
sha re
Vo y
kümm ern</w>
L esen</w>
a o</w>
b lau
t ut
An sprüche</w>
Immobili en</w>
acci dents</w>
pres ti
Bu g
Ergeb nissen</w>
S Y
g l</w>
äl teren</w>
betri eb
Sob ald</w>
re aler</w>
spezi alisiert</w>
Mechan ismus</w>
ende av
B ig</w>
th umb
al ongside</w>
her z
kli mati
P M</w>
An meldung</w>
surpr ised</w>
be aring</w>
pro sec
Re par
str and</w>
stechn ik</w>
hi lls</w>
di al</w>
ta i
Mich el</w>
Mand at</w>
Bo tschaf
Tre aties</w>
ei ved</w>
ei ll
ver sammlung</w>
Kon gres
Dat um</w>
zieh ung</w>
erklär te</w>
in folge</w>
bo ar
No kia</w>
europä isches</w>
Tra vel</w>
Präsen z</w>
g am
yst em</w>
Medi ka
geschi ckt</w>
insi st</w>
i ds</w>
ab end</w>
Gemein schaften</w>
achie vement</w>
Mes se
ob served</w>
wesent licher</w>
r l
u li
geh andelt</w>
di ger</w>
dies bezüglich</w>
Hö chst
bring ung</w>
Auth ority</w>
Nachhal tigkeit</w>
di ction</w>
ausgewäh lt</w>
el and</w>
clari fy</w>
Finn land</w>
Paci fic</w>
trans fers</w>
gelan gt</w>
K lu
N er
Mit entschei
ni ght
atten d</w>
f loo
ä ften</w>
un ab
for ts
Par a
fest zustellen</w>
hom o
all ing</w>
territ ori
reno viert</w>
ei te</w>
ut most</w>
fun ktion</w>
regel ung</w>
ra in</w>
emp ty</w>
woo den</w>
po ker</w>
Mo dule</w>
P E</w>
con vention</w>
conver gence</w>
angewand t</w>
A z
w ahr</w>
ing er
z auber
pre serve</w>
vari able</w>
gewäh lten</w>
ou ts</w>
str ing</w>
wech s
so eben</w>
sta yed</w>
Wider stand</w>
Tau ch
j k</w>
IM F</w>
B av
boo ked</w>
lässi g</w>
N or</w>
finanzi eren</w>
regul ated</w>
gir ls</w>
R äume</w>
ge führte</w>
Mark en
Besu chen</w>
d rit
je denfalls</w>
AL E</w>
Wirk samkeit</w>
R SS</w>
ein stimm
per mission</w>
Proz ess
b are
Pat ent
Journ alisten</w>
j an</w>
con ferences</w>
la g
Regu lierung</w>
müs sten</w>
Entfer nung</w>
Z im
re form
com position</w>
Al lah</w>
speciali zed</w>
quo tas</w>
Energie effizienz</w>
illeg ale</w>
g ori
vi ll
he sit
Wohn zimmer</w>
druck s
Kohäsion spolitik</w>
B ak
in door</w>
sp häre</w>
tt a</w>
Ac count</w>
Vertra g
Drit tel</w>
gefähr det</w>
deck ung</w>
Oli ven
G ay</w>
co ck
Er richtung</w>
tro ck
stitu tion</w>
vic tory</w>
harm ful</w>
k as
Ar ena</w>
pu rely</w>
gre en
V I</w>
ar er</w>
min or</w>
sec ondly</w>
Se arch</w>
cap abilities</w>
mäß ige</w>
K ie
op ens</w>
l len</w>
Bur ma</w>
Spezi alitäten</w>
langfris tigen</w>
G T
S L</w>
an zunehmen</w>
ima gin
gere gelt</w>
palästinen sischen</w>
Moderni sierung</w>
C A</w>
f in</w>
f ed</w>
wa days</w>
pi lot</w>
Go ttes</w>
T ruppen</w>
v able</w>
wi fe</w>
recogn ize</w>
t u</w>
Feh l
Leip zig</w>
comp ulsory</w>
ges etz</w>
Entwick ler</w>
wirk liche</w>
am p</w>
Cu ba</w>
Oper ation</w>
Betre uung</w>
as i</w>
humanit ären</w>
disp ute</w>
S w
Wei l</w>
spä t</w>
cr yst
Ver fol
Str ände</w>
zer ti
günsti ge</w>
willing ness</w>
For m
air lines</w>
Le ague</w>
ICH T</w>
a res</w>
Ge winn
Verbrauchersch utz</w>
Al p
Vor stellungen</w>
th aus</w>
Doku mentation</w>
Innov ationen</w>
ht ml</w>
d ying</w>
Spi ri
Übri gen</w>
ung laub
eb o
ster ben</w>
Le vel</w>
stä tigkeit</w>
Bü cher</w>
Dire kt
Chair man</w>
ä le</w>
evi dent</w>
geb lieben</w>
tri g
Frau en
it ly</w>
18 0</w>
Gep äck
navi gation</w>
schedul ed</w>
lo ading</w>
dump ing</w>
Mar t
clas sical</w>
Fire fox</w>
charak ter
boo st</w>
repe at
italien ische</w>
Wirtschaf tspolitik</w>
ergän zen</w>
b ten</w>
ra chten</w>
as y
Haushal ts</w>
o ftmals</w>
as signed</w>
communic ate</w>
F abri
K m</w>
är er</w>
Betrie be</w>
Trans fer</w>
radi cal</w>
Philosoph ie</w>
neu n</w>
dis count</w>
dat eien</w>
graf ischen</w>
contex tual</w>
beeinflus sen</w>
r is</w>
dist ur
Smo king</w>
percent age</w>
th ou
tel ecomm
qu i</w>
An hän
setz te</w>
Vi si
may be</w>
U R</w>
an sehen</w>
de a
fest legen</w>
Kar l</w>
c ting</w>
k lear
chti gkeit</w>
fu gen</w>
profession elle</w>
schwieri ge</w>
Masch inen
Ver zeichnis</w>
Aus arbeitung</w>
Ein en</w>
initi ally</w>
Sam stag</w>
well en
läufi g</w>
k u</w>
ö ch
ar men</w>
develop ers</w>
Sat z</w>
mm a</w>
ung alo
Produc t</w>
stat ing</w>
Funda mental</w>
An nehm
ge liefert</w>
exten ding</w>
behin der
geschlossen en</w>
b lin
wer ks</w>
is ode</w>
Wohn ungen</w>
cast ing</w>
chair man</w>
Di agno
Schü ler</w>
F leisch</w>
o ve</w>
en cies</w>
Ri viera</w>
advent ure</w>
D ring
ati vity</w>
relation ships</w>
g oo
ent liche</w>
Co ck
moder ni
lay out</w>
Premier minister</w>
ri o
wh er
sch were</w>
Sch il
Pro f</w>
br y
organ ise</w>
bewer ten</w>
a issance</w>
se ktors</w>
ig a</w>
ven ues</w>
Grund lagen</w>
Wiederauf bau</w>
enen falls</w>
ar ray</w>
govern ing</w>
m ische</w>
medi eval</w>
län gst</w>
the ken</w>
cal m</w>
Mach t
Tradi tionen</w>
Kl ing
Caf é</w>
E vent</w>
L CD</w>
Re ad</w>
char m</w>
Des ktop</w>
Je wish</w>
berühm te</w>
concent ration</w>
hop es</w>
amen ded</w>
Musli m</w>
ti ment</w>
mer kt</w>
jo in
slo w
Him mel</w>
accoun ting</w>
Sie g</w>
Flu ghäfen</w>
Edin burgh</w>
Mon te</w>
Tex t
Fil me</w>
Weiter entwicklung</w>
E E
ber ger</w>
Willi am</w>
enfor cement</w>
woh n
f o</w>
isti k</w>
AC H</w>
smo oth</w>
Bil dern</w>
edi ted</w>
bran che</w>
Doppel zimmer</w>
audi ence</w>
F I</w>
ut ung</w>
ve z</w>
Nig eria</w>
au ern</w>
Ar men
tour na
ich tet</w>
der ly</w>
än e</w>
pl ötz
proble m
mi xed</w>
Gipf el
gi g</w>
Je doch</w>
Gesund hei
kenn t</w>
h ur
an en</w>
ul timate</w>
Pi lo
den d</w>
por tra
Su n</w>
Fin de</w>
N izza</w>
c le</w>
Val encia</w>
expen se</w>
X I</w>
an sprechen</w>
belie ved</w>
Poli zei
k le
ar ische</w>
se emed</w>
hin zu</w>
Bü rokrati
techni que</w>
schem es</w>
L T</w>
per mit</w>
hin weg</w>
fo rec
Spit ze</w>
l or
ing redi
ün d
Fahr er</w>
t es
in tu
te x</w>
qu et</w>
Er satz
Jah re
Auf zug</w>
implic ations</w>
Mäd chen</w>
b lan
e on</w>
und ry</w>
Ge o
tru m</w>
super b</w>
Arbeitn ehmern</w>
W it
hervorra gend</w>
pain ting</w>
ho p</w>
entfer nen</w>
repe ated</w>
jun ction</w>
V IP</w>
di tions</w>
sch reck
Mo sk
offen bar</w>
H U</w>
Prä sident
aufzu bauen</w>
and in
um ul
Wed n
ri ere</w>
ru m
appro aches</w>
wirtschaf t
Rat schlag</w>
studi ed</w>
shor tly</w>
d unk
pro gres
av a</w>
ver steht</w>
Er st
unter breit
negoti ation</w>
Elek tron
ü bung</w>
viol ation</w>
Vermitt lungs
di ving</w>
ri gor
le ute</w>
aus üben</w>
car te</w>
li erte</w>
il le</w>
vol les</w>
bus y</w>
en vis
at t</w>
tern s</w>
Con nec
gab en
ac adem
exp and</w>
Se ktors</w>
Emp ire</w>
c rises</w>
po o
hei ght</w>
multilater al</w>
L or
er teilt</w>
op ho
por te</w>
dig ungen</w>
O S
ro t
ir on</w>
sto ck
Fil ter</w>
Wachst ums
Veranstal tungs
therap eu
i or
re tain</w>
vor zunehmen</w>
mehr fach</w>
new sletter</w>
gä ste</w>
comp res
sta ying</w>
Zu ge</w>
Emp loyment</w>
Con ver
moment an</w>
Auf lösung</w>
cli cking</w>
Wil d
ze go
T ieren</w>
Z ins
gen eti
St rom</w>
lie b</w>
ic als</w>
alisi erte</w>
enjo ys</w>
E tik
F our
O x
ci ón</w>
vor liegen</w>
inc entives</w>
be steh
Obje kte</w>
elimin ate</w>
P ir
gesell schaftlichen</w>
W erten</w>
ingredi ents</w>
fi a</w>
mär kten</w>
Ten den
Nordi c</w>
b ited</w>
j um
Min i</w>
Argu mente</w>
Vic tori
si er
descri be</w>
Vorsitz enden</w>
se y</w>
Ser bien</w>
T amp
Y O
k rimin
comple tion</w>
Hum an
B A
ein gebracht</w>
bu g</w>
Sam sung</w>
L oh
M s</w>
b eln</w>
b ought</w>
in ter</w>
gel s</w>
198 6</w>
welt weite</w>
neh me</w>
chap ter</w>
h an</w>
bel eb
moder nis
CE O</w>
J on
si v</w>
b uses</w>
y iel
Aus bau</w>
regi erung</w>
kan ische</w>
Werk zeug</w>
Her zego
Fisher ies</w>
Se e
Ste ph
transl ated</w>
ehemali ge</w>
Däne mark</w>
h ase</w>
ent stand</w>
con stitutes</w>
rati fication</w>
R it
W all</w>
Tab ak
I X</w>
vor gelegten</w>
Unter künfte</w>
Bur g</w>
Akti en
Chi c
kosten lose</w>
where by</w>
Apparte ment</w>
g on
ex posed</w>
gri ff
unic ation</w>
schaft licher</w>
verhäl tnis</w>
Bla ir</w>
gori th
M ir
Aus sage</w>
Or ten</w>
bab y</w>
occup ation</w>
S n
n ische</w>
an wenden</w>
ein sei
berich terstat
Plen ar
J an</w>
Z war</w>
ag o
Intern al</w>
occ o</w>
medic ines</w>
remark able</w>
campaign s</w>
ne e</w>
So w
Zw ischen</w>
B and
lief erung</w>
ab sta
Pal ma</w>
verwen deten</w>
ch airs</w>
lo sing</w>
geb ühr
design er</w>
wäch st</w>
meaning fully</w>
neighb ours</w>
iPo d</w>
O LAF</w>
P AR
f es
un ilater
Mo dul</w>
Effe kt</w>
geni essen</w>
Wer den</w>
Kat alog</w>
sü dlichen</w>
N ICHT</w>
Mil ch
arran ged</w>
Rent en
I WF</w>
Sub ject</w>
electri cal</w>
Wissenschaft ler</w>
poo rest</w>
Ger man
betra cht</w>
sou l</w>
addres sing</w>
B illi
Dan ach</w>
Volk spartei</w>
Akte ure</w>
Slov akia</w>
H ein
Kon junk
stä tten</w>
Gesetz es
maxim al</w>
S cre
ti les</w>
Im peri
Annehm lichkeiten</w>
UR L</w>
aus ser
Fre qu
struk turel
besei tigen</w>
Be k
lei sch
S han
enn ess</w>
benach tei
List ings</w>
fül lt</w>
exam ination</w>
fik ationen</w>
frequ ency</w>
Mosco w</w>
e a</w>
ver bindung</w>
zah lungen</w>
UN G</w>
own ership</w>
gere chte</w>
Quar k</w>
nut ri
es en
gi ous</w>
Galile o</w>
lo go</w>
Ã ¼
Lu d
b aus</w>
be zü
gesch äft</w>
nec essi
Schul den</w>
An betracht</w>
Sch atten
ig no
Leb an
Mal ay
fal se</w>
verring ert</w>
wi g</w>
chn ungen</w>
bed ürf
ein geleitet</w>
gek ehrt</w>
ä ter</w>
Inter governmental</w>
C lass</w>
Re gen
Be sitz</w>
feh len</w>
Tim es</w>
Niederlan de</w>
so ever</w>
sign ing</w>
Internet zugang</w>
kontextu ellen</w>
L ernen</w>
n utzt</w>
tho tel</w>
gemein sames</w>
refer ences</w>
Exist enz</w>
K ä
Be zeichnung</w>
un t</w>
du al</w>
ap i
entdeck st</w>
F C</w>
R eh
le tte</w>
land wirtschaftlichen</w>
Ehr e</w>
man chen</w>
Proz eß</w>
mäß igen</w>
mom ents</w>
über wachen</w>
intern e</w>
listen ing</w>
gegeb enenfalls</w>
F assung</w>
Vorder grund</w>
be cken</w>
Ex port</w>
sor ry</w>
Gre en
zer o</w>
Auswei tung</w>
Re vision</w>
gesu cht</w>
Bestä tigung</w>
C lau
se as</w>
Lei t
enjo ying</w>
Den ken</w>
e o
tn ess</w>
Um strukturi
tor ate</w>
cancell ation</w>
H of</w>
N et</w>
g ast
st ur
ur gency</w>
auf bauen</w>
digit ale</w>
J ord
er hoben</w>
Sch wä
shi p
win d
gleich heit</w>
certi fied</w>
gewid met</w>
e vol
aci o</w>
gramm atically</w>
manag ers</w>
contex tually</w>
pa ths</w>
Sec tion</w>
Demok raten</w>
legitim acy</w>
Mar co</w>
hinzu fugen</w>
Män gel</w>
en ger</w>
ver stehe</w>
ac o</w>
um gehen</w>
Camp ing
Souverän ität</w>
Ein er</w>
woh nern</w>
gramm atisch</w>
desi rable</w>
näch ster</w>
ref used</w>
kontextu ell</w>
stan zen</w>
priv ati
ine a</w>
Nutz ungs
be antwortet</w>
gi ft</w>
bo asts</w>
8 0
S K</w>
lo aded</w>
tra ined</w>
finan ced</w>
Venedi g</w>
keines wegs</w>
lo ses</w>
Pa y
reagi ert</w>
V al</w>
p unk
ne o
ten den
fol der</w>
defin ieren</w>
Wedn esday</w>
be arbeiten</w>
St ri
pre ferred</w>
Kon vent</w>
opp on
escap e</w>
found ations</w>
F ans</w>
qu est</w>
mit glied</w>
hel l</w>
plan en</w>
ze ß</w>
Schlussel wort</w>
Schlussel phrase</w>
vent ure</w>
seg ment</w>
jah re
An pass
An onymous</w>
per su
pl as
aufge zahlt</w>
residen tial</w>
Cop yright</w>
mo reover</w>
tsch ech
nich t
Über gang</w>
as sen
gen eh
än der</w>
sa al</w>
Sol daten</w>
Krieg es</w>
j ing</w>
fo ssi
Sy mb
ruhi ge</w>
hinzu gefügt</w>
profession ellen</w>
Erwachsen e</w>
D amp
be unruhi
Ab fall
chine sische</w>
aff ili
h ence</w>
men tierung</w>
all o</w>
Comm erce</w>
Gi bt</w>
hochwer tigen</w>
er a
üb lichen</w>
parlamentar ischen</w>
mo bil
gn a</w>
fe wer</w>
To gether</w>
Rechn er</w>
heraus ra
Hist ory</w>
timet able</w>
N ation</w>
O EC
p lug</w>
aff ord
Premi um</w>
deser ves</w>
sol ved</w>
uri ties</w>
ök ologischen</w>
secon dary</w>
si x
at ers</w>
sch ü
2 nd</w>
be fu
qu ellen</w>
Ma in
her stellen</w>
end sten</w>
ungspro gramm</w>
journ alists</w>
arbit r
M é
Ru f</w>
instru mente</w>
Mini stry</w>
N ehmen</w>
si zes</w>
pre fer
big u
coast al</w>
fascin ating</w>
n ings</w>
ro chen</w>
regi onen</w>
tex tile</w>
ha ir
Le ft</w>
C ô
u xe</w>
ten der</w>
Spazier gang</w>
C alifor
x y</w>
par tial</w>
consider ations</w>
betri ebe</w>
Flug haf
öst lichen</w>
ein igt</w>
ob serve</w>
So wohl</w>
198 7</w>
in adequate</w>
su ms</w>
St an
zeich nete</w>
Col om
GU E</w>
L om
sta in
Pra g</w>
dep lo
günsti gen</w>
Wa sch
Düssel dorf</w>
Klas si
Fit ness</w>
Publik um</w>
U M
d ding</w>
m elt</w>
ver öffentlichen</w>
Re al
thre sh
gewöhn lich</w>
For ts
besonder es</w>
stra tions</w>
au tum
Ab lauf</w>
Zei tsch
Grupp en
F isch</w>
fre ier</w>
dest o</w>
Universi täten</w>
t ative</w>
u zzi</w>
innov ativen</w>
198 5</w>
guarante eing</w>
C r
zi o</w>
Kol le
zu gs
St ur
trav ellers</w>
B un
S ports</w>
Ver fahr
En d</w>
lic a</w>
Ant oni
Verteidig ungs
afri kanischen</w>
ri x</w>
graph ie</w>
splen did</w>
deb ating</w>
princip al</w>
genu inely</w>
pro jec
hi elten</w>
erk unden</w>
IN E</w>
cro w
o red</w>
th um
ver li
com po
co decision</w>
Ab teilung</w>
exc ell
Aspe kten</w>
mut lich</w>
verbreit et</w>
repeat edly</w>
fin dung</w>
comm it</w>
with draw</w>
Geb ühren</w>
olog ischer</w>
Urlau bs
G P</w>
L ager</w>
an gehen</w>
mi le</w>
dra matic</w>
sichti g</w>
Vereinig te</w>
Lux us</w>
character istic</w>
pak et</w>
Ge wäs
wick lung</w>
flexi b
Chi ef</w>
Spei cher
be gun</w>
elegan te</w>
G B
an gle</w>
wa i
zw öl
Aut or</w>
Deutsch lands</w>
depen dence</w>
beteili gten</w>
Dro gen</w>
we l</w>
Se kunden</w>
OEC D</w>
s essions</w>
t dem</w>
ge sichert</w>
vol lem</w>
tran spo
Gre ens</w>
erst es</w>
R un
Er reichung</w>
Uni ons
mittel alter
Sach ver
europ a
expres s
berich tet</w>
bewu ßt</w>
Andal u
thumb nail</w>
Y outh</w>
sub sequently</w>
Kompet enzen</w>
cook ies</w>
C e
In genie
and al
bo und
zz o</w>
thor ough</w>
kon zipi
gener ell</w>
intensi v</w>
voc ational</w>
Wäh ler</w>
Entsch lossenheit</w>
un necessary</w>
Ch r</w>
besch ä
Gen au
as set</w>
rie b</w>
Qu i
Wel th
Erfol ge</w>
lo gic</w>
ser ie</w>
wel le</w>
fore most</w>
represent ing</w>
cop e</w>
P atten</w>
sch läge</w>
Br ücke</w>
höch st</w>
Dre i</w>
compar able</w>
su ited</w>
krä ften</w>
IB M</w>
st ones</w>
Ar ts</w>
gr and</w>
econom ically</w>
umfas sen</w>
hunder t</w>
Vis a</w>
po t
Mo dern</w>
Kre ativ
feat uring</w>
aus gehen</w>
read s</w>
bl ind</w>
Kön nen</w>
bevölk erung</w>
c it
under lying</w>
atem berau
Rati fizierung</w>
ge statten</w>
Ein es</w>
Ge gner</w>
Mo dus</w>
Mor occo</w>
existi eren</w>
Montene gro</w>
e de</w>
exp enses</w>
adul t</w>
b ird</w>
ar m
Ver sicherungs
gegen über
lö schen</w>
am bigu
än ge</w>
mög lichkeit</w>
günsti g</w>
Slowak ei</w>
d oppel
da li
19 45</w>
exp anded</w>
offizi ell</w>
Elec tron
K au
zu fügen</w>
cont am
Ex ternal</w>
stan des</w>
strö m</w>
in spiri
bü rokrati
tsp rin
s ample</w>
u um</w>
un zäh
EN T
gerech t
E valu
exam ined</w>
elektron ische</w>
Ins gesamt</w>
Al ps</w>
tä tigen</w>
posi tion
Hei mat</w>
spee ches</w>
grenzüberschreit enden</w>
An tri
comp ete</w>
her e
Sol ana</w>
schrif tliche</w>
purch ased</w>
genau er</w>
L oo
on n
gi ge</w>
des ktop</w>
erh eben</w>
Anmerk ungen</w>
1 40</w>
K el
z el</w>
п о
eh lt</w>
zi pl
G ame</w>
K lin
ter a</w>
enor men</w>
toler ance</w>
R y
import antly</w>
respec ts</w>
Stell en
Franc isco</w>
sac ri
autum n</w>
E th
Aus rüstung</w>
Argu ment</w>
I R</w>
größ ter</w>
L eben
d än
ñ a</w>
kon sequent</w>
Lehr er</w>
bran ch</w>
f at
t one</w>
Be kann
He ads</w>
Verbrau chern</w>
slo pes</w>
miet ung</w>
W and
z ar
Aus blick</w>
inform al</w>
ed y</w>
att ack
Komment are</w>
G O</w>
in ery</w>
re au</w>
Gen au</w>
Energi equ
effizi enter</w>
Pan oram
Ratsvor sitz
inten tions</w>
Cor poration</w>
b its</w>
ou tlin
con stra
do g</w>
big ger</w>
pap ers</w>
Design er</w>
schwe dischen</w>
co very</w>
stri ke</w>
inn ere</w>
For d</w>
Bet ro
vertrau t</w>
condem n</w>
L ich
W ater</w>
li vely</w>
ro ut
sm art</w>
wid th</w>
v ary</w>
he ar
fortun ate</w>
motor way</w>
Sever al</w>
Ba den</w>
v acc
Garanti en</w>
destro y</w>
O st</w>
fre sh
wid men</w>
Nichtraucher zimmer</w>
terri ble</w>
eill ance</w>
Vor rang</w>
chn er</w>
Bet t</w>
hilfre ich</w>
t ung
Kon vention</w>
Se ele</w>
Ru ß
Schul z</w>
Mas sage</w>
gefähr lich</w>
ch ts
St au
Er schein
zwei ter</w>
Vil lage</w>
G on
ch at</w>
fi re
Mo de</w>
E n</w>
Behör de</w>
Eigent ü
stärk sten</w>
sugge sts</w>
op tional</w>
Ein satz
hö her
Durch setzung</w>
eth ical</w>
verur teilen</w>
Stor age</w>
Zwei ten</w>
Fl ori
reib ungen</w>
Latein amerika</w>
Mar ok
gele gene</w>
gemü tliche</w>
Ash ton</w>
op enness</w>
inst antly</w>
Br and
zu geben</w>
wär tige</w>
spo ts</w>
Col le
Clu bs</w>
F ür
th es</w>
ge ous</w>
medi terran
ier ungen</w>
integri erte</w>
schwer wie
dele te</w>
join tly</w>
k et</w>
Or der</w>
p a</w>
er wiesen</w>
po sts</w>
Sch alt
ann i</w>
spec trum</w>
Bos nia</w>
Ar ti
Li brary</w>
auslän dischen</w>
E del
s ein
be wegung</w>
bei behalten</w>
Te am
W ie
Hä fen</w>
Vene zu
excur sions</w>
ver la
aus wählen</w>
sti l</w>
gu es</w>
compla ints</w>
at om
de voted</w>
amen ding</w>
accu racy</w>
bewe gt</w>
R ennen</w>
tw in</w>
B I
S ab
con i</w>
dies bezü
La den</w>
anzu wenden</w>
f ter</w>
f unded</w>
em pl
wh at
Pro gram</w>
Sich t
Ru bri
haf ter</w>
Ti ckets</w>
cal endar</w>
frü h</w>
er werben</w>
ho hes</w>
sen der</w>
pol l
mechan ical</w>
ta gs
fahr zeuge</w>
arran gement</w>
fif th</w>
ge fühl</w>
Be vor</w>
20 15</w>
Ber gen</w>
whe el</w>
kosten losen</w>
ba g</w>
com posed</w>
Sch le
tri bute</w>
ener y</w>
certi fication</w>
access ories</w>
Klar heit</w>
d den
rank ungen</w>
juris diction</w>
а н
sen sib
altern atives</w>
al leg
Aus be
C in
I deal</w>
L icht
di an</w>
sch ar
publi sh</w>
Min er
auth ors</w>
dest inations</w>
residen ts</w>
klein ere</w>
bedro ht</w>
ministr ator</w>
Langu age</w>
sp anische</w>
anträ ge</w>
commer ce</w>
Kommissionsprä sident</w>
vie wing</w>
Up dates</w>
um es</w>
Ro s
Ara b
M igration</w>
r ent
Be stell
Ha iti</w>
W ä
er w
tra gic</w>
ger ei
B ER
lo ck
Be stellungen</w>
tic a</w>
ga u</w>
il es</w>
sozi al
ci o</w>
est a</w>
Wettbewer bs</w>
simultane ously</w>
H ör
Aus richtung</w>
er teilen</w>
ver mittelt</w>
S por
n esses</w>
re z</w>
st ently</w>
wei chen</w>
consi sten
Pal ette</w>
manufac tured</w>
gehöri ge</w>
0 5
En ts
produ kten</w>
sun ny</w>
er stens</w>
ge treten</w>
rec ru
accord ingly</w>
EI B</w>
T ali
au p
Forts etzung</w>
W eine</w>
ri ert</w>
ver tritt</w>
Un s</w>
surv ey</w>
gestie gen</w>
In flation</w>
Sk ri
termin al</w>
appar ent</w>
ho tel
Do cu
Blo ck
clar ity</w>
st ür
ac tor</w>
Ereig nis</w>
rac le</w>
Statisti ken</w>
K G</w>
comm odi
inn eren</w>
measu rement</w>
dru ckt</w>
inspec tion</w>
at ur
zei gte</w>
ide ally</w>
Gemein den</w>
Chan cen
Liefer anten</w>
Austra lien</w>
Origin al
arab ischen</w>
Äu ßer
al uminium</w>
ari b
chem ische</w>
trou ble</w>
Bet reiber</w>
Komple tt
beabsichti gt</w>
for gotten</w>
Ur sache</w>
H P</w>
f ell</w>
o s
р е
her bei
kö mm
H alle</w>
ali se</w>
Aus sagen</w>
modi fy</w>
NE T</w>
orient ation</w>
unterschie d
Govern ance</w>
Ferienwoh nungen</w>
di en</w>
all ed</w>
Mit tw
zus agen</w>
Wahr ung</w>
Plätz e</w>
Zu rich</w>
Qu ell
Werk zeuge</w>
trans action</w>
re ci
re publik</w>
sch alten</w>
Ad van
Kenn tnisse</w>
authori zed</w>
S et
st an</w>
ar tik
ei gn
so fa</w>
tr in
pre served</w>
unterschie dlicher</w>
trage dy</w>
S ark
er arbeitet</w>
ig ungen</w>
zah ler</w>
l assung</w>
sol ch</w>
AL DE</w>
Kop f
Inde x</w>
cei ling</w>
di eren</w>
answer ed</w>
con s</w>
tre as
fun ktionen</w>
Proble matik</w>
Gro wth</w>
collap se</w>
C H</w>
C ross</w>
e ure</w>
t é
an ten
Fest platte</w>
Netz e</w>
fal sche</w>
Fel der</w>
um gehend</w>
ähn lichen</w>
Sou thern</w>
B S</w>
a sis</w>
be weisen</w>
per pet
fall ing</w>
rev ised</w>
Entwicklungs hilfe</w>
fant as
Cô te</w>
lo se
co o
lan gem</w>
ster ing</w>
öffent licher</w>
Protokol ls</w>
m its</w>
st at</w>
geb nisse</w>
pa in</w>
anzu passen</w>
Liber alen</w>
siden tin</w>
Mon te
fin ds</w>
sc ulp
Fahr zeug</w>
Kenn zeichnung</w>
statt gefunden</w>
Palestini ans</w>
taus end</w>
SD L</w>
afford able</w>
H ände</w>
se bene</w>
af raid</w>
bu l</w>
Men ü
bre ath
Wich tigkeit</w>
Schick sal</w>
In halten</w>
ah e</w>
sa ke</w>
gew ach
promo ted</w>
finanzi erung</w>
Z wan
v ation</w>
lo ans</w>
Ver län
Mensch heit</w>
gebäu de</w>
what soever</w>
to wer</w>
Ge sicht</w>
C lar
Ar c
Bet rach
ES S</w>
express ly</w>
K eine</w>
Nach druck</w>
ish ment</w>
viol ent</w>
pharmac eu
J ag
at on</w>
person en</w>
remo val</w>
9 001</w>
k und
her ausge
continu ously</w>
flexi bel</w>
überra scht</w>
W ett
th ic</w>
aktu alisiert</w>
Gewin n</w>
geschnit ten</w>
Califor nia</w>
con version</w>
rec all</w>
For ce</w>
Wi reless</w>
Christ op
behaup tet</w>
pel ine</w>
affec ting</w>
assur ance</w>
Köl n</w>
as er</w>
no body</w>
bewer tet</w>
en cryp
gen ös
hon est</w>
197 0</w>
Mil an</w>
funktion ier
komb iniert</w>
g ische</w>
sp annen</w>
Europ a
Coun try</w>
inclu sive</w>
tari at</w>
m ig
basi cally</w>
LE D</w>
befür worten</w>
Finn ish</w>
chest ra</w>
bli cken</w>
harmon isi
Ori enti
T M</w>
fa ire</w>
reib ungs
euro zone</w>
op pose</w>
Ver heu
elec toral</w>
k it</w>
th ei
publi shing</w>
Gesetz geb
L ap
zu stande</w>
gra ph</w>
pen sions</w>
Rein igung</w>
k tu
li est</w>
be fin
pos ure</w>
with draw
ear n</w>
install ations</w>
ausgestat tete</w>
F R
So und
kur se</w>
confi g
k new</w>
arbei teten</w>
typ isch</w>
G y
mi ß
Auf hebung</w>
klär t</w>
is a</w>
Vor gehensweise</w>
klär en</w>
Ad d</w>
dead line</w>
C l
le i</w>
sa d</w>
ger ingen</w>
Hand y</w>
Sü do
stopp ed</w>
G las</w>
K ein</w>
b ac
g are
Th ird</w>
Ver fahrens</w>
ess ing</w>
Ira q
komple xe</w>
Volks wirtschaften</w>
hol der</w>
Com ple
T NG</w>
pro vo
umfangreich en</w>
Def ence</w>
I A
ne x</w>
Dynam ik</w>
In kraft
vor liegt</w>
ständi ger</w>
Ju gosla
ju dge</w>
atten ded</w>
Ziel setzungen</w>
Olymp ic</w>
doub ts</w>
e des</w>
pro gressive</w>
Sch ie
ven tive</w>
angebo te</w>
Wün schen</w>
Bewus stsein</w>
Zuverlässi gkeit</w>
bu ying</w>
komple xen</w>
respe ktieren</w>
stres sed</w>
Foo t
c ommission
u e
all a</w>
fer tigung</w>
cu rement</w>
woh nt</w>
S ac
i ran
p ack</w>
bu cht</w>
Par lia
kt or
Haf en
Einzel heiten</w>
sa iling</w>
eri ert</w>
Weiter hin</w>
Partner ship</w>
architec tural</w>
cen ters</w>
ge ehrte</w>
Mac ed
trop ical</w>
monu ments</w>
Kür ze</w>
Verheu gen</w>
Bet racht</w>
plan e</w>
Kur z</w>
health care</w>
foc uses</w>
transi tional</w>
M ischung</w>
gi pf
erheb lichen</w>
Ho t
br ands</w>
Con tact</w>
ph p</w>
Ko re
cl are</w>
cho se</w>
Zeit plan</w>
endgül tige</w>
Trag ö
präz ise</w>
S ex
lei hen</w>
Ent schä
fri end
Bri dge</w>
Wahr schein
liter ature</w>
uneingeschrän kt</w>
F ang
ch ur
La y
plat ten</w>
gemü tlichen</w>
Colo gne</w>
C 4</w>
M ar</w>
ens hip</w>
telef on
Chancen gleichheit</w>
O therwise</w>
v ine
fest yle</w>
integri ty</w>
Lebensmittel sicherheit</w>
belon gs</w>
li ger</w>
rela xed</w>
Imm er</w>
quanti ty</w>
rl pool</w>
K rie
f ungen</w>
Di esen</w>
sichti gen</w>
Altern ativen</w>
Sau di</w>
dimen sions</w>
enthusi as
Stei gerung</w>
österreich ischen</w>
Beschrän kungen</w>
b onds</w>
c tu
m äh
re lief</w>
visi ts</w>
region aler</w>
Bau ern
Flü cht
veran k
g ingen</w>
hal tungs
aff ord</w>
Dan iel</w>
Archit e
Regu li
mo vies</w>
mar gin
18 th</w>
UN D</w>
Inte gri
leben den</w>
be ach
aus wirken</w>
Russ lands</w>
Buch stab
dela ys</w>
begeg nen</w>
der selben</w>
sch wan
gi eren</w>
Ein la
ref use</w>
B rau
der art</w>
wa ke</w>
mm et
Geb ir
wach sende</w>
rene wed</w>
Tamp ere</w>
be ef</w>
Techn ologi
jähr lichen</w>
kap az
peti tion</w>
Syri a</w>
es a</w>
id yl
ar rest</w>
vi able</w>
mark ing</w>
angekün digt</w>
Г ¤
ten sion</w>
form ular</w>
verur sachen</w>
Ker nel</w>
soverei gn</w>
Represent ative</w>
b ak
w unden</w>
ver e</w>
vor sieht</w>
kön ne</w>
uni vers
gran ting</w>
T uni
th ri
wi en</w>
Über nahme</w>
trau m
offici ally</w>
kompli ziert</w>
tatsäch lichen</w>
F OR</w>
I stan
er ische</w>
wir ft</w>
Er arbeitung</w>
ob servation</w>
Pri ze</w>
erforder liche</w>
erwäh nten</w>
Zimmer beschreibung</w>
terra sse</w>
F li
ab stra
and al</w>
tel n</w>
Off enheit</w>
kü ste</w>
medizin ische</w>
re servi
ag nen</w>
ar range</w>
te stens</w>
bro ader</w>
Ka bel</w>
S av
de clare</w>
ab gesehen</w>
drän gt</w>
geneh mi
Her kunft</w>
mit ting</w>
Li by
Rech en
conver t</w>
st ops</w>
Re präsent
angen ommenen</w>
occu pied</w>
re y</w>
Er öffnung</w>
fel der</w>
erleich tert</w>
General sekre
spür en</w>
soldi ers</w>
Par t</w>
Ab bau</w>
techn ischer</w>
autom otive</w>
ab ul
St rei
so genannte</w>
cat ors</w>
ver tra
For mul
gem essen</w>
Emp fang</w>
getrenn t</w>
Föder ation</w>
geeig neten</w>
Georgi en</w>
Pflan zen
en ne</w>
ge startet</w>
sho o
Rechn ung
elegan ten</w>
privileg ed</w>
spe kta
forts etzen</w>
le gen
foc using</w>
exhi bitions</w>
prospec t</w>
neighbour hood</w>
H änden</w>
s w
te stelle</w>
Tie f
A pa
sti pul
Nach mittag</w>
pas sion</w>
public ations</w>
musi kali
Il lu
formu liert</w>
ein iges</w>
ec ks</w>
du ration</w>
Ge sichtsp
dam ali
stand ardi
organ ize</w>
Welt krieg</w>
Obje kt</w>
y l</w>
re alisiert</w>
wunder schöne</w>
distinc tion</w>
ar gue</w>
ver wiesen</w>
deut liche</w>
Fremden verkehr</w>
b and
n ehmen
el low</w>
sign als</w>
Bau ern</w>
intelli gen
sche dule</w>
W ord
Г ј
da vor</w>
Aus nahmen</w>
über mitteln</w>
fur b
kun de</w>
kur zer</w>
Gu te</w>
adv ise</w>
so for
Sch wellen
Schul den
cat alogue</w>
preci sion</w>
Bu reau</w>
Rich ter</w>
Sei ten
nö tigen</w>
her um</w>
Betri fft</w>
H OT
mm ing
ann ehm
Zerst örung</w>
th row</w>
de z</w>
sp lit</w>
po sted</w>
Gar ten
frei ght</w>
Auff or
S us
zentr aler</w>
cam eras</w>
Bon us</w>
m men</w>
st o</w>
hi re</w>
beg ünsti
Fisch ler</w>
thor ou
Vermö gens
E asy</w>
m on</w>
ko rea</w>
research ers</w>
I ON
z immern</w>
sch ür
archi ve</w>
deser ve</w>
fasz ini
a w
Ma ils</w>
the ater</w>
Bau m
identi fication</w>
oni al</w>
vertrau en</w>
a z</w>
t ability</w>
wh enever</w>
Wal d</w>
territ ories</w>
newsp aper</w>
er vice</w>
be zeichnen</w>
sc ar
verbin dungen</w>
Minder heit</w>
Bon n</w>
surv eillance</w>
teen th</w>
Voy ager</w>
Ver ordnungen</w>
Sü dafrika</w>
er arbeiten</w>
an erkennen</w>
ar z
Dou ble</w>
fair en</w>
certific ate</w>
3 rd</w>
k et
le ger</w>
arbei ter</w>
Bei jing</w>
I bi
la d
achie vements</w>
begrün det</w>
M illion</w>
no s</w>
ru fe</w>
ssi er</w>
verz ichten</w>
ra tional</w>
sch wä
Re f</w>
geb ühren</w>
edi tor</w>
Bos nien</w>
du plic
tra ins</w>
ic ars</w>
sta b</w>
Zu cker
To wer</w>
eman den</w>
presti gious</w>
v est
men ge</w>
Kon su
emp fängt</w>
Ru ral</w>
CA D</w>
credi ble</w>
angeneh me</w>
unterbro chen</w>
M S
P ER
ver arbeitet</w>
tu be</w>
min es</w>
graf ische</w>
Über sicht</w>
moder ner</w>
U K
zu gestimmt</w>
li t
ge habt</w>
mis sed</w>
interess anten</w>
Wik icars</w>
c rop
f lich</w>
Ver sprechen</w>
Koh len
prepar ations</w>
frequ ent</w>
koh är
cancell ed</w>
explic itly</w>
V inc
o x
pres sed</w>
Br ut
Slo wen
concer ts</w>
Sol utions</w>
preci ous</w>
oblig ator
Hän dler</w>
d res
so s</w>
popul ations</w>
P ast
il en</w>
he avi
post al</w>
Spec i
gesund hei
su res</w>
inter active</w>
mis es</w>
spiel te</w>
mechanis men</w>
bi ge</w>
pat tern</w>
erstre ckt</w>
ti s
ho sts</w>
wel s</w>
Privat sphäre</w>
н а
NG L</w>
H our</w>
T aten</w>
mach inery</w>
Frie dens</w>
bene ficial</w>
Kreu z
P um
ma ps</w>
gen ous</w>
Aus bildungs
hör t</w>
consul tan
behavi or</w>
K OM</w>
Wieder herstellung</w>
ursprün gliche</w>
Zerti fik
c tive</w>
fu hren</w>
under take</w>
prin zip</w>
niedri gen</w>
Ministerprä sident</w>
geb illi
gerech net</w>
h em
gemein samer</w>
dri ves</w>
plan ung</w>
reve aled</w>
Schn ell
l s
du stri
pl er</w>
tsp rech
Inte gra
eindeu tige</w>
Tari fa</w>
entrepren e
fl ying</w>
herr schen</w>
tau chen</w>
necessi ty</w>
un usual</w>
pro menade</w>
Gro ßen</w>
religi ösen</w>
Der zeit</w>
S MS</w>
o date</w>
mei ster
verein t</w>
auf nahme</w>
fac to</w>
öh ne</w>
verabschie den</w>
ion ship</w>
Presiden ts</w>
Al ters
pp s</w>
trans fer
Lo gik</w>
land schaft</w>
hy gi
adjust ment</w>
A ch
sen sor</w>
geh e</w>
ign ore</w>
The orie</w>
B ah
ci ally</w>
gel d</w>
neut ral</w>
Bürokrati e</w>
k us
spor t
kri terien</w>
premi um</w>
la di
sand y</w>
proxim ity</w>
S ER
co al</w>
auf geführt</w>
deb ated</w>
g lichkeit</w>
ver mutlich</w>
Aus grenzung</w>
ens er</w>
Formu lierung</w>
Every thing</w>
es o</w>
per sec
Er halt</w>
Li b
refle ction</w>
genie ßt</w>
Ren aissance</w>
diesel ben</w>
ri e</w>
zu gelassen</w>
ba i</w>
rele ases</w>
Sel ect</w>
The men
red und
absur d</w>
er weisen</w>
fi ehlt</w>
par ameter</w>
Rei ch</w>
schen ken</w>
Rau ms</w>
eigent liche</w>
deter ior
toi let</w>
z i</w>
el det</w>
te c</w>
ori sten</w>
r and
li mm
Um stände</w>
typ ically</w>
emplo yers</w>
beruf lichen</w>
ne m</w>
com o</w>
je glicher</w>
wär ts</w>
komfort ablen</w>
green house</w>
n ur
Unter drück
197 9</w>
kriti schen</w>
er öffnen</w>
gel ernt</w>
zur zeit</w>
Industri al</w>
einger ei
medizin ischen</w>
diesel be</w>
Ausbe utung</w>
M ül
be stände</w>
In clu
lei chte</w>
pl ätzen</w>
fe edback</w>
ehr en</w>
rati fied</w>
dat ei</w>
institu te</w>
Col um
fit ted</w>
Mittw och</w>
um so</w>
rul ing</w>
Millenni um</w>
ver arbeitung</w>
stütz t</w>
Ex port
zeich neten</w>
civi lian</w>
an passen</w>
op t</w>
prev ented</w>
mechan ismus</w>
wand els</w>
Re gar
Stra sse</w>
thi op
suspen ded</w>
R on
un known</w>
ger inger</w>
Haf t
S ri</w>
cer em
wahr e</w>
ght seeing</w>
drän gen</w>
al ar
zw ischen
Gu t</w>
un dern</w>
Ver abschie
Pan orama</w>
Verfahr ens
G allery</w>
L inien</w>
d ing
metho de</w>
berühr t</w>
Isra eli
promis ing</w>
verm ieden</w>
Mini bar</w>
gewünsch te</w>
Geträn ke</w>
tt on</w>
ökonom ische</w>
gegensei tigen</w>
V O
sicher er</w>
S anti
e ve</w>
w öch
mark tes</w>
Finan zen</w>
negoti ated</w>
Schlu ß
Begrün dung</w>
telecomm unications</w>
Hol land</w>
Menschenrechts verletzungen</w>
presiden tial</w>
T am
ex qui
av al</w>
tran sit</w>
industri ellen</w>
Car d
da hin</w>
An gabe</w>
to tali
fest e</w>
versch affen</w>
Feri en</w>
chem icals</w>
geschm ack
I ron
sch reibt</w>
wh el
Auf trag
ren omm
Char me</w>
Wol f
photograph s</w>
h är
i da</w>
An zeige</w>
läu fe</w>
log istics</w>
Jugend liche</w>
sonsti ge</w>
S mith</w>
re tail</w>
gr ü
Hand lungen</w>
innov ations</w>
befürwor tet</w>
n ic
Er neu
Al pen</w>
Jo sé</w>
l assungen</w>
un certainty</w>
li min
ri ebenen</w>
än derungen</w>
Wet ter</w>
C all</w>
D um
Her kunfts
indi cators</w>
Sü d</w>
poten ti
nation als</w>
Zun ahme</w>
D un
S ant</w>
glau bt</w>
jün gste</w>
Erd be
tre gi
clo sing</w>
subscri be</w>
favou rite</w>
G ut
V E</w>
Ver sand
zw eck
Stu fe</w>
Abgeord neter</w>
Rob o
Tali ban</w>
K ämp
s es
proble mati
entsp ann
zwöl f</w>
Süd ti
Argent ina</w>
das selbe</w>
academ ic</w>
rati o</w>
contro versi
Pe ters
Tab elle</w>
Terr oristen</w>
Verabschie dung</w>
Y ou
Gen o
C au
z ones</w>
ti an</w>
integri eren</w>
threat ened</w>
ver zer
ver teilung</w>
De ep</w>
reali ze</w>
relev anten</w>
organisi erten</w>
Hus sein</w>
Rechnung shof</w>
L ul
ad mit</w>
Lei ter</w>
Vi rus</w>
Ku ba</w>
Funktion ieren</w>
Büh ne</w>
F air</w>
re furb
el f</w>
lo vers</w>
vor über
he ated</w>
gespro ch
emer ged</w>
replac ement</w>
Verfol gung</w>
b ahnen</w>
ger y</w>
Prä sidi
clo thing</w>
zusammen arbeit</w>
Democ ratic</w>
Wert pap
i sten</w>
ad mi
geb au
mer k</w>
[...]
